node {
  name: "x"
  op: "Placeholder"
  attr {
    key: "dtype"
    value {
      type: DT_FLOAT
    }
  }
  attr {
    key: "shape"
    value {
      shape {
        dim {
          size: 1
        }
        dim {
          size: 18
        }
      }
    }
  }
}
node {
  name: "decoder/conv2d_transpose/Shape"
  op: "Const"
  attr {
    key: "dtype"
    value {
      type: DT_INT32
    }
  }
  attr {
    key: "value"
    value {
      tensor {
        dtype: DT_INT32
        tensor_shape {
          dim {
            size: 4
          }
        }
        tensor_content: "\001\000\000\000\004\000\000\000\004\000\000\000\010\000\000\000"
      }
    }
  }
}
node {
  name: "decoder/conv2d_transpose/strided_slice/stack"
  op: "Const"
  attr {
    key: "dtype"
    value {
      type: DT_INT32
    }
  }
  attr {
    key: "value"
    value {
      tensor {
        dtype: DT_INT32
        tensor_shape {
          dim {
            size: 1
          }
        }
      }
    }
  }
}
node {
  name: "decoder/conv2d_transpose/strided_slice/stack_1"
  op: "Const"
  attr {
    key: "dtype"
    value {
      type: DT_INT32
    }
  }
  attr {
    key: "value"
    value {
      tensor {
        dtype: DT_INT32
        tensor_shape {
          dim {
            size: 1
          }
        }
        int_val: 1
      }
    }
  }
}
node {
  name: "decoder/conv2d_transpose/strided_slice/stack_2"
  op: "Const"
  attr {
    key: "dtype"
    value {
      type: DT_INT32
    }
  }
  attr {
    key: "value"
    value {
      tensor {
        dtype: DT_INT32
        tensor_shape {
          dim {
            size: 1
          }
        }
        int_val: 1
      }
    }
  }
}
node {
  name: "decoder/conv2d_transpose/stack/1"
  op: "Const"
  attr {
    key: "dtype"
    value {
      type: DT_INT32
    }
  }
  attr {
    key: "value"
    value {
      tensor {
        dtype: DT_INT32
        tensor_shape {
        }
        int_val: 8
      }
    }
  }
}
node {
  name: "decoder/conv2d_transpose/stack/2"
  op: "Const"
  attr {
    key: "dtype"
    value {
      type: DT_INT32
    }
  }
  attr {
    key: "value"
    value {
      tensor {
        dtype: DT_INT32
        tensor_shape {
        }
        int_val: 8
      }
    }
  }
}
node {
  name: "decoder/conv2d_transpose/stack/3"
  op: "Const"
  attr {
    key: "dtype"
    value {
      type: DT_INT32
    }
  }
  attr {
    key: "value"
    value {
      tensor {
        dtype: DT_INT32
        tensor_shape {
        }
        int_val: 1
      }
    }
  }
}
node {
  name: "decoder/conv2d_transpose/conv2d_transpose/ReadVariableOp/resource"
  op: "Const"
  attr {
    key: "dtype"
    value {
      type: DT_FLOAT
    }
  }
  attr {
    key: "value"
    value {
      tensor {
        dtype: DT_FLOAT
        tensor_shape {
          dim {
            size: 3
          }
          dim {
            size: 3
          }
          dim {
            size: 1
          }
          dim {
            size: 8
          }
        }
        tensor_content: "\034\004\017\275E\\\020\276\265\274\005\276\324\311;\275DC4\276F\211\312\275djj\276\210\3312\275|\326_\275\346\2739\276\031\236i\276*\212\360\2750\333k=\010\223\263=\301\331\020\276\234\203Z\275*^\270\275\307P5\276\214R\345\275\030\177\202>\'\203\205\276\0108\224=\n\331\200>b\177\257\275\230\0207=lc\222\275\340\352\014=\314H\202=\\\333\021\276H\323|>*\t/>3\227\002\276X\256{>\364\302d\275<\016\301=\330\324#\276\000\210\375:NV;\276$\375\021\276\236\224\021>\006\206V>\236,3\276\234$\374=\n8\373\275\330\352/>\030\256\373=L\204L\276\036\3444\276\346\002\r>\340\274`=\360\037\222<\304\366\005\275\226G@\276\356\036\r\276\\\010\037\276V\350\250\275\300q\327;\262>d>\346\312\211\275`\312\001\275\242@D>\177\317\204\276HHK=\314\021Q\276\350\235\213=\010\273\276\274\320\020\315<n\250\270\275\2646\002\275H\026*>\366\225\000\276\300\201\325="
      }
    }
  }
}
node {
  name: "decoder/dense/MatMul/ReadVariableOp/resource"
  op: "Const"
  attr {
    key: "dtype"
    value {
      type: DT_FLOAT
    }
  }
  attr {
    key: "value"
    value {
      tensor {
        dtype: DT_FLOAT
        tensor_shape {
          dim {
            size: 18
          }
          dim {
            size: 24
          }
        }
        tensor_content: "\022:2>!]\233\276~\374s>i\240X\276`U\202\275\317\240\220>\005#?\276D\221\255=N\223\035>\226bN>\000\016\324\275T;\203=0\302T=`\273\321<\233\322\246\276d1\213\276\2755\265>\240\371\225<\377\361\213>w\264\206>J+e\276\300Z\343\274~A\">\362M6>\"c_\276\210*<=\230\233*\275;P\227>\327\220\235>\262\226K>\020T\302\275\264\311\304\275h^\376\2757\332A\276\024\326\306=3\214\300>NS9\276#\314\270\276\226b\232\276\220i\304\274\020\275\371\274\017\000>\276^\216%>\266\270+>\3704\242\275\366\336\036\276\005\310\212>\250\330\361\275\237\326\227>V\361\002\276\206\221c>o\014\217\276\220\242\343\274 e\000=\021\204p\276\005\024\203>4\013\200\276@\035\223\273\304K\212\276\023\322\254>\020q\250\275\003\332\263\276k\246\204\276\300\030\351\275\307\271\251>@\327\215<\\\367\203\276\333\374\224\276\034\256\'\276$\343\033\276\301\366\257>\235Q\255\276p9\201=\270@\231\275\346_K\276X\202\337=P\312x\275\265\301\263\276\240\201g<t\307\353=8\345\367=*L3>?Z\016\2760\212\203<C\335\266\276\302\2555>\000\31029\2055\264>\200p\376\274\342BB>\216\330\005>\035X\222>w\333\020\276p\312W=M\032\031\276\330.A=MoT\276\220A\"\276\333\326\225>\361\030\225>\316\3214>[N\247>\272\256N\276~\253\013>`\254c\275\302\370\231\276\320\025\227\2751\004<\276x\004\245\2758C\261\276?\2764\27639\004\276\021Y\273>pj\326\274\006./>\242Ae>X\237\201\275\261d\274\276\355~\243>\216\212\002>\220?\326=t\216\256\275\220\200\251\274\330HA\275Fu\211\276\310\342\220=\360\350\000=xE\336\275\304.\365=\320N\253\274\340\356\204=\350\3002=#\002\301>\322\264\013>\372[j\276+;\213>\310g\313=\202w\003>\346M\021> 4\322=.\177X>p]\032\276\253\344\225>\022l\237\276\274\023\373=h\350\032\275\210\243\370=\271\n\211>\010p\354=\200+\007=\221B\212\276\377\376i\276Z\013z>()f=\010\251\335=\364J\276\276\004H\320\275vN\032\276\333r\244>\370\373\245\276P\370h\276\000tm:-k\253\276\227\004\204>\320@U\275^\256\036\276^\\\032>\n\001\261\276\250\024\364\275p\376\362=\251)d\276\350\243\204=\270\034\247=r\036K>e\234\263\276y\001#\276\202s\035>+\270\212>X\025\001=0\237\346\275\312\276\256\276\3433\036\276\355G\216>\303\325\220>\270\211G=B\016u>\230\337\221\275\204T\275=\200&\227\276\326\224A>x\253j\275\320\227\256<\313\266\233>\t99\276:\003B>x7(\275,\227\"\276\323\002X\276\273\235\271>z\343}>\224\374\222=\227qK\276k\3524\276P\305\255\274\312\202\017>\030\006\300\276\277\000Z\276d\017T\276\226E)>\224]*\276|!\377\275yE\240>\234\231l\276\2646\375=\031\026\255\276t4\301\276U\256\274>\3066u>)\245i\276\366;J>i\356\275>\300_L<:]\034>\370\314\312\275\003\340\204><:\205\275\220m~\275\346\362\t>\351\226\206>v\312\021>f\035~>X\351\226\276T\352\345=bCA>\317\264\265\276\365\317\207>\360\363\272\275\221w@\276\001\031X\276\314\306\327\275\342\320\225\276#\240\257>\000\027\344:\003*;\276o\223\204>x\2438=\242\272x>@Y\336\274&\307\244\276P\021C=\240qH<\330\263\235\275\036\305\254\276M\322\264>\0170\203>\252\307\020>Z\222X> \345\344\274\352oS>\3665@>\375\036\235>\024\362\275=\260\"4\276\004\274\217\275 )\371\274\002Up\276\024\216\364\275##\206>@\350\230;\326vN\276tr\267\276 \201&=\340Kt< )?=\362 K>\353\221\262>\267\274\206>vu\224\276\336\035\235\276\240\222W<\226\364\243\276(\016\323=@\324\324\273\266\324X>\207\276\261>\264\013\245=6\330\022>\016\007\022>\003?\230\2764\017w\2769\320\272\276\344\202\223\276@*\020\275BG\036>|-\245\275cq\221>e\355\253\276?\221\244>\360#\213\274Zn\220\276\222\301\r>\2004\273\273\201\273+\276\250\355\326=\201#\253\276\227!\251>\030\271\036\276\374\364\340\275\265}:\276\216xC>!\023\252>\340\245\252\276\316L1>\033\\\242>\234\337\203\276zsh>\2102n=\230\200\375\275s\001\251>\216\274\205\2767r\222>\316\332*>\374E\230=\362GR\276V\034/>\220\356\333<\264I\264\276&Q)>02,=\010\013\236\276\315\240\270\276t\024\234\276\260\232\310=\3008\243\273\241\256\262>\374\262\324\275\365\343\265>ph\023\275\3548\241\275\203\322\n\276\354O\216\276\032\207\036>\240\376!\274W{\200>\203\267\300>b\262j>\0227*>(h\225=\003r\206>\026\017->d\345x\276a\003\244>p\340l\275\n\256\207\276\264\262\372=\231\361\220\276\323\217\006\2764U\372\275W\273J\276:\215\204\276L^\345\275\337\317h\276\212b\004\276\037:\267>\222\273:>\022x_>\241\324\250>\000JP\275\326\3278>p\006\275\276P\0256\275\346Fv>,s\313\275\032l5>|x(\276`r\245=h\332\211=\217=\231>\247\306\242\276\272\250x>\330\356&=\032\021\277\276`\346\265<8\321\356\275(\246\033\275\024\246\212\276\331$\231>\215\326-\276\266\357v>\240`4< \265\247\276\222\217]>\306\223\t>\003o\003\276\356\362l>\210)&\275h\032+=\213\310:\276\021\367\232>6\025\201\276\033\246a\276\222\334J>\255\346\226>C\000\251>\031d*\276\321\n\235>R=g>\216\345d\276\352\265\222\276\014\321\224\276\005\227\261\276\352\243X>\344\271\207\275CPl\2768\272U\275\224S\376=U\362\203>@ r\274|\244\270\276\010\321\007\275.\314\007\276\022\247\270\276\005\210\212>\336\177\233\276\024\007\345\275eN\264>\370\370!=\244\177\t\276\346\274&>z6\010>\317\250\227>\010\2343="
      }
    }
  }
}
node {
  name: "decoder/dense/BiasAdd/ReadVariableOp/resource"
  op: "Const"
  attr {
    key: "dtype"
    value {
      type: DT_FLOAT
    }
  }
  attr {
    key: "value"
    value {
      tensor {
        dtype: DT_FLOAT
        tensor_shape {
          dim {
            size: 24
          }
        }
        tensor_content: "\000\000\000\000\000\000\000\000\000\000\000\000\000\000\000\000\000\000\000\000\000\000\000\000\000\000\000\000\000\000\000\000\000\000\000\000\000\000\000\000\000\000\000\000\000\000\000\000\000\000\000\000\000\000\000\000\000\000\000\000\000\000\000\000\000\000\000\000\000\000\000\000\000\000\000\000\000\000\000\000\000\000\000\000\000\000\000\000\000\000\000\000\000\000\000\000"
      }
    }
  }
}
node {
  name: "decoder/dense_1/MatMul/ReadVariableOp/resource"
  op: "Const"
  attr {
    key: "dtype"
    value {
      type: DT_FLOAT
    }
  }
  attr {
    key: "value"
    value {
      tensor {
        dtype: DT_FLOAT
        tensor_shape {
          dim {
            size: 24
          }
          dim {
            size: 64
          }
        }
        tensor_content: "f\022\246\275\360X|=\220\0213>6\361.>\261R3\276\220l\037=p\210\203=6\337\200\276$Nc\275\016\346w>\310\034~\276P\376}\275\350\322\202\276\310\251\262=0\202\201\276L\263\243=h\335\320=\026\256\013>\002\356\255\275@P\256=6\004G>\3021x>4\312\373\275\026\201\'>\360HG\274\330\323\247=\232\245 \276\300\261\240\273\255P\203>d\266Q\275r\220\030\276\000k\274\275\304\323I\275\2448\300\275$e\007>\224\365\235\275\352bE>\024%%>\234M\235=\357\002\006\276 \037n>\254\310\335=$5\220\275\210\215\260=\370\256\241=\020\010{\276t\\\324=\010\030\037>\334L\201=\034\251\300=\263\210\202>\350-\030>0\263}=\353\340s\276\270\267\312\274\320\277:=\024\344Y\276\nT\317\275\257\241\204\276\336V\037\276\300\221\242\273\214:\201\275*\004A>\370CY\275\254t\360\275\036{\265\275\004_\270=<2\366=N\016\000>\254\357\353=\252\274\237\275\312\252n\276z\325\030>\"\240\032>\312\"!>@7\353=\264Y\243=\210\314B>\0201\213=\360c\227\274\324\t$>(o\034\276\232\237q>\340\264j>\026\251\000\276\350\250\311=p\006e>Z!i>\376\022%> \177U=2\314\026>\241\004\033\276b\031 >T\177M>\252\310]>\307S\t\276N\315b\276\372h0\276\320B\322=P\375>>\210\267\377\275$:<\276\226%\003>\272\345m>\320\365s\274\340\230\246\275\364\007W\276\200\373,;\260ay=\001\301U\276t\212\033\276$\253\031\276(\366A=fh\036>\220\274\351<x\0053=\346)x\276N[-\276z\200K>p\376\231\274\240\201\262<X\271\341\274\002\3266\276\340|\347=\334\204\361= \370`>75\006\276d;l\276 ;\037\274L3\350\275\370\200\273=\220\202\240\275\240\2200<Z\252Q>h\240\307\274@\307y\274\330\347\210\274\020\343\">\364S\332=\276\251\032>\214\375X>\304;\366=\260\366K\274r\0178>\000\224\365\272\310.\003>\340&\274<\240\376\234\275\320\360\031\275\200\233s<p\006\341\275B\276\036>2\303B>,+\257=\210\316\026\275\340av\276to\313\275\324\312<>0\350t\2768W.>\000Da\276H\253\021>\212\2500>\035\0221\276\\\217\254=\33604\276#q_\276\256R\352\275\214\202[>\354k\350=\224\361;\275\010O8\276\006wU>Z\004\351\275\300\252\275\274\200\233t>L\365\016\275\216[`\276\216\334\r>\254\360\205\275zp-\276\266\nr> y|=\260\276\223\275xJ\016\2750\364\334=\332\354E\276\026\023\306\275pi3>L\253\305=\246\007q>^\207\331\2756\031q\276\000\224,;@\311\004\275:\026V>(\336\236=\360*\375\274`am>\230\357X>B7\377\275\360\316\244<\016\201\255\275\377\\v\276_\2702\276\370&\210\275\240`\002>\322~N\276\324O\027\276\007\313\025\276@\252\232<\360t\327=rR\204\276bpv>g5\007\276\020~\311=\203mU\276jh\240\275\204\255\251=0lR=\315\252\204>`\206\006>^\301\355\275^\"7\276e\330\000\276\264\"\260\275l\205\374\275\330\366R=\370g\355\275\260\374U\276|\365b>\034\377\014\276\356u\036\276\014\232\276=<\013\361=\222Oq>\254\032\362\275\010\203)\276\306\3757\276}\201\200>\210\340\013\275\340\030d\276R\3310>\260\345\036\276 \372\024< \356\355\274\310\217\005=\246\366:>$\376\301=\n\254%\276\2546A>\\#\356=\014\177\325=^\033m>(0o>|\213V>\352\357\037\276\016m\223\275(|\217\274\000\314\3449r\030+>\222mT>.\375>>\334+;\275\314\240B>D\356\000>\240s\202\274\350\314B>\306\214\224\275\336vu>\264j\250=\224\027\375=\364u\316=\356\250\r>8\356\236=\322\342.>\230Z\273=|\'h\275\211\376\201\276D\312 \275\340v\035\274\3368%>\003\267\034\276\224F\035>\236\227\017\276\354\306R>\320\033v\275k;R\276p\357\256\274\\\303\362=\240\027\324<\270.\371\275\350^\013\276\270\302;=\021O+\276\200\317f\274xI5>\372?=> \204\305=\234\352\221=\310m\n\276\350\237\356\275\026\365\367\275\250\026.\276\020b\233=\340\356\343=\344\376#\275\250\346w=\250tn\276.zo>P\246h\275\360\336\307\274\324\374O>\344r\251=\265JH\276b&A>X3\r=N\254d>0\273\231=\232\251~>\261q\021\276\024I2\275\332U\031\276\316~-\276\032MM>\246\2419> #\024\275\002\322`>Z\346u\276\360P\324<\372\036\367\275\314x\'>\204l\203\276J\337\020\276\310\356>>\"0\007>\200@f>\200\034\213=\326\352->\253\"n\276\000\351\025\273&\327\032>\2002|=f\250\345\275\206\251_\276\r61\276\272k->\324\375\241=\302\304(>\342\310\034>\265gg\276\212rW\276T\0351\276\202\201\031\276\222\314A\276\374\206\201\275\320\217\366\274\000\ny=\340b\273\274\010\270\243=v\025=>\340\300:>\213\246\\\276\364\353\\\276\320\275+=\216\0137\276V\344~>\250o\370=\271\362-\276\300S\233\273\024O\333\275\346\253l\2760\251\253\275\000\3412<\377\263\003\276\374\220\363\275\010\235\250\274\354g/\276 FW=hO\307=\025po\276\246\245p\276\233\233J\276x\210\252\274P/\202=\230;\303=\272\3532>\300\204\023=\232Lm>\314\020\025\275\322K\210\275*\357\177>\352\3355\276D\306<\275\364\363\372=\3202\241=6\254U>\t\314\003\276\201\242U\276`\035\363=x>\n\276\000\014.;`;,>p%\255<v\203\003\276\273i\201>\022\203\323\275ygr\276\312\017.\276\nhN>\032\030z>\300\340[=\014^\341=\364\333\000\276\232\351Z>\374@\210=\374\013\003\275\326T\254\275|\n\300\275\026X\306\275p\231\250=\260(\202<l\020\261=`\275\250=d\244\333=\246\252\r\276\346\002~>\376\223p\276\230d{\275h\3745=R!i\276>\354T>\306\236Z\276j\376A\276TYl\275\300s\310;*\001(>\241\351e\276\030\']>\244\310j\276\252n->*\3317>8\177\025>\200\257\317\273\360\322\005\275@\302\\\274@8\374\273X\270;=\334qi\275\214d\364=\352Z_> \312\n=\361\364\201>]#\010\276\206lm\276r\211\004>\022;!>\232\004)> H\337=o\270r\276\0009\331:l\'\231=vr2>\254n\323=\020\227\264\274\0267\337\275\2523\210\275\000\020\255<\n(\025>f\014\'\276>\370C>\360\334\220=orT\276\035B?\276\332\327\227\275`7\232=`&\343\275\310\2757=B\032\216\275\370\270\025\275$K\341=d\0107\276\312\306^>\226\2165\276\300\375\334<\326\321\010\276\000Hm;@\304\252\275iQv\276]\337D\276\324\010\263=\177\\L\276\370%\243=\320\013\262<\250\013|=\204G\271=\312Hv>\360\220R>$\355\307=@\035)=\260\370\372\275\364`d\275\274\276\201\275\310v4>0\376U\2764\253\007>\247\322\200>\320\201\233=V\027R\276_\374\034\276\374\237\314=\214\241\226\275k\311T\276\010\331\274\275\240-\213<pd&=\366i\033>\274\344L>\2207\333<:O\223\275j\350\313\275(F\201\276\314O\246=\350\221\301=\224\007\213=P\217b= \222I<\304\\\346\275\274Eq\275\202\\\007\276I\222\202>\2003\225=\240\327q=pu/=\n&\006>\370\270\016\276\242\3560>p\n4=\300i\371\273\356\205%\276\352\350\316\275Z\313\345\275\022|\005>\334\233\301=\200y\376\273\234\310\227\275\\\237\\> \002\033\274TB\261=X\223\355=X\242\241=\260?\270\274\250\034\305=\370\211\024>\200\272\226<\375\000e\2760\245\032=\300\314E=\370\377v=xh\034>\254\000C\276\240F`=\022\302->\340Z\027\274\240\267*<R\003W>r(\346\275PK\375\274\240B\220<\213G\201\276\324\344\200=\304\344\230=\240\265\253<\300|\311=\302\246\332\275@\276R\275\304\324\364=T\205\337\275\035\035\205>\000\265\023\274F5 >\020\341@>j\001\023\276vW\242\275\300\\\007>\252\320\363\275X\264g\276\004\350`>v-\231\275\000\305$>\342Uk>\272\231H>\n\261=>.\327l\276t\266\363=\322\263>>\242\230\341\275\370W3=Fs\317\275(\002\207=\\b\032\276,n<>H8\237\274p\365j>P\214\243<\206Y<>\252\3157\276r\036O>\254x\244=2\227y>\334\243D\276j\316\022>@\346\257=\237\331\'\276P\200\304=\000\371l=\220\307\372\275\373xf\276@\257\371<j\356X\276\276\271Q>P]\346<I\307\202\276\300\342\010\275\330\377\327\274\200\337{\276\232\355\036\276n\007G\276b\013\023>\250\255s>\324\2471>\220cc\276hdd=L\002\247\275\020\362\343\274D\310\354\275V\3705>\300x\227;(\251\'\275\002\245i>\005vg\276\006*\273\275y\225\203>\362 \375\275\254\023\216=(\344:>\210\"f\275j\232\251\2754\272\025>\310*%\275?\315|\276F\305\004>\272t\331\275H\r\222\274\031\365\005\276\000|\274\272\370\225~=^#`>\"D->IN\n\276P\372\233<\2626]\276\2507\237=\330f|\275\304PJ>\232\316\021>\270l\317=\200>\225;\302\341\204\276\030\326\340=\342\361c>\023AS\276.\207\232\275`\237\010=\222\236t\276\274\354(\275\014:\341=0h\316=\247\344\202>H\264P>\373\343\203>`\2230\275P)I\276,Ap>\030\241\256\274\326\n >\234\256\201\275\020?\017\275\200\273\374=\016xO\276\2544\354=\270{\247\274G\233c\276\210S\235\274nu0\276\334\213`>\240\274`\2764\353\005>\222V#\276\244\251P>\350z\212\275b{y>\264\250\222=\250a\356\274\363\321g\276\300cC> \003$>6\004{>\274w\314\275R\326U>8\344\321=(f\266=\231\371\201\276\220\002\000=\316\372j>\251[\201>\342\207\017>8\304\267=V\271\007>~\226t>\032\203\201\275,\342\253\275r\0070>\010\225P\276R\014\010>p3\037>\240\261\220=\374\246\332=\242\"\020\276\310\273j>&\257\023>\202\317h\276\242\352\202\276\354\343\220=l\025\330=\334\253\372=\330\355\035=\300\206\320\275\334\216\276=\014i\014>\310\372\375\274\340\362h<t\231\217=\320!\224\275n\336\001>;%(\276h\375X=h\370\364\275@D\013\275\234\323,>\350\"\226\275\300-\227<\262\307.\276Z\320\177>\260!\005>\356\343\311\275Jo,\276\360\2307\274V\2036\276\242_\n\276.2\324\275E1\201>\324~)\275\000\325\354=\240X\211<\332\333|\276\200\222\305<\336W\326\275\204HY>\033\361o\276nzm>\230\243)\275p\013\334\274`\241j\276\220\362f>\200q\253=\374\371\030>\370\321\004\276\326\362\235\275@4\002>\362\254\262\275\325\335m\276\310\375.>r\227\006>\200\305=\274\246\265\023\276\317\202\t\276\310\005\345\274x+\220=\222JS>\265\221\201>\310\177\271=\222H)>9\3705\276\024{\204=\336H^\276<^\346=\0101\354\274\240\321\027<\200\372S\273\374\210\020>l\304\231=\010{\341=B|T\276\262\t^\276\036\010\204\276\264M\001>\245\313~\276R;R\276\210}\230=\324U?>\304\250\232=\237\241r\276\223\216M\276f\006`\276\264\3520>\240\354\372<P\307\242\274\312\326\266\275p\n\315<x\034D\275DW\242\275`\350\334=`\264\327<\234\335\313\275`\244\312<=\010\204>\240R>=\220\273,=\366\353]>`@\257<\200\333%=\300\210\"\276\200\236\244\275\2242C\276\000\002\324\273+M[\276\270E7\276\254\026\253=\340\371\">\226)\\>\301\251!\276\340V\201\276\260\225\271=g!s\276h7j=\260\221\253\275.\2510>H\344\326\275z\t\304\275\232\360\\>\220\202\001\276\200F\362;\314p^\275\000\265\352\274Z\036\251\275\360Z\352\275p\273\361<\234\255\271=db\334=\264+\n>\200|<\275\025\344\203\276\333\2340\276\340\235-=\274\031F\276P\231\332\274\234N\200\276\200/\350\273\262\336N>\340\023l<0\222:\276\250\3170>\312\020\016>\000(/>\340\303\030\275\0005\217\274\004\233}\275\034\362\252=\254\002f\275\000\212>=\002\260w>\"\204*>r\357\177\276\242dE>\317\\R\276\372.\r>\374\243\377=\020I\242<\020f\200\275\272v\267\275\250z\353\275\030\331\016= \226\'>\364S\305\275\010\304\020>\320=4\276x\005l>fJ~>\000^\255\273\340:\303\274j\272w>\306Z\005>\224%\244=7\017r\276\200_\236;\230I\347\275\300\237\022=\2728\016\276h!\375=\366\022L\276v?\031\276\0173\205>:\031\200\275\010\t<=\350*\355=\352\335\363\275\020R\361\274\257\330r\276\350\326\254\275(\021\006\275\000\014\2519\302\362;>\240[`=\246sa>\020\366\327<H\220b>\200\277j\273Ck_\276\224\247*\276\240\3508=\2143\270=~\202\367\275\222\372\177>\340\264\177<F}h>\010\371\221\275\024C\264=\260\303X\274.OF>\256\226\010\276\360$\323<\335\351\030\276\000Q\235;,\023B\276\244q\204=\302<1\276\212[I\276l\nB>\0268->\310\243N=\362\0267>\244\240\034\276\000\202\255;\021\230\010\276\314h\031>\354\217X\276\256\273\032\276\302\230I>\030L\310\274\346*\320\275\363a\205>\273F5\276\210z\037=h\013P\275\017j\202\276\226\341\'\276\3407s>\270+m>x\375\343\275\322}->\3541u\276\356\216^\276P\231\026=\223,\202>>K\376\275\240O9\274\350b?=\260\247\036>xQ/=\226\010\311\2752Fb\276\220\231\221=\246@r\276\260\253^\275\242\214&>\020\301\251\2752\2433>\232\322o\276\320\003l=\2334|\276(\010\022>>K\270\275\\\252\355\275\"I\364\275\\\306r>\352\214~\276\300\212\371;v\324y>\336\007y>R\360\245\275vw\036>\000\005\370;\010U\321\275\334\261\007>\300\037\272=\210h\230\274\200\256\t\274^\2348\276\304\314\273=\232\tY\2762\264\323\275\274n\273=Z\204\\\276\2762\273\275p\223-=\372_\036\276\034E`\275? \205\276\224\271\001>\224\215\330=2\304\036>\300E\337=P\242\000\275\000\021\265::\210_>\344\037\357=8\322\364=\010p\272\274\200\032\333=\362\354L\2760\023\203<\310z\r>H\226\014=\224a\221=\200c\377;\000\215\323<\260\036\271\274`\307\212\274AXs\2764x\225\275d\225#>\360\016\001>|MA\275 \362\356\275\363\317\032\276_\314q\276\354\357*>\300K\251<\233\313\177\276~P\201\276\324\355R>J\325O>(\010\024\275\331\273\202>\006\300\013>\310\033 >\250\022\330\275@\232\341\274\350\033U=\354y@\276\231\354:\276\220X@\275\247\363q\276\222\253/>$\013\274\275\304\310N>H#\244=\364\036\027\2758\301\204\274o\324\201>h\215\351\274\000\232!\273`@:>o\306\024\276\370L\366\274\226\225\020\2760\235\204\275\236we>p\035\207\274#\356\004\276\010\270\352=r\320c>\024h\226=`\010V<\272h*\276\034\251\022>\300P/<W!\004\276&<F\276(\236\372\274\000\266\324\274C\010&\276\2203\036\275\204#K\276\234%\362\275\200M\330;Dxl>\000o\236:\322c\300\275/\014:\276\335\325a\276\0246\343\275\325n\003\276\202\035\332\275<\177\207=\330\327\316\275D\237\273\275\204 \314=\271\343o\276\236If>\240$\r>\220s\'=\310\306\376\275x\010;=\304\025\302= 8C< v\203<D\325\240=\342\002\227\275\212\336w>%\216R\276\200f2;\310\376\312=\360*I\274L\242\365=\000\030\336\273\370\326\366\274\026\324B\276\300\347\304\274\034\323B>0\326E>\202\027\177>\367K\006\276\002E(>\264\006\027\276@\310\r<\252\002v\276ZJZ\276\340SS\2750\377\274<\235\222J\276\304\240\010\276P\207\036\275.\315\341\275\000fR:\214\t\247\275\266s\342\275|\004@\275hZ#>\300vR<\014T\363\275\320\202c\275\217\336\200>\354\330\311=O>\\\276\300\325\316\275\356\336A>\026\246\026>|\314(\275d\371\337\275\020\3675=\330\313\310=G\260|\276\260\275}\274%\n]\276\020\316\362\275\220\363\215<:\\O\2760\214\244\275@\014\370\274PY>>\335yj\276tF3\276\016\250)>h\252o>\332\037P>\206\3330> \031\014\274\310\273\304=\\\310\375\2753\302_\276`\007\203=\370z\323=\305f \276\360\005\336=\364e\201\275\n0%>\000\267\000;\336\266S\276\332\322P\276j\343\202\275\276\240\370\275\000\246\020\274\200kH<\353\0366\276(0B\276|\314\322=\244\364\301=\270]\355\275\000^1\272\350\325\205=\214K\307=gJ\022\276\352Qy>\034\234\006>j\010W>\256\240<>$\207G\275\2201\324\275\260Y%\276\004\334\303=F\257\006\276h\241\203=\362\304F>\334\331O\275\264\t\331\275\274\014\366\275\016\006h>8L\026=:\2100\276J%P\276\342\271b\276~\220\010\276 \006\363\274\224\301a\276\350d3>b\224\001>\332\275(>\224H\314=4\034\240\275\312\327\341\275@\024\000=\202p\265\275\000?\005>\004\266 >t\037\307\275\354Ka\275\272\006\332\275\265\357j\276\266\013@>2\233\200\275\272\2062\276\367\245\023\276\036\007&>h\244\346=\036\204c\276p\226\264=\350\023m\276\004r\270\275V\031a>\214+n>\336\367\315\275x\373\032=(\260\317\274\220\234\304\274\036\333e>\220j\224<l\372\330=\032\233\030>\326C:\276\220\250\351\275,\324\340\275\254m\t><\243\213\275\243\357P\276\336;\017\276\024\354c>\200\366\003\274\331\250 \276g\373N\276\270p!=`i9\276\236\2462\276\251\326Q\276@\325\344\275H\350\n=z\376\016>e3l\276\254\t\206=)\340[\276D\025\201\275@3\275=\270j\202=\300\345\001\274$cF\276(9\r\276@\3246>\330Q\032>\000\340\033\271\376\274\r\276\354\314\321=l\341\007\275\020\'i\274\220\262\022\275\020\214\254=\224\216\310\275]aV\276\020\336\276<\n^\003>\334#j\276\014A\221=6\325a>8\017x\276Le9\276\254AX\276P\226]\275\316\257Q>$\270[\275\226\207=>hS\033>\344(\031\276\232\214\021>x\271\203=@\231\245;\300\373(<XU\005\275\306\345U\276SZ@\276\222F\207\275\2134\025\276_\006\013\276\000A\240:\022\335h\276\224\266\035\276\236\274\221\275|Nd\276\254\361Y\276~\027a\276\360wX\274\324\211K>\020\360\335<\010\017\030>\020}\031=\310\266\244=\200z\000\274\366gx>\276\007p\276z\341;\276\\\324Q\276\272\207@>\240\030\177\276\300\020\325=h\362\005\275\267\253s\276lS\307=7\343\200>J\032\201\276\352\206{>PL\001>\214\343\216=\334Xw\276&\\\027>(\343\251\274\234\202\001\275\246\216\'>\316\234\200\276@\262C=\276\331\342\275.f=>\340\260\367<\270\3370>\330\030\320\274\300rt\276\225\017k\276~\372o>w\232q\2764VO>p\346\352=\236kb>\304\253\273\275\316\270\377\275\014\242*\276J4T>L\002\264=\300=\020<\274C\207\275\260\344O\275l\377X>d\262\022\276\362\354\226\275\222\205\035>\3527K\276\000\344\'<\330>\006>Hw,=p\233\027=\363X\005\276\026\315}>\024\"9\276\004\305\342=p\3062>\372\317\\>Pvw\275\226\276\234\275\374\2119\276F\274[>\273\364T\276\004z\304=^\317F>>H[>\337p\001\276\3461\035>\034\016\355=\254\3172\275\366\334y>B\3002>\257\301\024\276\322\027W>j_\035>\01439\275\363\014\r\276\256Y\344\275\360\313 ><\205b>\004b\373=t\013\322\275\000\310\024<@\232\335\273R\334w>j\000z\276`T9<H\343\355\275L\013\271=\020\351\357\274\264\271\320=\340xF\276P\313\250=\273\tM\276\322\316\330\275\234\303\026\276\224\'\263=\032\r\203\276`ls\276\374(\266\275\t\324]\276\204\373\200=<\005\037\275\260\244\245<\270\324\254=\034\351\004>\317\255n\276\2043\324=\340\2451>\270\004\364=\024\234>\275\312\006\014>h\247H>\034\234_\276\334\201\222=\341Cl\276\314\262\020>\230\024o\276a\236i\276\263\314`\276\244=\371=\310\326!>s\215\005\276\340\331\013\275\000\261S;\236\275z>@\236\036<\3609V>@\030\221\273V\371\001>\3004\324\2738\031\032\275\300N\302\273~\256\030>\222\347\364\275\240\n:\274h\203\213=U\020\000\276\020U,\275{\315{\276\305\354^\276\364H%\275\322\360C\276\345\246:\276\220e\262=\340\225Y=\206h+\276<D\016\276\340\232\220<tV\226=\320G~=(\322\"=\372\214x\276\250\366\\=\320\354\276\274\234\256\236=4N\024>k\006\202>\222\241t>\274\262{\276\364\352N\276\374c4\276l1\271=\036x\036>\240W\224<\334\017\356=)\205\021\276\360$n>h\312\351=\214\"\204\276\334m:>\244\347\240=V\026\'>\314\031\004>\341n=\276\340\322z<\262|s>\234\231\275=z\210@\276@\352Y<\332)M>P\030R\275\302Ie\276\0039x\276\226\231\365\275\340\023o\2744\204\274=\200\330e<$|\202\276\256\245\250\275\374\316`>\257\202\033\276\344\010\375=\000\326k>\322\321\267\275dUr>\366P\365\275\310It=\024\324\257=\250\306-\276\326\004l>"
      }
    }
  }
}
node {
  name: "decoder/dense_1/BiasAdd/ReadVariableOp/resource"
  op: "Const"
  attr {
    key: "dtype"
    value {
      type: DT_FLOAT
    }
  }
  attr {
    key: "value"
    value {
      tensor {
        dtype: DT_FLOAT
        tensor_shape {
          dim {
            size: 64
          }
        }
        tensor_content: "\000\000\000\000\000\000\000\000\000\000\000\000\000\000\000\000\000\000\000\000\000\000\000\000\000\000\000\000\000\000\000\000\000\000\000\000\000\000\000\000\000\000\000\000\000\000\000\000\000\000\000\000\000\000\000\000\000\000\000\000\000\000\000\000\000\000\000\000\000\000\000\000\000\000\000\000\000\000\000\000\000\000\000\000\000\000\000\000\000\000\000\000\000\000\000\000\000\000\000\000\000\000\000\000\000\000\000\000\000\000\000\000\000\000\000\000\000\000\000\000\000\000\000\000\000\000\000\000\000\000\000\000\000\000\000\000\000\000\000\000\000\000\000\000\000\000\000\000\000\000\000\000\000\000\000\000\000\000\000\000\000\000\000\000\000\000\000\000\000\000\000\000\000\000\000\000\000\000\000\000\000\000\000\000\000\000\000\000\000\000\000\000\000\000\000\000\000\000\000\000\000\000\000\000\000\000\000\000\000\000\000\000\000\000\000\000\000\000\000\000\000\000\000\000\000\000\000\000\000\000\000\000\000\000\000\000\000\000\000\000\000\000\000\000\000\000\000\000\000\000\000\000\000\000\000\000"
      }
    }
  }
}
node {
  name: "decoder/dense_2/MatMul/ReadVariableOp/resource"
  op: "Const"
  attr {
    key: "dtype"
    value {
      type: DT_FLOAT
    }
  }
  attr {
    key: "value"
    value {
      tensor {
        dtype: DT_FLOAT
        tensor_shape {
          dim {
            size: 64
          }
          dim {
            size: 128
          }
        }
        tensor_content: "\266\375\307=\020\233z\274pf\031\274\016\375\264=\240D!\274\207\225\220\275\337\261\366\275\020s\034<\240N\t\275K\377\n\276\214\206^=\332\313\373=4\2671\275R\256\365\275\227\215\345\275\254M`=O9\034>\310\370\237<\274\202\026= /\345;HW3\276V\250\265=\304\270/=\200\277\226\275e\220$>6\352\206=:i\013\276@\311\004<A\336\004\276\350\225\265\274\370\267\223\274T\322\205\275\232\356\332=\256\205\200\275(\266\277<\345!)>\374\250^=\220\304f\275\240\354\370<I\244\014>\300\250\305\274\202\263\256=\220KY\275\010u.\276\002\032p\275\374q\031\275\223\331\035>\306\246\346\275\276\371\357=+\355\275\275\023N!\276\317\352\222\275\260\252d\274\304\251\317\275\020\212\377\274k\353\030\276`:[<\022\344n\275>\215\317=O]\006>I\243\017\276F\266\210\275\204\321q\275\270\257B\275\200 V=\370A\344\274\001\021$>\350\340\227\2752\356\266=\206[\230\275X\353\360\274_m\267\275\362)\236=\200\211\t\274\206%\347\275\"Y\230=\360ce=UI0>\000J}:\031\271,\276\333j\025>m\362\t>\317\032\237\275C\n(>f\215\013\276$\264M\275\367 \036>d\300\204= \203\304<hI\223\274\324_P=\200,\344:\nm\344=\265\256\346\275`\274\021<\352\265\324=\244\324>\275?\306\000>iE\037>\014\021%=\340\242\355<\217<\366\2756\254\t\276\374\003#=iH\022>\025\225\027>\244*~=\300\274P<&\t\327=\355\350\240\2753\302(>\334]\r=lz+=\360\343\021\274\310`\020\276>\227w\275\332e\377\275\024\272!=\250)\034\275\343\237\027\276$\253\017\275\362yX\275\034\214\334\275px\203\274\3308;\275\030.\030\276|\205\014=(^N\275\340\331X\274@\252\256\273w\2200\276\300\336\263\275W\237\013\276N\317*\2760\034`< \035\027\276`\2228=\264),\275b\221\271=Q\277\032>\274N>=\000|\253\273\346\231\277\275z9\265=\346\327\204=\311_\000>U\027%>\354\355\260\275\016\010\245=\375\372&>\006m\364=x\214\370<\337\364\221\275\360\033\177\275\226\310\276=4\016;=z9\260\275T\301<=G\317\014>\333\373\307\275\n\336\346\275\300\356R<$\335l=\350p\223<\010e\036\275\302\323\244\275N\246\342=\'N/>\205B\003>\205m)\276z\335\246=@\014`<XV\025=\367\233!\276\373:\233\275\26458\275\3304\210<V\372\365=\332\032\360=\334\222*\276\300\023\037;6W\'\276\336\222\304=0!\010\275\236\007\024\276CW\003>\21130>2?\231=\017\337\320\275\221D\024>\215a\231\275\270\206\321<`b\377;P\\\031<-\242\022>d\013\035=ZO\316\275H#\362\274\020\262m\274\3400\200;\250\344\363\274\031\354\004\276\263\202#>\237\363*\276\372\265!\276\"\341\346=/\375\005>\310i\246<Z\340\343=\235\003\t>m\2141>\260\363\331\274\3458%>\000_$\272(\322\375\2749_\201\275\000\377M=\266\245\201=\270\2263\275\220\032\243<\004\306>\275\276\275\024\276\370\374\013\275`Ks\275p\307\244\274\204\266\037\276F\n\032\276\224\250\036\276g\243\245\275\260\321\344\274 n\317\274\243D\374\275t\314j=\342\357\265=b\356\363=K\360+>\251]\004\27685\365\274\240Mx\27512\'>\365\0174>\246L\020\276]0\000>WV3>\251\355!>\375\000\035>\244\260\327\2752\020\026\276\211m\207\275\200Cw\274 \204l\274\261_&>\014\253P\275\366\261\225=\014\r\r\276$\223\004=\263\265\235\275\366l\251=\256\327\320=&$\365\275\350\251\264<&N\256\275\336\006\350\275\374\354z\275@,\213\273\342-\222=\\[\031\275\340\002U=\340\260\212;\362-\352=\032\220k\275G\347\026\276\352\327\237\275\315\010\247\275\240\005\275\274\241b\025>\340\260\335\275\200\206\271\274\340\377\005<XYf=\010\251\272<\264\266\206=\000\264\373<\374\212\000\275\022\\\251=Z\033\326=wA\273\275\260\363D\274\365\266\020>\370\350\372<\004\016==.\224\001\276\260\005\376\274!t\352\275\362\340\334=<a\363\275\022=\370=h\033\236<\250\200(=\212\252\364=\335[\001>\340P\317\274<\244M\275\324\0040=\311\3312>\21495\275v\253\324=]k\245\275.\034\201=hYo\275\200j\273:\177\271&>\360\377\021= \232\322\273\340?\361\275\023H\031>\274\261%\276\370\216\214\274\020\325\033\275\332N\226=Lc\361\2759\353\017\276j\310.\276rj\315=\370@\023\276\232$\366=\276H\311=\244\204[=mW\t\2764z&\275\200\216\334\272\304\240\002=\221\"4>P\300=\274\2644\202=\200a\016\276v\021\232=\276F\374=\272\222\365=\353w\026>>u\360=*\013\336\275_\223#>\202)3\276\200\002\336\274\0300\207<\332\026\275\275X\037\340\274\006\263\245=\0004\336<KH3>6\r\251\275\325\276\233\2750q\352<\310\022\246<\003;\320\275\035\302\033>\035\254/>@-\003;pW_\274@\362r\273\200\256I\275\300SR=\314\006\204=\240\022\370;>H\275=\340\223\021\276\000\210\000\274\252\"\024\276\270\234\342\274p\354K\274\254>+=\000\000\2206\256\256\237=J_\315\275\252_\267=\356\316\273\2750\235\377\275%\377 > 2\033=\200=^\275*\036\233\275\211\336\005>\350m_=D -\275\232y\326=\255\033\034>\316*\325= \352\026\276Fx\017\276\021\357\036>\356\257\327=\000\020\307:\022\246\005\276\241\304)\276v\000\030\276\366\005W\275H\303\241<\224\203>\275\265\370\000>\222\026\201\275TEi=t\206F\275\274\323\217=\n?\333=\350\370|\275\220FB<\215k\315\275\035>\t\276\232\005\017\276\000\265\200\273\002\340\356=\343\217\277\275x\273t\275\240\327\364\275@\265\205\275\335\202+>\362\231\362=\202\325\257=Sm\314\275d\177\022=\342\373\345=C@(>BP\302=\340`n\274\322D&\276\204\376\374\275\370d\212\274\270\0301=DhE\275HT\355<\300\304~=\336\337\364\275\361?\014\276\375g\003>V\300\377=0\033\321\275\036\257\017\276&\373\360=\306\311\335=\337a\305\275f*\265=L/\021\275\322o\365=\000M\207<`\333h\274\367v\014\276\317\n,\276\242@\017\276\300a{;\330\273\004=h\206\343<$\205\000=\3379)>dB\215=\020\252\213<\r\241\t>;\236\307\275\007V\031>\000\037\232:I,.>\250\361\270<2\033\224=\340T\224<\007\344\'\276\232\371\204=\227\216\032>h\355\225\274@\354\'\275\031\254\332\275\322\233&\276\030+w=\304-D\275@E\307<6\321\344=\214\347;\275V\327\250=\310@%=\313\253\023>NQ\377=\253R\305\275\302\005\334=I]\036>\305X\030>\262\323\024\276\254\2048\275\222\276\261=\214\302@=\236\330\272=\230W\233<\202\204\360=\2022\331=@\353S\273\260\355\030<\340\367d=\214\366\352\275c\314\t>\0208A=tB\346\275\213&\001>\000\336\345\275\322\322\320\275\005S\370\275\020\337\021=,C\213=\210#_\275\302\326\361\275\222\022\241=\271]3\276R\224\275=\336c\t\276\340\351~=#\357\002>\351\375\225\275\320\214l<\206\2321\2768\351\220<H\204\364<\"\322\304=\270\007$=\320l#\275<P1=0\220\025\276~\033\347\275V\254\243=\360\377\360\274H\313\304\275\240\301\006\274\000Y0\272plL=\210$\252<X\340\004=\005\334\017>j\330\355=\232\335\215=\314G\305\275\2512\225\275\216X\267\275\223\002\335\275.\256\221=\373\215\270\275\205\271\024>\226|\321=\222\021\275=7I\007>\315\261 >\'=\331\275\271\320.>Pxr<\215~->$aW=N\231\307\275\214\234z=\322\370\216=:\004\363\275\312c\371=S$%\276\334\'\340\275\214\271>\2754\022\220=\205p\r>Lzz=>\256\356\275\275\2644>t\r\323\275\n\375#\2768\343\300\274\210\256\234\274\351\373\250\275\010\023\235<\200\252F<F.\260\275t\336\202=>z\253=18\203\275@\370\372\275\030\223z\275\244\311\n\275\262\226\204=\003&\035>`\367\032\276\360g\000=V\014\234=\242:\236=\234@\035=\305\352\031>\200\035\254<\352\370\246=\330h!\275\3464\"\276`s\032=\327l\002>h\224\374\274\234~#\276\303z\366\275\370\300\233<q\020$>\210?\n\275\242\303\377\275\021\014\326\275\362w\237=\222Cd\275j)\341=\034\351\017=X\224\272<\250Y\264<\\\nz=Gi\346\275O\037\026\276\2540\177=\240>\016\275\333\017,\276p\300m=\377\226\033>(u\232<\260\331\225<\346\242\340=\240x\031\275@+N=p\273\226\274\000z\277\272\213x\250\275W5\327\275\007w\000\276-\242\004>\214S\t\276\215\203\020>1\331\026>\004Z\372\275\300;\216\274k\000\323\275\020\313\227\274S\352\205\275\275\203\313\275\3752\356\275\256\345\023\276]o\001>\020M\274<b\360U\275\204[D\275\323\205\003>X<\355<\330b\326\275\270\213>=\220\022\374\275Pk8=\030\315\022\275\376r\255=\200#=<(\326i={\245)>\000\'y<\026P\342=\252\253\324=\365G\253\275<2L=\226/\331=\371:.>p\366O<\354\372%=\264\220X\275\306\213\340=\324\340H\275\220\221\230\274\261\270\025>\3020\313=-<->\"\215\243=\252\376\301=\"\370\257=H\3020\275B\253\326=\240\303\253<\3073\006\2765+\024>\"\205c\275\221\342#>\272z\316=L\371\306\275\306\250%\276\023\210\035>z\n\317=U\177\356\2755\263\250\275I\244\003>\343\261\023>\010\256\331<`\225\030=`BR<\250R!=8\300\234<\236\266\254=f\247\324\275\202=\367=~\347t\2753\025\373\275\216\326\231=;\272\030>\331\212\032>`\\.=\330\r\306\274#\235\326\275\232\023\323=X(\220=8d\326\274\240\377\266;\017\274\017>\202\313\310=\020\0044<[\370\321\275\274]$\276\365\210\030>\257\347\022\276\352\201V\275,jx=\320^f\274pt\222\275\267\356+>@\301\035\275\305\302\264\275j\210\362=`\374q\274\251;\265\275@\342T;\373\010\026>\260M\020=y\352\364\275\3360\034\276\215C\234\275r\372\225=\260\252\357\274\030\313\271<\237\223\013>\356H\352\275z\036\202=:\007\337\275\304\241;=\360\334\205=Pc\332<\000\340\224\274\310\304\256\274\267\t2>\372\255\240=\376\002\242=\r\211\357\275\314d\324\275\010EE=l\337\276\275\020\375@\275tgi\275\207q\021>\354\335\017\276\241z\000>\2500\034\276\221y1\276XW\342<\361?*\276\253\210\306\275U\270\034>D\213`=\354\3633=P\336\325<\214\202\003\276_\203\010\276\362:T\275\227\237\014\276\260\203\r=\\)\210\275~c\362\275@Y\033<\253M\'\276\267\331\031\276\261\260.>CU,>@`\024\273\212b\271=X#A\275\0201x\274\300\3458;\214\300B=\020\036@=\t\365\000>\006z\264\275Jc\022\276\261\372\021\276`\353\272;\020R =\266\031\267\275%\340\025\2761s/\276\201\273 >\270Z\364\274=\211\037\276\340\342\022=B\204\300\275\032\346\335=\023\271\030>\262\036\374=\202\243\314=\326\257\243=P\266h=\200\266\315\272\300\016\262<\371\260\323\275\260\321g\274d\230|=\263\211\037>1\235\307\275\002\322\330=\022\245\274\275\302\366\363=\030\246\277\275\310C\211=\275\324\r>\2521\371=\2204R\274\2750\241\275\377\367\322\275\310\031\014\275k\264+\276u2\021>R5\r\276`\234\030\274\026\206\360\275P\3024\274\024\345S=\331J\260\275\340\376r\2759\001\032\276q>\014>\224\372\203\275=z\'\276\320\301l\274\361\216\350\275\261Z\247\275:e\237=G\327\226\275I\320+>\203\337\026>\010\3742\275B*\263\275\2576!\276\242\334\262=\227r\n>\240H]\2744\275M=\n\177c\275\362\360\360=\256\026\013\276$gf=g\213\277\2755\177\224\275B\336g\275@\"\353\273\241\261\002>p\253~<@fs\274\032\247\226=Ng\"\276\240\314\334\274\204\022d=\000\356\330\273hz\263\275\204\327\223=\000R\232:\352\322\262=v\204]\275\020\264\301<\036\350 \276\000\373I\274r7\343=\202\372\371\275|O\322\275\302\375q\275;z*>T\013\241\275\206\027\205= \242o<\0305\014\276\204\317\223\275t\0203\275\350\342\351\275\000k\010\276\025\372\205\275\017+\252\275\336\227\314=\260Zb\274\001h(>\320X?\274\000\r\001\275\210\221\335\274T~u=\302j\247\275ph\312<\304_G=\036C\211=\004\353a\275\316?\344=\262=\333\275\322\214\334=\204D4\276pY\233\274\000^V\274l\237m=\235f\022>P\263\210=`_\321\273\246B\371=<\240~=t#@\275\3208\271\275\246\352\227=\314\206 =b\366\260=\302\221\264=\250rF\275\000\340\004\276\036k\245=\200\236\200\274\032\004\253=b\t\346=X\273\n\276\010Q\211\274\344\346s=\361\332\336\275K\263!>\267X\214\275\234\301\276\275\244rj=\025F\000>\312\004\035\276\346z\200=(C\251<\255\334\351\275\341\216\255\275\034\3621\275\256t\267=\350\273\354<\311\351\030\276[\030\332\275\332\210\335=\372!\242=\262\013+\276\336\202\315=\364W\321\275\177V\211\275cz\010>\342\007\231=\257t+>a\2744>\365\355\020>\205\256\003>`\354A=\223\232\016\276\276\273\254=m\323\023>\372qg\275\247\231\036>D\210\204=@\336J;d<1=N\031(\276]\013\264\275f\342\274=@\235\377<\253\336)>\000\262\314\274\226\220\237=\272\302\232=\366\253\002\276\004\rc\275\360\263\311\274d\310\376\275\002F\263=\3006\020\276\266Z\347=\225\274)\276\226A\352=\340+a\274{\316/>\300P1\274\234#\020\2757\013\017>=~3\276\216)\373=\354\370^=h\255?=p \"\276\333\326\003>\2343\031\276\200\233\376\274\260I/<\032?a\275\200j\220\272\340\364\203\274\312\003~\275\330\350\342\275\350\265\030\275\211j\016>H\356\304\275\267\0074>\200\266\017=\032\2723\276\236\264\203=\341\226 >n$\262=\360\313\221\274\350\256\222\274\3558\260\275&,\355=\222\243\227=\207\215\'>N;\334=\005<\004\2768\351\255<T\346 \276\333\262\244\275\371P\331\275gW\222\275\0161\213\275\256\347\n\276\014O\007=,\361\357\275\321Z\t\276\202,\254= \376\026\276\220WG\274\235\250\r>\036<\255=jS\237=L\007\013=::\323=\000\205\005\2760\266\310<H\355\t=Z\206\202=\032 \272=\275\035\272\275\322\\\355\275`cL\2757\346\321\275q\347\010>S\302\033\276\300\256H\275XU#\2766|\004\276\033\272\243\275\203\000\025>\301\316\027>\000\0214<\326<\342=`\352\035\276\006\000\240=V\231^\275;\227\">\000\335\016\2733\276\005>\212r\300=@\013\023\276|X\001\275\372J\265=N\257\331\275\210\214%\276\221\320\033\276\215\0313>\226\024\272=x\'\275\274\234J#=\372\367\237\275nw\360=Ta\320\275V\036}\275;;\031>\340\244\'\275\177\310/>\010\330\333<V\350\205=\274G&=\360\256\t=j\375\346=\252j\321=\360\256\013\274N\210\200=4\336\224\275:\317\301=<\244\031\275\260\222\020\274<Cr=\020\373\013\275 \306\260\273P\206\367\274\372\365\246=\010\322\024\276\r\255\247\275\203\206\001\276P\351k\274\340D\310<\302S\352\275+\227\036>\241\344\314\275||\032=\263B\t\276\231W#>\000\264[;\006\354\n\276\244\356i\275B\n\275=\242<\261\275\272\216\300=\340\333\375\274\250\201\345\275\000$n\273\214\'d=8\022\314\275\334\354$\276v\261\327=\372\016\360=\301\262\007>\340\244\000=E\323\032\276lM-\275\371L%>\230\305 \275s\351\021>\247\233\271\2751\035\271\275\000\\\344;\0003\\=&?\207=\367\327\030>\216\023\213\2750\310L\275\241Q\021>\023\330(>d\326\037\2760\266\003\274\276v\256\275(\266\262\274\036(\205=\273Q\016\276\177f\257\275\271\372\020>\237\355(>M\355\322\275\241a\027>h\264\006=\007\210\230\275\216\010\316=\3047\025\276\214D\216=Z\213\222\275\266\206\373\275\3029\370=\354\342n\275\260\246I\274\333\030+\276\272\004\345=\344\227-\275|FJ=\224w1\276\307+*>`\227\214;\261<4>\267<\027\276\022\277[\275d\263]=\214bt=\361\354\'>D\217O=r\016\365\275B\212\334=\"\321\360=\220j6\2740\025\246<SK\344\275\332|\253=\340\213\307\274\342\257\323=\234\027@=\n\'\241=\214\353\221=z\242\220\275\326\005\302=\302s\315=\370P\377\274\000H\315<3>\006>\026\324\207=K\004%>\000\366\335\273\034O\364\275\304\360W\275\230\342 \276\201\234\314\275\2106\003\275F\207\246= \345\227\274qQ\225\275-U\210\275@5\305\273\202T \276\242\014\325=\210n\016=z\352\212=\240\317\014\274\356\231\312=\2467\036\276\200\242\340\273\310\336?=\252\354\237=\030\330\306<\\\207\256\275\334\031\t=\320\213\004\276\014\372\003\276Z\373\231==\300\030>\351\364\n>\364\035\"\276\367\210\367\275\355\"2>\000J\013\273O<\022\276>\373\252=(\357\240\275|R\034\275\216\362\207=d@\202=\276\276\355=\000\200\375\267R\225\245=\321\020\010>\270H$\275C\353\344\275M\250\205\275\026V!\276\276\020\204=Rk\240=\337>\023>\020\216\215\274\014\254w=r\033\r\276?5\033>\333\211&>\270<\371<\272\205\267=\020\233\204<\252\375\305=.\240\t\276\354)\353\275\340\336\002\276\320e\337<\000\272a\274\210\024\002=^}\336=\315\302\022>\251\230!>\032\326\326=\214\177J\275Pw\002\274&\235\316=ry\306=\264\301b=@:\221\273\320e\022\275\310\232\227\274l\310\\=\357\026%\276\\\204R\2752\250\366=N\022\211\275\220P><u\230\030>\216\306\025\276\342\340\212=\210 \236<\030\210;=\020\236^\275\000\"\352\274V\241\237=\311\252\251\275\233\274\226\275\200\004\352;\210\243j=\026R\'\276w\373\030>\301\254\t>HD\376<\026\217\367\275X\2647=p\351\001=\236P\205\275\200\346O<&L\216=\220\255w=h\210k=\345\r\006>Df\001=\363\033/>W\300+\276\310~\263\275~\035\200==l\201\275`y\003\274H\247\037\276\262(\014\276\034J\251\275C\230\252\275\364p~=\250)\006\276f\224)\276\342\264\203=&\352\264=\277\254\235\275\245\026\001>\334\335\030=\211\2421\276<\264\177=\350c<=\330\316\322<L\310C\275@\320 =,2U=\204\306%\276P)}\274\302_\252\275\204\227\230\275\270\343\t\276U\234\'\276\026\316\345=\3236\031>f3W\275\364\217\210=\356\036\245\2754\317\203=4E\365\275P8\313\274o#->\362w\247=\300\255\240\275P\037\033\274\224\300K\275\323b\014\276\0137\022>\253[\"\276\360sQ<R\377\211\275%\323\016\276\330\362\263\274pHO=\360(\000\2760\213\222<x3\342\275\302\024\301=\220\253\004\274w\221\006>O\003\317\275\300\361\204<(\322\300<nc\252=\305\n)\276\363\206\033>\320\213}<\366\347\253\275\225\273\025>\021F\032\276T\321[\275\252q\351=\365\223\032>BI\242=\314\355n=\000\022\233\273\270m\256<\246\304\342=\222\254\375=\'\r\233\275\340\2521=,\025 \275\276C\251=\247\254\373\275\350\310\007\276\020<\002<\205R/>\330\376\370\274P\242\261<\367\372\">t\007\027\275\206C\314=d\265\001\276\000QG<\300\030n\274J\005\271=Eg\341\275\260\t\344<g\351\351\275h\304\033\275N\274\224=\246\363\305=\254\356\312\275\007Z\020>\034:\235\275\265; >\007\254\004>\3251\301\275dB(\276\362@\374=\327;$\276\000y\\=\\\362E\275 \266\303<\032\371\343=\240\365\322;\240b\033\274\021\371\"\276\374\325R\2756|\265=}k\304\275\221(/\276\210%\360<\200\205\263\275\300\244]<]3\341\275^\222\276=k=\024>\304\021G\275\020\206\277<\010\224A=\232r\346\275\034\375U\275\240x\327\275\262\035\t\276\207b\017>\020\341\244\274@\354\246\273h\210\324<\362\221\240=\026w\222\2758\220\352\274\360\357\266\274rK\352=]V\377\275\232\261\273=p\014\255\275\300>|\274\241\266\035>(\276\341<\204t\306\275\177>\342\275\001\232\007\276r\347\247=vC\233=F0\021\276\236U\371=*\265\352=\377>\207\275\224\354#\276\372\272\267=\376\342\321=\312z\354\275B\355\240=\322\202\342\275\337_\000\276w\221\343\275\310\3561\276,!\022\276\361\372\201\275\212\037\352\275 Rx\274\010\313\254\2756\327\235=\265%\r>\002Y&\276R\364\276=L!h=\213V\221\275\200\001\007\276\340\365$\2752\343\303\2753\220\022>p\031\251\274\270\272\017\276Me\201\275\207v\234\275`\\\350<\336Q\223=0\322o=\237q-\276\022\333|\275\321S*>\350pi=\366\234\321=@\305/<\330S\343\274\364\225l=-\370\311\275W\350\345\275\370d\313\274\300\375\005\275g\354\017>l\033\370\275\235\311.>\220\377\370<`^\016<\260\347C\275\026\204\320=\352\230\223\275\200q\374\274#\3022>\244\352\345\275\256k\337\275\016\014\257=\342]0\276\030d\010\276\232\352\245\275\300&\215\274\242\363\017\276\030?s\275\316\203%\276\347\021\'>\374\344\031\275\337o%>\212\243\256=\007*\032>b\304\366=\340\251\"\274l\340\223=\212*\233=\000\334\326\275WS3>P\237\200\275`\343\005\276\242\236\324=\234\330\225=\031%\230\275\306\245\227\275\264\242\322\275\242\240\236\275\305\260\214\275\320R\210\275\251p->\240\271\036=-\352\025\276\200\255\334\275+\275\344\275\241\200\271\275{\n!\276\370\270\211<\250\360\211\274q\025\033>\273-\034>\037b*>\360\355\262<@e\032\273+\344%>\036\022\372=\020\300F\274W\273\347\275\025\236\013>,\356\304\275\202\353\374=\240\367\305\275\377\'\000>\344\341m=r\270\255=\373\363\006>H%\031\276@TE\274\247\320\277\275\"s\376=\363\364.>P\232\216=\254\247#\275\374\275\010=\322\265\353=&\233\243\275\300\272\332;\324\321J=\314\322Q=[\256\005\276\222,\367=\266n\002\276\351\335\r>\326t1\276\206\337\351=\\\373\034\275/\033\037>\304\250I=a-\273\275\370\224\304<\030Ju=\300I\223;\020\3411\275Z\265\354=\346\323\236=d\023\200\275BF\253=PT\331<\034_\006=\006\307\350=\233\227\240\275\332\354\263=\230\222 \275@&\366<\272\177\033\276/\2212>\226C\252\275\235\335\312\275l\001o\275\340^e\274v\000\036\276tN\211=/-\'\276d2(\275\025\2201\276\232v\231=z\177\034\276\010\222w=\222\375\367\27504\373\274O\263\021>\013\014\306\275=\217\243\275\372\360\005\276\000\311\344\273\\\301b\275w\203\036\276\010o\022\276_\201\303\275\t\"\003>\002\216X\275\275\243\017\276\370\301\304<\343\320\023>O\253\013>\021\210\016>a\310&\276kb/>\343\2452>\354\341\006\275\2127\342=@&\202<\000gY\275p\261=\274?\177\000>\347\001\r>\346\352\226=\007*3\276\320\206\"\276\277\317\035>\0365\220\275\312\356\034\276\232\030\357=@\341);\220,.=0\325t=\223\222,>0\236\017\275t\236\030\276x\320+\275\220\\\356<\271`\000>D\305\034=\300\267n\275\250!\347\275OL\003>@\031\222\274,\301\036\276\342/\244\275\017x\006>NI\300=\214\303I\275\200\214s\273^\210{\275\215n \276\370\323\033\276\210\300\310\274\370\223M\275\207\375\331\275\201\3441>\322\035\314\2750\341\\\274\020\375\322<3s\030\276\310e\312<`\342(\276\205y\'\276\301Z(>\355u.\276\004\235\032\2750\310,\274\304\334\235\275\320\214r=\262\245\366=\270\253\375\274\371A&\276\3016)\276\300h\360\273O\335\026\276\002\017\311=\300\310W<\306\203\013\276\240\022\236;\235\225%>M\200(>L\000\377\275\200\314\203\272\226j\277=\036\263\266=\014\357R\275\000\265#<\3008\365<\202\236\305\275\320_\221<\232\034\216=\260\273y=`\002\360<}K\000>4\347\312\275\350{\340<&\315\311=\330\034I=\356\260\203=\016\353\377=\310\3363\276\260=B\274j\213\230=R\222\210=\312\036\326=X\273\344\274\356\226\315\275\242\243\341=\310=\265<Ft\260=\2001\322\272\326R\360=\007p+>\343\313\026\276\200\034@<\020\216\304<\203\2020>\326\0250\276H~\242\274\225\317\000>D\035\263\275\224\216\021\275@\261\225;\214\025\223=h\326\226<\025\375\016>\3126\215\275{\362\007\276}Z&>0&\201\274\026G\360\2753\330.>\247\226\022>\212\377\346\275\334By\275\034\2405=%\253\023><T\035=<\250,\2750\013\231\274\230\237\243<\0166\010\276\222\025\373=\010\372\335\274\350\300T=(Q}\275P2L\274\206\211\204=.\270\334=\262O\323=s#\004>`,p\274\375Z\277\275H\311\330\274\247\255\035>\250\013\201=\252i\277=\254\"\r\276b\276\266=\000&0:PH\216<9)\314\275\006\276\352\275\024\356\035\2766\305\200=3\321\300\275\3311\013>\000\372\032=\017\347\221\275Z\005\356=\354\230e=\254=\370\275\253\2742\276Q\202\005>@\'\177=\354]o=\270i\350<\376\2342\276 \271\240\274\276\205\036\276<9\001=\240\2050\274\266\342\324=\340c\325\273\240\021\217\273`\235\014<(\270\203<C\322/>\226\240\274=P\217\025=\263\0020\276\270K\021\275\304L\306\275\320&\377<\000,49\373;\003>\213\225\036>2\033\024\27605U\274\261\207\324\2750\0064\274x\304\010\276\230^.\275ih\316\275\000\277\032=f^t\275\241\314\232\275B:\366\275(\210\033\276\203B1\276Cy\241\2758(\004\276\302\001\023\276\367\312,>9W\016>\312!\250=\356\027\240=\250\n]=\010*b=\234\232&=\200\033K\274\247\336\021>\000t\004\271\372\346\276\275A!\023>\240\273\234\274\253\036\001\276\235X\233\275;l\034\276\300#\304<n*\300=\320\360E=+\005\007>\250;\205<\240\027\345<k\273\027\276\000\217\230\272\014\231%\275\002\344\342=ng\220=0\222-=hd\207\275\364\372V=\001\034\016>6T\316\275`\243\r\274#\354\035>\320\345I\274`3\324\274\225\323\031>\260\245H\275[\2570>\255\305/>P\202\276<\225\232\">H\330\354\275\341\\->\260 {\275\343\333\354\275\n\032\346=xk\035\275\024U\010\276\000\325\311\274\005\215\245\275P\006\000=|ia\275\304&\247\275d4>=\317g\261\275L\2658=\310\245\352\274\340&\233;>\321x\275\002|\306=\360\024q=\272|\315=\000V\342<\231N\034\276\243\271\r\276\371u-> \323\352\275=\263\356\275(\030\"=\260/\217=\200\005\224;\340]\341;\000`\"9\240\375p<ZB\365=\300AO\274\002\276\340=\300>\326\273\017\235\376\275\035\341\022>h\256x=\317\3504>\253d+>\204\010\'=F\330+\276:\365T\275\202E\231=P\n\367<\260\205a\274S\373\000\276~\022\316=\200\311P\275\242\204\216\275\\z?=*\374\016\276@\2421=\001\212+>\224\001\032\276\360\001\354\2741\010\037>I\202&\276\244oE\275>\264\241=\340X\363\273H\013\234<\350\257\342<\306F\245=\330\327\265\274\310\211\242<\255`\027\276\245\241\326\275\355\252%\276xW\033\275\027l\256\275\3001\371\273t\032\037=\000\212\314\273\210\027\276\275\024\3656=q\277\031>u\357\023\276oW%>\356\355\340=2\325\347=e\204\304\275o\010\303\275\324\330\267\275Mp*\276@Yc\275}$\037>`\377=\274\200\340\017;\nP\202\2758\007z\2756g\344\275\t)\265\275,\265}=6\277\270\275 <|<\256|\301=\037\253\227\275\236f\217=x\315\304\275\266\017\302=Gp\t>P\0138=\035\2232><\333\025=\270\274\304\2752@\322\275\204\177\361\275\020F\352\274\022V\332\275\340Z\303;\2409\351\274\371\233\031>\203\301\022>\304\217\260\275\214\211e=\370\352\200=\264\330\037\275\260\257\210\275l\" =Tl\253\275\312\277f\275\240\3629\274p\025\240\274X\354\233\274O\037\234\275)E\323\275q\177+>\"\031\356\275y\305\345\275;\326\213\275\347\316\342\275\2659\000>\306\344\306=p\203\t\275b\211\273=p\t\223=\235\255\022\276\020\204\241\274\220\211\032\275\"\345\254=F\310\332=s\016)> <\315;\302\376\302=\010\365\014=V9\225=\216\203{\275^\333\264=T\014t=0\032\000\274n|\234=ZQ\366=\223\200\025>\001\342\022\276\031\267$\276k\256%>zz\300=\270)\023\276H8\250\275@Ql\273\277R4\276\222\037\214=;f\236\275\210\021\247\275\014Q)\276^\017\026\2760G$<a\237\225\275\200\313P\273\200\276\321\274Y\376\032>\331x\t>\337F\201\275\244\207\367\275a3(\276\004\234M\275\260o\201=\274\275\226\275\212\375\260=\034\004\023\2754\022\000\275k\005\037\276\016H\240=\265\315\037>\313\242\216\275\301\352%>\342\314\361=\340\345\244\273\241\352(\276;\342\032>\360\265a\275\352\262\220\275\376r\230=f%\345=&O\351=\350\036\225\275\322\035\314=\212;\227=\241\342*>\013c\353\275d\301g=\201\251\327\275\356\'\251=@U\315\274an\025>`\300\373<;\300\007\276[*4\276\\/<=\021\353(>\300Ky\274q\024\033>\254p\022\275V\231V\275\231\3442\276P\356v\2740>j=\"\033\311=k\351\030>\361\371\337\275\312\216\231=\305\2773\276\210_\371<\270\000\342<pem\275\004g\337\275\355-\t>\233\263\002>a)$>\310\255\033=\020\232E\275\330\207\003=\230r~=\010\004\001\275\340\031\247;tXc=\0025\203=\260\223\317\274\026q2\276\273\016\">\022\317\336=\014H`=8\365\200\274\343\253.>w\233&\276\362\177\343=g\211\212\275\3153\027>\000N\355\273Yq\351\275A8.>h\244\262\274\200\rl\274@\263w;\202\023\266\275gM\014>HH\322\275\207$\275\275Z\001\206=<@p\2753\261\025\276\315\030\030\276X\342\260\275i\237\016>\002\233\262=\234\005\'\276\345,\303\275p\321+\275\371f/>\014{\236\275\306p\277=\245i/\276\237\006*\276\211\372\036>\355\331\001>\376\031\310=^\007\231=P\014a=\rp\220\275$\216\001\275\227V\320\275Z$\212=2\003\270=\255\373\030>f\025\247\275\25391>\242\356\232=_\226$>(\r\343<#L\032>\022U\307=\225+\205\275\321\003\026>b\323\373=[\330*\276r\301\257\275\270\'\347\274P\333\362\274\212R\247=\177\373\205\275Z\214\323=`5\315\2734\021r\275~h\265=\360pO\274\200y\001\275X(\035\276\200n\355\275\2700\236\274\016^\320=b=\224=\364\177;=B\366\257=\300\271\033\275l\263\256\275\r0\221\275\350\306~\275\320\010F\275\276\202\361\275\03062\275K\240\343\275X\\4=\244L\020\276I\026\">\302\022\230=\014\020-\275 M\233\273\237\376\317\275\214\220\'\2757Q/\276\200\250\211=l\250\006\275<H6\275r\023\333\275\310\322\303\274\205\253!>p\255z=B\005\233=e\2750>{\273->h\243\n\275^\235\200=\262\376\242=C6\341\275\026\360\213=\2345.\276\360E^=&\221\016\276\322\356\317\275\317F+\276!\351\002>\220w\004\275X\003\211=\242\314\037\276\024O\200=c\237\240\275\260P<=\345\030(>@$a\274\250o\370\274\326\001\217\275\260\325\206<d\260\200\275[\340\026>\241\376\006\276\220DJ<\014\263\235\275d\235S\2756X\355=\264\0200=\000\272I\275\340;\260;\204\201\035\276\016e2\276~\022\361=\264\014\021=\222c\342=\2324\376=\263I!>\361\327\020>(\330\312\274\340\365{=\266\251|\275\017V\000>\356Y\033\276\257\217$>\300\325\247\275sI\024>4G#\276~_\320\275v\351\345=\000l\026<\226\202\002\276\367Z\036>\035\367,>\354\234\010\275\230v\375<DNR\275`9\214\273\262\177\t\276\305i0\276\320\214$\276\224\217(\2760 \010<\206\374+\276A\225\t>\004\342\352\275\364\025\263\275G\3464\276@\374s\273C\212(\276\265\277,>\270U[=POX\274\306\003\354=\230|\226\274\\]!=U\201\224\275\010e\201\274\177\353->\203{\025>\\\265a\275\343\360\n>R8\227=\000\230\036=\252#\330=\224\r\314\275\016\006\271\275\030&\233<\300=\007\276L\214\000\276\315Y\013\276@;\261<t{S=\"\246\337=\324x\006\276\266\305\347=\260\241s=\344\235/\276B\252\002\276\276\363\304=\303s\'\276\200U\026\276\300\322;\274$\201\216=Bl\315=\310D$\275\214Z7=\203\356\350\275\264\030\350\275t\334\r\276N`\310= \231!\274\016\317\255=\264\264q\275\256\232\265\275\"\214\335=\266\265\022\276\367\216\032\276E\236\215\275\254\250\035\276\207i\033\2765\324\201\275pq\030=i\001#>\300LI=_\331\037>h\236&=\330\310$=X\275\345\274\324\027\247\275\332E\274=B\222\001\276\207H4>[O\247\275\273\372\245\275\000\230\341:\034\247\215=\250\376H=\337f\034\276$*\357\275\231\363\207\275\033z\t>\363W\260\275\324\0219\275\316\241\303=\233H\n>\353\r\020>M.%\276\010tk\275\t0\245\275w\327+>D\230%\2768\\\267<#A\016>R\037\246=\023z\022>n_\312=\336|\351=\n8\244\275\220\373{\274\340\321\352<Xq\261<H\273\326<\347\343\220\275\3169\306=\200\255\323;\270\335\203<\004Q\247\275C\265&\276c\256%\276b\307\036\276\232\017\322=\252\0342\276A\324$>D\211J=\262\331\037\276\024\346w\275\250n\230\274H[\277\274m\264\206\275\000\203\"\272~\3641\276\313\231\013>\311\374\030>I\372\273\275p\333G<\260l+\275f\320c\275\220\036V={\374\004>~\251]\275@\th\273\347&\023>&\374\264=\330\276\021\275,\256_=\031W\004\276\370\261\304<\206\005\361=\260a\357\274\204\253G\275\330\316!=\032\312\365=0s\036=\254-S\275S\027\n>\223\000\337\275!\235!>\021(2>\300\335v=\200M\010\276 \0344<\331]&>\202\203\030\276@\327\035<\302\352d\275%\205\325\275\260u\247\274z\206\303=\256(\333\275\000\251h\272\2377\254\275\234\006\027=@\354{\275\240\201\374;h]4=l\rk=\023\300\030>\267G\335\275\302\315\236=u\020\014\276\223\025\n>\024\247,\275+\275)\276\254\215\373\275\020#\335<\340,\034<P3M\2759f\021>\356=\324=\214A\032\276\340q\275\274@\346\263\273PoQ\275\r\376\202\275\212\320\330=`\274\362<\362F\232=x\210\207=$X\036\2756G\367=\034\235\203=\271[\t\276\022\301\233=\000\035\177=\031\010\331\275\313G\013>\340!\227<6G\253=\010\311?\275\312:\351=\027\270\000>\230P\010\276\0133%>\320\310\237<\000j\332\272\373\013\n\276\004(e=\340fO\275\356\253\262=\343R\337\275)T\014>xL\350\274\306\335\244=\032\274\372\2755\314\247\2756`l\275)\375\016\276\274}\031\276@\257\254\273`j\321;\337\364*\276d\242C\275\312\361\343=\034(F\275\240\211Z\275\034\371\205\275\006\256\260=\210B\007\276H#\016\276.\206\374=?A\334\275\004\363\231\275\314#\327\275=,\002>T\245==h\007\237<\344+U=z0\262=\260!\"\276\220%\277\274`\006\376\275\224\n)\275cs\224\275h\013\216\275\3360\021\276Y\3532\276\200|\263;X\356\376\274\361\310(>\240\300\020\274\274kT=p\036:\274H\245d=v\275\240=\200\335,;\200s\255:H\320\000=\366\\x\275I/\354\275\264\364\010=\235P\353\2753Y4>\001\034\003\276iq$>v\260\375=\340y\341;\201\215\027>T\350\333\275\205\2062\276\316X\357=\207n\014>zQ\022\276\t\0362>\374\302&\276\265K\250\275X\024\325\274\017:\020>\000n\257:\372\367\233\275\3302S=\n\277\325\275\031\365$>\244\363o=V\244\t\276\234\353\221=\355\035\032>\265\035\032>\274\343\223\275f\230\235=\326u\231=\210\234a= \234\003\276\206\312\315=\200a\005\274\200\236\323\272\272[\353\275\373\323\r>\367\245\004>\351\277\026>\020\025F\275\346\340\350==/\t>b\376\031\2769\2453>\330\264*\276\263\315\350\275M\220\n>p\373%\274\274rg=@A\222\273\227\320\313\275\033^\266\275\247J\003\276Ff\254=_\230\025>\336\233\245\275\314\021\367\275|\032m\275\016\250\237=\326\223\264=R+\262=f\302\355=\3568\222\275\360\242 \275i\177\323\275\270\334\010\276\312\260\354=\204\373@=\373\330\030>\323W\036>N\220\307=`\332*\276@_\021\275\301u\t\276\201\207\025>*\244\237=\024\302S=xa\223=F!i\275\312 \372=\376\276\341=\'p->\026\372\033\276P\250(<Z\345\014\276p\354\t\276xG\300\274\241g!\276\274\247H\275CQ\032>\360\217\251\275\300\200\034\273B\356\020\276\255\364\007>\000v\201<\231\334&\276iH\036>\r\336\034>\354\210\026\275X\332[\275\034\377\021\276\364\341~=(\024\362<C\320\036>\216\337\230=@v\275;Z\364\315=\361\317\024\276W\206\005>\366\3664\276 >%\275\237\267\317\275\307\\\307\275\020\355\206=\373\360&>G9\033>rS\311\275eB\n>\003\200\035>\274Ah\275\340\272*\276\2568\325=r\336\351=&C\316=\251j\240\275\000\374\220;Vh\214\275}\347\337\275\252\n\231\275@b]=I-3\276_>\n>\274y\005\275Jh\200=j\223\363\275\250\365\000\276aO\005>\034\034o\275\t\274\341\275\200\303\336\273\034\307\004\276\032\330d\275\340\371\270\273\316\303\271= \203\251\273H\025S=\034\200\020\275\010\357^=\2609\347<(\335j=B\017\245=\203\305\034>\343\312\">\026~\036\276\"e\356=`\017\206;f\230\323=\000\260\020\274\365\006)>\200\312_<7\3270>i\240+>>\341\275=o\264\034\276\352b\232=\362<\331=s=\005>\236)\300\275\3624\234=n\256\227=\341#\023>\330T\305\274\330\n\220\275N\322^\275Vw\242=\036\330\343=\334\000`=\270\321[=\232~\253\275\350z\035\276\030\035\321\274\220\313\004<\201|\023>\177\273\r>\002P\302=(A\034=\"\311\243\275\2573\t>\000\027g:b\340\"\276\340%\364;\350\233\217<\270\020m=\257\341\346\275\267\254,\276]7\t\276\311\234#\276\0215\023>\250\244\323<\236\370\227=-\222\016>\214D\020\275\270\341\350\2758\224\354< t\242\274]!-\276\001\306\037\276\244CI=W\000\321\275\"m\327=\215d\007>E\376\036>\321\3232\276\222?\207=U\214\330\275\302\241\345=\203L3\276\252\005\277= yN\274\320\202l\275@\370\254\274bN\375=~Y\264=x\024\211<\233\203\224\275 T\301\275x\3530\276\204\377\024\276\250\375c=\352\030\246=\270`\236\27476\273\275R\236\276=\027\334%>J4\005\276\2022\236=k\300\030>\000\034\372<C/\032>\' \004>\006p\303=\240c><\307\032\245\275\3678$>6c\230=ea\341\275\322v\327=\010\010\331<\302\211\347=e\303\351\275\np\300\275 \273\261<>\201\334=\3761\303=\304\2341\276LIs=\010\023\365\274\267d\313\275\262\235\314=T\001\343\275GV\005>\307p\026>\000T\255;<\\0\275\332\305\344=\340\326\377\274\3350\032>\342(\315=`\315|\275\0168\302=\'_(>0\023_=g\032\003\276\217\267\'>\370<<=\220t\210<\302n\377=\353\272\213\275,\363\231\275\346u\215\275\224\343!=\274Lp=G}\026\276\273\014$>\266\252n\275\350\262H=35\324\275\310\227\210=\332\275\276=e\375\222\275\213\036.\276\267z\">$iM=\351\\ >2T\033\276-\323\010\276\0376\'\276\016+\263=\372)\204=\350Nx\275\tl\212\275\320\020\316\274\336Q\203\275\375\"\003>\226\233\316\275w\334\004>\363\372\235\275\177\333\201\275\232\301\352=\334+\007= \230\215=\362ss\275\002\267\371=iy\253\275\250<6= \336\006={\256,\276U\032\014>\352\303\336=\000\310~\271\350oZ=\230\030\036\276\376\312\215=\210\362q\275\223\336\256\275\2242I\275V=\234=\006\375\362=\226}\236\275\330\005P={\243\274\275a\325\226\275\302\261\345=\240\315-\274\t\325\013>\3645\021\2766\263\370\275\200\006\035\276@\373s<?\020\004>\3227\272=\313\010\234\275}{\331\275\340\243\014\276\364\312\252\2759\351\310\275t\270\010=Z\022\377=\224$\363\275~\205\364=YD4>?\265\'>\314|n=HE\257\274\03360>6\006\255=\266g\351=pE6\274\212A\370=h\255\035\275\366\337!\276\220\333\357\274z\303!\276K\354\257\275\365Q)>\346\374\375=\026\325\367\275(\036;\275\302\207\276=\250\221\204\275`\346v\275,w\024\275P0\240\274\266\336\251\275bc\323=J\233\033\276(d\204\275\262\317\247=\340&\002<L\221\'=\310\260\n\276\310M\021\276$\324\031\275z\233\227\275hU\353<\206\341\260=\306\222\347=\331[\010>\"\\\005\276\276\261\234=\005\360$\276\3463\372=f:\376=H\367\320\274p\226\217\275@dA\275U\374\022>8@|=\351*$>C\337\'>\034\203^=\217\375\025>\024\2579\275@\374:;_\320#\276\222\371b\275\017\"0>aV/>\310\205\336\275\237*\302\275T\367m\275@R0\276\344\325\000\276+H*>/\342\020>\261{(\276\300\207\334;T\246/\275\237J\"\276\376b_\275WJ\005>\353\310\023>\312B\367=~\t~\275p\255\032\276\020\027R\274\363\227\030\276\300H><\3311\317\275\360z\037\275\320\315h<\276b\200=\266\270\342=\264\007S\275\000\\\250\274g\000\031\276&~\220\275\350\'8\275\006S\332\275\266a\272=H~p\275\306\334\353\275\020(S=\3422\361=`Q\251<\337\205\003>N\300\320=\341\345\031>\323c\200\275s\3752>\244\217#\2756\363\262=\356\024\333=\321~*>\000^\267:\000\361\014=?I\025>\372\202\335=\330\032\020\276\020\214\037<\230\256\014\276\220]w=\242\306\250\275\034\234P=\322\346\257=0\370\277\274`\240\356<\246\367\037\276\327\322\221\275\037\020\002\276\036\233\340=\240\277\023=\222m\276=\372[\310\275\217\254\023\276\304\256$\276\300\302R<H\305\217=q\240\003>\3641b=\335\354\001>\246\004\362=.\346\355\275\315]\203\275\362\217\024\276\342\273\035\276\210$\332\275a\321 \276M\251\303\275\302\005\r\276\200\232h\274\200\275\274<\026\034 \276\237\'\035>\210\222f\275\244k<=d\245u=(b|=h/\313\274\212\316\277=\340\370\251<p\254S\274\020\301M\274\256/\220=P(.<\254\2460\276:\300\240=\223v\021>j\244\023\276\300K\261\273\345\360\r>\0227\321=Z\230\375=\3200\373<\240\254\206\275\026\257\357=H\202\327\275\315&)>0\022\233\275\020\235\374<6G\356=v\264\371=8\022\276<XHZ=\034\251\353\275\230\223\266<\316\255\226=\320\273\013<\367\344/>\314x`\275\223p$\276EP\345\275\324,\034=\033\300\334\275v\353\224=m6\347\275_C\034>\330\362\276\275\311\240\321\275`\036\010<\326\371\016\276\337\224\374\275\342~\"\2762?\327\275`M\364<#\000\001>\2653$>\201R+>\220e&=\364T\356\275n\211\256=\327\0311>\000V\3739`\330\003\275rW\376=26u\275*\030\205=\217\362 >.\254\343=\266:\270=\323c\310\275\022R\255=\253\236\007>\312\277\307=\037\335\030\276\013;)>Wh\024\276;\321\027>\"6\313\275\022\001\226=@e\311;CL\024>\366\023\252=\007\241->`%`\274\272\351\222\275\260M\274\274P\330\020\274D\235\212=\260\316\210=\000>\371\275\032n\302=\002<\303=c\2552>N\304\207=\036\336\323\275\255L\">\360f\216=\342v\235=8\215\021\275\362\374\275=\261h\005>^o\252=\254\014{\275c\263\004\276$Z,\275\002#\243=\3349|=L<$\275\3165\005\276\210\246\325<g\"\013>\006\t\233=I\216\027\276{z\026>)6\036\276\273\"\220\275\2413\221\275\320\266A=\3577\034>\363+\034>\232\325\330=7\340->p\262\363\275\350\006\207<&4\360=3a\330\275\203\003\024>\315\261 >8ny=h\376\024\275p\351\264\275\220uB<\214<t=\000\020\r\270t\236\002=\222W\233=x\2301\276\250\346\251<\272d\030\276\371@\003\276\312\362\320=m\001\006>P\004S<\232\333\261=b\033\326\275\002\205\346=\270*\324\274\264\305\212= \363\360<\245&\032>@e\213\273H\034\262\274\206~\355\275\250\363\320<\246O\000\276x/\233<>\217\356\275;\3130>:T\351\275\205\366\027>\254\311m\275\023q\233\275\251\376\n>D\243C=0\213\343\274\241\276\026>\2550\'>\320;-\274\374\021l\275\200n\365\275\032(\214=\321\313\214\275\262i\260\275\302\275\237=\275\245\017\276\276q\232\275\206\272\300=\200\024\001<-\001\260\27595\376\275\365\n+\276\241\223\354\275\030\224\316\275!$\027>\325\307\037>\272\357\214\275Xu\266<PK\236\274L\274\027=\271\333\273\275\326Q\270=v\347\355=\226\362\306=t\260\t\276\351\371(>\212m\312=\246\017\336=u\214\352\275\320\2170=\364=G\275\320\016\300<@7\210<\277=+>0\0379<.\023\326=3\353\276\275\232\230\207=\234\245(\276\030\313\210<\370\341\226\274\016\016\262=\340\223\016=\366\020\365=\340\023D\275p\360$\276\300?x\274Z\362\376\275 f\036\274\200\234?<\221\021\337\275\303\254\336\275\310\325)=\345\316\312\275I\375\032\276\300\016\323<EU\207\275\303\315%>\247m\013>>N\276\275\311\332\006>\020,\220<\370E\367<\360,b\274\356\205\350=L\233\001\276&,\202=\306\003\302=bA\354=\3400\313\273\246\361\024\276e\213\315\2759v4\276p\243\265\274\216\033\370= \223\243<\306T\262=-G*\276\216J\371= \204\375\274r~\252=s\345\351\275\220,\313<\204\351\023\275Z\344\223\2755\330\346\275\340\303\217;\334\215\013\275\002p\224\275b\217\333=\204y\000\276\3072\026\276\346\234\311=\'F\000>\304\267\247\275\337\340\331\275m\344\022>\377^\034>\340\330\214=\364\023\017\275:x\307=H\013\211<\236\226\035\276\332\026\370\275\205\262\024\276\351\233#>v\333!\276P,2=$;!\275\360\203\274<\371\031\226\275\356\302\232=(,;\275\266\311\362=\0241Q=\333C\323\275\300\345\201=\300\202,\275\374\320\204\275z\375\004\276\303\t/>\346\020\333=\025\n\034>\302\013\206= \234\215=\002=\303=fG\332=\360jV=s\177\006>\302\253\305=\0130\202\275\370\354\317\274\201(\007>,\301g=b\231\206=\260>\031\275\330\026\224=u\335)>\340\322O<n\373\250=\326\320\303=\320\271p\275\200\217\035;pmB\274\370o\242<\002/\215=\2024\233\275\351\233\035\276\\\264\014\276\260\203j\274`E\222\274\274\361?=\000Z\207< \366@\274\340\001[\275\342\310\260=\"\244\245=\230\010\327\275Pi\300<\004ML=\010g\220=\000~\357;\314z\006\276\200o\262\273\230/\220<\030\370\032\275\323\177\376\275\244\361\242\275\3665\227=@\214}\273\332`\343\275\"\'\357=b\373\024\276\03160\276\213\315\022>>{\324=\025\312\010>2i\266=,Z$=\014\311\212=\275-1\276\024}\026=]F\'\276\026\321\367=\202\211\345=\304\271c=\256\002\326=\214T\004\276\364\037R\275h5\313\274/\204%>\224\367\036\275>\346\226=j\211\242=\000\020\342\274\200\2078=\264k\025\276`hf<\014k.=,\177}=P\335\311<\002\375\001\276\032%\203=\254[)=3\220%\276\276\252\365=\264\215\024\276\3375%>h\357\270\275j\325\013\276\030j\022\275\201e\273\275\351V0\276\010\233\203\275\273F-\276\'\231+>P\020;=\350x\277\274T\237\004=^\010\235=3\327\034>8;\001\276\366c\236=[\0134>\220\320)\274\326\215\266\275\265~\002>\300\341+\273kT2>\227\007$>\245\330\023>\020\272\027<\005e\017>M\361\322\275H]*=\0168\272=L2g\275R\217$\276H\270\222\274X6\354<\016\n\374=\356o\007\276-o\005>\016Q\347=\033\024\032\276\004\334)=\032\213\363=h(\001=[\005 >q<\024\276\233y\035>\350\311\345<l9@=\\\013\337\275\250\344\216<\223\376\031>(\036\353< \t\037=\266g\200=\362\226\265\275\300\242\005=\203\373\004>\207\315\227\2750\222\024<y\004\005\276z\367\345=\340@\213=\0208\353\275\375\343,\276\236\342\361=\254P9=\214\225:=\360B\307<\203\024+>\351\371\017>m\366/>\'R\031>\277Q\352\275\314(5\275\210\345\'\275\200O\334\275\252Q\231\275i\256->T\360\035\275\250\"\273\274~\212\225=\220\021]=\246\373U\275W\237\007>:\223\343=\362\314u\275B\262\247=\330\'\004\276x\266(\276\006\355\363=;O3>\300\375\241;\263\346#>\360oJ\275\346\230-\276\257\265\004\276\202\313\022\276\302c\002\276\314BX=4\243(=\312\231\016\276k\3474\27604!\274\300_\370\2732K\262=l\001+=\022\330\212\275`\332&\274J8\205=\313\252\'>8r&\276t\363A\275\200sw; \376\230<\372\347\326\275MP\r\276@\2742\276\310W\350<\251\327\033>*8\232=\200o\367<\352rU\275\364\023\312\275\031y\022\276\020\261\013\274\371d\246\275\320\232g\2758\200\004\275\371\026\252\275\000~\303<\376\236\300=B^\226=\300\276\t=\231.\276\275,\217\223=\223\367 \276\204fi=\360\244{\274\352\\%\276\341\3013>P\343\007=\270A\326\275C#\276\275\226\302\370=\020\255\\=fc\357=\341\350\007>!\243\034\276\013\304\354\275\2446!\275\300\010 =e\377\030>\316\004\363=^3\200\275\010mH\275p\253\014\275\016\351}\275/N\315\275;Y\353\275\340d^\2744\334\243\275{\007\031>\360m\306<\000\340\3548}\326\303\275\317K\266\275Wj\021>\376|\025\276\276\001\261=\212c\220= \337\264\273\224\346\034=V\306\245=U~\025>\3569\303=\201\265\001>\232\312\350=\255\360/>\216,\363=\324\3041\276H\266\207<\305\027\334\275\371\360\347\275@\323\033\2750w\212\274\240\023\362\274k\3541>\002\245\352=\220@\023\275\3607\026\276@\305\355<\207\335#\276\237f\025\276n|\364\275\000?\254\272\250\347-\275\000\362\310\273bx\372=P^\022\274\010W\366\275\006\363\217=\222\354\234\275:\n\273=\307\251\032>@\n(<W\370\002>\204\324%\276\340\270\341\275h\212\210<\221\265\n\276W\243\"\276\234\022\000\276\300e\222\273\360\364S=\240\214$<\364\234>=\177\307\022>Po#<\275\232\307\275\370:\036\275\244{9=\315I/\276\310@\221=^z\204\275\370\343!\275\004\246\306\2751B\"\276\242\n\234=\346\305\005\276,\364t=\010\316\350\275\216\250l\275`\322\320\273\236\266\243\275N\255\230\275\370\234n\275\274\220\003=\340_\027\275\210Y\322\274p\325@<g\220\001>\000z\212\274=?\317\275\274q\037\275\002\206\025\276\330\272Y\275\344\342-\276\302\363\337=(\335\325<x\206\001\276\021\375\023>\205%\271\275\276\203\r\276\260!\276<\237\034\035>\n\217\336\275\356\267\022\276\274]\017\276[\217\267\275\330\311\243<x\3335=O\0010\2768\251\315\274\360P\311<t\220\031\276\037\255\025\276\202\321\322=\325\361.>2T\322=\260u\240\275\214&R=\020\010\035< \336\322\2748W\372\274\003\225\236\275u[%>\366g\210\275!|\263\2750:n<\261{ >(\372\212\274\301\'\025\276\031\375\276\275\224\237\003\275|{P=\310\024;\275\006\215\321=\220\217+\276\000\316\n:\002}\233=.\244\353=\251N2\276\005b\016>N\371\206=+\025\034>\314\256\222=XV\341\275\300\270\255\275\3370\010\276[\307!>qy-\276\376\326+\276\222_h\275\352R\233=\022\027\352=\324 d=\361t\227\275%\364\016>\017\336\222\275\316L\022\276m\326\313\275\000\204C<\340\013\032<\362\373\317\2750\017\377\275f\217\233=1\347\242\275\270ig=e_\033>\300\307\025\275\322w\262=\376[\217=\332\262\224\275\270\236\206\274a\020\005>p\245m=\303\007\274\275b\315\373=\372\254\r\2761\262\021\276\232\310\250=\264\356\263\275^Z\204\275\250u\215=\324\034&\275\242\177\217=\342\314\255=XE\023\275$\214 \275g\273)\276X\332\267\274\362)\321=8j)=q\271(\276\177\250\311\275\277\014#>0\253D\275\244\376\020\2750*\336\275@\275A\273\340\240\315;X\201\272\274\336\0073\276\002\006\241=e\2371>O\3653>\020[\027\276*\370\010\276=\300\266\275\336\371\334=N\365\255=\004\221@=\346\355\377=\300\350d;\260\032\225\274aK\336\275\253\033\254\275\276\266\360=\205A\275\275)\370\263\275\017\010\037>C\267\027>\020\255/\276q\257\">\263\371\244\2752\333,\276\373O\017>\000;\367\274\3308\204\274\366o\242=W\212\002>\246\251\342=\260[\201\275Z\301\316\275\320\216\257<\200p\360<\337f->\023\030.>\030\365-=\0011(>\232:\272=.\257\356=\375\343\021>\370\2410=\020A\374\274\340W`\275\2274\327\275\tA\020>\022o\367=\264&\252\275@\210\247<*\313\310=\320\201\375\274\375\271\022>\356\322\253=\310\000\'=\327\3702>\214\367\371\275\010\013\311\274\032[\322=M\034.>\310\306\020=(\207\250<2\302\222=\200\024\'\276\276;\320\275\211\'\212\275p\2150\276\033-.>\2028\n\276hk\016\276\300\nw\274p&*=#.\025>Ci\t>@2z<\005\355\274\275\035\014\357\275\267\315,>\213U2>\320Q<<\030\2672\275\322\371\023\276\212b\270=\212R\304=T%\373\2750V\241<l\262X=\352l)\276\306Z\223=pK0\274\207\026\032>\352\257\r\276\307L\007>\342\037\230=\242>\353=\365\3732>r\\\017\276\360\027X<h\363\351<\000\200\264\270AB.>&\233\236=uR.>B\037\375=v\214\246\275\324}\t\275\315\032&>\247\021\024>,\205P=f\311\352\275\202G\367=\255c\001>Q\227\005>\211\321\025>nW\335=sJ\026>\320\\\334\274\321O,\2768\000\373<XQ\313\274X\027\276\274X\010\215=\017\025\213\275Z\350\255=\330\230\244<{F\000>\330:\003\276`;\036\276\254\310\035\275\026S\312\275\356A\324\275\014)\\\275S;\010\276P\246\377\275\016\0340\276Bx\342\275\000\356);\375\270\330\275\216O\367\275\001\027\250\275q\250#\276p\326{\274\\L5=X\016\217=\016# \276\207\"\025>\000U\234<\211M)\276\210~\240<\003\305#>l7 =\360\357g<f]\016\276\230U\220\274 \013\"<\353\234\032>\370T\215\274{\r\013>V\021\252=haw=Q\350\215\275\231\240\220\275\276\354\366=T;\375\275\235r\220\275\246\013\202=:\346u\275\202\364\037\276\300b9\275<\0300\276\255\223\254\275d\334#\276x\337>=\000\005\365\273F/\231=\250\0004\276(n\254\275>\203\270\275NT\230=\260g\305\274\335+.>\004\036\t\276\202\360\325=\366\312\274=\350\360\000\2763^\017\276\250u\371\274\372\030\222\275X\003\315\275\262o\337=@\032h;vNX\275\251[\027>\020\240\022=\354\371\033\275\242\021\234\275(\016F=\274\266\277\275=\341\275\275&\244\236=\225Y\035>\350&\340\275\332\367\303=P\007\226\274?\254\002>\200\237\r\274\260\244\034\276\t\367\006>|\360n=_v+>\265\374\363\275y\264#\276\2116\026>\233\365\203\275x\016\331<R\033\263=J\037\250\275\364\007\234\275\235\244\025\276\034G\021\276&C\272=\217\315\031>\364xG\275\356\374\376=8\036\204\275\341\0002>b\220\340=`\034\317\2743\302\304\275\340\360m\275`\266\355\273*q\321=\225\227\037>\300\377S;\007\272\002> \215F=\337s)>_z1\2768\355\302\274\206\327\242=\342\377\272=\031\220\223\275`\347d\274l\037\271\275E\375\235\275\nX\304=D\365\"\275\025l!\276\217\317\004>DBF\275\220\001\003<\"\310\245=\364\362`=JT\325=xJ\355\274\254A\020=\254\216\t\275\264FT\275\374k\017\275\346\313\367=\204\027\270\275\350Gy=\355s\006\276\034\326i\275\274\331\036\276\000^\005;\n\307\243=\377\224\317\275 \223g\274\225\377+>\016\227\230\275\373\024/>\260\303]<6\315\001\276\200D8\273\262p\315=\276\002\322=\315;\014>}e\020>\237\352\016>@\250J=\205\210,>U\303\241\275\252\333\347=\352\275\225\275\027\324\006>(\237*\276\374\323\017=L\017\026\276\034\\6\275\273\255 >\300=\271\273\262|\364\275\002\324\260=O\302+>\242D\240\275@;7;\030\256\364<\224\350N\2750\257\010<\242\217\340=\206~\262=\233\314\226\275\353\3340>d(\207=\335\3771>\177\004\246\275\n\201\344=\212+\247=\030\023\233<\336\315\013\276bd\214=\200}-;\305\001\260\275\260\365\034<\326\027%\276\322\026\324=0&H\275\334=7=\030F\310\274x\325\352\275\321l\205\275\030\353\353\275d\300\007\275 Q\374\273<\005\004\275\3468\220=\203O\216\275\340(\010\275\037z\273\275\371\261\021>\230\221\273\274\354\323\200= \342\206\273M\304\320\275\205\211)>\326\221\246=\242\362\264=\3640s=\274\270#\275\270.r=\370N\347<\310\007\233\275!\022\036>\300$2;\000_\373:0\226\207<\327\247\372\275\333j+>oM/>r;\020\276\210b$\275LF/\275r_\307=_\353\340\275\324]\177=\034o\357\275]\030\027>+\'\021>?9\002\276\200s)\275\254\255 \276\260.i\274\324(\224=\360\342d=>S\260=\020\277\352<P\237<=d\346@\275\230\212\241<\210\022z\275p\316D<w9\225\275\374\337\205\275\276\'\200\275\030\032\037\275\032O\334\275L\247\t\276\254/\010\275\200F\360<KC#>\034\344)=\227\360\001>\000\310p\273\370\216G\275fi\334=\207\202\017\276lz\n\276\340\331\260\2734\204X=\004\343a=\366\210,\2760:\256<\201\327\033\276\002\'\300\275v\260\266\275z\200\236=\234\361\002\276\267\363)>a\2654>Fd\217=@\343\374\274j\274\304=\200\256\222\273\240\303\370<H$?\275 \000\267\274\360\375?\275\355\023\001>n\250\357\275\333T\374\275\270c\024=z\027\335\275k\325.>\0000\252;\253%\017>T\276,=Y\366\032>\210\324+=\360\371}=J\010\342=:\024\366=\370\335\310<`\025\027=\360p\n\275 \223\031\276\266d\303=\352\220W\275\211t1>PT\360<V\212\314=X\024\264\274\271\356\232\275N\311\343\275\277*\205\275\306\030\247=P%\301<xF\224\274bt\326=\320\032I\275\355\306!>\016\255\335=\222\375\231=(\310\312\274p_\340\274p\250\021=\270\336>=8\265\244\274#\333\021>\000\276\255\274\361\036\342\275\355\305\021>\217u\035>[\250\350\275`\311\307\273v\366\335=m\032->\207\016\236\275\300\371G;\360\303\024\275,\370!=v\216\340=\002!\317\275\0007\013\273\234\340X\275N\330u\275\362j\005\276\030l\003\276\350\312$\276\234OX=e\220\204\275\230\332\253\275\256O\275=\013|\006>U\235\021\276/\302)\276,!,\276\206\313\332=\336\315\264=\352k\037\276<q\211=U\2500>\017M2>\210\277\363\274\220\"\000\276\302\310\336=\275\007\n\276\240\224\001\275\200\304\017\276\371\232\037\276f\226\342\275\262\364\372\275\366\254\020\276\307\232\030\276\252\215\250=0&\347\275b\200\277=\276P\364\275fQ\302=hD\241\275w\323\003>\313\241\203\275\305}\351\275\016\210\302=\226\364\231\275B\355\317=p\313\314\275Z:\324=\300\346\016\275\233\342\023\276\005\363\024\276\024\312\002\276\366|\375=\310\265\013\276\002\231\363=\"\351\362=F\374\017\276\262\353\376=\200\261\"<L8n=\340\003\230<W\314\257\275[\235\002>\300\274\031\273p\377\222<\000J\330<\"\201\026\276\272u\364=\374\353\373\275\250}\266\274_I\032>\200=\243\275\nI\246=\320\371D=\377\254&>\016u\353=qu\t>h\027F=M\r\026>@i\235;\225\300\237\275J\'\265\275\320\2251<\254\375T=L\2130=\376\304\326=\203\375\204\275\363\303\023>\246\307\377=\215\001\254\275\2724\233=\360\213\236<\270\023\265\274v\241\322=F\211\324=\304*\253\275\351h\355\275\272>\234=\201\363\210\275*\0001\276\252\327\242=\235\215\010>hHS=\323t\">\372\250\371=\014\030\237\275\023\331\351\275*F\247\275\210\376&\275`\\&\275O\311\035>\354\230\032\276\022\316\000\276\300ex\2747\274\355\275h@\372\275;A+>\247|\374\275`\034\230\274\251F\033\276L\256\010\276\260\311\n\275*o\200=\360\014 \276\006\235\352=*f\r\276jV4\276\256`\321=\264#%\276\366\312\330=\217\003\202\275\200\267&=\376\"\375=\362\364\330=\305\334\001>\300b\017\275\257f3>L\304N=P\316\253<\230\366\000=8\tn=\330\240\370\2752\300\365\275\000\t2:\241\241\r\276 8\230<\227s$>@\266\356\273\006\355\246=\266\253\371=\240-B\274\250\023\212<\371\036\225\275(\014\364<5_$\276\000\243\221:~\003\264=H\273\245<\254\021\005=\214\020F=\000\025\240<\020\250.\276\307\0323>\010\223\264\274u\372\'>+\270 >\200\016\235\273\360b\\=\000\027\212<\242!\240=\032\353\321=\352\",\276]\004\030>\000e\363:7\244\225\275\257\3534>\340\253+=\000\376\231\271\205\224!\276\030\214\273<~\004\367=\243\177\332\275%\016\347\2753\225\001>z\270\260=\371\016\036>@9~<\202\235$\276_\261\t\276\030\221\252<\2047\325\275\260\273\240<\313\210\335\275\014\017[\275\000=\006\272 \365\330;4\215\275\275\016\311\371=\306\225\317=\320s\212=\266\020\237\275\006;\350=Q+\020\276\340u#=Kv\020>U\346\025\276\220\270\026=Z\232*\276\000B,=\016\230\261=\256&+\276&\320\214=p\013\373<`\3441\275p\1776\274:]\374=q\000\036\276\364k\222=\343o\007\276\312\033\236={\354\022>K\245\016>4U-=D\223M\275)\024+\276\030\241o\2750\002\r\276 0R\275V\257\316=hg\351<\214\2543=\300\333\357;\332\244\001\276\023\224\374\275\004lr=\207\242(>\214$\350\275\024\321\030=\275P\022\276.\220\340=\265\377\t>)\301\021>\200\321(<\245\345\246\275\310\242\210=\264\230j=\300 \316\275j\234\263\275\332.\236=\350\301\"=`\177\313;\020\360\262\274xf9=>\311\322=b)#\276.[\231=\320\233\005\275\256k\347=e\007\204\275\313\217\253\275v\266\250=$=\t\276Phb\274\017\255\016\276D\307q\275\371\251\316\275\260\0222\276x\315w\275sr\036\276`R5\275\333\346\003\276*7\377=V]\254=9*4>8\357!\2767\020\004>\375h*>\342\350\202=\323\330\007>\254\364\036\275\210.\014\276\330;\004\276\252Z\255=\002\331\256\275\247J\236\275T\360\244\275\314\301j=\255\253\202\275\232\252\314\275Sg->@b\252<\212U\271=j\022\337=T\001\020\275\030\330F=\226\023\177\275\256-\377=7L1>b\260\311=(\304\261\274\226E\275=\366\033\003\276\024v\\=\276 \001\276J\242\363\2759\3741>X\303#=-\032\035>RY\035\276\220\226\032=`=\207\274\300\003];\232\214\261\275\210$\261\274\300\373\365;R\276\347=\350i\201\274\302{\262=\272[\006\276\366\300\252=\020\031\n\274\200\317\014;\220\271\000=kX >\254W/\275\271\300\235\275\204\n:\275\240w*=\030\264H\275\274\254u=0\237\230<\200\204B\273\020\t\211\274r\365\263=2\251\213=@\030\350<\211\366\001>\325\347\036>\320\201\243\274\260\024\377\2744W\034\276\230\"2\275\220\371o=\244s4=\001\000\270\275\210\356\266\275\200\350\222;\210\033\035\275\270\323D\275\177\227\027>\240K]\275\201\236\027\276\\P\372\275\350\327\202<y\371\n>\000\000\0027\000\313\002;\"p\336=\330g\000\275\267 \263\275\377[\027>\230\304\021\275\034\003\317\275pfG=\204\265P=\'\254\266\275\311\037%>\220a\006\276bP\230=\340\225#=\345\310->\326\313\246\275\324ME\275\237\331\016>\0046\205=2\020\207=\276x\352=\001\352\245\275\204\246\220=\020\352\204\274\370@\254\275\010#\373<\236\260\322=u\347\006>\331K\331\275\0025\022\276\312\210\201\275\305{0\276\'\244\277\275\025\367\024>\033-\264\275@\275\370<\300\243&=\314z\227\275\2605\347<\027\211,>\030\236+=\254\342t=\177\310+\276\244\335\023\275\020*Y\275\365O-\276\212\277\313=\351o&>cZ1\276\270W\235\275\350\322\024=nS\242=NY\373\275G\373*>\276\304\r\276x:\002\276P>\253<\321\'-\276\220;4=\247W(>\360\334\034<\240^\341\273\221c-\276\370>\315\274b+\257=\340f\302<S\210\014>\274\372\027=l\335-\276\257q/>\211\036\306\275\334\3662\275%m3>n\277\010\276PI\373<\225t(>P}\274<\340\344\310;\301!\t>\231Y\307\275U\316\320\275\244e4\276b\0230\276\304\351s=)\2611>\240\332~<4\355\036=\366\345\227=\323\027)>V\362\326=\221R\320\275!E\304\275^\236\365=\360\255\362\275\031&\002\276#?4\276hx\201\274\355;#>\316^\314=\304+e=\344\271\006\275\333d\031>\023<,\276\330N\021\276\032\207\265=P\231\303\274`\361I=L\246\307\275@\266\004;\270_\213<w\250\344\275=\205\033\276\271\340,>\320\336\375<\347S\024>\374\030\324\275\275E\013\276^s\327\275\0041\036=\357\025*\276h\261\350<\206\234\241=\206\226\030\276\010\254\025\275x\216\310\275\255i!>\000\323\306:\320\217\342<-\024\326\275J*\030\276\000\313\247\273u\242\240\275\034>P\275h\327 \275`\\\315\273\310\000\274<\231\347#>\034m\r=\034\031]=x\313\021\276\341\374\240\275S\347\017\2760\263\021<\"\337\255=HDJ=)E\033>\027\333\003>a03>*\177\310=0\030\225=bm\227\275\350qP\275`\017\272\275r\013/\276\216\302\241=s\216->x/\357\275\274\263R=~9\220\275\326B\245=\376q\272=\274k\002\276\304 \024\275\026\326\322=@\204\207\275\216k\026\276 \304\305<n\243\367=\016\032\356=\340\332\322\275\020\320\\\274\3708\355<\250\005\202=@\337\010;0~w<\202\250\235=>@+\276\242*\252=\017d\n>\277<\r>\006\207\351=9\031\'>vQ\320=\311*\332\275\213\276\026>j\'\361\275\n\353\261=\352\241\310\275\227g\337\275jm\221\275\310\031[=\270%F\2751\353\027>c\3220>\300\355\202\274\374\356\311\275\013\304\234\275]\304)\276\256\177\254=\210\366\266\275\010\034#=G\222\033>`\312-\2768Y\344\274\3402c< F:=\327q0>\270\363a=@7\250<06;=\030k\355<\331;->\355L*>Z\230\324\275\370\324\275\274\314\017I\275\250\256\250<\317J\341\275YZ\035>\200Do=\006\037\307=p\\A\2751\377\035><\366\026\276\237\356\030>\300Cf\27405U<48n\2750\'\365\274\240\224|=\320.\323\274{\201\000>\2347\303\275\220jc<(S\202\274@\013S\273\006\205\230=\023S\033>\334qz=\225\t\277\275P\376\272\2755\001\020>\324\321\225=^C\252=a\021\t>F\326\323\275g\337\025>|n\217=\310\373\020\276\0027\334=\212\"\"\276\004m\211=\300r\301\274\300\210><\370\334#\275\023\234\002>\270\337\304\275c\321\037>.I%\276\360 8\275\252\306\232=\214\250\204\275:9\371\275\032\317\366=@W\271\273\r\377\026>\254U\202\275\314x\355\275\322]\361=7\354\317\275/\234\374\275\342\377\347=r\220\235=\350\300\255\274\340\270\301\273\244\203Q\275\270\227\203<@\200H\273Z\361\232\275\016=\217=`_\025\276\241r\030>\256\274\035\276\nt\376=k]\013>\200\325P;\362\254`\275\315\357\035>Vu\223=\220PC\2741\236(>\351\306\214\275l\030\222=\000\340\2238L\0173\275U\2541\276\350\356\262\275=\021\006\276\336\234\240\275z\270\266=k\330/>\254\375\350\275\001|+\276\224\234R\2759@\017>\226\262\261=\253\266\252\275E\204\375\275\334\246\353\275\010\245\014\275\231\003\026>bW\372\275\374Zk=\271\255!\276\020K\207\274\000x\263\2748\305\252\274_@*\276\244\313~\275`\311\374\275\034\332\024=<\300%\275\036\010\235=\323\276\n\276sF\035>h\356\027\276\212:\306=h\210\236\274\216k\300\275\300\305\277\273\230\331\002=\313U\014>r\252\221=7T\000\276\202\225\344=DDn\275\216\006\025\276\375`+>\025?\214\275\306\321\353\275\007\326\003>\340\225#<\246\257\317=<\036j=\n\255\334=&\024\327=(\326\274\274k\313\277\275@ \376;\320~`\275(^\241<\204\337p=\266\t\344=\014\335Y\275\326EU\275\237P\017>\254\0065\275\220J0\274\014f.\276V\305U\275\004Q]=P\301\333\274\332\241\331=\236\375\321=\220\377\304<T\215\220=\201\347\204\275X0\351<\3004\023<ra\'\276>\036\245=\340\222\311\274L\361\013\276I2*>\343\364\001>\204a*\276\300\211\307\273~J\254\275\2676\017>qt\007>`g\211\274\211\2501>\"\304\307=\366\341\302\275p\343\370\274\000\244\3649>\313\313\275\"_\343=\255\220\026>\276\r\022\276\023\365\005>7\272\237\275\373\220.>F\206\211\275\211\215\000>\\9\037\276@\225\206<W\210\031>\214\206\214=\270\317\225\274\260\235\305\275\257\340\027>\320\227\346\275\274JZ=\264\230P=+0\302\275\215\315*\276\315\213\307\275\372\247\354=\000`~9\312\227c\275\324XZ=d\340\361\275\226\n\371=\232\214\017\276O\211\224\275\322\202\362=\017C\334\275f\326\017\276};\r>f\220\377=\2620\271=\264\006A\275\000\341\230\2720:s\275\003\241\005>p\375C\2740|\037<44j=\\U\030\276\300T\354\274eP\321\275s\310\216\275\263\360\030>\256N\234=0\240k=\306\230\014\276lQ[=\334 F=\303\365 >\252\312\324\275\277@\025>\300\374\027<N\307\243=\200T&\276\372k\356=\275\\\007\276\307\347$>\344\224\001=\260}C<\255\333\030>\376\302\032\276\203\037\r>S<\007>\365F\357\275\330\022\270<6O\344=\260\030d\274\020\371$\275\370\352&\276\273!/\276{\376\026>\200\256\017=\324\371\207\275\016~\245=]\020(\276\354\274/\275\323\375#\276\366\310\342=\333t,>5\205\367\275 \370\004=z*\020\276$\215L=\361\254&>L\357\037\275\373\247%>8\315\274<\312u\376=\230\375\026\275\335\241\250\275\330D\356\275\212\227\276\275\346\231\365\275\026\376\325=\340\374\200;\\\251w=\200\031\211\274`\3108\274\020<\254\275d~\030\275\033\250\351\275<E\254\275H\303\225=\244\242z=\030\022\343<@\362\214;\240\252\013\275\300x\313<q\321\033>\340\033\355\273o\'\252\275+h\233\275\252\211\360\275\321C\036>\240}V=F\366\217=S\2771\276\"-\226=\353\263\212\275\037(\307\275m\243\241\275\376\272\321=\021[\206\275hu\016\276^\266V\275\331a\244\275\370*\025\276\314=S\275+$\022\276\317\3462>\357\271\034>\222\350\322=d\365V=\320^%\274\216\036\224\275\317\344\361\275e\321\305\275aE\022>R\231\366=\021\3050\276\346\237\014\276=Q\335\275\000.\316<\370\026\325\275a\345&>0\313\354<\200\204\203;\nT\301=\005\242\311\275\210\341\177\275N\223%\276\315\262\021>\360\216\376\275\001\312\266\275@\220\036\273\220\200\344<\226I\275=\262\267$\276\250\310\313\275`\002\177\274$\224\025\276E\006\317\275\370\341\000\276[\351\032\276\357\370\'>\030\272\370\274\326\033\265=\323\033\025>e\271$>\250=\303\274\020\362g<\000\220K9d\004\225=\032v\366=\374J\n=,s\010\276+\306\005>\374*\027\275\351\3474>XN\307<x\027\355\274\370p\216\274\320$\006<h@\225=x-\321\274\374\235\355\275\213u\r>\216,\336=\236\255k\275\002Z\236=\212\302\233=@\203\246;\326\276\352=q\365\t>\303\342\035>\341\205\241\275\234\343;\275?\013\271\275\370\304\003=\240\264\367\273\002\265a\275\006\307\275=\200\311\321;\226\340\372\275\237?\024>\210B\214=\020\1771<P_\022=\240\275a\275\3641U=V1\221=\030\2443\276\272\213\343=\230\346(\276\364-\030=\255\367\">p\341m< t#\276nm\311=\r\362\244\275\342\311\033\276\"<\244=\260\323\203\275\020\263(\274\232w\344=\014\306S=\376\031\232=@\2202\273\204\024j=$!\214\275\243\221\014\276Y\035\014>~\013&\276T_-=\256z\327\275`\017\310\274\034\373J=\027/\002\276D\'u=\010V\216=\315\247#\276\271\214\222\275A|(\276D\362\035\276w+/>1\337\004>r\247\225=\370\370\271<\206<\350==\356\325\275\240#\321\273\300\014\241<x\327f=@8a=\320\000\017=\177w\022\276\226\000\311=JH\246=\345\003)\276\320\016\243\274g\r\013>p\3259\274\to\026>pk%\275{\330\245\275\305\020\350\275fW2\276Y\205\">\212A\255\275\264\231#\276\342\221\364=\024\267\326\275\372\327\303=\304\317\004\275B\226\354=\230\230\025=\000\316C;\033\353*>\253]\002>\027\227,>Pk\362\275\013\364\000\276\024\344\365\275\\\2363=\355m\307\275N\211\350=\230\201\365<\200\3554;\343\345\007>\000X\t\275\026e,\276\315h)>\300}\304;\366h\013\276\314O^\275\000\0103\271b\325\004\276~\037\234=\016\373\007\276t\003Z=.\361\311=\214\367\200=x\277\261<\375\000\n\276Z!\311=\207\213\001\276\326\337\224=O\215->\371m!\276(\243B=\000\r\016\276\274\274\260\275\322\373\304=`\2473\276k\217$>~\340\201\275F\326\303=\361\025\032\276$c\355\275\362\351#\276\354\335F=0y\365<d\203 \275\350+\'\275.\244\360\275 \031\261\274\030PC= \032\206<\250\t\356\274p\374p<W\272#>\014aJ\275\300N\n\2743d\267\275\214\234!=\202$\364=\245\021*>\373\243+>v\333\224=X\240\342\275\326\232\331=L\243(\276\361\250\024>\260\177&\274\324\3640\276\347\014\022>/A\026\276\200{+<\316L\307=\202\364\236=@\027\223;\254\260!\276\326N\354=\362\330W\275\033{\206\275\344\357\357\275l\273\344\275W%\001\276\332\362!\276\030\240\022=\230x\r=\375\255\255\275\320\026M\275\242o\240\275\034\340\202=\017~\016\276B\261\252=()e=\222\276\367\275\220#\t\276Y\267+>\200/\203\272\256[\202=\210\302 \276y\316\030>\254D \275@\374\200=\025N\372\275\356\010\363=\372\356\314=u\234\032>\374o\006= `\334\273\240Q\265\273D\232\022\275\224p@=7\221\010\276\335q\001>g\2230>\252Z\021\276\300\033\010\275\334\370g\275\325\213\037> \305o\274\320\347F\274\230\246\371\274\255\340\035\276 N#<v\321\006\276p\2659=\031m0>\037&\037>\260\016.\276\355\255\003>@\266\311\2730S\031=\354uz=J\223\352=\240\347`\274\014Uh\275=o1>\266>\r\276\316&\233\275Mv\023>W\236\027>\356b\343\275\226f\274=\034\365\201=R\214w\275\264k-\275\216\221\311=~j\240=\3502\346<r\231\027\276M\341\001>\373\004\211\275\360\314\220<\001\353\014>\310j\036\276\030xV=LP\r\275P\246\360\274\014\0362\276@,\022<\225\244\013>\030\2442=M\326\027\276\340\007\332;\225w\334\275\331\203\235\275q\217\335\275\271Q+>\241\205/\276\270\277\276<t\367\004=|\223X=\356\264\364=\351E\266\275\200Ss\274\260\233n=r\245x\275\346\325\361=\001\245\037\276\370\214\354\274~1\241=`E\250\274\026\017\345=\340\234\256\273i\353\034\276ns\303=\020`\242\274\367\337\r>e\351\216\275(:\214=\000\032\367\272S\2174>\246\304%\276:T\313=\344\3639=\326\002\216=j\317&\276\237\333\230\275\366K\330=I!\n>\275\0302>\305\341\275\275\010\342\235\274\357\035\200\275\326y\352=\\oa=\014ID\275\360\325 =\315Y\032\276\000\030\032\272\223\303.>\034\216$\275^\335\252=\362z\305=@\024\277\273\\\014n=\356*\224=h\005\321\274\360|q=|\306)\276\340\337\222=\274\200\000\275\330|l\275\300q\262<\006a\326=\030\312\224=\034\322\310\275H\277\322<\350\037l\275QH4>1\240\032\276xG\320\274\240\213\372\275\217\025$>\241\3541>6\350\377=\006\253\361\275\"/\r\276\243\014\001>\017\203\">\337\332\213\275\003\273\004\276@\242\201\273\225\0361\276&>\305=!\3550\276\325\023\267\275\202\032\025\276\214\243\243\275\3208M<\007\036\234\275 \013\313;\244\310G\275,\327\000\275)\200!>\nC\240=;\211\001>\006L\205\275-\177\315\275\335\307\007>\252\021\352=&\306\260=\3144c=w\034\002>\220\'\031=\334\313\"=\224\373V\275t`x=\336\332\344\275\2656\027>q+\013>7\340\007>0\023Y<\324\327\346\275\000\250\3728\002n\347=Pq\213\275\370\2759\275\350x\242<\2458\023>\004\213\260\275\310_\211=~\001Y\275\2031*>X\211\030\276\230\242\231<d\335s=\242\000\037\276\000\024\305\272\252T\264=@x!\274\330U\344\275\211u\017\276B\264\350=\026{\035\276(\375\256<\002\213\350=\3406\345\273\224\236\304\275\260\275\t=\332j\215\275\016\374\002\276t\323f\275\201\270\351\275H\025^\275\321;\000>X\016F\2750\370\024\274\350\231\r\276\'z\234\275\367\234\242\275\3649z=\276\363\373=T\250\010\275\256\271\376=\250\'\035\276\226\366\250=\203\211\n>\240\017F<\000\372\002\276\006\335\347=\245\3102>\362\233\212\275\302d\024\276\313\311\016>\021\335\205\275\233\336\343\275u\311-\276\217p\005>\\\002\n\276\003L\207\275\335z\016>x/\310<%\331\026\276\366\347v\275\230d\337<\226\211\243=`\305 =\272n\277=\320\322\357<\235\003&>\320\225\010=\201<\025>@/ <M\217\271\275\326\244\345=\270!\213=\3638\'\276\016\306\207\275\240u)\275\275\364\025\276D\245u=08\320<\257\266\r>\205\214\021>\304\203[\275\327w\321\275\010\013F=(_\246\274\020ea\275\360A/\276\000\264\362\2730\250y<\320\304\237\274*\264\232=\234\342Q\275\034\010p=\346\021\317=)\020\013>\3638\001>|\374g=\n\232&\276\200\223\000\276]\330\341\275\370\302\323\274\326\255\234\275\320Jv\275\252\036\255=\336o\373=za\301=\\$,=\200\313\315\272\370\030 =P\364\243\275\005\337\n>\212\356\377=t\347\013\276NJ\252=\036\313 \276i\356\014\276\003o/>\352}\254=\366\022\321=w\2543\276\262\316\243=\033{\006>L\323\016=\346v\316=\032q\t\276\261\255\036>\000^\3619\376,\367=\243/\024\276\374\263\033\276\022\322\220=\360\326$\276\316\360\256=\200#&\275pW\304<\004\026o=\024\202\277\2754\247\251\275f7\027\2760h\254\274\216\t\267=\315\321\027>\004\372K=\300\002p;\200$\354\275\2200=\274\362%\327=\345t\030>\360\304\305<\007\001\013\276\302\201\270=\327-/>7\324\235\275\255\320\025>\000w\370\274\221\333-\276n\251\340=\340M\177<\267\007\250\275\370I\021\276Z\035\274=\020]\225\275\026&\356=(\304&\276#>\021\276pE\007\276\365\2452>(F\335\2742G\217=\000[Q\274\314e\034\275\220\255I<\360z\010=\340^\275\273\206\361\304=\352\237\240\275N\351\373=\300C1\276&H\274=\310m\021\276\272\302\312=\230>1=\240\276\315\274\363k\311\275\266\345\310\275E\272\004\276gw\252\275\253\342%>\303t,>\321\3032>j\246p\275\000\223\'\272\252\n\372=\344`6\275F\233\034\276\000\331\037\273a\010\004\276\220,\216<\230A\345\274_\252\014>\201\355*>\036\235\222=\256\363d\275c|\275\275R\034\255=\252\2721\276\320\255-\275\021\004\021\276x{\r\276:\334\352\275\034\363\306\2756I\370\275[\"\002>n\307\302=\310\333\320\274\002\r\214\275\306\034\346=xo\213<\271p%>v\251\207\275`\0011<x(\346<\313\204+>\2603\335\274h\253\014=\240T\310\273\272\375\177\275oO\224\275p\246\253\274\n\031\323=+\364\020\276#u\213\275,\\<\275\nD\353=:\267 \276%>\270\275^n\004\276\000\202?\274.e\375=wR-\276\322\212\356=~\375\344\275\315q,\276e\315\010>x\006F\275\262\201\226=<\361^=\006\265|\275\365\305\221\275f\032\027\276+\274\023\276\300\020\223\274h\307\003\275\230\377\371\275\343L&\276^\246\265\275<\235\r\275\266\346\224=\240L\205;\000\3371:\250\006\033\276\026a\251=6\210#\276\200\333\351;\220@F\274o\240\263\275\020j\010\275\356\321\211=\312x\264=\023p\207\275\260|\375<\3003-=\346\323\226\275Nf\210=\260.\273<\240\035\224=\342z \276\026\0314\276\034\204\376\275\244\022\277\275\333\177&\276\240\\7=\313\022\021\276\000\306K\273G[\022\276\200\347/;\230n\212\274\334\277\215\275\377\263,\276@\252n;Vv\243\275\332]\346=\010\327\'\275\322\374\020\276\027\370\020>\252\245\023\276x\022\203\275\340d\363\273\215\337\037>8y\024\276\342d\257\275&\336k\275\227\334#\276Gy\236\275\260mz\274\376\326\034\276|w\216\275\037[*\276\254\317\237\275,:H=x\tw=\255\"\016\276\351\266\025>9\244\021>Yk\t\2768\313\270<.\"\371\275\r\261\211\275\"\256o\275P\"H\274\200>\240;2\202\376=\361x\353\275>\020\371=\203u\021>\340Ar\274\301\341\356\275W0#>\027\017/\276h[\246\275\352l\301=\004\205v=\216\r\263\275,\250\204\275PLx<\264fg=lk^=\256\245\255\275\321+%>\200+\362\275&`\311\275f \304=\253\307\036\276\322m_\275\002Q\316=\000\0278\272\310\260\322\274\000\004\3069<\006\016\275\366\t\347=zW\356=\030.\220<\n\2030\276\241\256\344\275\316\305\023\276\270:I\275\206\237\233=@\357_\273\035&3>,k\254\275\r\250\006\276\034\376\035\275\252\007\235=\266\275\321=\2606m<\t\036\020>\030u\351<\276\003\243=\0240\037\276\225\021\303\275P\023\010=\0005\275:p\247,=\240\234b\274\342\301\236=\245t\035>J\354\302=\020\007\262\275\020-\257\274\340\001*<\333\216!>0\200\361<;f+>\225\227)>\026\027\351=^S\356=x\377v=6\325\026\276\306w\274\275\0241,\276\237\265#>5\367\032>\314\333\214=\256\211\356=\222\346\252=F\222\315=\r\353\002>@\2066;b\223\014\276\205^\">\024`\035\275Fl\252=>\357\007\276\372\221!\276 \017\241\274\220\370\244\274G\350\035\276P\275\214\27409>< \010\301\273r\311\311=\034\024\316\275X\367\372\275\305\217\004>$x^=0Y>\2749\375\"\276Q\350\032\276lg\211=\256\332\201=\033\0002>\317\r/\276\360\001h\274\000\313\035\276\256Z\355=\314\212\205=.~\247\275\020\312\026\276Z\210\371=\254T\241\275\031\347\325\275\2722\342=L,}=`m\361\274\311\234#\276\340\315\261<\030\026\255\275\340z\274\273n\364\025\276\366[\310=\027\3313>\310\327I\275U/*>\3560\270\275|f3\276\225\226*>\2315\007>\200@\264:\017N\314\275\252\301\033\276\030\036%\275\344X\266\275\224.\033=\031\305\006>\022`\241\275\260\010\356<\356\230\376=u\\\212\275\376\210\231\275\346-0\276\364%n=\021]\026>\200\014K\274Zu\214\275~\034\246=!##>p\275\330<lgb=\302\306\265=d\267c=\372\351\231\275\220\311J\275R\247\312=\226u\325\275\255l*>\310S\337\274@\2050=\276\262\265=\243c\021\276\334\005\027\276*\271\033\276\364\350H\275\371\343\375\275\177U\006>\020\223!\276\2463a\2755s\262\2753\365\034>7\327\005>&u\302=3:\005>4q\025\276h\305q=l\2349\275\262\203\365\275NL\265=l\346T\275\260\337`<>=\242\275h\036\003\2755\363\007>\300\010+;\323\255\017>i\320\000>\217O\032\276\232W\263\275\330tB\275>\204\252=\036\301\331=\2263\272=<}{\275\331u\000>\200\215\234<\3208Z\274\016N\254=lXL=H\370\001\276x\235\376<\253\255\006>\200\236\214;k\247\034>G\t\026\276IB\n>\005\3022>\236@|\275\206]\353=\2655\010>\336\235\237=\200\000\303\274\346n\263=\214\225/=\340E\376<l\000\305\275N\214\201=v\272)\2769\234\313\275N\r\233=\340\346c\274\r\365\006>\014n\347\275y\r\037\276\325(#>y\312\230\275fB\365\275Fga\275\324`B=\036_\273=/\021\330\275[;\002\276\310\370\267\275\316\273\251=\204`\035=\262\262\255\275@\363\022\276\372\260\342=\".!\276\024]3\275\271\330\010>\000LI\271\377C\326\275 \245O<\005C\306\275x\032\226\2748?\202=p\324\275\274\014|\344\275\0208!\274\200\347\256<p\325\263\274>6%\2762\346\317=\343f\260\275L\246q\275\233\260.>\360\260\212=\322\214\210=\207\337\334\275|\252\305\275\317\3322>\256\013\274=\200\363a\273R\303x\275R1\361=\342\233/\2766\353\320=0r\r\2751\251\005>\"x\253=s})>\200\333\371;\026R\355=q\314\t>\003\276\001>\376 \357=\030\255{\275\335\255\212\275\361D%>\344\233\007\276H\241\360\274\304j\\=\250\263\306<z\264\325=Go\251\275\013a.\276\354\362s\275\230\275\314<\320\230\263\275\332\343\357=\200\334\031\276\204(\345\275(\007G\275\036\031\310=H\223}=\337\214\343\275p>\022\275\340\340A\274x\326d=>\272+\2760<\262< \352\346;D\363\003\276\203\255\001>}\3504>((a=0\314\230\274z\336\301\275\346\210\377=\354\213\311\275P\3620\275\370M\201<gt\334\2758\361\201<$\254t=\374\021E=\007\307\207\275\320?\363<\250r\007=>\027\344\275\353\204,\276\360\356\376\274\030b\032\2750&-=\211\237\317\275\260\263\266\275\345\316\234\275\250\024\004\275\346\264\253= \364\363<\306\300\260=\343\277\020>\361r\021>\006\254\354=hV\004=xm$\276\304<\"\276<VK=\346\244\215\275\2442\035\275\325\006\025>\356[\022\276\302]\361=\234\no=X>1\276\r\370\023\276\020\367?<\274x\025\275\232\'\255=\237\273#>\n\316\250=\350np\275P[\037<2T\343=T\010\344\275\000n\232;v\201\334\275\000\370\'=\344\336\317\275\220\362T\274\307\320\006\276\000g\016;\037\032$>\257\343)>P\350A<\202\2122\276\243\262$>\264\252s=pb&\275\355d-\276z\362\360=`\210\177\274X&\346\274\000\301\354\272<-*\276\211_\023>&%\202=\362\271\265\275\230\257#=x\213\302\274\016\273V\275\r\2411>\334\240\031\276j\366\226=\000>A\273\002\210\350=\274\311i=,-z=\312z\355=\223Y\324\275h\n\"\276f\247\027\276K4\r\276j\000\322=2\237w\275\026]\303=\\\344\342\275>\277\215=j\257\343=X\364G\275K)\355\275\230\021g\275\252XU\275\006m\307=\021\3134\276@\276j;0\254\216\275\013\236\016\276\264F\241\275EK3>#\013\223\275\276\000\242=\226\277\331=\306\t\273=\266\334\360=C\350 >\330\265?\275\213l\244\275\243>\016>\\\251U\275\332b\315=\324\217\037=\374\315W=>2\020\276\000A\227<\376\317\372\275[\342\010\276\000_(;6\364\224=\300\007\330\275\366\336\234=$\237/\276q\004+>\333\320\262\275\220m\020\276\006\321\362=\322\004g\275\024\023\356\275\271\353\303\275\221\334\307\275\002\277\323=j\235\n\276T5\216=\222\225\231=\313\326\021>\316[r\275:\013\027\276a\3741>\320\017,\274\275\375%>@5\205;l\213\200=\372c\"\276\234u\215=Z\365\307=\260\227{<\374Ti=\372y\354=\357s\277\275\302>\254=h\225$=^ 