node {
  name: "x"
  op: "Placeholder"
  attr {
    key: "dtype"
    value {
      type: DT_FLOAT
    }
  }
  attr {
    key: "shape"
    value {
      shape {
        dim {
          size: 4000
        }
        dim {
          size: 16
        }
      }
    }
  }
}
node {
  name: "decoder/conv2d_transpose_3/Shape"
  op: "Const"
  attr {
    key: "dtype"
    value {
      type: DT_INT32
    }
  }
  attr {
    key: "value"
    value {
      tensor {
        dtype: DT_INT32
        tensor_shape {
          dim {
            size: 4
          }
        }
        tensor_content: "\240\017\000\000\004\000\000\000\004\000\000\000\010\000\000\000"
      }
    }
  }
}
node {
  name: "decoder/conv2d_transpose_3/strided_slice/stack"
  op: "Const"
  attr {
    key: "dtype"
    value {
      type: DT_INT32
    }
  }
  attr {
    key: "value"
    value {
      tensor {
        dtype: DT_INT32
        tensor_shape {
          dim {
            size: 1
          }
        }
      }
    }
  }
}
node {
  name: "decoder/conv2d_transpose_3/strided_slice/stack_1"
  op: "Const"
  attr {
    key: "dtype"
    value {
      type: DT_INT32
    }
  }
  attr {
    key: "value"
    value {
      tensor {
        dtype: DT_INT32
        tensor_shape {
          dim {
            size: 1
          }
        }
        int_val: 1
      }
    }
  }
}
node {
  name: "decoder/conv2d_transpose_3/strided_slice/stack_2"
  op: "Const"
  attr {
    key: "dtype"
    value {
      type: DT_INT32
    }
  }
  attr {
    key: "value"
    value {
      tensor {
        dtype: DT_INT32
        tensor_shape {
          dim {
            size: 1
          }
        }
        int_val: 1
      }
    }
  }
}
node {
  name: "decoder/conv2d_transpose_3/stack/1"
  op: "Const"
  attr {
    key: "dtype"
    value {
      type: DT_INT32
    }
  }
  attr {
    key: "value"
    value {
      tensor {
        dtype: DT_INT32
        tensor_shape {
        }
        int_val: 9
      }
    }
  }
}
node {
  name: "decoder/conv2d_transpose_3/stack/2"
  op: "Const"
  attr {
    key: "dtype"
    value {
      type: DT_INT32
    }
  }
  attr {
    key: "value"
    value {
      tensor {
        dtype: DT_INT32
        tensor_shape {
        }
        int_val: 9
      }
    }
  }
}
node {
  name: "decoder/conv2d_transpose_3/stack/3"
  op: "Const"
  attr {
    key: "dtype"
    value {
      type: DT_INT32
    }
  }
  attr {
    key: "value"
    value {
      tensor {
        dtype: DT_INT32
        tensor_shape {
        }
        int_val: 1
      }
    }
  }
}
node {
  name: "decoder/conv2d_transpose_3/conv2d_transpose/ReadVariableOp/resource"
  op: "Const"
  attr {
    key: "dtype"
    value {
      type: DT_FLOAT
    }
  }
  attr {
    key: "value"
    value {
      tensor {
        dtype: DT_FLOAT
        tensor_shape {
          dim {
            size: 3
          }
          dim {
            size: 3
          }
          dim {
            size: 1
          }
          dim {
            size: 8
          }
        }
        tensor_content: "\266\002\344>bo\036>\366\255\245\276#\326\326=}r\370=\245\366%\276\325\221\032>\240\274\204>\322\203\264>h)\334\276\0251L\2756{I\276eU\256\276cu^>\030\223\215=\202\333H\276\200\224\033>\243\215E>DM\251>\253\243\277\276s\352o\275\312J\321\277\220\366\207>\210\234U>\237\363\256\273Y\202\177>Ts\332\275\253\242V\301#\337\224>3h\032>\t[\267>\035\002\200>+T\241=\247\177\227>W{\014>@g\225\275\r\375\307\275Cl\220>\252{\031>\027\271;\276\375\341\352\275\325^\211>ay\316<\300\267]\301\277\207/\276\255\343V\301#\360+>\224\302\225>\344\302ZAI\235e>\367\207-\301Q\355a\274\345\301\010>\377z\312=\304\3664>p\216\032>\177\247(\276\325\370\361\275\314\240X\301\314\017\215\275q\334\324>\231\355k\274B\003\220>\300\034\326>\223\n]\301=\"\355>\354B]\301\n\332]\301\200`5:s\366Z\301i\255k\276\357\004\371\275"
      }
    }
  }
}
node {
  name: "decoder/dense_9/MatMul/ReadVariableOp/resource"
  op: "Const"
  attr {
    key: "dtype"
    value {
      type: DT_FLOAT
    }
  }
  attr {
    key: "value"
    value {
      tensor {
        dtype: DT_FLOAT
        tensor_shape {
          dim {
            size: 16
          }
          dim {
            size: 24
          }
        }
        tensor_content: "%\374\006?\002\004r>VH7>VfF\276R\'\341\276W\037=>\"\000M\276\221\225\271>\337\265\313\2769\252\304\276\013\341%\277\275\221\026>\343@\203\276\276\032\251>\253\353\372=g\302(\277f\360\205>s\312{>\273\330\010?\274\240\021\276Y\246Z==\364\227=\370k\323\276\331l;\277\246q%\276\275j\010\2762\033\342\276\367\332\377=\347\300\244=\225\205\234\277\320\037\206?\216\271\244=U\300\331\275\025\204\333\276\250v\343\276\035\021\353\275r\371\256>\261\214\372\274\344\253\377\276\331P\271\276\033\257\354\276.-+?]\300&\277]\0201?r\331s?\211\317\345\276\2001\206\274\206F\371>\323\2015\277\327>\006>\261\225\001=\235U>\276\223\025+\276\246mL?\020\020\227\275\227\231\327\276\207\206\305>V4\320=\336W\300>\240?\030\275\231\227d\275\204a\n\277\213\253>?\000Q\242>\231\215k\276\021\006\314=*\245\300>#I\310<\272\020\241\276q\351K>\t\205\243?-+\215>\300,\303\275\316\372\207>\272\022\013\277\362\331.?\006H\321;D^\250\276\266\"3=K>\321\276q\304X\276\321g?>s=#>\313)9\276\214w\234>\250\212\347>WC\307\275j\",>\371Vj\273k\306\234<\307\245\206\275\0211\227>\352r\242\276\004V\234\276\n\t\213\276\022\005\020\276Q\\T\2769\271=?\n \262\276\337[\302>\321uZ;s\317Y\277\032\344\377\276\323\246\000\2775jg\276\232\032\261\276h\311E?\007P@>\261o\002\277\210@\226\276csb\274\307\n(\276\3470\371>\255\267\270\276~!\340\276\245Y7\276-/\275\275\347=\220\275r\212\236\275\204\017\366>\352r\245\276}\3429\274l\0256\276\003\261p\276\371\374A>\311Z\227\277\361\005a\276\021\302T?W @?\351(\207\276j+\272\276\233\320,\274\0009\306\276\352@\345>zS1\277\021\014\001\276\231Z\024>Ofg\276\007\273\352\276\023\313\222\275\225\224t?\223\235\260>\303\nz\2760\351\244\276\202t\221\276k\2779\276\017\242\352\277\003D)>\270_\214\276\211\1779;\224U\233\275\023\252\006\277\232\305\002?Mr\276\274>\241\230>\031V,\277\026\000%<\361\207\217=w\304.?\237\240\316\275\240]\211\276w\304E\276\005\322E>g\205F>\201\023\257=\312\206\331\275b\202U\277\264\354\242><\275)\277M\275`\276\226\204\206>\273\312\344\276\301H\332<\300I\256\276_\265\273\275#\264H\276\212oA>\177\031\212>\322b\220>D]\013?\313}\273\274\200\332\343\276\337ho?\360\254\274=\317k\311>bN\351=\377[\'\276\372\247\n\277h\216\207\276\031\317\016>\277\037E\275\303Oc?a\244\235=a\207\233=\327\224t\277Q-\013\276Vhb>E\241\035>\267p\303\276\231\213\356\275\353\232.\2765\312\307\275\273Cm>\316\250\370>\237`\244=)c@\276\031\r\016\276\271=y>U<\'>%\220+\275\205\001!>\310tM\275\354Q^\276Mr\'?\220Ue\277\322R\204\276!\037%>\301jX=\341dw\277\3102\224\275\266\236\006?\261\220\t?\"B$\2774\216\222>%\251\333\276|~\357>&\274\302\276\263\240/>\243\202\303=\255\203\224\276\030.\342\276<\007\270>\263\220\344>\247\036H\275\277\322\222>\347\016U\275\273\343*?\030\035\323>\373\024c\276\223\024\006\272p\306\001\276)#\177\276\3015\"?1e_\276\370\016\332\276\353\354\315>\332\2601?y\311\037\276:L\261>+\305\327\276>\251\004\277^\006\n?\261\222\246=}<\225\276\262\360\340>\371:\334>3\374\234\275\337\304f\276\241\005\334=c\317\353=V\226\273\272\261\257\332\275G\277\347?\364\021R?\326\251\202>\323,m\275U\272A\276\246\303\311>\362\215\024>\242:\213\277\347|C\276I\"\273\275/U\261\276\323\317L\276j\025\243>\r\302\200\276Y\276Z>\206\327\016?\006f\336>\323\366\316>\035\306\031>\277?\362=~e\217>\371\370\001>\005\000\250>e\377:\276\3654\214?\224\260A\276$\303\225>\347\035\223\276\230\005\255?\331\302=\276\321?\263\275\374\315\260>\001\277h>#\036\364>&\0009\276m\277\352>\271\347\371\274\313\273\236=\224th>\255\3672\276\263y\250\276i\234\036=\257{q=$\311\300\276\205\204\343=\326\203^\275Q\300\355\274l_\254\276X\216<?\032\254\302?p?\000?e\324\250\276!|\277\277k\221\332<\300\031\002>\206\250\305=\035\332\333\275\321\227\333>\2426\274<\341\027\317\276Q\032\266>\333\356\021\276\236\331\276>\361\263B=\013\264\362\276//\210>\265\274v\276\301)\004\276q\356N\275T\377\\\276\314,\235\276h=\241=-T]\277~\3060\276\201\357E>q\037\261<y\333\330>JT;\276\023/G>\217P\201<\214-p\276K\352W?\331-\304>\350\363P\276_\332`>\273\206!>S\320_\276\017p\317>\214\313\n?\2616\210=4,\226=\232\277\201\276y\021*>\2302\322\275:\020\013\277H\262\002\277\022\265\300\277\017\357e\276\365\2458>\267pM>1\022\374\276\261;\275>E;.<\241\320,\276\'\255\254\276\220u\376>\210\013\221\2761t\003\275\017\221\267\276\317\017#>\232U;\277\272BL>\235F~\277F\2036\275\357\364\016\275A\332?\276\203\351T>\255\233\317=\2556\001\276\264&\361>\321\207V?\242\205\222>"
      }
    }
  }
}
node {
  name: "decoder/dense_9/BiasAdd/ReadVariableOp/resource"
  op: "Const"
  attr {
    key: "dtype"
    value {
      type: DT_FLOAT
    }
  }
  attr {
    key: "value"
    value {
      tensor {
        dtype: DT_FLOAT
        tensor_shape {
          dim {
            size: 24
          }
        }
        tensor_content: "\007\302\305>H\343S>D\277\321>\034\3105>\353\330\r>\366\232r=3\221\001>\265\037\303\273\036\210\221=u\234\224>\232\356\010>\355\276\315\274|T\000\276\300lu<\371h.>\r\262B>\016\367#>\372\251\037>\375\342\376=6\000\014>L]\033>\260\222W>\007\204\274=s\205\031>"
      }
    }
  }
}
node {
  name: "decoder/dense_10/MatMul/ReadVariableOp/resource"
  op: "Const"
  attr {
    key: "dtype"
    value {
      type: DT_FLOAT
    }
  }
  attr {
    key: "value"
    value {
      tensor {
        dtype: DT_FLOAT
        tensor_shape {
          dim {
            size: 24
          }
          dim {
            size: 64
          }
        }
        tensor_content: "\205\360\003\275\0137\302=\327\214\370<\265\313L>\301\262D=d\'j\276\370\211&>\026\352^\301%\334:> \205r\275\300\230\211\274\362f_\301\002\302\247>\020\216\221>\r\273W=(\013\237>\327\305\322\275\334\362]\301G\231\335\275\326\243\206\276\005\270_\301\334\270r>\306x\201\275\245\366a>3\177\231=\306N\005?}{\215>x\252\330=\350\235\203>\347\316]\301\251g\034>X\372(\277=[A\275\277\336I>D\346\217>-\006\024>\253\314\265>\217{9>\337\350\322=J\373\233?\'\311\231>u\000u>-\277\243\275\002\327\214>\']\002?\305&\277<E\031r=\033\311W\301H\215\004\277\373t\332=\234\270^\301M\353\350\275\216\353\260>-P\004>\010\241\300\276\021&+\274\325l-\276\255?\343=\356\254\033>\010\032y>\035\367\372\275\320\233]\301_!S=\352\210\374<T\035X\276N;4>\201\375\250>8d\037>G<\035\276}2\226\275\347K\234>\017\364^\301\215\253\014>\251\362:\274m\t\271\275\372\035^\301\301\227D=\006\324\360\275\231u\036\276&e\206=\3269K\275R\023[\301\253a\254<+\320\240=\"\344YA\361l\377\275\320\351\342\276Q\207\205\275G\326\310=\207#x>;\362o<\345\021\261=\243\240\260>\266\353[\301\023\375\342\275\337\000\356\275\20402>\221e{=_\021\376=N!\246\27692s\276bVQ?\005\203\310>\341C\217\276\r\362a>u\331\361=\003\373\320=\224\022\255>\316\002\251>2\336\231\276\341\355o\276\341\004\\\301\017k\266\275\300O2\276\321N]\301\334\200\224>\337\\4\276Z\222\\?H\"\006>\364\242\236>\205\0331=\201\266\217=\272j\277>e\273O\276\3368\222>\356qX\301\315\226\234>\005F\316>\3406\232\275/=\010=\3110\344\273\035\375\211\275\341\332\341=VI\212=Q\021b=\364\364Z\301\017\251q>Y\360\316>\275f\325\275\257x\\\301\013\224\266\274\262\326\246>\251U\320\275\243|\035\276U\217\353\275\2327\\\301N\007\237>}W\364\275\n\033[\301\223\211u<\271\271u\276v\362\300\276I\355\313\275E}\320>c\223\273\275\350\022\027>\376.#=\235\376Z\301Z\336\201\2762/\303>\357\0325<\224\035\013>\227p\273\276R\300\335=\305H\037?\206\346\205>Jf%?\332\327\216>\253\225}>\305\377\252\275\025\211\357=d\003(>7\203 ?-\214\213\276\302\021\000>\231\"Y\301\301\277`\275;\227\222\276\212\262_\301%qA>\030\206B>7\301\345\275\314\373|>\263(<\273o@\321>\253t\264=.\220\277>\370\217\216=K\221\335\2755-`\301\020.\215\276\257\310\216>\343\363\203\275C\300\340=\305q\231>?\351\201\275\207\233h\275\331\221\326=\314\266\266>\343\036[\301\312Y\264>z\027\273\276pS\216>\010\374_\301\237\032\016=\332)V\275@\372;\275\337\321\312>\270\372\205>\2152]\301\273M\263>\356\330\260?\217\023]\301(D\213\276t\001\243>(`\216\275+\026\005\276Y\314\010?\364|\312?b*\343>\203;\211;\376\007W\301\221\356\261=\304\246\023?Z\332|>2\334\266>\263\276\342>E$\246\276c#\301\275y\365\201>N Y\277\025\234 ?-\022q<\315\335\211=<\354\264>\263\023\331\2757\313\211=\321\217\236>\261]\"< \305[\301]G\'\276T\2149>i(\\\301\276\226\263>R\027{>1dP>{\310\021\276\237\257\013=7\233\301=1t\251>\034Iy\273\002\266\003>\260s\222>\370Z_\301<\226\200>uL\301>\033\377\t\275\337T\037>\251~L>\311\002,>\247\252?=\214\234\215\275\001\\\253>\372\035\\\301\361)\025\276\274\005\201\276\264\300G\273)\373^\301\014\345\226=\"\255\257>\335\251|\276\023\315\026;sUo=\305%[\301mG\257=\026\022\376\276\363\002\\\301\177\373\031>\325-\025>\327\353\307\274\022\271F>R6\030?\005W\275=\2311\262>W\325|>5\314\\\301\304\202\212\274\202\376\"\277\326\267`>G$x>p\216>=\225\0216\276\365\242\264=\362p7\276\332\307\375?\314\215\202?\024\332#>\306<\323>\276\312\215\276\226\003\017>\206t2>9k\243>\300\242\240>\224\341Y\301\220\002N=m\236\354\275uGZ\301\317\215\270> B\255\275\2618w>\2461+\276\235\354\275\273).\217>@\374\203=b\221#\276\031\301\270=d9\255>5\301[\301\201\035A>feJ>y\344x\275\300\010\221\276Iic>\337\240A=\332\243R\275\024\273\210>Ya\317<\330\322X\301M{\227\275\331\222r>1Y\233\276\313\320_\301\316Q\210\276\031>\n>,\002\034>\356\302\264>\035U\342=_\267X\301\033\317\312\275\r\200\221?\263~]\301}_\003\274\026\374\360>)\366\014\277\331\372_\276\276:\324?X\375\021\273u.\266>_\341T>|\341X\301\375\334/=\375R\t>\347\210\250>Z/\n>U\010\275=\313E\236\2761~\331>\014\232\261?\3677\213\276h:\027=\303:\016=\\E\222=\315\356\343=\026o\301=\326T\376>\2577;>\224\0220>\006\024Y\301\271\223z\276\257\372\203>\034\005]\301\014\177\354>\tb\244>\300\r\215>\324\220\277\276#\317\001?N\377\223\276\2250\004=c&\373\275\241\341%=O\344\274=\267\277\\\301\375\276\244>\324\344\243>E!\366;\0379\022=<\323\276>\215\036\360\275v\222\207\275\233h\351\2752P\245>\241k\\\301\315\316\355=\330\246o>M;\306\275\366\211X\301\023\036X\276e\221\240\275z`\n>\264\273n\275/\030\312=DM]\301{\031\264>\347{\311?Di[\301\262\303\206>\211\276\307>C(6<\247\337V=Q\273\305?%~F\275C\270\005\275xJ\255>RpZ\301\265\t\345=\027\014\215\277eD\213<\325\326O>U\025\016\275\242\333\013=\231\330b>\343\036\000<\032\236\223?\023\306A?TU\031\272#\255\251>\200\\\n>q\3720=^b\017@\337uz\276\374\036\206>\322\266^\301\250F\233=\377\350`\276\030\324Y\301\350\225\265>6\352\262\275\226\237\200\276\377\207^\276_\275L\277j\354;\276\345\305\235\275+\262\026>R\315g>}\323 <P\211]\301`%\206>q\235n=m\t\226=\223\267K\276\025w?><XR>\r\002\030?\226B\237\275te\310>\021N`\301\275\000\370\274\207=\013?\027\215\003>\001\323X\3010\203\35474\r\352>\3718\217\275\351l\024\276\005\004\211\275\275\r\\\301}\320\245\276\356\352\241\277\362\252W\301\311\272\027\276\211}\257>\305\273\273=\362\206\014>\314\222\204?\276~\375=1\304t>!\\\227>5\216W\301\375\000\317\275\330\004W\2770l%>\0165\365=\355\036\333=\265\364\335>\325)\372\277\316\366\302>\341\343\235>\375\251!@\235\316a=]\177*>\241\330D=\033Px\276\365\036\212\277\313\024\333\275\023\037R\276\033VW\301g\335\027\277m\030\004?\231\375\\\301\034\327\233\276!GK>\255g\317\274s,|\275\206;~?SRX=h\215\230>\037w\303=\204\034\021\276SJ\214>\340LV\301G]\225>n\363\253>\311\000\016>\365\177\270\275:\215\346<w\232\347\274ML\273=\313\241\\>?iM>\260\275^\301O\365\266<\007\206\230\274\250\245->^\022Y\301\335\340e>\201\205\372=.i\356\274\217\307\014=\217\305\364\275\207\033X\301\353o\266<\272d\232?M\355[\301w\223\212>\274\236\365>\025z\004>b=\216>v%\363>,\310\006\275\024y\333=#\"\031\275=\375X\301\200m\302\275\300qW\277\301\255~<\003\250\035=\343\210\220=C7\326\276\230\227\246?buf@\334\016\006\300\223`\017\276\326\302\262>\025\007\303>s\030\257\276\006\037\222=\224\030\t\277|\016\216\276\321C\376\274*\212_\301\361\254\224\276\325\274\202>$)^\301\337\2044>lh^\276Y\326a\276\332\220\'>t\214\204>p\247\217<;\177\216>\007\212\370\275\nR\207\275\310\3030\2721\372^\301\350\207\270\275\nG\344>\026\005\332>\375\363\352=}P\276>s \321>\231\312\256>\222\354\033>R\037\031\276:\257Z\301\014\250\">\265\363[\275\223h\035>7\253\\\301\365P\007\276\366\'\207>8\362\316\275\313(\201>\262\371#>\334d[\301\275Vf>\265\222\261\275f\237Z\301\344\211\250=R\376\247\276U\022\205<\302@\226\275\223\027:?\306M\307>\356P\330>w\010t>\021\376[\301\nv\216>\325\320\303=\365\330\312\275`i\240>\313U\325\274|\250\032\276\3307\341>dY\235>\013h\n?<\377+?0+\264>\314U\206>r\256\246>\036q\252>\213\206/>\353#|=q\366}>0\226V\301\323\246!\275\353\256\t=\033\230_\301\257\356\206>\215\247\211\275\361\007\271>M\352\345\275\251=h>[dR\276\263\177\220>4\374\037>\004^\315\275j)D>\3463W\301\301\246\261\274Ph\333=U\376\244>\341\006\036>~T{>\316\213\307\275\020\033{\276\253\334\307=P\236\271=\n\001^\301Y\307\346=+32\276\001\027`=#\311^\301*]d\276\027\347M>Jk\201\275W\317/=\275\276\361=\246{X\301\317/\006\276\373\"+\276.\221[A\305LJ>9\330)?\271\347\013>\256\005\223\276\232\027\221?\261H\024\276m\311d=\311\371r>\322\251]\301\333\002\014\275\275`U\276\340\245\241\274\213\023n>2\264S>\361|\257\276\275#\351=\310\337\274>4\211b\277\031\036\250>\023\002\017\276\274\322\332>\215>G>6]F\275}/\335<\331\266n\276\2413\275\275\026\030]\301\356u=\276\253\371\333\274$9]\301\267\307\367=\276\014\250\276\361\000N>a\312\036\275\241bG>^0\t\276p\217\215\276\344\010\345\275{\374\332\275\347\2563\276\274}]AR\230\201\276\266i\253\274jB\035\276\005c\331>\326o\212=\375i\272>ux\270>`#\177>\274\243\225>\254\232[\301\212F\231\275\355y\375>\001\253\234\277YuY\301\r\243\257><\264\205\276Q\032\331<!V\342>|.\221>\326\006[\301\016J\273>\374\177\263>q\353_\301\256D6\276x\304H=\005\357\377\276\375\332\352>r\033$@Evt>c\246\232>\273\346\220>\343\003`\301\327x\270\275.T\273?\010\205\271>\374\227\003?+\222\266>#nq\275\337G\237>?\323\032?\022\212\374>\346\200\025@\023\227[>\203\202\215\275\2743\004>[Sv=\217\367o@\243pC>\357;b\276\000\305U\301\r{\030>\373\026\t=\324\373\\\301\376=\327>K\325\342<\221\376K?\251AL\276\204hX\277\305\340H\2753-S>\010A\r?\243\203\311\275]\260\n?o\202^\301/\311%=\207\372\244>\305M\013>\265wp=k\303\237=A/\351\274\370B\331\276\312\345@\275\035 \251<t\375Z\301\021\316\367\275YX\210=\010\003\000>x\330[\301\003\035%\274\243\342;\275\311\222\226\276\\\303\336\276I\026\211\275\273\231Z\301>\333(>\023k\201\300\"\331]\301\244xL>U\270c\277\216\231h\276\250\r\013\277g\332\341\276H?\'>\353\267\250\276$A\250\276=x_\301\241\'\203\276\r\363\333\277m?\212\275\331\253J\275\275\214\310\277k\020\323\2776\227\326=\301R\217>\244\257\265\277\260\363\024>3R[\276h}\224\275\302\265\233=7u[\276\0302\346\277\0310\256\275})\022>\361&]\301\260\307\354\276\307u\370\276\247\t]\301\222\216K\276\017\334l\275vs\353\276\004\221\017?\362.\320?\271\246\245\2741\350t<\216\303\265\276\302dN>\023P\262\276SA[\301\211m.>\341\236\364\273\234\0261\276D\310Z\2761\300\246\274e0\030=t\241\333>\325\003?=\351\362\021?\005~^\301h\003\323\272$\263\"\277\311]X\276cf`\301\317>\231=\031\000V<s\334\010>9r,>\373i\020?E\305]\301\311\254\226\275\20035=\347\231Y\301\201Y\224\275S\254\006?\030\317\236?\345Q\200>\362\033\005?\264C\000\276\315\220#>\201I\237>\371\311XA\345f\276>)m{\275\032l\313>\334\324\226>\367uM>\262y\205\277\221\006\214\276\347\245\242\277\002\231\362\276,\305\004\277\222s\\>#.\024<\267n\026<1MH>\366vv@\235\242\231=\001\023\271>\361\326VA\244\0006\276 \2102?;\201Z\301:q\027\275\232Z\212>\3405\374\275\362#\307>\033\360\325\276\363\013J\276\343\320\211\277%\315\373>\216m\222>\\\'\317\273\327\352]A\233Y\366\275\361;K=\220d\271>5\366\263=\274\024\305>\207%\320<\345{L\275\355-\020>\217*\">\201R^\301\310\301C>\177\335\006>\372\006\327\275&\312]\301o^\244>\356\263\250=7\034L>\236\231\204:\207Sh;d\354X\301F}B\276?<\240\276\003\025V\301\345\000\266>\334\256t>\022\220\312\276\340\254a>\005\2622?\310\255\370>\223\333\254>\273\325\377<\323\313[\301\320\3424>\rs\224>3\230\224\275a\001\000>\227\270\003\277\243\273B=e\005%\277\010qX?q\373T=\3313\327\274\347\r\257\275\'D\350\275\365\264\335>W\'\267>\007I[>h\210:>\3049\231>h\310]\301\300\312!>\326\235\340=n^^\301Yf\271>J\247\020>mG\037?iX\235>\201O\314\275\000\273\241<\tJp=\267%O<\025s\177\276\007K\223>\325\367Y\301\331\251\300\275\335\346\037\275\206\206\223\274\370l\202>~\232H>\335o\005> \025A>o\357\365\275R\220\322<]=_\301\302\035\201\276\r\036O>A\3343>\364\272]\301\031,\000>\0258\020>\325\260&>\216\235\310>7\235!\276VLX\301X\272W>\203\326\200?\257\207W\301\357u\376<D\023\312>\263\2071>S\000\314><\222T?q\023V>\365]\007>\326*,>\nXY\301\223\243f\276B\231\224\2776\255\276=b`\020>\ri\234>d\005o>\220\\\261> \301\264<k\200\377?\307\310U?\023g\372\275\220\257\002\276\211\262\212>k\001\014>0\302\227>\315tY>=\227\227>\323\356W\301\027\t\266>W4x>7\310W\301\233\214\202>Zf\216\276\243\337U>L5\363\275\024x\320>\201\357\320\275G\tP\275Kn\264=\333\361\310\276`\277Q=u.Z\301\207\2513>S\250\233>\2147\007\274\332N\214>\001D\224\275U\355\364>\251\232`\275O\376\311=\216s8>\357\376ZAv\245\224<\206-\000>\233\275\233>f\226Z\3010\207\252>\232\341!=\313u\022=\343\336\230>\'\221w>@\332\\\301\300^\000=\312*\025=\342\014Y\301\177\350\226=\311\325\321\276VJ\010\2779\376\"=J\207\024?\0013\020\276\006\253\317>\352\201\265>\316\327_\301v\321\265=x\271\003?\275\360{:\000\231\351>\275e[\277cs\177>U\3755?b\375W>\004\300+?\313^\375>d\320\346>\361\2112\276D\265)>\222\302\357=\377\335\025?aN\320=\276\204\2759\300\025]\301?\024W\275\224b\347\276\365\374W\301\010\350n>c\236\351<\320\362\246\2745\006\374\275B\305\275>\000\223\336=\315\001\021\275}\357\n>%\300\332\275\335\212a>*UZ\301\326\243\277=9A~>b\242Y\276S\272\352\273!\206+>`\372\230>\351r\251>N\243\262\275\330]\344=R\313Y\301\001\344\265\275\254\232\364\274Q7v>\377\245Z\301{\014\234=\024\023@\276\320\255L>A\022\272>h^>>\003\220^\301UP`\274\341=\026\276\3744^\301\257\223\357=J\204B?\033\013\274>gV\016\274\226\205\025?\025k\002?\352})>\335\014A\274\257\216Z\301\306\034\203>$\211\272\277\020\227(\276\376]\006>~$/>\365:\026\276\313\033\206>\270hA\274\217\273\343>\010\304\037\276\252h\263\274\035\034\026>\361\245\321>\241\025M=\346*\324>:\007\243=\341\266\023>\211\337\\\301\255\353[\275\007`\357<<\226X\301og\332>\020\250\220>vn\357>\225k\204\276\361\237|>#\302.<;\307\036>r\027\240=\242jf>\205\"\212>?d^\301M\336\177>\363i\201>D\026\004<\324\213\264\275\321\372\366=\271\213\271>]\241\r>\332*\241>\316\204Z>;-]\301\r\354\244=s\0260\276=\036\022\277i\322Y\301_W\225\275\277\"\002\275a\200\333\275\301\267{\275\244f\205=\307bY\301\313LL>\352Q\334\275f\'\\\301\307\nd=~\300\261>\026\0149\276o\004\301\2757\034>?\247\016\n\275!2\343><i\272>\260&\\\301\034\343\216\274J\320#\277\207(d>\370\317\345=\231\277\336=\355\223\375=\217\215\002?\341y\314<<=\037\277\020\227\303>K\007\'>;E\215>\321\272K>\007\210\314>\316R`?\203\237\214>!\335\325=\216\311\\\301\3105\276\276.\211X>\014\330\\\301G\343`\274\301\000e\276*yH>>5\036\2763\350\350\277\023k\316>\233zI>y\360\332=\335s\206>=\306\313=\274\355\\A\275\267\021\275\026\356\302=)\235\205>\244\314Y\276\005\027\"<\365\036\326<\315\\\266>\231\031\206\274dZ\314>\"\202Z\301\333\242j>\274\300&\2743\252\272\276e\361X\30180\237>\241\233\241\275{T>=\216<\212>\322\017\253>\325|X\301y\377\t\276\255-\014\277\337aZ\301\341\013]\276\241I\331=\226\200\305>-@v>\013Q\262>\000\026\341=\240o\276=\363\261\236\275\321\234V\301\023\006\212=\204\377D?b\270\037=\364T\250>\356\032\217>\202\256\"\277\261\245.\275!)\025>\322\214 \277\260\005U?I\233#\276m\177\035\276\262\327\371>\002\276\205=\300\246\321>\305_5\275|\322\252\274\013\014[A$\242\325\272U\016\024>\324\226^\301\2411\200=\347\025\230>n(\206>4\025\211\275\020\336\000\276\033\255&=\276\374\211>\357w\213=;I\242>+\353l>\014<Y\301\317\231\000\275`\367\324=\254N\244>\305\366\310=\010 \212>l\3426>\t\022\316>/\017\203>u\244\t\276\307A`\301H}W>\271\365\312\275\320\3257>\370\251Y\301\341\225->\311]\313>p\206\200>=\272~>+\230Z\276\222\375X\301\255\351\266>p8\352\276\317ZW\301\310^\200>\351\241\036\275O$a>\200\200\004>\024\220\232>\032\316\003\275\246\364\266>\270\022\334=\256\315Y\301\237\354\216\276m\000\n=\305\350q=\027\221:=P?\353\276\367\321\206\275\002\006$?\014`\026\276\274\037v\276\341\215\255\276\271\037\305>\233\251\206\276e4\273\275e\031c>BB\005?,\252\233\276\337\245\203>\300\256W\301\337\352%>\361;\345\274B\342^\301\303\017\307>\022\372`=\n?S>}FQ\2755\274!>M$\021>\334\'\320>\0335\213>\267\\\231=\374\220\312>V\357[\301\233d\027>N(\271>\231v\317\274\036$\266\275\347!U>\213JG\276\3158\252>[\302\233>\213\215\'>\"@[\301\325\036_\276\332_\267\276\014\375\201\276\2432_\301@l\322>VX\013>\205\356\037>C\2367\274\330\005\200=\013[^\301\223\201!\271j\364\031?X\306]\301\373\330f<\241=\371\276\t6Z>\235\3765<*\355p?p,\211?\365<\272\274\245-J\275\2719V\301\332\017\250>\207\361\346=P~\252>\213=\205>\251t8>\0330\203>,H\000?D\363\036>ax\224?\237_\211>\266\231\346\274\230Y*>\314\032\027?\232\276\230>\014\343M>x\222/\276\277\213\270=x\320Y\3019\007\200>\017\013E\276\227\330^\301\300bk>e\317/\275{6%\275\375\316\355=${\236>Tb\262=?J\232>~\223\302>r8\007<f\335\242>\006\301X\301\343o\344=\214Q\202\274$\337k>\202q\250\275(\017\201>\371\317\303>\2621\032>KY\361\275\227\256|=ok\\A2\206z\276Q\027\316\273\212\014\202\276\232\227X\301\206=\250=(s\235<\375\366\033=\007e\204=\252\203A>\021\255\\\301\024\366R\276Ox\372\275c\270Y\301G\t\202\273\237\352s=\230\322$\276\255s%=*Z\320?\206\036\321\276nF\\\275\023\034\346<^\\Y\301\245\002\272\274\021h\334\275O_\207=\207\351\263=\035\200&\2766G\211>\326\031\332?\207%\024?d\342\201\276\\\2126?j\205,=\261\021\013>\254\203T\276z:\200>\027\252\243\275\372\333\322\275\374+\230>\344z[\301\003\200h>5\350\320=>RZ\301G\2366>\251V\211>=?<\276k&\214\275;\035\205?\303\r]\276\031c\204=\260\251\263>\314 \300=\000G\227>\030\322[\301M$\226=C\303\216<\207\273\312>M\006P\275\341 \005>\346\246\216=-%\274>\223\273\355\274\333\004*\276\231\345_\301N<\311\2755\302\200\276\215Q3>\272\037^\301`Kh>\366\255\356>\366\332\230\274\262\361\226>\227o5=\217\242[\301\364\3122\275\301K\377\276g\355W\301\220\264<>\023w;\276\267m-\276\tB1>r\350\223?\373F\234>\262w\313>zf\">\364\322W\301t^0\276\262\351\257>\2606\220\276\337\377Y>\364x2\276%\374\303\274\214\315\222=\261\233\347>\300\001a\276\215\234??\214@\002>\212R\003>\"\231\335>\204\032Y<\274\202\217?m\365T>yd\307>\203FU\301\304)a\275D\031\253>\203\354W\301\203\303\212>Q\340\326<\301\272(?\334\004 >{\302\027?D#e>\313Jx\275C\326\007>\023\3646=\013\026\333\275\347\204[\301J\370\251>\337\231\235>"
      }
    }
  }
}
node {
  name: "decoder/dense_10/BiasAdd/ReadVariableOp/resource"
  op: "Const"
  attr {
    key: "dtype"
    value {
      type: DT_FLOAT
    }
  }
  attr {
    key: "value"
    value {
      tensor {
        dtype: DT_FLOAT
        tensor_shape {
          dim {
            size: 64
          }
        }
        tensor_content: "\370/X>QJ\030>\320@0>\315\023\017>\023+5>h\024\017>\304ES>OA\\\301\331\277\032>-\223W>\205\\\253<OA\\\301~\350\030>Z\'p=?\230\307=\336\234?>\3549@>[\360[\301\356\017\027>\035L\r>k\347Z\301<\200T>\001\365#=\245\260M\274\235\356\010>8B\260>\315\303\226>9P\273>\360\334\205>\216\313[\301Y\t\'>\211\351\234\276\3534\035>\265\010Z>\200\245\201=\324\016\312=j\333\005>h\262\021?\275E\337>\233\3643>!\205\031>M\233\024>\003\335\205>\377\357\210>\350\017}>o\260\017>#\350\030>\327\345Y\301\024\344\323=\245\014\037>\357\267[\301\313g\203>\245[k;] \321>\227\347\303=D\306=>\372\306\350=+\261\017>\260~)>EM\211\273H=8>OA\\\301y\207D>\263\004\004>"
      }
    }
  }
}
node {
  name: "decoder/dense_11/MatMul/ReadVariableOp/resource"
  op: "Const"
  attr {
    key: "dtype"
    value {
      type: DT_FLOAT
    }
  }
  attr {
    key: "value"
    value {
      tensor {
        dtype: DT_FLOAT
        tensor_shape {
          dim {
            size: 64
          }
          dim {
            size: 128
          }
        }
        tensor_content: "~\312X\301F\325WA?\315Z\301d\301Y\301\255\277\365\2754&R=2\000Z\3018\303Z\301d\244[\301\264!Y\301\213:s\275\372o9>\317\256Z\301\210\004[\301\004\227]\301/\310Y\301\311\307\206>\347\242\310=\207\252^\3015\002I\2759\000X\301\322\244\241>:\347\240>Sq^\301\355\342T\301\002GX\301\220\347X\301\223\207Y\301\203\235V\301\261S]\301\326\305^\301R\255\\\301\230\202ZA>\236\\\301\267\256Z\301.\217\263\273\256\366Z\301a\301X\301\323\242\\\3018\317]\301_\271]\301\226d[\301u\305Y\301\3409\\\301\034SXAY\244X\301\tM^\301\212X^\301\345R[\301\300\277Y\301\001(Z\301\237\272\\\301\211\300\\\301|q[\3018\341[Ak$^\301j\033\\\301\227\327\\\301\033\276Y\301\207\nZ\301\024!Z\301\231\351\213\275\016\240Z\301\240\312Y\301\314[V\301\203\272^\301\331\375U\301\341\036\262>\366\275Z\301\314\227Z\301M%Z\301&\261\\\301\363\241]\301\273\035\304\275\315\307X\301s\017]\301\370\037^\301\353\232Y\301w\247Y\301V\272Z\301\272\\]\301u\030\002=\3718Y\301\002;Z\301ws$>K\001]\301\243\272\230<\002\205\266>vA[\301\345\302\256>\177t\\\301C\307Y\301\034\006\033\276\207\177\207=\241L\265>s\360[\301\312E\235>\361\023]\301\235\006^\301i_I>R,]\301\021\354(>\207u[\301\316\277^\3018\346\250\275\267^\\\301[\r\001=GHW\301=9Y\301\343\\Y\301\201\331\\\301\376h1\275\037|\331=\314\300]\301\234\275V\301\276\243^\301\177\306[\301%JY\301\2120Z\301xa\316=\330/A>\233\026\217>\320\343\312=\201X]\3015-\275=\363+X>O\305q>\036\230^\301w\300X\301\266lY\301\026\021Y\3013\331ZA\326\325\343\274\231h^<v\222Z\301^6]\301\004\t[\301\014\263]\301S\022\026>1x\n>\201\236^\301\245\014Z\3010\036]\301V\240[\301\253\204P\275\336\336,\276\270\250Z\301E\342\220\275\205\242Z\301q\021&\275\315\027\253\275p\326\244=\325\321[\301\r\266\\\301\262\344W\301\337\203]\301#\332Y\301J\022Z\301{e\\\301\350m[A\216\301Z\301\216QY\301\"\216XAd\017T>n=[\301S\217X\301=\260\\\301\3371[\301\201\006[\301N\317\\\301\204R[\301\334\327]A\216uW\301\243\356\\\301P\213^\301s\270Y\301~\305Y\301\271\222[\301\202\177[AE\005]\301\020\020^\301-~\\\301Q\223Y\301\332\373X\301\204\350Z\301\\\321\\A\3579Y\301*\003^\301*\014X\301\306cl:QRZ\301\320\347[\3010E\\\301\263/\\\301\331]Y\301\t\371m\274\\\353YA\030\370W\301\314\t[\301\233\276\\A\356#[\301\274\030;>\365\345\\\301X\004[\301\354\033[\301f\226Y\301-\370[A\264\321[\301a\313[\301\307\313\037>\260\010ZA\377X]\301\261\243$=\027PZ\301\254\242\313=\314\032\311=\240b\\\301\261{\025>\377\340\\\301\371\315Y\301\326\203\226\274k\tr>#\030\360=\221wZ\301\270:9>\205\315]A\tn\\A\310\007\016\276\223\236Z\301\273\"\n>h\246Y\301\243\312Z\301\253\2570=\216\371\\A\204\031o>\030\233Y\301@.X\301J\240W\301\346L]AO<\020\276\201\251\344=e\226[\301\232-X\301\210\273\\\301\225bZ\301\332\306Z\3011JX\301\260\224\363=\323\211w>\nC\010?&\n\177=_\310^AI\203\036=\247$\016?\"6J>\322$]\301\271\241Y\301\004\034Y\301\201\220Y\301\273\351^\301\352\232#=\223\013\354\275\317\253Z\301\006\374Y\301 G^\301\306#Z\301k\223\212\274\270wB\273Jf[\301\342\263X\301x;^\301I\323Y\301\340\3424>\377=\364=\250\257\\\301\373\272;>\354\341X\301\334cU=.\330\210=ah^\301\n\306X\301\000bX\301\355EY\301KN^\301<&Y\301$\373\\\301\361\371\\\301]\014Z\301o\244]\301/\272]\301\325\323Z\301\313;k>\306xY\301X9[\301x\246Z\301~;YA=eZ\301t#]\301\362m]\301\361T\\\301n\344\\\301T\255]\301\253T]\301[\t^\301b/^\301\242\016Z\301\020\265Y\301rt[\301\255nW\301\005\263[\301\036\242[\301\364\262W\301i\277]\301<\261]\301)\n]\301\227}X\301\265`\\\301\264\003\221>\315\006X\301\026\201^\301\000tX\301t9^\301\010\346V\301l\036\316>\031\023]\301\242\360Y\301*\005Z\301`\317^\301TZ[\3016\336e\276G5[\301Xo^\301\232#]\301C{Y\301UL]\301\016yZ\301p\270Z\301\245\266\026=\344\203[\301\207\210]\301\002\237\251>\251\311\\\301\227f\"=U\336\023=k\241^\301\243}\034>&\036Y\301\247<Z\301>\330i=/\035X>\260ae?p,^\301\340%#>\356\275Z\301\245hZ\301u>{=\315\024]\301\016(\023\275\3269]\301\343\000[\301K\221\206>\000@X\301\245\274\205>\t\341V\301\177V[\301Z\254\\\301(>\\\301\203\0168=\311\026\247>\211_[A\037\271Z\301\300<^\301\327\266[\301\3507Z\301\332y\\\301\025z\350=\177?V>\016\367\016>\221Q\017>Q\335]\301K2\243>\257\333\356>/\336\027>\027\316]\301\345\005[\3015\216Y\301\023A\\\301\223\305^A?m\335\275x\026\217\276\215\273^\301:A^\301\325\262\\\301vPZ\301f\243\036\276\323\210\275=Z\345^\301\240\227^\301^\032Z\301\031\t]\301\224\221\267\273xzQ\276\376\250Y\301|\327a>\204\314\\\301\2033\253\275t\030J=G\r\\AI\327X\301\266\346Y\301\244\263X\301\007H]\301\000\223[\301\352\241YA3\013]\301YRZ\301t\242[\301\254v[\301\374>[\301xb\026>(\356Y\301\276%[\301?T^\301p\370\\\301#\251Y\301\r}Z\301\363B^\301h\256Y\301QrX\301_\270X\301\330T[\301&AX\301_!]\301\254vY\301\334.\\A\230/[\301s^[\301\001\204ZA$\271Y\301\264w[\3013rZ\301>\326]A*M[A\262\302Y\301\343\002X\301\210\245\026>\035\345[\301K\277Z\301R\254Z\301\262\347Z\301\240\315]\301\361*\266>\301\243[\301Y\242Z\301^y\\\301\241\313\\\301\274\275Z\301\250\370\255=\311F[\301\231Z]\301\007\211Y\301\205\366Y\301\217([\301>\266[\301\313\266Z\301P.\020>\346,Z\301\375\326Y\301-[X=\345^\\\301\344\236\016>\023\307\262>\352\265]\301\032\206_>`\024^\301\345\230]\301\3652\277\275\0215D>\r$\357\276\310`Y\301\351F\017>\221\224\\A?(Z\301:\311\344\275+R\\\301`m\024\276\332\333\\\301y\242Z\301=if=cFV\301r\306\262>\216ZY\301\236\240Z\301h\223X\301M\352Z\301\375\340\260;/^\260>R\373[\301\331fW\301\272\355]\301\205I[\301\301\316X\301\035XZ\301\224\272D>]\306\216>\304*\002?\341\374\341\275\221\345^\301\221\221\006>\301P\206>.o>>\322\335ZA\252\033X\301f>\\\301\312!Z\3012\027^\301S\206G=\363T\232=\372\023ZAv\306Y\3018\262^\301\017\356Z\301nl\277;\345+(={\030Z\301.\361ZAIv\\\301\350\026]\301\307\2668>i\233;\276P\256]A\204\340\240\275\353%[\301q\0031>\003\352E=\347\020[A<\313W\301\344QY\301\263AY\301+\255^\301\032^\\\301\241vZ\301\305\014[\301+\253]\301\032\247W\301%>[\301\270\340\\\301Q(\200<\262T[\301\352\203U\301\212\361^\301w\243YA\010;]\301x\351[\301\221,[\301\220\244Z\301\031;Z\301\r\027Y\301g\231X\301\376\262Z\301\340\337\\\301LN\\\301\236\215[\301\301+Z\301\362.\\\301\336\337[\301\224\320W\301\240\255\\\301^f\\\301\311`]\301\313%Z\301I(]A\207\236\\\301xIW\276\364\020Z\3015\n[\301\324\222V\301\236\215[\301\035\367[\301\327,\350>;\265^\301i\r\\\301\033\342[\301\227P\\\301>\247Z\301\271\300\267=\031\362^\301\311\371Y\301\233G^\301Zf[\301\037~Y\301j\247]\301\357\341^\301\225\233o>*N]\301p\362Y\301h\344\371<(\037[\301\316+t>\320\233\256>~\332Z\301^~\244\274*;[\301\257pZ\301\264\350\246\275\371PU\274K\034\005\277\323BY\301\304\347\270=\326\363]\301\345h^\301O^\326>\301A#>\202\374\350\275\013KY\301p\223YApw\027=\265\345\\\301/\363K>\206\\X\301\200\036]\301\227\256^\301\272*Z\301]\353\226=R\250\020>o\267]\301I\272Y\301(a]\301A`^\301a\364Y\301v\023Y\301N\002\226>]p\355=w\334&>\251\323\317=\235vZ\301\377\214\213>p\355\342>\230\306\022>\354\304Z\301\273{Z\301I>^\301\353\276V\301\363NZAZ\360\265\273p%3>\273\231[\301O\257Y\301\317\007[\301\2420[\301]\030y:)N\024=<kX\301\216\\^A:l]\301\240\313\\\301\031\206\n:\231\231\216\276\253[\\A\201\031\222<\325\365Z\301\247\177~\276\r\310\316=\244{YAI\234Z\301\312W]\301\330\365W\301\226\251\\\301O\271Y\301\323\031^\301\267R^\301Z\022\\AX\005^\301\252\263]\301\256NY\301\241\245t>\206tW\301\200\362Y\301\230(]\301W\325]A\264\367[\301\nzX\301\271\275Z\301~K\\\301E\341Z\301\\\375Z\301\355\226Z\301BM^\301X\264^\301A\234\\\301\352`[\301\266B^\301\022\355[\301\220\346Z\301c\017Z\301NvY\301uZ]\301\256\327[\301XE\\\301\037z[A\341e]\3010\244\275;\271\027]\301\213\263[\301\177AYAT\010Z\301\246\302XAT\013\257>6\324^\3019\033Y\301\005\303\\\301\310\314[\301\241\243Z\301\306B-\276\351\"[\301N?^\3016\270[\301\201\334W\301\203\'Z\301\235\376\\\3010\351Z\3019\264\306=\227\245[\301,\370\\\301scE\274\367@]\301cc\231\273\254\243\251=\277\205]\301\357\010\246=[1]\301y\350Z\301\036\0133\275\326k\235>\021\010;\277g8\\\301u;\201>\320\301^\301h\226]\301G\343\365\275\272\242ZA\276yN\2757NX\301i\315\\\301\0028/\276gf\\\301\335\253\266=D\331V\301\260#^\301\275X\\\301td\\A\263\272\265=}\002\334=\3334\\\301\206\337X\301\023#\\\301\014\355Z\301\"\261V\301gPY\301+\305R>`\030\003>\331\321\003>\303\007Z>]\242]\301\244p\261\275\360\204\014?\307\251\265=.C[\301}e^\301\3449Z\301\346z[\301\n8Z\301y\204k>\257\2129\276g\332Z\301\366bX\301\344#\\\301\244W\\\301:<+\274\204\003\361=\3438[\301\247\000\\\301\274\225^\301`]]\301\351x\252<\325\206h<7HZ\301\325`\216>\226\016\\\301U\271\031=\035#\205\276\256\223[\301\034l^\301\337\270]\301\373\247\\\301(\233[\301K\365Z\301{!\\\301\367\256Y\301\262p]\301=\005Z\301\251g^A\331\254Z\301H\261\t>\001\254V\301\354\313W\301cs\\\301k\335]A\002\317[\301E\036\\\301<FY\301\331\000]\301\233tW\301~AY\301\305\270X\301ZSY\301!k^\301K\273X\301\206Z\\\301\350b[\301HPY\301\370\224]\3016\002^\301\310\205Y\301\n\007Z\301;~\\\301.\244^\301G\361YA\275\356Z\301s\353\240\273\2655X\301\370EY\301\"\000Z\301\214\307Y\301*\035W\301\2079;>\005$]\301\250\266Y\301\327\370]\301O\377]\301\315\313\\\301\207?q>\243\314[\301\004\016^\301N\365Z\301o;X\301\020\263Z\301\323\261[\301\274\000^\301_\336I>\034\225]\301\372\370Y\301\036\214\257=?\356]\301\354\024\221=)(\215>\246qZ\301x\236\211>\212\177Z\301\250{\\\301f:\006\275\242\271\244>\036\357&?:\364\\\301F7\223=}z]\301\301\021[\301yl\255;\274\343]\301\353%$\276\356\201W\301\233\353\\\3015\034E>\323\270[\301|\000\254>\371!^\301r\315Y\301\032\313W\301&,]\301%\371#>*q\244>\224|^\301\212\357X\301\340\246]\301\374\244]\301\274/X\301\316]W\301\357\252\t>\007\206O>V\355\267>\341!2=,9Z\301\341\214\006=\261l\372>\\f\243>\032yY\301Z\253^\301\375\211^A0\000ZA\261\204^\301\233(\\A\020LZAb\220]A\004\243YACnZAZk]A\355\202^AA\202[\301\246j[A\0257]A\310\236\\AW\275YA\305\213[A\276@ZAI\344]\301\302\320\\A\235\304\\A\257E^A\032\312ZA\340\206\372=\2675\\\301\326CZ\301\336\344^A\224q[\301\247\222[A_\343Y\301\000\026Z\301\340\022Z\301\223\371ZA\231/[A*{]\301\237\310Y\301\332\'^\301ER^Ai\253[\3015\211\\\301t7\\\301\005\272\\A3%[\301q\276\\\301\233\002^\301\350\037ZAc|YA\032\370Z\301)x^\301\364!ZA\026+[AP\344\\\301\251\333]A\367\246]A\257\340^A\246\\Z\301\265\244Z\301\311\004[A\221\357[A|x]\301\372\315^A\360F[Av\273^A*\354^A\235KZA\024\000]\301VuYAF\325\\A$\026]\301\\T]\301\350yZ\301\363\204Y\301\337\231ZA VZ\301\330\327Y\301\217\367^AV\205Y\301\207S]Aw3Z\301\371>]\301\242D[Aj\321^A$\272]\301Ey\\\301\346`\\\301JM^A\216\362Z\301\253\301[\301N2]\301H\366YA\321\370^A\234\253Y\301\276\302\224<\025U]A Z^A\356S]A\265aZ\301\215\022[\301l\203[\301\306\255[A\312\301\345\275\021\213\000\276\n,[\301^\317\274<\326\224Y\301\217\367Y\301p\017^\301&\257^A\236\364^\301\334\251\\A?\010_A\016tY\301m\260\\\301u\323]\301C\007]\301\245\213^A\200\n\\\3011\032]\301\365\302Y\30178[\301A\342]A!\211ZAY\377[\301]`\\\301\333\246\\A\367\275\\A[\373^AF\270]A=\226Y\301\360\313X\301\212DY\301\350\304]\301\233\321Z\276p}\327\275\364\200Y\301e\203Y\301\034k[\301\277\271X\301[\251P>\255E\024\275\356\236WA\032C]\301\032\311^\301\263\362\\\301\017\024\227\274\333\331R>\353J\\A\303\210\371=\"\252[\301\023\317\336=\375\212h\273e\320\\\301\360WX\301-\245X\301L\246X\301`\275^\301\305\337Y\301\034\255[\3019G^\301@\377Y\301t\231\\\301\264 ]\301iWW\301\337\030\345<DD[\301\261\234Y\301\315JZ\301\307\246\\\301\354r^\301\205\363V\301U\026\\\301\007-\\\3011\312]\301\346\375Z\301q\350[\301\356?Z\301\306!^\301r\325X\301+j^\301\226E^\301|PX\301\243\030Z\301\325]Y\301G\241Y\301Sz^\301j\332[\301\345yZ\301\005\032]\301\233rV\301m|\356\275\317\326Z\301;}Y\301\364\304X\301o1]\301j\353W\3014b\217=7(]\301\360\004Y\301\r\325[\301\264Y]\301x\216Z\301o\326\335<o\013\\\301V\275\\\301\262\257Z\301z7Z\301\312\\^\301\355\213Z\301\213\203^\301Q\027(>S\222]\301nF[\301\277\256\036>\373f\\\301\277\335\241>P\021\234>\230\272\\\301\317u\334>RE]\301c2\\\301g>2\276]\'\007>!\372}?<X[\301\007s\237=\240*Z\301\316\227\\\301\354\332\247\275\3247^\301\220\003\314=-9Y\301\335\364\\\301-\240+=i\277Z\301\"\325P>\316\334Y\301@\006Z\301W\373Z\301\244R]\301\215\007\366\275\303\177u>\321\373YA\211\036X\301\226\317\\\30142Z\301R\370[\301\360\226[\301\317{\n\275\352\232\210=\371\016\323>\013\264,>\324\374Z\301\355:;>\204\267\371>t\230\235>\023J]\301\302\330WA\257\226Y\301\205lU\3014\212\\Ahf\224=\263i,\276\314\224Z\301\216\037X\301\227c[\301\330=X\301\300K\357=8\r\013>\210\027V\301\276G\\\301\266\335Y\301\343T\\\301\343\260U=\251~*\276\367\372\\A[P\277\273)b[\301\252@\347\274\371\307\253;;\255^\301\326=\\\301\252\357X\3014\013X\301M\262[AHLY\301-A\\\301X\273Z\301\301\rZ\301q<X\301B\312Z\301\370\343Y\301m\303\224<l\312[\301\335~U\301|\363[\301\216\362[\301\221B]\301\344oW\301\262\315X\301\362\350Z\301\244QX\301\317\235X\301\366\354Y\301\2312^\301P\204Z\301\242\001]\301\243\214Z\301\374\264]\301rwW\3011\371X\301\254]Y\301\371u[\301\333d^\301\260\026Z\301p\300]\301\335\341ZA\254[\\\301\031\217`\274\375%^\3015gY\301\3649Y\301Z\022[A\370\002XA\315\225]>\360`ZA\220\303]\301bGY\301\276\227^\301g\350\\\301\247\245\333=Ve\\\301D\324Z\301!\212Z\301_\367X\301\354\330Z\301\242\220Y\301\312\260[\301\234\346\n\275MQ\\\301\253\361\\\301\'\256\350=\027(\\\301RU\030>bky>iq]\301\025\353\327>\363\002^\301\326y\\\301\362Q#\275\240\266\020>l9\220?\005o\\AY\311\204>c\216]\301\"\373\\\301?\326\247>\307\220\\\301x\034\260=g`X\301\340.Z\301fkc=\337\206WA\303in=\037\363Y\301f\201V\301\250\351Z\301\342\221^\301\347Z^\274G\355?>D\033]A\365\332WA\242\035[\301\267\031[\3014\347W\301\031\253\\\301\323\201\247\273\315b\335=s\277\013>&\226\371=\332\263Z\301\366\344\017>\001\346w>A\217\031>}\300]\301\\XX\301e\377]\301\252\342\\\301I\222^A`\362\200\276\022n\201\274{\373]\301\245\333]\301,\022[\301\227\236\\\301J\354\n\274I\214\240\277\032\037WAX\225[A\257\251Z\301\332\216Z\301\340<O\276\370\246{\276\034\221\\\301#!\357=P\361Y\301[QW\275\274\032\374\275\250S[A\356\007[\301S\275]\301\037rZA\020\373^\301\305\213Z\301l=Z\301\0241^\301\346l[A\255\235Z\301}G[\301Q:\\\301\023u\177\274\267lZ\301H\364Z\301\355K[\3016\270Z\301\321z^\301\245\013[\301psY\301\252l\\\301\272&VA.\302Z\301\024P^\301\351][\3013\214[\301%XZ\301K\310Y\301\340\000\\\301\034\367Z\301\312\211\\\301\233\022]\301n\370Z\301U\301Y\301\0226]\301\320\'\\\301k\261Z\301q<X\301I\2022\276\361mW\3013\031V\301\020#[\301\016\243]A\335\330XA\255\316\262=\351\373Y\301 \017Y\301\236\321^Anh^\301E\377]\301#\350\"=\364[Z\301\224 [\301\267\317[\301X\356Z\301}q]\301h\312Z\301\220\'\\\3016.G>\t$^\301\262\004]\301\372(4=\212\236]\301[\013\264\275\223F\225>S\276[\301\377\021\277\276m\332\\\301\0173]\301\211\001\033>\247!\226<\267\210\010@\362\245YA0 Z\274R\005]A\200\271]AeD\177\275\177S]\301.\311l=f\312[A){[\301\376\315\252>\261bY\301\21557>\360\206\\\301\013\005W\301\320lYA\307\334Z\301\310\323\206\275\343\260\002\275\276\"]\301\266N[A\307\177ZAcJZ\301\337\313X\301\307\234Z\301\332\023\255>NL\335\277%\262\027?\230\005N\276\201)\\\301\0318N>\351\255\033?\275\275\017>\200vZ\301Q\377YA\225\360Y\301a\224Y\301\301\005]A\343\356\\\301-\316\\Aor[\301\310\321\\\301\254\026]\301\245\355]\301\321V[A\251\237]\301\213\227\\\301\315\022]A\200\203^\301\361\206]A\007\261ZADE^A;/ZAW=[\301\234\035^Az\005\\A\210\303Z\301x\025\\A\375\\]AO\346ZA\303R[A\237\306^\301}\373[A\005|Y\301\250\035\\\301\374\304Y\301\034\030[\301\343\322[\301R+^A.\003]A0\366Z\301S\215\\\301\225\251Y\301\337\020Z\301O\021\\\301WI\\\301\3062[\301@\240Y\301\031\214]A`\242\\A`\202[\301\246\271YA\250\356[\301U\264[A\255\337]A\340\004\\\301\315\235\\A&yYA\206\365[\3012[]A&\224[\301\364\230]Ag.\\A\266B[\3011\333ZA~]ZA4\272]A\262m\\\3014\364[A\310\201]\301\220gY\301Y3]A2\361]\301\272B^\301\260\365Y\301tl^\301\222\374YAt\351^A\374\036[A\350\201]\301\3371\\\301\321\263]A\021\370Z\301\275\302[\301}\256Y\301e\321^A\255LZ\301 \222[\301XB]A\335g^\301\354\343]A\356\314ZA\2013\\\301Wq\\A\212\241ZAu\017Z\301n\357\343<t\000]A\325\203\\A\221\367ZA8\013ZA\276\016[\301\316\266]\301(\352YAj\265\\\301\0010\006>a\312Y\301<\247[AY.\\A\352\376^A\337\255YA\"\210Z\301\324]]\301*\330ZA,\251Z\301;\275Z\301\271\371ZA@\340]A1K]\301\345\250[\301SDZ\301/#^\3018\312\\\301OE\\\301\256FZA\272\230]A\344`[A\231\346[\301gQ]A\r\\]A\262fZA?\337^AHhZ\301\275\354Z\301\307\340Z\301\331\021\\A\335L\335=\333);\276J\253Y\301\233^W\301\030\010[\301m,^\301\216\256\260\276\376\263,>U\345\\\301\361t\\A\036\353]\301+\303[\301,\310c\274\346\014\023\274\336\022^\301h\002\001>\335\354X\301\251\363E<\357\237j\276\232\375\\\301\354\224\\\301\030{X\3010\005Y\301\307\260Z\301\231\364Z\301\036\007[\301\270\267^\301~\253Z\301\037,W\301\344~\\A\230(Z\301\346\351`=\001zY\301\263\224V\301\241\003^\301\325t[A\177\036]\301\242EV\301\'/^\301\004\254[\301\302uY\301\377\021[\301F\203X\301l\231\\\301}V]\301\330\nY\301\335^^\301\241#[\30152Y\301F1]\301\211&^\301\376\273Y\301L\211^\301\177<^\301\300P\\A\003\304YA\374\006Y\301\205R\260=w\037X\3019\033[\301\340\324VA\211\353\\\301^J\\\301\236Ct>X\264[\301\316\r[\301\325\303]\301-p]\301\337\203[\301Be\242=Q\005[\301VX^\301\256\t^\301e\334Z\301\026\307\\\301\323\214[\301pw\\\301\272O\210>&7Z\301\223\377^\301\177\372\267>O\023[\301\272\365\212>\366\255\016>L([\301\313\327#>N\254[\301q\271Z\301\344x\366=8< >\003\326x\275\346y]\301\224[&>\271m]\301\236+]A\\\226\234>\331\021Z\301z\2767=\362;Z\301,\005\\\301\323\247^\275\3671^\301=\016~=\252\366\\\301X,Z\301J0Z\301\262\224^\301\007\311\270=\3154\312=\321\320\\\301\200\236V\301>\262Z\301\357tZ\3019\355Z\301\225\337W\301J_X>\201\375\251\275\003\373\202>fi\036=\025h]\301\364\002Y>\3458\002?\360:M>\340\232Y\301\025\336Y\301\337)]\301\363\261X\301!,]\301{\221\r=\233\343\242\276\332\357]\301\372\375]\301dN\\\301\033\027X\301\243Ya=l\341\200>\337\252[\301\301l[\301@\002]\301\335jZ\301m\036i>A]>=\217\025]\301{\214\032=\r\374[\301\236\277\255>\273\rw>h\323[\301\3068W\301\335\275X\301\337+YA7\034^\301\013wZ\301\323\317ZA&\235\\\301\351\350]\301\353m^\301.\333X\301\335\361ZA\333\303\227>\204\005]\301\272?[\301H#\\\301B3Z\301?\003^\301\371\256YA\007\372\\\301>\325[\301-\020ZA4\373Y\301<kZ\301\307\313\\\301\232\020_\301\337\323Y\301G%Z\301\247\363Y\301;}Z\301\340N]\301\276>ZA\3555Z\301\211\334Z\301\273\300Z\301\002)^\301;KW\301\'\225\\\301\205\355\177=\301\016Z\301\363JY\301\354cZ\301\232*Y\301\377\031WA\203\350\265>\371\333\\\301\023\210\\\301\303&[\301;+]\301\035IZ\301\032\025\371\275\312G\\\301\247\326[\301\030z]\301M\313Y\301#\274]\301I\rZ\301q\245]\301\374@)\275\243\307Y\301\364\034[\301\325\347<=^\000[\301\307\372?>A;\205>\341h\\\301u@t>\335\334[\301\032\\\\\301\302\334M\275\265\317\024\275\264\036\256>]\256^\301-\262\217\275B\271[\301\322\016Z\301lp\210>C\275Z\301\262;\033\276E|VA\353\271Z\301([\321\275\2634[\301\313Z\361=\244\226V\301\350=[\301\245\211V\301\273\307Y\301\263b\232\275\325\251,\275`\275^\301@\213[A\005\370^\301/\343^\301\023\037Z\301\363GZ\301\353\315\365<Gl\340=b\324\201>\340)l>L\345\\\301]\220{>E`\246>\377\301\205>\212eZ\301K\247Z\301Y\035V\301\333vV\301\201\005[\3019\016Y>\245\246 ?\356\347[\301\351\317X\301\246\370Z\301\035\374Y\301\216\206~>g\367[\276\217\243X\301\226p^A\021n^\301\247\177Z\301\204\256\325\274AM\332\275d\267ZA{\004\037=\2537Y\301\220\004\234=\2313\325<\373\210Y\301?\333X\301R\357X\301k\224[\301\027\031\\\3018OY\301v\352[\301\334\007Z\301\320\264\\A\340\364W\301\327\303]\3017\233X\301\026\007\013>\nOZ\301\250\362Y\301\303\223\\\301\3579[\301.eZ\3011\361W\3014\320\\\301\"8]\301\325\225X\301*`Z\301\361\235X\301g\252]\301\000\332\\A\231zY\301\3337[\301\\\257Y\301\334mZ\301\256{Z\301j_[A\315H]\301\036\364^\301{\245\\\301f0[\301(JZA\2034]\301\300\377\207\276+M[\301\262(Y\301\364\016XA )^\301j\242]\301\240\375>>!\270]\301\216-]\301\022\313Y\3015e]\301]\243Y\301\253\t>>\363=]\301\022OZ\301i\346[\301PyY\301zwZ\301t7[\301W\377\\\301\317+\234=w\267[\301\253\314^\301\324\2601>\313\014Y\301\324n\221>t\n\262>\315\321Y\301i7]<\250ZZ\301\245\345Y\301\n\306\010=\326\302-\275o\225\312?\230\347Y\301s`\036\274\225\374\\\301\331\255\\\301\222 \323>r\357^\301>\032g;\250\342Y\301\230\330Z\301\261\372\003>\360|]\301\350\340\004\275\201\316Z\301\304\361[\301\312,]\301\026\271[\301\034U\006=\311\2436>6_\\A\003YXA\310\274^\301\340\375[\301\233xY\301\376Z[\301\312\373\230>\013\t\373\274TF\207>\342v =w\210Z\301T\364/>\'7\222>\014\241\346=x\030Y\301%\200Z\301\251\203Y\3012PX\301\336\026Z\301%\207\201<Gd|=V\203Y\301\235QZ\3010\232Z\301c\231X\301\325\271a\275\002!\216\275>o[\301\275\315YA\224\245Z\301\221\303Y\301\313\311\272\275\234\235\000=\027\262ZA-,2\275\233\351W\301\021S$>\271\300\177=\261J^\301\'\032[\301:\345\\\301\267\326Z\301\034?[\301\271\271W\301\200Y[\301\220\206^\301I\246ZAmq]\301la[\301\325\241Y\301\257\314\220>\224\210\\\301\326\341Y\301\272\337[\301R\331]\301\306\274Y\301wXY\301\327~]\301\"\331[\301\320\034^\301D\205Y\301\372&Y\301\2370]\301\034\322^\301\251\276X\301\371\366Z\301\317\030^\301n\327W\301\215\335Y\301*\234X\301IB\\\301j\211]\301\261\035\\\301\330$[\301P\027Z\301\254\030\\\301G\202~\275\240_[\301\357\016Y\301\242u[\301\254-Y\3019\027W\301\212\031\300>\263pZ\301G\375Z\301@D[\301\200g^\301\306\224]\301G\204\267=\357\353[\301\254nY\301o5^\301\032\363Z\301\346\007^\301\237\260^\3012\340]\301\317g\215>\246\215Z\301\302\227^\301~\330\271>\260\233]\301g_}>\025\320#>\231\222[\301\233Pw>bkY\301\313\305^\3019\204\020\276w\251\256<\343\263\035\276\262\233\\\301\334^i=SlY\301\201\036^\301\227\324\023=o\251]\301\n\332\t\276\031XY\301\361\273[AE\304\352;\207\211XA\312p\030=q\200Z\301\333\205W\301\314\310W\301\213\177]\301\261X\314<\216\201\212>\312\367\\\301Y\215W\301\324;[\301\216MZ\301\2758[\301\023-Y\301\2558\217=\215\230\227>\2435\234>\021\366\246\275n\343Y\301\376Z\212>\211\345\245>\240\317\017=K\247\\\301+\031YA7\353V\301\010\252Y\301\270\001Z\3015\266\366<\225v\346\274F,]\3014\372[\301v\022]\301\'_\\\301y \323\275Z\305\337={\245XA\362\272[A\263p]\301\220y[\301#^\233=:{\247\275\342K[\301O\330\232>7BX\301\177i\367\275u\221\033\275\332\026]\301#\022^\301 \224Z\301\254\034X\301\211\034]\301\r\177\\\301\374\346[\301\251!\\\301\241F[\3010>X\3018\030^\301-\365Z\301H\240\206<Q`X\301\'\374W\301G\265Y\3012\216YA\017{[\301\337W[\301\371\313Z\301\276J[\301\371DZ\301\277GY\301WtZ\301\2620Z\301-rZ\301\226\307[\301\245\"[\301l\354^\301~xW\301Q\265Y\301\"A[\301\246\211\\\301\210\303[\301\232l^\301\215\276\\\301\227\022Y\301\245\277]\301\366h\275\275}\004Z\301L\nY\301L7V\301\370BZ\301\262{Y\301\020\243J>.dZ\301\317\005Y\301NW[\301\216\'[\301\200\374Y\301h\231+>\035\247\\\301\313\244[\301\201%^\301\231\331Z\301\346\217Y\301\355\374Z\301}\304^\301\021;\033>\010\010[\301\256\216Y\301\277V\236>\n\033[\301*\023\272=\376Os>\253\347^\301\227\216\333=\255)^\301\311\024]\301\254\037}\275=QK>++\345\275\276\322\\\301\254\037\354=\342\344]\301\200\376[\301\000\234\344\275\364\017[\301\256\014-\276\263\013Z\301\r\350ZA\226\275\204>\310-\\A)V2>jjZ\301\266|\\\301\037\014X\301Ry]\301\010\334\000>\025(\247>2$Z\301X\252[\301e\301^\301\353\004[\3016=X\301\312#W\301\372\2666>\245-g>\017\032\352>\001\031>=p\337[\301\320-\216>a\364\177>-\275\217>_\320[\301K/\\\301G=X\301\022{\\\301\010:[\301\210rZ\301apZ\301`\351[\3013\274]\301)&Z\301^=[\301\337\nZ\301\347b\\A\211\236\\\301\317%]\301\004-]\301{\347[\301\014\002\\\301;YY\301\236\032Z\301\301\302YA\317\010\\\301\213\231Y\301\343\311W\301\262k^\301\332{ZA\022/Z\301v\375W\301\307\236Z\301\203Z[\301\'\346Z\301\033\020\\\301!\222[\301.XY\301)\313YANX]A\242\304[A\272\256[A\357`X\301\337\264^Ab\261\\A\222\222Y\301\246 X\301 \021Y\301wR[\301;}^AY\277X\301\223\340X\301\203\217X\301\350\033[\301A\204Z\301M\204[\301d\302Y\301e\241Y\301\371=]\301&9Y\301\n-[\301\243\331Y\301\345+\\\301\322\303Y\301?\022]A\266V^\301\006[Z\301\345dY\301\306A^A*ZYA\021\002\\\301\256_\\A\363wYAG\022]\301\276o[A\301\032^\301R3Z\301I [\301f\211V\301V\267Z\301u\036[\301\003\005[\301\265 ^\301\021\365[\301j\207Y\301\340U]\301\r\231[A<\244[\3014\223\\\301q\177ZA,[]\301\237FZA%rZA\314\250Z\301\2241\\A[\034\\\301S\372^\301\306o \275\325Q^A\200\371YA\360\232\\\301K\334Y\301\003!]\301\3215[\301\005E[A\246\363]\301\0162K<!R]A\256\234[\301MQ[A\3701[\301\021ZZA\235\002XA\376\000ZA3\211]\301\311\360X\301<c\\A_\231YA\005FZ\301\002\310[\301\313)]\301f\346[\301\337\005^A\201c[A#\276[A\374\354ZA\354\272\\AU?\\\301I\327Y\301\020\201[A=\346YAT\304ZA\005\353[\301\244\022^\301\022\326Y\301\363\273[\301\321\266Z\301+\320j\276\177\337\316=G\306[\301fjVA\302\271Z\301BzY\301\244\217\315=\371+\023>\373\200\\\301\354\002[\301c\225\\\301~\305X\301\013\267\354=\271E_>\360-Z\301\227}\305\275\363\363Z\301&0$>\201\343\225\275\276\371Z\301\032\205W\301\377\351U\301d\027\\A\237\327^\301W\230V\301\213\025]\301t\347^\301N&^\301^\002^\301\306\370\\\301\223\225[\301\206&\001>\211~[\3017\332]\301\330\023\\\301G([\301\235\035\\\301\245t\\\301\373\244Y\301\204\274]\301@_YAD$Y\301\322\352\\\301\'3Z\301z|^\3012\302W\301\346\277]\301;H\\\301\264pZ\301\335\355\\\301ev[\301\345\327Y\301\005\301\\\301\2356]\301\374\244Z\3011\364X\301r\273Z\301\207nk\276\0236Z\301vRZ\301onY\301\243\304Y\301\310\023W\3010\333q>\360~\\\301n\tY\301\253|]\301\275\322Z\301\016\304Z\301\242\303\026=\361\252Z\301\334\325]\301\361\217\\\301\217WX\301b\033Z\301t\220]\301\301\231^\301\311\365\250>\317\351[\301\372\004^\301\341\375\212>vv\\\301\334\347\\>p\213\233=\177t[\301\177\260d>\004\276\\\301XDZ\301x?\332=G!\224\274\367J\035\277\314\202[\301\271j\033\275\364\t\\\301L9\\\301L\341\017\275.\263Z\301\366P\265\274\265L\\\301z\210^\301a\016 >\255\377Z\301r\277\211>2\377Z\301\264\373[\301\314\035]\301\002%\\\301k^\201=\371\021\255>\006+Y\301\003F\\\301\261\303Y\301\334X\\\301\361\300V\301\'\303Y\301\231\221!>\r\033\356=\237\363\254>\367\337D>\276\300^\301\233\316\365=@\300\325>\021\203_=\324\251]\301\216\213[AS\203V\301u\007V\301\243\007]\301{\\\\>xK\210=\022\223^\301\3557Y\301c\336]\301\357TV\301\323|\243\275\361\270\222\275\034\021X\301m\233[\301W\351[A\025\006Y\301\257\014\003>wdV\275\n\210ZA\357\363j>tc[\301D\n\353<U\343\022>\304\226\\AI\035\\\301\213Z[\301\027IX\301\240h^\301\323\031Z\301\205\243^\301\351\260^\301\363s^A\262\350X\301R@^\301\265\331Y\301\373\2404>\024\307V\301_\271X\301\235\030\\\301\365=[A\r\200]\301UM]\301\"E]\301\273\260]\301~\"Y\301\010\234Y\301\\\223Z\301\214\223]\301\376TZ\301%\264\\\301\211!Y\301Jq]\301\'5[\301\r/^\301|rZ\301\t\243\\\301\253z^\301kK\\\3011Y^\301\026\212W\301!1Z\301\216\255!=\034\327]\301K\035\\\301`\307Y\301\303\307]\301\227rXAv\264\231>\177\362\\\301\302i[\301\375\254Y\301\024d^\301OL]\301A\030\374\274+\375\\\301\264\241]\301\016(^\301\325\214\\\301d@]\301\303\222^\301\356/\\\301\034\261\226>\202?]\301D\001\\\301{\236\225>\365\235]\301i2C=\357\251&>\273\003]\301\345\303\001=\2636]\301\214\r]\301:-==\033\350\212=\030\026R\277\030\013^\301\324\242\230=\324\346^\301\340\017\\\301\007\263l\275\326\314Z\301\010\375\204=\333XZ\301f\007_A\345\365\017>\307P]\301\203\356\377=\275]Z\301\253\304X\301\235\322\\\301r\rY\301\351N%=\223\301\204=\014\014_\301\373\013\\\301\250\254]\301\214\215Z\301\036\031Y\301\034b[\301\177\260\306\274\277\204^\275\274\366\347>#h\312=\255\212Y\301@[\233>\207b\004?\004\001\234>L\262Z\301\242\335[\301\223\310Z\301\377\212Y\301N\014]\301$\273TA6\353Z\301X\265[\301W\243Z\301fr^\301\335\021V\301KbZA\205\341YA\377_X\301\177\"^\301=\335Z\301\371\330[A\321\332]A\317\017Y\301\023\271Z\301\332\350YA3\301Z\301\2220W\301\205\004[\301\336\240[\301\337\204]A\322\343Z\3018>Y\301^([\301f\333Y\301\300\320\\\301\245\365\\\301\227\270[\301R\304\\\301\205\251[\301E^X\301\343\351^AJ\356Y\301\260B^\301o\223^\301_\t[\301\356g[\301\264\335Z\301\007\005]\301\367\341Z\301)\371[A\236oY\301@\326Y\301\360\265\\\301\270\355]\3011IZ\301\361\032[\301\276oY\301C\236W\301?\347X\301\036\000[\301\356,Z\301\372\023\\\301\224|Z\301\017\031^\301\225wYA\235\243]\301\315\340[\301\366\037Z\301:*YA\020\224Z\301R\372Z\301\336\216Y\301\315\222[A\373\221\\\301+\314\\\301\262\'[\301u\203[A\026\032[\301]\305X\301\252\240\\\301\263\276^\301\335\200\\\301E\nZ\301\261\271[\301\353D]\301\346iY\301=\373\\A?\'Z\301\262}]\301#\037\\A\231@Z\301\355 YA*\201ZAu>]\301{|^A\212?Z\301\003-Z\301\241\331\026\276\010\335[A0\261XA\000\355]\301E\262[\301G8\\A\355K\\\301\330WZA\300<]\301\000\027\304\275\215FY\301I4Z\301\330\231YA\314\010]\301\214\300YA\310\255ZA\257.X\301\247\204\\\301\234\206\\\301I\266ZA\237/\\A\024\000\\\301D\201Y\301\201)\\\301@\233]\301}\305V\301\325\202Y\301\312\232\\A>\'Z\301\366\344^A\tYZA\233\r_\301.\242\\A\374\305ZA\242\\[A\361@^\301\324:Y\301z\200X\301\304\250X\301\231`Y\301_pC>\356i\205\275I\202^\301\370\355X\301k\340]\301\261\365Z\301\344\277\234=6\206\214>\336\344[\301,\363[\301m(\\\301S\214[\301E\302a>\000\266\206;Bq]\301\227\315\376\275`\264W\301\263\361\216>\371\203D>\277|^\301L\340]A\233\363W\301\272}\\\301\375\335Z\301\324}Y\301 \220^\301\314LZ\301GL^\301\373\323W\301FB^\301\347yY\301\001r*>\305\202\\\301\373\345X\301@\361]\301\211\322Y\301\331\324Y\3016\335\\\301\306/^\301\230/Z\301\345v[A\277ZY\301\371w^\301\342\002Z\301\006*[\301\323\246\\\301\312w\\AO\317Y\301\310:^\301\000\177Z\301\377vX\301\351\\Y\301\235\352[\301/\362[\301\371\264Z\301\375\250Y\301p\267Z\301\n\351\224>(EX\3013i^\301\242\303Y\3018\031[\301\241fW\301\231r\313>\032[]\301{fZ\301\033\205]\301\371\260]\301\303\201Z\301\"\225\"<\207\251\\\301\314\237^\301\025\356\\\301\356\016X\301\201\377Z\301\204\230^\301\340\317Z\301\315+2;[\323[\301\316\357Y\301\\\036\203>H\205]AM:Z=\003\237\241>\321\371Y\301\006K2>\366>^\301\373\312^\301\336\245$\274\363+\305=5\242\t?\300\261]\30132\273=\366\000^\301\342\361]\301\223>\303=\375K]\301\330\361\374\275\346!V\301Cj]\301w\253J=^\353Y\301\345>\240<m\222[\301\352U[\301y\220[\301\322+[\301S\300&>=Lq>}0[A\215LW\301\365H]\301&K\\\301{\345W\301`\251X\301nH\017>\344\211\307=Ev\235>\034\276\232=S\272^\301t\006\205\272\353\360\221>\321\347I>\320\231]\301y\310]\301I\333[\301\366\367Y\301\245\223[A} \235>Q\251\374\275\024\246^\301\364\022W\301\001#[\301L\216[\301\275\270q\276CS\206>\337wZ\301\320\273[\301T\247[\301\362O\\\301\343#\317\275\032Y-\275\006IXA\356V\205>\327\241X\301\335\252\251=\252\306\267\273\214\367^\301;$Z\301\001{[\301\013~Z\301\245\207]\301\305\215Z\301\262RZ\301\255\357^\301\020\023\\\301<\001Z\301?UY\301\2747Y\301=\342\330>\204\242Y\301\304\210W\301\337\"[\301\023\361\\A\027\274Y\301f\017Y\301\321\033\\\3015(\\\301o\324Y\301\361n]\301NYY\301m+]\301\007\310Y\301\311OY\301q.Z\3011\352^\301\273sZ\301\354Q^\301\216\007Z\301q\n^\301\310\331Y\301\306$\\\301\003\274Y\301\244sZAi\303\\\301!\336\274\275u\326[\301@xY\301%!YA\320~^A\3751YA\224\026\301>\240\273ZA\3073Z\301Xj^\301\206\356\\\301_\016Y\301^UH\276\nHY\301\014\362\\\301\365\245Z\301LY\\\301\254R\\\301\032k^\301\304\303\\\301\367\241,==|Y\301k\272Z\301\020\317\236>JR^\301[\'\312=\\g\265=\225\311[\301\351\367\247=\311\032^\301@\376\\\301~\361\267\273\024\272\022>=Eq\275\3637Y\301\230\363s>\t\212\\\301\333\272^\301\022kJ\276\271\027]\301\320_\345\275qdX\301\247L^\3010\233~\276\205\270Z\301\037\264\377=4\211[\301\211\001X\301$F\\\301\267\355YA;\026E=\223\233\213>\305\245\\\301\233\271Z\301\363w^\301\330c]\301\361%W\301\024\017[\3015\2600>\275M\367\276\227\313\234>oW\375=+\\\\\301y\211\340=\211\013\357>\303X\215;Q\360\\\301\347YY\301`\311Y\3017\263W\301\303\204[\301>\236 >(\231\226>\004\253Z\301\274GX\3019bZ\301\232\227W\301\316\334\307>F^\315>)vX\301\222\245ZA\242\346[\301\221nW\301\370L\235\274\004\253\314\276!\242^\301z\366\344>\303\325Y\301E\366\230\275\001\r\'\276\004\233Z\301\3145Y\301\202\270[\301\033\014[\301\375g]\301\336\263W\301=:\\\301\303\255[\301<\006\\A\327`Z\301\305\001^\301\234rY\301\257!0?@EZ\301<\025Y\301\314\366]\301\311{[\301\377o^\301\317\\Z\3015\n[\301H\206Z\301\376\316\\\301`\211Z\301H\350Z\301\325\003[\301\033\036[\301\377nZ\301\336M^\301w\026^\301v\034Z\301P~^\301c\231\\\301A\357Z\301\200W\\\301\337\311\\\301\264\214]\301\300\022Y\301w%\\\301\376\226V\276\006\027ZA\2719X\301\022OZ\301\275k^\301\262\014ZAG7\031>&J]\301\334+]\301\247\243[\301O\366[\301\201\267Y\301\022\020\033\277\201a]\3019\"^\301\212|^\301{\016[\301F1Z\301Z\254^\301\371\335[\301|D\201>m\217]\301\331eZ\301\354\230_>\2762[\301\2068\252>\014k\360=\313B^\301\317\343s?\031*[\301\352\212Y\301J\321^=\312\003\363?B\222\337\277\213[Z\301g\263\250\276\365\354[\301y\212Z\301!\327O\276\303>\\\301\214\265\355=\2113\\\301\302\242]\301cy\021?\2106\\\301\277\265\224>v@U\301w\246\\\301%\355]\301\302!^\301\246\035\310\274G\375\206>\270\271]\301t\243\\\301\2446Z\301\0247]\301@\335[\301\346\311W\301\351\277t=\313O\037@)\224\010?V| \277\006\010]\301j\211,?\344p:\276]\203\007?\303^^\301\220\367Y\301\227\271]\301k\372[\301U\177\\\301\353\'\333<3\t\226\275\375\243YA[@X\301%\375\\\301)\026[\301\335x\325\275\206\rv=\337\224Y\301g\237\\\301!x\\\301$\331[\301\237^\332<\346\321*\2751mZ\301I+\212=\261\354\\\301#NV\274\001\367\321=S:ZA\255\306[\301\256&Z\301\267Q\\\3011\241^\301)\265Z\301\333\r\\\301W\203Y\301g\307Z\301\236\243X\3012\215YA`\203[\301\303\363\355<>lV\301\266\344V\301\366<YAF\321\\AjV[\301}zX\301\3771Y\301\013\'[\301\372\375U\301\017\274[\301\"\212Z\301\232%Z\301\202+\\\301& Y\301v\226^\301\030BZ\301]\341W\301\304yY\301^LY\301\356\014]\301U>Z\301B\355\\\301Lb\\\301\214\025]A\262<\\\301\375\355\024\275:;^\301Z\341[\301<\021ZAA\350^AuHV\301\002? >DO^A\361|W\301f\n]A=\213YA\350\351[\301\177\227\007>\277a^\301\313\243Y\301|\372\\\301Z\212Y\301\353\301Z\301\241\354Y\301+7^\301\205\267\226>V\226[\301\320o[\301\346X\207>z\003ZA\350\353\223>oc\377=\225B\\\301\213\336\177>xG[\301\r\303[\301\254\313\307\275\342\261\037>J\305e?K\245X\301p\247\014>\020\235Z\301\307\304ZA8\344\207>jmY\301IP\026\276\3616W\301-\317Y\301\220\253\344<\361n\\\301\363d\265\275zB\\\301\324,[\301\320\345^\301sH[\301\241\002\210>=q3=\025EZ\301\317\336Y\301S\227]\301\004\250\\\301M\316Y\301j-[\301\017\010f>%\366\247=X\253\340>\375\177\016=\200\204[\301a\223\002>\001\372\261>\211`\223=\205\356[\301\010\201]\301\221/]\301C&X\301\252[^\301\313\236\347\275\345\360\251=\313\316[\301\302\330Y\301\377\023\\\301\017\345Z\301\022\222\005\275\'\224\267=\213FZ\301a\371[\3019\330\\\301]d[\301\347/\022>\244mB=`?]\301\230\244\225>4\231[\301\326\257\337=Ii\205=\014\251]\301^\355[\301S\300\\\301\262\200V\301\335H^\301e\177Z\301\341\013[\3017\263Y\301\202^]\301\344#Y\301\253q]\301\312\345Y\3014\0057>B\244\\\301o\240[\301\241\265^\301\371\\]\301\207\306[\301!-[\301\010\304\\A\004\177\\\301\251\335Y\301\311\032Y\301d5[\301\252Q]\301\325\201\\\301\004\244[\301\302\250]\3013\346Y\301\'*Y\301WnY\301Rc[\301\360\314\\\301eC[\301\351RY\301\002\322[\301\2314[\301\n\272\\\301O\306\033>I\226X\301\342+Y\301&uX\301\312\355\\\301}pZ\301\003\261\370>\374c]\301\352O[\301\246}\\\301\221\351Z\301\364\255Z\301{\333\031=\362\276\\\301\342\264Y\301\242\341[\3017\316\\\301\325\211\\\301\312o[\301\033\247[\301w[\235<\337\003[\301\035y]\301C^j=CSY\301P\206\253\274\314\326\255>R-[\301\325\226\216>\274\231Y\301\206\222\\\301(O\263=p\001\235=\226\247\324>\007e[\301\247\344_<\351\016Z\301\233\336Y\301f\024\303=\270\252^\301\304j\271=v0Y\301!w^\301_\3170<e\023Y\301\354\307\214\274?\267Y\301\\\345V\301_\tX\301\224KY\301p)\217=\026\330\212>\341<]\301,EY\301(\005]\301<J\\\301%u[\301\352[Y\301Cv1=\267\004u\274\243.\226>[\263j>7H\\\301}\222{>z\265\274>\262:\244>\t\262Z\301\357UW\301\262{Z\301\241\236Z\301L\364[A\033\336\335\274\223-:>\330\n[\301\352\311]A#f]\301\273\351V\301\272\037\227>v\365\001>\347\221W\301HE[\301%\030]\301j\324Y\301\303\246j>W3\225=\255\343\\\301\013cY=\000UX\301\270\232\374=U\201k\275:\007[\301\216\347\\\301\246t]\301n\366V\301\016\322\\A\255\276Z\301\017VZ\301\273yZ\301!G\\\301\227\372Y\301\321\376X\301M\254\\\301\365\014\250=C\213[A\340\322Y\301\320\270]\3010|^\301\263\353Y\301\342]\\A\016\322]A7P^\301\214?YAm\025Z\301\365\274]\301\310\207^\301\276\225[A[][\301B\324]\301\205b]\301\332\005\\\301s\225Z\301\3647W\301\237\337\\\301\024pZ\301(b\\\301c\264\\\301O\247V\301#\013[\301\021\261\200\276\3272[\301I\243Y\301\323\221\\\301G\332[\301@\211Y\301}4\250>\216Q]\301\356\030W\301\032:^\301\031`Y\301:\210]\301w\260\347\275/G\\\301](^\301d\252\\\301R\000Y\301\217\226^\301\235l^\301\364\327[\301\373\312\355=7\002Z\301\372FZ\301%oz>\031\375Y\301j\232h=\362q\212>\014\270^\301\223\021\361<9\212]\301\207\000Z\301f~\365\275\036ZC>\306:\351\276\202\261Y\301\360&\305=%\347\\\301\010h]\301@\212\'>E\241\\\301\372\211\013=\243AY\301\367\r\\\301\2677\264\275\333\240VA2] >\027\363Z\301\033=Y\301\021\267YAM\367\\\301\265\352Z<\322w\262=4\020_\301c\250X\301\260.\\\3018\027^\301x\226Y\301\203l\\\301\317>\311\274\247V\376=\037\300\020>\256\232\311=\322\301Y\301`*L>\351\305\014?}V.>\347\016\\\301$\005[\301\244\210X\3017[\\\301\303\250\\\301\353#\327\275\377{\351\275\232\317\\\3018!^\301\n{Z\301/RZ\301\365\257\303=\357\2143=\207\'[\3015[]\301\347\247[\301\\p[\301KL\344=\321\347\366=\234\177Z\301\342\275a=\353\036[\301\303x\333\275[\332==%JZ\301\370\260Y\301\034\373X\301q|W\301:\036Z\301\271\271X\301\0348^\301\371\034^\301\301Q^\301\330xZ\301\211\343Y\301\220\004Z\301/\355\243>k\376Y\301\203<]\301{\277\\\301\345\022Y\301\253\353^\301\201\233Y\301p\200]\301\0054^\301 \rY\301}yX\301\212MZ\301\007\301Z\301\260\335[\301`\377[\301\374\211\\\3017q[\301n/Y\301\3208Y\301ML[\301+Z[\301\270oZ\301\\\352\\\301\347C[\301G\276X\301\245e[\301\212_+>\0372Y\301\2209Z\301\200^Z\301\010\030^\301WTV\301{\030\321>\025/Z\301\300\313V\301\034\032^\301\024\231Y\301\222\362Y\301\353\013\276=v\024Y\301\242\267Z\301\201S\\\301\214>Z\301\367\370Y\301D\312\\\301\277\243^\301\362\330\320=u>Y\301\3508[\301j\356\254>&\236[\301(\334\252>=\272\227>+\370Z\301\323\333\">\250\311Y\301\235\223\\\301\216\216\234\275[\371\277=\315\306j>\274:]\301=\3061>\267\222[\301b\362[\301IW\271<\223\235\\\301\231a1\276-\327[\301\006I^\301\375t\243\275w\310V\301\023F\002>\334\305\\\301\257T[\301R%[\301\244\034]\301Gq1>\253\313\037=\013\315\\\301\007\250Y\301\250\031]\301\263![\301LjW\301\232\347Z\301\340\364z>\255(&>V>\364>\346 \031=\017\252^\301\314\'\205>J\033\275>\t\003\317=\220\225Y\30169Y\301mL\\\301g\037Z\301\356\033[\301\003\245F\2747\0367\276L\233]\301\2702[\301c\273Z\301$\321[\301\273l\242=3@q>5\253XA\201\366[\301\\\271[\301\321mY\301\221\217\374=~\260\214:\314pY\301:\024E=o\214W\301\323\3150\276%\006\311\273\034\365Z\301_\206\\\301\217\252[\301\227\360W\301u\243Y\301\222\335\\\301\010tY\301\326L]\301\262\224Y\301\276\031Y\301\250\017Z\301&/\\A\337\233h>t,[\301DA[\301E\236^\301wKZ\301q\263]\301\016\365Z\301?O[\301j\351Y\301\252[Y\301h\024\\\301\372\034^\301r\331W\301\030_Z\301\222\020X\301a\251\\A\343W^\301\362\317X\301\303z\\\301\005\312]\301\022\333Y\301\345\325\\\301\215\255]Ah\337Y\301\3607[\301\200BX\301\255\013i>\2330[\301\021d[\301\326\222Z\301\317sY\301=\342X\301H$4>\354UY\301\220\272[\301Q>\\\301\207G\\A~\241Z\301\223:^\274b\000ZAw>]\301\251\031]\301,0X\301~\313ZA\236\373]\301\n\264Y\301n\3323>\324$[AGn\\\301\256\270\263>\300\341Y\301-\212-=vR\322=)\345Z\301\357e\014>`\344]\301\232A^\301>G\216\274\253D\236=\200\274\235>\014\300]\301\232?\025>0z[\301 \001[\301\376C\250\275\217\245Z\301\340\237\210\275C\330Y\301Y^\\AE\232\317\275\020\246X\301\232\201\277>\350jY\301\177$V\301J\271W\301)*Z\301\rt\264\274\332\376\203>\020\000]\301\277?Z\301\253>]A\240\367^\301e\014\\\301@\220Z\301\321\337b>)`Q=\223\315\225>\372\266\205>\307\354]\301\312\016\207>^\267\206>\3369\253=\005\235[\301l\246ZA\271.[\301tHX\301\202\364[A\264\202YA\021\342TA\317\351Z\3011KZ\301\357}Y\301\036eZ\301\245\250]A\213\220[\301\034\211V\301{\351\\A[+[\301\252\223]A\243\225YAv\376[Ak\"^A\200\003V\301\023\'X\301\232 YAD\364ZAI\376\\\301\223\253[AX\310\\\301\t\207XAd\253]\301\331KU\301#<]\301!X]\301\033\006ZA\376AZ\301\366\331\\\301$LW\301;d^A\374\253[\301\231\305Z\301\221VZ\301\030\313^\301\203\014\\\301\315Y]\301\202\177]\301\364IZ\301U\233\\\301M\274Z\301\257H[\301\r\335]\301\276\274Z\301\267%^A\345JZA\212\264Y\301\252\030V\301L\203]A*\350YA\311\247[A\212\255\\\30163Y\301\263\350]\301j_[A\005\326]A\324\246\\\301K\311[\301\351z\\AGt[\301Oz[\301\232\332XA!\365ZA\251#Z\301\241\243Y\301\326\267[\301\363\264^\301_\311X\301\"\231\\\301\272\243]\301\216\225Y\301\362\342[\301VZ[\301tN^\301\216AZ\301\320\332Z\301\345AV\301\372K]\301MD[\301\227\330X\301B{Y\301,MW\301\255VW\301\275\341Z\301+\201]A\2356[A/|[\301\276&u\275\250\226ZA\322U[A\037\213^\301edTA\\\346\\\301\366\377Z\301K\245V\301\275e^\301\236\3077\274\254\372\\\301z\223[\301_\272ZAEO\\\301\276PZ\301\370\267ZA({\\\301*\010_\301\307\226^\301h\351Z\301\202aY\301i^^A\225\201[A\376^\\\301\336\343[\301\236\211[A\277\376Z\301\355X\\\301&\245[Aw\000[A\352^Y\3010\213^\301q\243X\301\357\027ZA\263\364Y\301U\263[\301\021\004XA\342\251V\301\313\210X\301K\345\\\301y\244\232=\255\022\207>!\177Z\301/xV\301\005\311\\\301\365&Y\301s<B\276$\013\036\276z\246V\301\227\263YAo\034^\301\2409Z\301\271&\343\275O\2221\274\322nY\301\264\"\302=\3765Y\301N?\177\276\0038]=\016\314Z\301\316}^\301BaY\301*$[\3013d[\301^\034Y\301\230=[\301]\226Z\301C\246ZA\243_X\301/\345YA\356_Z\301\037\020y;\022\212Z\301n\232Y\301\355\327Y\301\016\305[A\202\013_\301\247\276W\301K\332[\301\307\256Y\301\017O\\\301\306\254[\301&\320X\301\265\nY\301/\231]\301\\\210Y\301\312&]\301l\375[\301\252\240W\301\250F[\301\016\\Z\301\263#Y\301\014k]\301\334\236Y\301\246\321Y\301c\201XA\355\036]\301D\212F\275\203\221\\\301oa]\301qsW\301\377\274[\301C\315\\\301\235\361h>:\237[\301\302\200Y\301\257\220Y\301\331\234]\301\3218]\301\273%I>e\214Z\301I/Z\301\342/[\301\274nZ\301\264\210Z\301\320\343]\301\224d\\\301\207\235\302=J\014Y\301\034X\\\301\262Oi>\005\034[\301\327?\033\275_+\232>\313A^\301\225g:<\334\241Z\301\252\010]\301\177\255\037\276%\205\266>\212\241\n\300\301[\\\301B\357O<\304!\\\301\271\331Z\301\'Ot>F\r^\301\266m`=\217\325Y\301\007\016_\301\306\227\376=%U]A;\201\333=\222\033Z\301\321\031[\301\246rX\301\234\206^A0l\234=\324\264}>\307]^\301\202\314Y\301\255Q\\\301U?Z\301\007\341V\301\312\236Z\301\373\310\340=\272\021\022>\254\262\350>\027T\241=G9Z\301\342O\226>p\246\340>\313\332\241=\255^]\301\020\202\\A\341m]\301\371\214Z\301\204qY\3018\363\"?=\354.\277\357\372Z\301A\241Z\301\240\267^\301\373\326[\301l\030\321>5m#@\000v[\301A@\\\301\374\372[A\367\213[\301\300\363!;c\031\367>\320\213[\301\355PN?5\021\\\3019\262&>\nj\014;\375\006_A\367\216YA\003\367Z\301k\253W\301\267N\\\301\234&^\301\266\345YA\320\240\\A\013\345[A\340\277YA\314\222\\A\317\237\\\301\223\224\266>\366\236X\301\251 Y\301\335\013ZAj\337ZA1!]\301\247\360[\3011\200ZA:a[\301\027\242X\301g,\\\301\305\244\\\301v\313W\301\003\206Y\301\007\027^A\370c]\301\221v]\301t\261\\\301\263\307Z\301\212|Z\301&\026]A>\027Z\301\001S^A\367N[A\377\314[\301>oZA\320\204\305\275\366\363]A\346\tZArE[A\320k]A\366|XA\234P\317>\345e\\\301{\361W\301^\377[\301w\265^\301C\216^\3019h\256<\301\357X\301\241v\\\301\305\347Z\301\347\377U\301E\322[\301y\365]\301n:\\\301>/\257\276\212\267[A\311\314]\301\301\304\301\275\262\226Z\301\257i}\276\363p\242=\346\201\\AC\200\372?XTZ\301\2564Z\301\301|#>\364\250\237?\205O\342>\357O]\3019\232\222>^\005_\301y\347]\301\342:\203\276\226<^\301NGZ=\342\244Y\301\016x[A\335{F>\271\nZ\301K\014\370\275\355\342Y\301\247\243ZAh\374X\301\310\237[\301\\b\303\276=\230=\276\375P^\301\030\335W\301\336\257ZA\335\020YAOCW\301p\232Z\301?\036\227\275\177\027\210\300\354{.?Pr\325>\037VZ\301\030\276\243\274\271^e?\355M)\276\346\272]\301\214E\\A\214\371Y\301p\'W\301.0Z\301\311\335V=\221\322,>\002vY\301\3328Y\301\315wZ\301\333\026Y\301\227\232\002=jR\212=\265\277Z\3015\233[AWW^\301D\205Y\301\240\032\246\275:P\213\276\226\264\\\301\021\000\220>\2369]\301o\\\275\274P\037\204=\242P^\301G\035]\301LP]\301\\;X\301\376\217Z\301+\237Y\301\223\247\\\301\346>^\301\272\224[A\226t[\3019\376^A\357\260Y\301gV6>wSX\301S\330Y\301f\226^\301\314\327ZA\312&]\301;>Z\301G\327Z\301\333\377Y\301%\261\\\301q\211X\301\366HY\301\316?Y\301=b]\301\364\320[\301\330\227[\301\356\037Z\301\234\241Y\301\2035]\301\005\204Y\301\nc]\3019\234\\\301eCZ\301+\217Y\301|?\\A\000\352[\301\037\311g\276\307\300Y\301\331\234Z\301jHW\301,\313[\301\0354XA\301+\263>\352\322[\301\354vW\301\321\237\\\301e\320Y\301!\356Y\301\'\240\347\2730RY\301\333 [\301\344(^\301v\017Y\301\271\315]\301cr]\301\263K^\301\'0/>\356{[\301\307\360Y\301k)\215>)H\\\301\315\355\245>\234\377 >4\']\301\207\266$>\223~^\301D\343Z\301\373\002&\276\001\3630=\346\247\305\277\223\365\\\301\035\365\237=D\365Y\301\225\214]\301g\007\260=\326\036[\301\344\353\272=\017\274W\301d\026^\301=\247\377=\023\371VA\035\321{>\250~W\301k\262Y\301\340!Z\301\246\207^\301\021#u>\340e\245>\231@Z\301\310\\Z\301\315<\\\301\021\222Z\301\002\361X\301n\327Y\301U\017\014>\016\322\003>(\266\201>\254\236\232=\354*\\\301}Gn>\355\232\215>u6\257=0\204\\\301>iY\301\274\212[\301\237\316\\\301\020\013^\301\364\007+;\007\345\254=m\356\\\301k/Z\301\320\331[\301\3153[\301O\031%\275*>W> QY\301%\261YA\340kZ\301\350\020[\301~\332*\2759\3216<\035\037^\301\252\300\222>2GZ\301\036\r\317=\223,\212\275\222\336^\301hiZ\301\'zY\301\342\342Z\301P\371]\301\363\007]\301\320\276\\\301m\232[\301\030\350Z\301\026x\\\301\254\221]\301,KZ\301\214\267\234=\211\010\\\301\302\357[\3017\003[\301\321\331XA;t\\\301\323\352Y\301E\307X\301\205\372\\\301@kW\301\035\345Z\301H.Y\301H\325[\301!s]\301\327{Z\301\036\206Z\301Ci[\301R\252W\301!\262\\\301\213\275Y\301\'\303Z\3010\017]\301\tY]\301\036\027Z\301a(W\301\312\320X\301\254n\203=\016\214Z\301\340\023Z\301\345bX\301\261\356Y\301\265\032Y\301\274\202\332>SV\\\301\'ZX\301/^[\301U\305]\301\222\332]\301%\r\266<\3761\\\301\351!]\301\320\003Z\301u\024Y\301\232\232[\301\362\334[\301\253\346^\301\337\264\211>\310\222]\301V\361Y\301\271\013^>\353n^\301\235\275\333=\346WY>GaZ\301\355\230\236=uw]\301\212\354[\301\222/\036\275a\322U>i\360\204>h\375\\\301\366\274%>}\273Y\301\021vY\301\3134\310\274\241}\\\3016\2043\275\263\014Y\301cn]A[B\243<g\301[A\361\301\233>\366P\\\301=\250W\301\330\n\\\301\323\\]\301\371)2\275\2779\003>W\242\\\301\303\207[\301\271\027Z\301\235\356]\301\003\006W\301\230\277X\301\273\371\372<T`\237>^\272\223>]\255\273\273\311P\\\301\376\324\274>2\366m>-\016\200>\0068Y\301\327\355ZA\206\367U\301\317tW\301\301\016^\301\375\371$?=x\006?\007\024]\301\237\177Y\301\336\322Z\301\036\310V\301\377>\206?\014^\224\276\274\275W\301\272\342Y\301G\023ZAk\202Y\301_\303\006>O\3011\276\237\234[\301W\275\013=\025\304]\301Q\263\027\276h\230\233\276\016\263^\301/\254[\301\\\326X\301Fj[\301\303\256[A\0238Y\301\223\312[\301\366\365[\3013K[A\334\"Y\3013\262\\\301\341\237X\301\3560M?s\240^\301\033\253Y\301\265\326Z\301\003\275^\301#\204^\301_V[\301\335\003\\\301\371\343Y\301<\265W\301\255\326X\301}o[\301&n\\\301\277\341Y\301\351\035\\\301^@\\\301\243,\\AW\227]\301\205W\\\301\"\244Y\301\265[V\301\261ZZ\301\264z[\301I\316]\301\244\"[AxTW\301:#\276\276\305\305Z\301\320RY\301\337o[\301\027\300^\301l;WA\005t\241>R$^\301\021\021]\301\221x\\\301\016b\\\301\3214Z\301\354g#>\013\262[\301OK^\301\201g[\301\341$Z\3011b]\301\032\357Z\301k\264]\301\267bL\274\334O^\301O\320\\\301/%b>APZ\301]j\t>4\030\275>TKZ\301\316\343\303\276\217#Y\301#8^\301\236>\027<\206Bh?\345\214+@\314?Y\301J\276\210\276\322x^\3012p[\301wE\201<\301\024^\301\264X\354\275\301\313[\301\2203]\301\342J\230\276\244\201\\\301u\237\312\274\010\265Z\301l\031^\301\030\235Z\301\342\027^\301\327\356s>/\211\004>\023uY\301\3607XA\365@\\\301z\306[\301\020\265X\301\276Y[\301T\304\352=\005\177\300?\373\265\337>\2117O\276\210k^\301\267\352P>\037\227R>\212(\315>\305\201Z\301\314nZ\3019d\\A\025\216[\301\343\013[Aai\016>Fc\202\276{kYA`J\\A\216\245Y\301\274\366W\301(n\376\276\3344_?S\235\\\301\223\254Z\301\\\002_\301\360\237Z\301\304\252\320\275\244\332\246>+\376Y\301B]<\275\215\243X\301\205\320\360\275\227=\004>\010}Z\301\3665]\3017#[\301\006\tY\3015\251Z\301\241u[\301\322\002]\301\251\344[\30138[Af\204Y\301\206\222]Ai\353Z\301[BO=\207:Z\301\360\\X\301\336\352^\301\210-^A\304G[\301m\277W\301E#[\301\010\373^\301!G\\A\240\374X\301\2164W\301K\317[\301\300\371Y\301\033\372]\301v\330]Aa\233Y\301\007\376Z\301/}\\\301P\362Y\301!\013W\301\240\323^\301\3332^\301\177\364]\301h2\\A\240A^\301L|\240=\247s[\301\250(X\301\305\004WA\203y\\A=\tXAt\034\254>\374jZ\301V\260Y\301a\277[\301\3614Z\301\203Q\\\301gW\250\276E\267[\301\001\331Y\301\262}^\301\r\333\\\301\214%\\A_\306[\301\335\351^\301\351\337\336=sX]\301\357,\\\301\013\322\231=V\250Y\301\373\312i=\322\257\230\274\032\r]\301`\314\030>\227`[Ao!]\301\304\000\274=x\3015>\313\273\000\300\003\276]A\277\303K>\327\352\\\301e\220\\\301\250\r\351>\256\026Z\301\336vj\274(\341\\\301G\034]A\313\312\002?@!ZA\007r\315\275;\376V\301b][\301zLYAE\203]A\375K\370=\366\021^\276f(\\\301/\031\\A7G]\301\272\254^\301\212\222\\\3018\303\\\301\032a\032\276\222\240\311\277)\332\314>\374\322\216?\370\007]\301\373\213\177\276w:;>7\020_>7\200\\\301\006\372\\\301\n1Z\301\020=V\301\315\364\\\301\222h\261=aa\263\274}\226[\301\313\230X\301UrZ\301zB\\\301\256@\216>\3516\364=>\201Z\301=\241Z\301\373\013^\301\'}W\301Q\321\322=[\277\366=I\220\\\301\206$\001\276\272>X\301\016\304\253>\352M\233=h\227Y\301\322*Z\301B?Y\301\321\304W\301\255\327]\301,\331W\301\377TZ\301w\251\\\301\031\213YA\317\001[\301\302\344[\301\210\275Z\301-\367?=\247w\\\301\253\313]\301\205*]\301\221p]\301\343d]\301X\177\\\301C\326\\\301}I[\301\311eZ\301\233\033Z\301y6[\301\022\332Y\301\365^^\301\375\324Z\3018\312Y\301\307}^\301\374\340\\\301\0026]\301/\010]\301\nB\\\301\204\310Y\301\201F]\301\t\007^\301\303,[\301T\367\\\301`#\014\276r\212XA=*\\\301Y\221Z\301\273\207Z\301\276<[\301\341}\270>\320\325Y\301$q^\301[i\\\301\223$^\301\020\263[\301]\322\207<\260)[\301\007\262Y\301:\351^\301\'\347[\301\304\365\\\301\234\273Y\301O\221Y\301g\343\346<\214l[\301B\243Y\301\260\234/>\204\256[\301\313T\020>7|\274>\034S[\301\374l\032\275\256\206\\\301\037l[\301\031\204\252\275}\212\">%\377_\277\000\001[\301I}\362\275GK\\\301\025UZ\301w\245\036>\211}Y\301\265\037\003>\372d\\\301\362\213\\\301\237&\026\274\255\324Y\301\rz5>\201\243X\301\3619[\301B\271Y\301\267S]\301\273\206\255=\004,\213=\021T]\301B@Z\301\253|]\301\341\213]\301&\325Z\301Q\207\\\301\217\266U>p[\311\275K\\\240>\365\261{>[\374^\301\357\342;>\222\247\305>\226\372\236>F\345Z\301\360\004W\301\352\277[\301\237\344[\301\270\357\\\301\261\276\246<tp_=X\232[\301L\217Y\301\\\201Y\301\304KW\301\253\306\327\274_\031,>\230.Z\301}x\\\301>\007^\301H:\\\301\006\342\035\276?\"\314<S\277[\301\264JH>I\035Z\301\370c7\276\235^Y>\223x[\301\360\005Y\301\257\036Y\301\256\022W\301 p^\301\301qW\301\322\230[\301R\251Y\301S\276]A\037\201Y\301\374E[\301\022\251W\301Xx\245>\235\007[\301@9Y\301Vh^\301\332\353\\A\326\277[\301\265\340W\301@\315Z\301W2^\301Q\322W\301\251\027Y\301\252\026Y\301\001\214Y\301\206;[\301d\003\\\301\342\247Y\301l\272]\301\365\261[\301\312\311]\301mXZ\301\2309Z\301?\203]\301\366\004]\301\260\210ZA\037HZ\301\330\241X\301\t<\021>\311\250X\301\276\236Z\301z\031Y\301\3054^\301{\001[\301\203\314\245>\314\224\\\301\256:Z\301\235K[\301\351.]\301\020}\\\301t\002\007>\341\262\\\301\204\200]\301\307rZ\301\025&]\301G7]\301\360\'^\301!\213[\301?PU=.\371\\\301\226\366\\\301\245<\177>\261\037]\301\261k\032\275cz$>\305_\\\301f\331\204>\310\255[\301S\377Y\301NH\025=\303\210\223>\253b\030?4\373[\301n\234W>)\224[\301\255(\\\301\027\n.=\303\257]\301\375\263 \276B\236W\301\332\336Z\301-\206\352;\323\231\\\301\227(\223>k\027Y\301\013\206X\301\367\332[\301#yY\301\367>\024\275\211>\237>!\264[\301b[Z\301\244z]A\301\266^\301k\331Z\301|\026W\301\235\346\326=\344\317\214>\017aZ>v\021\322;`\204^\301\325\251\312<\213n\334>\355\214\262>+\246[\301\377\265W\301z}Y\301\267\367\\\301t0^A\321=\350=\361A\001>\033[Z\301\007\210X\301R]^\301\272l[\301\327\343\020>w\236\262=\352\275[A\323\255\\\3012\036Z\301\031\245[\301\237Q\212\275\t\377,\275j\302^\301\tK\340\274E\265X\301a\331p\274O\251\376=\243\001^A;HW\301\3552Z\301\373[\\\301\035\342\\\301,\361U\301\'(\\\301\204#]\301i8Y\301R\017\\\301\326a]\301*WZ\301\375\250\010\275\257\321Y\301\301\337[\301\355&[\301V=[\301\216\347]\301\315\000X\301,0Z\301$\034]\301\334\335Z\301;\020Y\301\300\352\\\301\211\212]\301#\347Z\3015\364[\301\227\033\\\301\327\346^\3017\261Z\301\374\201Z\301jj[\301\207D\\\301[<]\301H9[\301F[[\301\010AVA\027\365Y\301\204\312\036>3\017W\301\225\264\\\301n\337Z\301\230k\\\301\357\350Y\301\302W\000?n6[\301\026\027[\301\2532Z\301\262l]\301\324\272Y\301\233\037c==\261[\301\272\032Z\301g\222Y\301u\365W\301\204;\\\301\363\262]\301$I]\3017PV=\017\361Z\301\241\014[\301\025\177\326=DB[Ai\016\216=\331+\013>\343l]\301a\246+>h*\\\301F\327^\301\231\227\254\275{O\373<\272\355\003?\367\351]\301\352\003\215=\242\360[\301dnYA\257\303t>\036 \\\301(\027\200\275yqZ\301\023\205Z\301\343\335w>XTZ\301#\354~>\223\332\\\301}\262X\301\302\242X\301\215\215]\301P\003\023\276\004\'\033>\316\024[\301\022\223W\301>\257Z\301\016\236^\301okX\301\342&\\\301\037\366J>\242\276\226>O&\000?Q\373J\275\305\276\\\301\230R\223>m,\367>~\227\002>O\230Y\301^\274^\301Z\260^\301sU\\\301\302\334]\301\254k\023=\355\264\343;\014\305\\\301\225~Z\301$\304^\301\331d[\3013\0317\276m\034\230>0\367[\301\346\256Y\301\203sY\301\336\344[\301~\221\306;\266$\020=\234\277\\\301\305\354\261<\373\263Z\301\3358\350=?\017\007\275\0335]\301\347\221]\301\225EY\301\242\201[\301\037\263^\301\222\311X\301\0337[\301\301}^\3015\027^\301\323g[\301\242\302\\\301\371UX\301\361r\032>\226hZ\301~\215W\301\253\324^\301\366K]\301\221lZ\301\245\262[\301t\250YAjpZ\301\235MW\301\257\224Y\301\233{]\301\031\301Z\301K\302]\301\206\324V\301\242wY\301B\201Y\301V\360[\301w\272\\\301\000H[\301w,X\301|\243[\301A\253Z\301\353BY\301\234\240Y\301<NY\301\367\023\301\275\325d\\\301\004\211Y\301\177\207\\\301)E\\\301N\\X\301\2159\210>\\\251]\301f\263Z\301\351\302Z\301a\240\\\301\247VY\301&\257\240\275\221\314]\301\312Q^\301\242]\\\301\220\253\\\301t\210Z\301\202\351]\301\033\326Z\3015\3161=\n\037\\\301?\334Y\301\363(\377\273\351\305Z\301v\211J>7\366\274>x\353^\301}\255\214>?\241Y\301\332<\\\301vM\326\275ZF\t\274\231\213\352\273\307R]\301*\337,>\314\023Z\301\200\362Z\301\3245\226=;\275[\3010\251g\275\363\237[\301\245\204^\301\373\222\223>\031zX\301n\346j>,U]\301b\327X\301\375A\\\30141]\301T\306\310\275\247\240\244>\325\201Z\301\301\347[\301\360\367^\301nG^\301\322\355[\301\243mX\301\331Uh>\2159\355=0w\032>\236?D>A\254Z\301c8\375=\023\333\003?\355\004\037>\244iZ\301R\205Y\301;\351]\301\233\324]\301\360\220^\301\003\357\201=K1\306\276z\257]\301(\335Y\301,\215\\\301\343\234Z\301;)\027>n\207\022>fn\\\301\374\265Y\301\205\300[\301\266\274]\301\263@\027\276\337\332\342\275QUZ\301U\244\271\275~ Y\301\007\006p=s\003\274=\2079\\\301\367:V\3014\tX\301\347\212X\3015\317[\301E\330W\301\211\231^\301\002=^\301%\235Z\301\013\224W\301l\027Z\301\007_Z\301\266\276\026\275\225\360Z\301\024\324[\301\031\222Z\301\'\210Z\301{\267\\\301\312\341[\301)\256[\301w\362Y\301\323\250ZAK\032\\\301S\231[\301e\220[\301_`Z\301\213\205W\301*n\\AT\356]\301\3646\\\301\265mX\301\213#ZA\236\266Z\301\261\274Y\301{\366]AV\202]\301\323\260Y\301\323)Z\301-K\351<?\'\\\301zn[\301\251\237[\301\0145Z\301OQY\301\037h\335>B>^\301P\304Y\301\025f]\301p\327Z\301\250\321]\301+\201*>2|]\301\006q[\301-o]\301B\240Z\301\245\316Z\301\315\245]\301\273\200\\\301\253\013\377=\350\376Z\301\327g]\301n\t\306=\020!]\301$\n}>\274\033\311=\304\034^\301\265/\320=\311F\\\301F\302Z\301\211\346\335\275\377]\215=\301\376Z\277\355\360[\301\207\373\227<\302(\\\301\026\321[\301j\274\237\272i\322^\301\372v\177=E\264W\301u\347]\3016\3634>\237vX\301\364\235\265>j\330Z\301\006\321V\301@\242V\301\270P\\\301Mv\232<\033Y]=\271\331[\301+\354Y\3017\371^\301YS^\301\362\362Y\301\245,]\301\034\303\231>L\311[>\317\320\307>\374\255\201>\237N\\A\314\355N>H\010\331>\315p\025>\"\200[\301\233\331[\301Y\313X\301MhY\301\312\251Z\301f\205\251>\351\315\342\275f@]\301\367\216X\301kR]\301\020\304W\301}\365\002\275\202\253\031=\3700\\\301\266\237]A\340\252\\\301\322\354^AO\232*\274\255\256\370=h\256^\301+\336s<\310\010\\\301\215:g\275\252\014E=W(\\A\362\376[\301 \017[\301\360\224Y\301\t\320]\301N,Y\301\234\315]\301\245\204YA\330\245\\\301\207\031V\301\245\207YAf\210\\\301\267\337b\276\364\253X\301\241\252Z\301xjY\301\035GZ\301E\326Z\301,\220X\3018\000^\301\254\020Z\301\305\266\\\301\003Y\\\301|eW\301Jf[\301O\254[\301\236\005\\\301\274|]\301\217/^\301\246l[\301\373!Z\301\372UX\301\352#[\301dtY\301,\263]\301btY\301\001\351Y\301U/]\301@\321X=c\025]\301\014\231X\301n\254Z\301\373JZ\301\266\351ZA\223\016\r?\345K\\A)\261\\\301RNZ\301A\326]\301\031\036^\301\025\321a=\326\310]\301-%[A\004\263\\\301\020\334Y\301\344\255Z\301=\021_\301\246;]A+\240\237=\177\307Y\301\245\337\\\301\205\022u>\234l^\301\220\354R>\200\237\250>\271\377Z\301_\322\310=\\\315YA\323O\\\301\"W;=7\372Q=\370\377{\276m\335^\301{VZ>y\010_\301\247\355Z\301\315\371\350=\242![\301:gc=7\373[\301\365MZ\301\223\016\227>p\255^\301\021\307S\276\320q[\301\342v]\301\033\307X\301X:Z\301\255\236\305\275\366#@>\354\332Y\301\002Z\\\301Q\301]\301\032}[\301X\230Y\301[\326X\301q\253>=&>\024=\367\261&>\262\366+>zX]\301\327\3419>\031\233\224>\203,\247>\264\251\\\301j\316X\301\2564W\301\340\227X\301\351z\\A#\"\264=v\367&>\213\263Y\301\305CX\301\177\264]\301\032\220Y\301\200\205R>\352(%\2766\305W\301n\236ZAS\256]\301\347\356\\\301iY\177>\243\243\207=\244\226^A|X\260=K\301Z\301o\206\033\275\304\331\240\275\364\343[\301\357\202[\301e\276Y\301]~W\301\022\367\\\3014D[\301s\201[\301m\333[\301h\036Z\301\036\260Y\3012\220Y\301h\000Z\301\365y\201>\211K]\301\035vY\301\325M]\301\356r]\301\007\211[\301\273CZ\301~\263^\301Jh\\\301\2409[\301\277\321W\301\032\242\\\3013\322]\301<\321Y\301\356\354Y\301\202\004\\\3011`\\\301\253\000[\301\302N[\301D\\[\301\252\020V\301\335\377Z\301Y\257Y\301\355\357[\301\257\353W\301\325\214Y\301q\205N;\257\362Z\301\353tX\301\311rZ\301\010n\\\301\021\010W\301\004\342\376>5\027]\301u7[\301\243\364[\301\017AY\301\025t]\301\217\3270=\371\'Z\301\276\271\\\301\203A^\301\220\037[\301\354\277Z\301\377\206[\301qq\\\301\225\221\231>\035l\\\301{\202^\301\371\013\224>\027]\\\301!;\225>JH\204>*\347Z\301\030\006\">\335\036\\\301f\262Z\301\n\213|=\317>Z>-\312\307>\313n]\301\315\035\025>L\303\\\301\202\353[\301\033\372\362=\257\340[\301\017I)\276\315\225[\301\330\257]\301\013g\325=W7Y\301\237~\321=X Y\301?m]\301F\312[\301\361a]\301\217k\036>\002\211~>S\355YA\234\323Y\301PR[\301\225\243]\301\323x[\301\027>Z\301I=\307;3b\225=\226\013o>\221\220\220>-:[\301\321h`=n\336\203>\357R\013>\211b]\301\"oZ\301\362\366[\301\204\014]\301S=]A\177]\340\275a\215\013\275\031\033]\301+\303Y\301\200\016\\\301\255,^\301\213T\213=\321\346\243=F\177\\\301\272\r^\301\305\324\\A\000\316Z\301\373\202\\\276\35530=\215![\301\344\007\237=\026\257[\301\034\265h<_\257(\276x\222]\301\254\262Y\301\363\377V\301\207\255[\301\022\034[\301\025\027Z\301\223\326[\301Pp\\\301\2447\\\301\247\023X\301\277\026\\\301\007i\\\301U6\231>\222\357Y\301\230LX\301+{^\301\246H]\301\217\303Y\301\250\'X\301%-]\301\322c[\301\357~W\301\215\326Y\301b\262\\\301]\000Z\301\312\313]\301K]Y\301\241\362[\301De^\301\0035Y\301ND[\301\2503^\301\003\211Y\301\315\217\\\3013\022Z\301(FY\301\3211YA\352&Z\301\221\347T>\232\367W\301\313\355Z\301\335\321W\301|\211\\\301\201\004X\301\034\342\327>U\330\\\301\220PX\301\350\302Z\301\004H\\A\362\006[\301\333\233&=\r\203[\301\216\266]\301\373\364\\\301\243\362X\301f\260[\301\316l]\301\204n]\301T!\225=\004\300]\301\232E^\301\207v\267>i6Y\301K\023\352=\371v\242>\206U]\301\322\027\223>d\201[\301\226`]\301#\236\002\276\345\032\212>a\227\034?\335\200Y\301\320\216\247>\345\204\\\301\240Z^\301\026zK\275*\264\034\276v!\373\274\231\356X\301\031_YA\321P\363\274:iW\301\276\274:>\276\257\\\301\262\321[\301\231iX\301g\265]\301\340Uo><\337\210>M\033\\\301\214TY\301\200\243[\301PIZ\301\375\022Z\301\264GW\3012=\245>\261\032\232=R\002*>\202\220\273>\030\222]\301\331\334\032=\210\250\215>\331\027i>\307#]\301\331\205^\301\334Z^\301@\372[\301\375\261\\\301\362\371\264\274XF\251=$\320Y\301\360\224\\\301\331\245]\301\344)Z\301\245#\244=+,X>T#]\301\351&Z\301B\313Z\301HPY\301\377\332\032\276\007\204-\274N\n^\301\361\006(\275\207\344Z\301V\213\034>\311\347\021\276U\247^\301\340\351[A\374\215V\301z\215W\301\030\306Y\301\315PV\301\350\007]\301\013h]\301\345\206]\301FH]\301\207\331]\301s\032Z\301\313\2248>\'>\\\301M\013\\\301\366x]\301\030u\\\301-\371Y\301\221\033Y\301\013\320X\301\2407]\301\224.Z\301<\323Z\301mm\\\301O\317X\301\322\246]\301y\357W\301\374][\301RB^\301N}]\301\300N]\301\022\304\\\301j3X\301\271\260^\301\341sZ\301\275\206^\301\014K\\\301\361Z]\301\271\247\034>\216)W\3019\016^\301r\251\\\301\202\016[\301>][\301\373\275\347>UB]\301\265\252X\301\226\232[\301>\221[\301\363\371X\301\300\342\215=6.[\301\035\206[\301\373\317Y\301\327f\\\301uC^\301\035\237Z\301\177\365\\\301I>\035>\013\362]\301\342\204[\301a\206\031>\240\277\\\301\333\314\333=BB\025>\307u[\301v\3223>\036\342Z\301\013#]\301vj\352\275\277X\237>\364!\226>\2479[\301q]\362<\230~Z\3019r^\301\345\307H>\355\023_\301g\254\324\275\314\215XA\2717]\301)\340\271=IKY\301\027\271\255\275\034\312\\\301LJ\\\301\310\370X\301\322+^\301\301q\230=QB\234<`_Z\301v\210X\301\346\362^\301`\353\\\301\306\212[\301.\337Y\301n\336+>\352\256)><,`>\207\255.\275O!^\301\207\236\013>\361\246y>\002#2>\376\324[\301X6X\301\010\270[\301@\352Y\301\272|YA\311\0336\2751!\356>\303\234\\\301\241H[\301\373\276Z\301\273\326Y\301\032\345\236\275\314\270\352\276\267TYAt\315\\\301\245\021^\301k@]\301)\032\005>\3248\311\275\022;\\\301+\300\242<8^X\301\337:\\=\227s\364\275\237G[\301\215\252Y\301\177\315Y\301q;W\301\372\304]\301\241\021Z\301Y\350]\301\331e]\301\205\270^\301+\327\\\301\010\t[\301\246?X\301z\330%=\305\347V\301\337^Y\301\333\007Z\301\222\241[A|\264^\301\206\360XA\013\324[Ag.Z\301\0010XA\334\336Z\301; \\\301-\025[\301\235u\\\301\350uX\301\270\327Y\301\227\007]\301\\\236Z\301\336\251Z\301\322\235X\301\245E]\301\344I^\301\264\231\\\301\2735\\\301H0[\301\010\353\\\301\321\203\377\275\033\337W\301\222\005X\301z\330Y\3015ZY\301\352bZA\266\364q>K\216Y\301\347\221W\301h\276Z\3016\031]\301\016\342[\301\365\207\367=\357\222]\301\303\271\\\301\235}^\301\357\304U\301\263\307[\301\372\271Y\301\251\221Z\301_`\225>\3757\\\301\027\031^\301\316\221\'>\247\177]\301]:\022=\210+\223>\217\271]\301\004\r\216>>\032\\\301\207\333Z\301\305+\211\275\203\260Q>\007\252m?\300k^\301}\215\377=\311\227YA\353\033^A1\207\253=\206/^\301\256\210\362\274\2460V\3014&[\301\365\252\216\276\026\004V\301\254\315\211>\rdY\301\331oY\301\014\265Z\301\312UZ\301q\376\r>\034m\350=-\350]\301\021\352V\301Dg[A0\031]\301\326\000[\301\3525Z\301B\316n>\252\244\331?\225`\347>\324\316\253=e\220[\301\327\342\275>>g\377>\324\003\177>y\344\\\301];\\\301j\234Y\301\250\222Z\301w\tZA\033\3438=\275`\263\274\212*]\301O\250W\301\373\260[\301/\016Z\301\245 \304=\344\316\201=szY\301\372\227[A\325\251]\301]\230[\301DK8>Nf\215\275\241\230^\301\032\206&\276\3063Y\301\305\324|>\225d4\274\032I[\301;\300V\3011\321X\301\276\272[\301\021\203^\301|\223U\301\225\237Z\301\217\311^\301=RZ\301e\227X\301\023\250Y\3016\220X\301\353\010n>\"l\\\301\210\365W\301\277i^\301\327G]\301\267R[\301Q\001\\\301KoZ\301W\373Y\301\345\373XA\036\007Z\301\233\013Z\301H\013^\301\304x^\301\346\304\\\301\371\251]\301\345\212\\\301W\010\\\301\306,Y\301\0310Y\301\024lY\301\272\211]\301\251\334Z\301\323\347Y\301\035\352WA\343/Y\301Q\260\273=\337 X\301\322\276X\301\360\223Z\301P\235^\301\371\325[\301\274\303\210>\254vY\301\033e\\\301b\030[\301Z\265[\301W-[\301x\313\345\275\034^Y\301y\276^\301[\373Z\301\320\220\\\301\310\000\\\301C\303^\301\232\035[\301\036\016\261=\244\374X\301)\254[\301aXj=\324\201[\301R\206\304=j\257\254>n\205]\301\276g\231>,\256]\301\257\r_\301\"n\003\275\223\306;>Z\344\356>\237-[\301\225\263\334=\365n\\\301\215\251]\301\\\245\227>\242\336\\\301.\310z\275SqX\301\r\332[\301\205@D>A\305\\\301\304\300\242=\272>Y\301.}\\\301\336\336[\301\316\270\\\301\213}\341=\206\346\002>\301\262Z\301n\016Y\301`n\\\301\221,\\\301m\305X\301\225\253Z\301\233!5>\202\277T>\374h\361=C\211\211\275\240\350\\\301\341\265\227>\037\300\230>\233\266\246>>\260Y\301\373\233W\301e\232YA^\246YA\315\313\\\301\000\261YAA\306W\301\257\305^\301_\212Y\301\036[Z\301u2X\301\322\313]A\335\302WA\325\305Z\301\337-ZA\006rY\3018P[A\246\313YA\261K\\\301\332\247^\301\225k]A/\261V\301\203\253\\As\233Y\301\250\344]\301\003\000\\\301\303\323Z\301\031UWA\216\255Z\301\347\335W\301\343\376Y\301\310<[\301Q\264[\301ji\\\301\r\264\\\301\277^W\301\374\257[A\252\216]\301Q~[\301~X[\301i\214Y\301\346]]\301\250\263XA\341\205\\\301\272n]\301%\023\\A\215\320Y\301\376\266\\\301$\321Z\301\276\207\\\301\215S]\301\323;Z\301\272\274[\301m\233W\301\340SZ\301\315m[\301<\274^\3015\254Z\301\326/^\301M\365\\\301\025^\\Ark^\301+\037[\301\367\274]\301\024gZ\301\217_Y\301\005\265Y\301\200RY\301\326\225]AU\271\\\301\370\255Y\301S\247\\\301i\264]\301\363\334Z\3011\374Y\301\007\023Y\301\025f]\301\254rZ\301G\'Y\301n\374Z\301\234o\\\301\221\223^\301\303i[Aa[[\301\363\251]\301;*YA\304GY\301\241\267ZAS\354ZA\337OZ\301\331\204]A\273\321[\301\217\327[\301\376\242\337\273\005\014YA\262\223\\A\030_\\\301t\310XA\321\227[\301B9[\301c5]A\275<^\301Y\202\007\276\236+]\301C*[\301\367\347ZA\025Q[\301<\373WA\365\376U\301\206\212Z\301\222rY\301\025\020\\\301\334PY\301\343\262[As\361\\\301;fZ\301\326\264]\301\312\326]\301\313)[\301\212TX\301\304`V\301\220\234WA\272\030ZA\246\032YA\026\247^\301S\262YA\351\023^AZ;]A_\t[\301\245\252^\301;\017^A\033\304X\301\013\213^\301+\324z\277\035\311\346\276\350\367\\Au\017^A{\240]\301/.\\\301I\331\233>\275W\252\277q\"Y\301\006\300]A\235\363Z\301\0227\\\301W\035\035\2762<\007\277\366\253]\301\334W\303>\302\276\\\301\272o(\276sdJ>\300/]\301\321\253X\301\200\301\\\301\362\205[\301n9\\\301/\355Z\301\323\255\\\301|\034^\301[YY\301\222\351Y\301\262HZA\347dX\301\257\322\241\275\271+^A\364\004Y\301\356\375YA\016\017[A\367\300]\301\253\364Z\301\336\\YA\234\271[\301\243\251\\A\201\036\\A\254)]A2\034^\301\302\320]\301O Z\301o\374]\301*\037Z\301\034\271ZA\237\263Z\301\205c\\A\254\234Z\301\'\263]\301=bY\301b\026Z\3013,ZAC\221Z\301\275\023\212=\2246]\301:\324^A\201\271YA\241+^\301\352PX\301}\240\024=\256\212^\301\334\005[A\3111Z\301DYY\301\244r[\301\275:\233=/\306]\301\024\210Y\301\205R]\301\255zZ\301r\030[\301Y\243^\301\377\301Z\301\370\373\234>\275O[\301m:[\301\322\030\'?\217\310Z\3010\262\272>\227K\315?\261%Z\301!E\300\275x^Y\301\216\001^\301\212\236E\275s\t\321>\350\004$?i\364]\301P8\233\276\301\225^\301\017E[\301;\n\331=]\016^\301R\033d=\346\306[\301\371d]\301{\215\362?\330\321Z\3015\007\346\275\356\230ZAC\340Z\301\273\204Y\301z\026^\301\243\024\177>\263\356z>\177\216\\\301\357\247V\301\'*Z\301s\317[\301\006\r\\\301X\251X\301\027\023y>\372`\200>?\211\346>ND\262\277\231y]\301<\371\314<\366\360U?\371\021\206>\210@\\\301^\033XA\202S\\A[c[\301p\305\\\301298=\201\200Y\277;4Y\301\"`\\\3015\\^\301b0X\301\032\273\254>:\300R\276\335\203X\301C\224]\301\302\373]\301\277\362Z\3017\350>>\021\034\204>\212\350[\301\331\226\274\275\207a[\301\210\024\225=\335\233\305=\031\273[\301\210M\\\301;\021Z\301\0357X\301\006\311^\301\247^Z\301O$[\301\310\014\\\301\206\255\\\301\3768Y\301\332g^\301s\212X\301\375\n\024>\035\374Y\301k\206W\301\033F[\301q\353[A5\314[\301\362tX\301\240s[\301V\220]\301\323]Y\301\020l\\\301>\315Z\301`D\\\301pe^\301XZY\301\026\tZ\301\005\026\\\301/]X\301.a]\30144Z\301\347\237[\301!rZ\301\017f^\301p8Y\301^9X\301\304!]\301`\225(\275\302CZ\3019\252[\301D\214[A\336\211^\301\314\224VA\343~\250>\277o^\301\264\365X\301*\240Y\301\333j[\301\365|[\301j\344\211\276\361\357\\\301\024p^\301$a[\301\200\340[\301\n\031\\\301\274\201\\\301\374\362Y\3013\340u>\013mZ\301M\202^\301\373\r\253>XA]\301-8\304\275{\341\215>YB\\\301\241\316{>\303Z^\301|\004\\\301\256\353\255\274\234\372\245<H\327\341>\251\255^\301c.\322=(V^\301\237\372[\301\350D\211\275L\333Y\301\223\006\206\275)\376[\301\365\336[\301\255\262\333\275\223@Z\301\016\217\330<\006\026W\301\225}[\301\327\247]\301\2275\\\301\357\327\354;\017W\006\275]}Y\301\245\244Y\301\1773]\301\321\304Y\3016\035X\301\007\216W\301\353\277}>\2662\250>\021B\270>5\267\347\275\330\316\\\301k\000t>2\3408>/\213>>\214\316\\\301p2Z\301D\262Z\301\034\265Z\301\363u\\A\007\202Z\301\024x[\301iVZ\301\322\352Y\301\205\355^\301F.Y\301\346\247Y\301\253\253^A\017\330Z\3019\221\\\301\300\270^\301\226/\\\301\023\336[\301\242\335\\A\353U[\301l\351[A?5[\301\233\005[A}U\\AH\254]\301\023\254Y\301\337\250^A\367/[A\266\366Z\301U~YA3\003_\301\274;^\301%\345]\301QMZ\301\322\261X\301\360}[A\177E[A\234\'ZA\272X[\301\223\265Z\301\202;ZA_\201Z\301\365\246[\301\254oZ\301\206i[\301\276\324^AE\177\\Aq\241]A\034\340Y\3013\200]\301\2321[\301\335J\\\301\324-^\301Jn[\301\017\352Y\301X\304ZA\377\216Z\301Q\367XA\n\243Z\301miY\301\237\344ZA\303\222[Ai\222\\\301\004G^\301\3345]A\344\366Z\301\214\030]A\006)ZA\3503[\301\326|\\\301Q\247\\A\023\002ZAJ\264Z\301\244*^\301\235\315XAB\'\\A\362\206]\301\272?]\301\261S[A\363\365[\301\r#^\301\021\274\\\301\036A]A\362\000ZA\213\213^\301M5^Ao\304]\301\314:]\301\245\017]A\220\273Y\3010\312^Av\332Y\301\032\227\\\301\007\022\007\276\254\236Z\301\305\255YA5}^\301yhZA\224V]A\331\240YA\302\014^\301#\256[\301d7\321\275QoY\301\022\021^\301b\205Y\301fx\\A\377W]Ab\236Y\301\335\266]A\340A\\A##Y\301\367\332[A\337\301YA\3753[\301$\274]A\340\371]A\202\266Y\301.\246]A\005\252ZA\231v\\A\352\357YA\024\351ZA,\352Z\301&\020_\301ld^A\031\034^A\305v[A\375\333Z\301f\035\\\301\327\223Z\301:2Z\301\333\232Y\301\020\201<=\033BK=\271L[\301:\360X\301N\007]\301\022\025X\301\277\271\031>\177\276\037<+D^\301\301\340[\301y_[\301\r\020Y\301u\375\263;\257_S=\360}\\\301\'\205\r\274\207\203[\301\225=\325\274\351\337\216=\215\224^\301K\354V\301\312\240Z\301$\246Z\301O\351Z\301\252NW\301\355s\\\301m\251Z\301]\215\\\301\373\252W\301\234\332Y\301\332tW\301\257l8>\352\013X\301\321\332W\301\216W[\301\336\275\\\301\311\347[\301\303\206[\301C\260\\\301\020\333Z\301_\332Z\301\323_[\301\312TZ\301\026\304]\301\013;Z\301\017\021[\301U\001Z\301\r}]\301\020k\\\301\032\333Y\301\267\317Z\301\327}\\\301\361;]\301\r\255Y\301,\351\\\301J\306\\\301g`Z\301*\273>>\334XX\301\3606\\\301\311?\\\301YYZ\301\310\217U\301i;\242>\027\235\\\301\233\230[\301\240\202[\301\365\010Z\301R\316]\301\225d\210\276\373\006[\301\267k]\301\207\325[\301\315\326Y\301\363y]\301\341\001[\301L\222Z\301q7\253>\343\317Y\301\312\306\\\301C\206m>\210\256]\301\257\271G>] \242>\315\226Z\301\227e\200>\303u]\301q?Z\301\307\220$\276\033\345\334=5\315|?S\361[\301\036c\005>\256\336[\301\023a[\301\305\205B>\034\031[\301LT\r\276\322\212X\301Ae[\301\203\321m=\217\233Y\301\347\356W>\231\211\\\301\222\365Y\301\266\256^\301h\276Y\301\346\366\031>\034\226\232>\006\316Y\301\033<[\301\364 ]\3019{]\301\266zW\301\310\246Z\301\'\212\025=6\035\027>DH\207>\024_\370=\357\374[\301\372\302\271=\332=\235>\347\357\276>\001\226Z\301-&Z\301 \'[\301F\322[\301\353&\\\301\277\357\300;\230[.>\370\245]\301\330\nY\301X\032\\\301\333\231Z\301\367[x\275\037{!\275\314w\\\301\200\231ZA6\256]\301\022\300YAH\340\027\274\177\253h\273j\227YA\251e\217=\333 Z\301\312\301\350\275sg6>\241\304[\301J\275Y\301\274\010_\301/C\\\301\024\001]\301\274ZZ\301$t[\301\210\210Y\301\265\224Y\301\262\306W\3018\224\\\301\363 [\301\177k\001>\333ZZ\301_9\\\301l\363^\301\260\014[\301$\002]\301`\370[\301y\352Z\301\026:^\301\331I\\\301\350\233Y\301\0353]\301U\340]\301#\374]\301\373\247[\301\336\241^A!\313^\301ovV\301\217~YA\234W^\301n,[\301$\346\\\301\tw^\301\223\327X\301?}[A\344$W\301\261\t\261=N\274Z\301<\363[\301\254$Z\301+\231^\301\267\377WA~\261\007?\241\302]\301K_^\301pl^\301\024\211[\301\203\376\\\301\221\361\247\275\263\257[\301\311\010]\301\242i\\\301\361\252W\301X\200]\301\364\373]\301K\254Y\301\255\270\004=\253W\\\301\036\233\\\301Vu(>\213#[\301uQu=\033\323\221=\2022\\\301\264 )\275\340\303]A\'{[\301\305\362\010>W\301\301=\342\315\037@\225\317Y\301DUS\276\014\260[\301\342\251\\\301\025*\247>\034`\\\301\356k5<\243,\\\301\023\241[\301z\347=>\317$Z\301o\005\024\274\334S^\301\307\177\\\301\255\211[\301\n\'[\301jpW>\205\215%=\025i^A\030\245\\A\212\tZ\3019\021]\301\235+\\\301\024$Y\301\007\354\250>\214\365\244>\232:\253>\261\013b\276\177\362Z\301\371\373v=\010H{>\022\203E\275[\304\\\301\264\007[\3016\370\\\301\222\276W\301\311\206\\A\027,)\276\357P\277=\352\276[\301\360\020\\\301!\374Y\301\021\325V\301\222\265>>\017VA=erZ\301\354cY\301\035)]\301\252u[\301tI\333=\377\327\277\273\003\245Z\301\247\267*>o\371[\301$\231\353<\303\232f=TJ[\301:\365\\\301\023%[\301>\362W\301~ZY\301A\305[\301l\324]\301{\246\\\301X\361\\\301\326\325Z\3014K]\301t\031\\\301\226\232x>ma^\301\320)Y\301N?Y\301\016SZ\301\013d^\301yfW\301\3647[\301\327\307\\\301D\264[Ae\356X\301\021\034Z\301u\302[\301\335\275\\\301_mZ\301\314a]\301\233\206\\\301\034N]\301=\023\\\301\204\344Y\301\301e]\301\371\265[\301\035\232Z\301\301\263Y\301,