node {
  name: "x"
  op: "Placeholder"
  attr {
    key: "dtype"
    value {
      type: DT_FLOAT
    }
  }
  attr {
    key: "shape"
    value {
      shape {
        dim {
          size: 100
        }
        dim {
          size: 16
        }
      }
    }
  }
}
node {
  name: "decoder/conv2d_transpose/Shape"
  op: "Const"
  attr {
    key: "dtype"
    value {
      type: DT_INT32
    }
  }
  attr {
    key: "value"
    value {
      tensor {
        dtype: DT_INT32
        tensor_shape {
          dim {
            size: 4
          }
        }
        tensor_content: "d\000\000\000\004\000\000\000\004\000\000\000\010\000\000\000"
      }
    }
  }
}
node {
  name: "decoder/conv2d_transpose/strided_slice/stack"
  op: "Const"
  attr {
    key: "dtype"
    value {
      type: DT_INT32
    }
  }
  attr {
    key: "value"
    value {
      tensor {
        dtype: DT_INT32
        tensor_shape {
          dim {
            size: 1
          }
        }
      }
    }
  }
}
node {
  name: "decoder/conv2d_transpose/strided_slice/stack_1"
  op: "Const"
  attr {
    key: "dtype"
    value {
      type: DT_INT32
    }
  }
  attr {
    key: "value"
    value {
      tensor {
        dtype: DT_INT32
        tensor_shape {
          dim {
            size: 1
          }
        }
        int_val: 1
      }
    }
  }
}
node {
  name: "decoder/conv2d_transpose/strided_slice/stack_2"
  op: "Const"
  attr {
    key: "dtype"
    value {
      type: DT_INT32
    }
  }
  attr {
    key: "value"
    value {
      tensor {
        dtype: DT_INT32
        tensor_shape {
          dim {
            size: 1
          }
        }
        int_val: 1
      }
    }
  }
}
node {
  name: "decoder/conv2d_transpose/stack/1"
  op: "Const"
  attr {
    key: "dtype"
    value {
      type: DT_INT32
    }
  }
  attr {
    key: "value"
    value {
      tensor {
        dtype: DT_INT32
        tensor_shape {
        }
        int_val: 8
      }
    }
  }
}
node {
  name: "decoder/conv2d_transpose/stack/2"
  op: "Const"
  attr {
    key: "dtype"
    value {
      type: DT_INT32
    }
  }
  attr {
    key: "value"
    value {
      tensor {
        dtype: DT_INT32
        tensor_shape {
        }
        int_val: 8
      }
    }
  }
}
node {
  name: "decoder/conv2d_transpose/stack/3"
  op: "Const"
  attr {
    key: "dtype"
    value {
      type: DT_INT32
    }
  }
  attr {
    key: "value"
    value {
      tensor {
        dtype: DT_INT32
        tensor_shape {
        }
        int_val: 1
      }
    }
  }
}
node {
  name: "decoder/conv2d_transpose/conv2d_transpose/ReadVariableOp/resource"
  op: "Const"
  attr {
    key: "dtype"
    value {
      type: DT_FLOAT
    }
  }
  attr {
    key: "value"
    value {
      tensor {
        dtype: DT_FLOAT
        tensor_shape {
          dim {
            size: 3
          }
          dim {
            size: 3
          }
          dim {
            size: 1
          }
          dim {
            size: 8
          }
        }
        tensor_content: "\200\354\324\274\266\314=>\240@/\274\004HA\276\010\357\201>\010\214{>\030~\177>`i\021>`\250\371<\000\327\321:\0336M\276<;\204\276\312A^\276&\363$\276\206\250N\276\260)\210>n\272\035\276\362\220J>\3541\376=\014#\212=\026\363\366\275\004\264\207\276\020.D\276n\222Z\276\223\022z\276d\005\346=\014>\224\275o\332`\276\240\221\372<Pt\216=(\274\362=\222\020`\276\233}B\276\324(\242\275\020\330\356\275\260\226?=\330\222\222=,\373b\276\200\300(;\354B\272\275\214\246^\275T`\330= -e\276\326]\"\276\311I\005\276\306\243&\276\346\301&>\010\212<=\240\376\265\275\240\267\230<.\222\202\275\016\205\200\276\230,m>s\001\201\276\224\324\266\275\220\004Q=L\001\263=\250\330\236=\230\260f\275`:\341=\036C\024>\220\244\304\274a\210\212\276\200\330*<\260^\234\275Tn\271\275\366-\263\275l\235g\276\000|\370\271\226j\205>\244\255\321=\300\313m="
      }
    }
  }
}
node {
  name: "decoder/dense/MatMul/ReadVariableOp/resource"
  op: "Const"
  attr {
    key: "dtype"
    value {
      type: DT_FLOAT
    }
  }
  attr {
    key: "value"
    value {
      tensor {
        dtype: DT_FLOAT
        tensor_shape {
          dim {
            size: 16
          }
          dim {
            size: 24
          }
        }
        tensor_content: "\364\256\203>Dzg>D\325Q\276\354%\301>\020A\261>\314{\026>\366\034\225\276\036\034\247>\220\024\251>\003XZ\276\004\373~>\300\337\361\273\373\264\271\276\000\032\326\272z\301\264>$\243\016\276H\242\274\276\032\033\200>\234a\">ID\252\276\000\341`>\023\301\253\276\037\r\263\276\010\024\237=\200\033\345<h\0104\276 yT\276\250\271)=\330k\222\275\014\322\300=n\020\302>\252\250\246\276\310}R=\230r\347=\340\"G><\235^\276 /\233\274\004P\247>\000I\346\272\220\206\270<\234\226\266=\000;\232\272\252\316\243>\020e\203=p=\320\275\210x\030>\202\021\227>*\252\203>\274o\320=\000\2662=T?\261\276\034\022\201\275\340\241t>pw,>\314\302z>Jw-\276\302\354\225\276@\222o>\250\222:>\204a\277>\346\203\204\276\360 9=\300k\306<\014x\305>\350\351\273>3\\!\276\270\235\265=\220\274\323<H\216\302=~H\203>\370\2759=XU6>\177?\302\276<\242\214>\333\235y\276\027{\252\276Gh\275\276:\216\244>\350}\214\276\336$\216>\270\367\023=\\\210\204=\007\233\036\276\341\315K\276\242\200\212>\333of\276S\034r\276x\031\241\275\345|u\276T\222\013\276\247\221\245\276\340&\212\276\340\025Y>nc\260\276\264_\303=\240\3701\275\0205\273>0\252\211\274\020a\231\274\340\363\032\274\250Q\267>\362\330\251\276p:t\275~\n\247>\210\304\006\275 \177\n=Z\317\215\276\374\215{>\310\030\251>w\214w\276d=\257=J\216\253\276\000\030\215<PX\271<\020:k>\326\250\252>\\\360\260>\334T\024>\000/M\273\3756\250\276&\213\236>\266\325\230>$\344\010>\240\350\017\274\000l\2749\032<\257> \034\257\276@\210z<\0048(>\033n<\276\020Z\273=\2646Z>\364L\221>\254\266\252>\326J\227>\300\2124>\000\263\\\275\360D\206<\200{\001=@\205\'\275|\332k> \344F\274\340 \255>F\215\201>~m\224>`O\344<<?\225><\232\346=p\215l>r\306\250>\324p\206\275\303r\'\276pw.\275\004s\244\276\222SF\276\306\177\244>\204y\225=\350\006\264\275\210\314\265\275@\331\301\273dP\265>\364\353\253=\237\343\254\276\314\0208>(Y\250\276\346-\"\2760\275p\276\"\302\243>b\374\300\276$C\253=\376\255q\276G\035\301\276\322\367\247>@X\373\273@\215\004=\314\"c>\356m\236>R\014\210>\300\363\004\274\200\301\365;\226\"\t\2764\024\233=\320\345\365=\224Z\256\275\020\357J\276\350lb=|\341\017>\364\004S\276Y\020K\276\r0-\276l\345~>\365\224\210\276\224\014\212>\200*\036>\340|j>\362\003\210>\223\000v\276\200\201\225>\220\363+\275|\343\251>\250\273 =\030\002\217>\200T\337=\021I$\276\000\315o=\030a\031\275f\016\003\276,~\336\275\020k\266\2744\217f\276\223\270D\276\014v\246\275\260:\"=p\351$>L\357\224=ty)>(\265$\275F\341\251>\032\346\254>\026{\270>\000@K\274t\217\200>xX\233>@\213\026\274\366\r%\276\260\206V>dY\231=\320\355O=\214\224`>\327\025y\2764\304\233>\275>\300\276 \352\016\275p\313\244>\353:\220\276\033\230\211\276\351\245\247\276X\324\200\275\034-#>\356T\273>8\276`=\260\264L\2762\023f\276T\177\305> \251i\274\260\356\327\274\227J\201\276>i \276\r\257\302\2768&\006=\236\006\265\276\306Q\200\276N\311\221\276\n\303\267>n\200Y\276\220w\275\276\016j\206>4\324\200=\200hj=\022}\207\276hx\365=\225\231\016\276@\261\205>c\031\264\276\\\331y>\324?r>\220b\201\276\340\253\235<\200\332\243=\326st\276\004\335#>\233\273\254\276@\375\242\273\200\257\032=\362)\272\276\034Q\010>\373&\267\276\372)\270>dG\177>Sd\037\276\362\021\253>\210\360\273=\017\235\233\276\\\335\203\275V\014%\276\000\376\':\304\340\013>DE\027>\274\273*>\200d\210\275|\232\301>\240\376\035>\020\206\003\275\200\021\315\274L\366\216=,\264}>\302\010_\276 \245\330=\3465\227>x\376|>0\034l\275\240\352\324<h\000\022=\'\377\305\276m\224j\276t\364\203\27603\353=p\271\230>@\232\230\275\362M\220>\343\331n\276\020\231\267\276\336j\272\276\334K\346\275&\246\275\276\230\242q>\374B\246\276(\034L\275\226[\271\276\030\030\236\275I\350[\276Y!\253\276\234y\346\275\270\003\373=\010a#=\256%\221>\302\034\231>\265\t\247\276\0038I\276 c.\274\2439\271\276\234\337\266\275\240\377R>\206\264\267>\342\270\204>@\251\212<$\264\231>\330\272u>\306\320\250>\034z\237>D\177\234\276`m\270\276\330H\177\276\350\246\371\275C{\302\276\234\362\245>\220a\334<H\214#\276\031\321\277\276\217\377o\276\020\017\255\275n\327\235>3\314T\276\310\335\000\276\267p;\276\324\337\250>\202\342$\276\263\312\230\276d3\242>\202V\206\276\252+\211> \327\006\275\356\323\006\276\220\352\371<y\312\212\276\270\316\005>\320\360\313\274\224=\331=\\a\345\275H\235\210>\000\2006\275\314\3710\276\246\026\267>\273\231\225\276\323\360C\276\340\370\016>\205Wu\276\010\345\216\276Xce=\270\2310\275\030m\227>\205 )\276\330y\207\275\256\305\210>"
      }
    }
  }
}
node {
  name: "decoder/dense/BiasAdd/ReadVariableOp/resource"
  op: "Const"
  attr {
    key: "dtype"
    value {
      type: DT_FLOAT
    }
  }
  attr {
    key: "value"
    value {
      tensor {
        dtype: DT_FLOAT
        tensor_shape {
          dim {
            size: 24
          }
        }
        tensor_content: "\000\000\000\000\000\000\000\000\000\000\000\000\000\000\000\000\000\000\000\000\000\000\000\000\000\000\000\000\000\000\000\000\000\000\000\000\000\000\000\000\000\000\000\000\000\000\000\000\000\000\000\000\000\000\000\000\000\000\000\000\000\000\000\000\000\000\000\000\000\000\000\000\000\000\000\000\000\000\000\000\000\000\000\000\000\000\000\000\000\000\000\000\000\000\000\000"
      }
    }
  }
}
node {
  name: "decoder/dense_1/MatMul/ReadVariableOp/resource"
  op: "Const"
  attr {
    key: "dtype"
    value {
      type: DT_FLOAT
    }
  }
  attr {
    key: "value"
    value {
      tensor {
        dtype: DT_FLOAT
        tensor_shape {
          dim {
            size: 24
          }
          dim {
            size: 64
          }
        }
        tensor_content: "JH\364\275\340j\022>P\333G>V\351\023>\000@\220\267`\271+=|\330C>N\256\'>0\213\372=\020\207\306=\266\352\240\275}&.\276\235\004\002\276\346\314\024>\304\007q>\330\210\\\2763\312P\276\344!\202=\314KS\276\342\247\360\275jz-\276\334\177k>L9\304=f\223\014\276\017\305\203\276N\350\243\275\264\224X\276,rk>\"U\013>\324/\376=p\333\356=\217^\032\276h\355h=\224\241\212\275\310\025u=\354\2340>*\323\267\275\236\275\365\275\234\217\220=D\217\031>B\021~\276\010\263\352\275\210\355\033\275\200\310n;\372?K\276\371\243U\276\372L\341\275\240\307\220\275\020v\264=\260&v\274\340\'\341<\222\360\022\276\372L\027>d\267\364=\250)r>\350W\027>\220\202\357<\252\377{>\212\021\314\275\030+I=\004y\246\275(\260\265=\370rR>\362\327\214\275J\310\037\276\000\324\234=\2611\202\276\246\370s>\000\017\372\2724L\333=\264D\265=(\t\277\274\260\316\202\276p6\025\2760\263$\275\010\003\025= \022e>\222=\035>\027\231\201>4\177\377=|,\022>xj\215=\350\246\320\274TQ\354=\302I6\276`\304t\275\214\227b\275\342\020\r>L\367\013>\016\245\'>\263>\006\276|M\311=\332\001\031>\340D\201\276,:v\275\232\330\001\276\344\324P\2762\257\007>\200\255+<\014\345%\276\270a\273\274\\`x\276\230C\n=\360A\271\274 G\021<\350^\370\274J\215W\276\253\367/\276\"\223\002>\357\326b\276\304\035\203=\336\021X>\210\'b\275\273(i\276D5J>\210R\030=\270l\301=\312\337q\276\024\274\361=\020-d=:\302(\276\324\374l>0\022e>\302\212(>Li\224=j\341\376\275\201\001 \276\000\034\353:\300&5\275\360\212\005\275\023\370m\276N\240\002>\310\247\227=\314Lo\276p\335\343<|\027\036\276\360\007\215\274\260\363\t=\342KL>\"LG\2760B\336\274\006\\i\276\0242,>\276hf\2760)9\275\226\262\'>\332Z\206\275\340\372\246<\260\003\226<X\025\204\275\300\343\373<\240)\263\274\026\222\031>8\247A>\330\257\355=\374>3\275\010\312,\2769\235\200\276@\236\375<t\376\002>\205\213\030\276\311\006\205>\2721v>\234\342#\276\200\202\035>\330\237]\275L\300\016\276~\245\037\276\230\347\t\275&\334<>\324?;\276\"U[>\264\326\230=\300\336\262=\255\234\013\276\252\346w>\350\020q>\200\217\216=\264\243\004><\212\345=h\212P\276\260Qx\276\232\032{>m\357X\276\310|\003\275B\246\017\276B6J\276\r\205q\276@\362\227\274\\y]>\242\236\003\276&wu\276\000\352\267:\322\3353>\365\243\023\276p\321W\276\202\274g>\277\374A\276\351\352p\276@n\024<\014\323\020>F\032\177\276\000A+=f[&>\266Q\324\275\304\221i>~P3>\203c<\276Z\2120\276\362X\026>\226\030\033\276|\231B>\240\305\341<l\272\354=\250\217t>\022\005\002>,\216\306=\350\312\334=z=\020>\354\223J>\217\323r\276\0029\307\275\220\335\322=\016\3058>\310\234\037\276\374\230`\276\2001h\273\236j\202\275k\266\004\276\257\335\202>\324\260\"\2760\346\320=Ta>>jsd>\343\326M\276)Yl\276\304\344:\275\010\024\023=\030\217\276\274x\241\302=7-Y\276\002m\337\275\022s\177\276\317\010\010\276\014B\323=\2404o>\234\275\335=<G\202\275h\211C=*\315\317\275\016^*>\300\270I\275\26626>J\345~>|\332/>4\330\024\276\370<\256\274\234\324m>\242\346l>py\256=\0068D\276\264\277\344=xhU\276\214KS>\036xK\276f\225\264\275\264\2309>\"\007\020\2766~H\276\300;\366\274\200\344\202;.\375\201\276\264\230\340\275\030\357\310=ha\\\275\322\363\326\275\274,\242\275\242\240\222\275vJ\033>x\211\205\275\276\223->\330\260~=\256D\335\275\r\331\201>\322\276\310\275zv\343\275l2\037>6\305\026\276\242Ch\276\344\0307>\026\357\363\275 \241\360=\324\357\215=8\305]\276,\320#\276:N*\276\020\233\005=T\365\'>\210{*>\260)\273\274v\306\314\275\3145M\276$i\230=x\277\n=b\347=\276x%\006\276\206,7>\000Dn\272\366\362<>\223-\033\276\307^a\276$\256\260\275+%S\276\320:\035>\3709Z\276t\376\363=\252\007\027><\257,>\250p\016>l\335\014>\270\243\220\275\340\317\255=\200\231\256<\253\216\024\276<\261\203=h\373g=\312\211Z>\260\215%>\252/>>X\245\001>\234\200\027\275\376/\n>\224\006.\275\\\341y\275T\006\224=\023\347\032\276D\025\n>\262\227K>\332Bd>\356\266\">\364\262\204=P\231\233=u\020\017\276\240\205\362=\\\375\216=\341\334\013\276\340N7\275\000>\266\272I\265K\276\t\036\r\276\230Hx=@\2452<\220\335\336<\3107s>\352\374M>\200\\\205;\356~v>\340\303\207=<\r\030\276\000$\030>48/>\000\260\304\275^X!>PH\334=F\275N\276\224}\303=\376\026\037\276t\201\335=\253\274\203>\2107j=\224%)>\204.5\275\257\243\201>\330sl\276\376\2748>\004L}\276\r\357\006\276\000<g;`\225\224<\320\304x\275\360H\314\274\340\275i\276\3705\233\274\311\304f\276\207\247j\276\256TH>\320\264\236=0\243\343<\334\373y\275@\201\010>\026.\026>\226\346\026\276\374\230E\275\000\222$:`\322w=^#\330\275\264\270\346=\002\324\314\275\004\242J>P. =\200\326u<,\000\202= h\260=\244\203\275\275\340\227\032\274\362B\177\276x\335\260\274\344\227\276=\324\316\t>\200\265\025=\244\302\244=e4\203>hQ\345=\374\227\\>\325\230s\276\200\004.<^\371I>\340K\360\275\300\275\277\273e\241\201>\274\327\034\276h2\277=\300g\303=\322sR\276\200Vo;\274r\027>~c\250\275\212\"\r\276\274\213\264\275z3j\276\302\226\312\275\224\202\231=h\215\216\2754E\311\275\246\320\257\275PmH=\360[B=\200\n\336;\340y\274\274\370\323\002\275(\340;=\330\257m\276\330\177O\275\262\233f\276C\300\203\276\001Mx\2768W\356\275\230\325\265\275\014RU>\310\344w=\210\254\276=\244\323v\276\026\340\375\275\320wt\275\256h&>\\h\345\275\\qU\275P\030F>\354d\352\275\030\030\335=\2500]\276z1\027\276\222dW>\370,\241\275\260\023\322=\243\353\202\276\200\245!;\334\217Z>\334\337K>\232x;\276.\244G>\000M\013>\312b\215\2754.\001\275@\010\266=\270<4\276\036M\005\276\310\245f\276\000\030b=\230\023\320=r\232z>\000\036#:,5M\275\364\016\260=\016\366?>\2107P>\206\026 \276(\320\314=t\001\374=\254\374\223=T\\p>\310\001\232=2\314z>*\037H\276\340qr=*\322}>\034\027\032>\327)\'\276\226\355l>\250\314Q=\356r$>\310^\200\275\366\3216\276\340\320\036\274d<\325=\344\274\341=\277\255\201>(G\034\276\204_\016>-X\204>\200\303\337=0\324\000=\350\275g>\216\377w>\206\201\023>`\342\224<\014<U\276\036N\r>\000\216\331\273\032\320p>\270%\266=\312#\026\276@>\326=z\016X>\370\271K\275\330\\$=\270\2033>\316`\312\275d\374\347=cQy\276\210ro=\t\253p\276\240\333\035\275 \t\316<\334:_>pR\276=0\306\316\274@\247\244\275\026\356\314\275\300W\371\275\342\224>>\370h\322\275(O#\275$0\363=\336\177\201\275\244\356\035\276\306V\340\275 \337\240\275\256\237\003>|\026\322=6\353)>L\336l>\002\210\204\276\302\376\003>\230C\200\276\202>\024> \223\266=`\024\276\274\006V{>x\340\342=l\372H>\370\032\223\275v\340D>^\312x>\226i\022>\210\373\r=\020\027\317=\304\002\316=^hy>\240S&=\354\202\355=H6p>\000\333\335\273\304\034\226=\336\226~\276\000Hs=~\323\221\275\314Y\213\275\364\305B\275P\323;\276r\031\001\276\020\243@>leH\275\320\232\223=\344.&\276\355\030\003\276j\301!>z\323\234\275\251 \205>\014j\335=\364\2429>f\350&\276\200\236\377\275U&\205>\242\r\307\275D\255\201=\010\371\034=\010\245\372=8\2101\276U\024)\276\226LR>\030O&=*[\367\275\000\320\030<\211WF\276\022\260\037>\033\333\200\276:\323\034\276\030\030\261=\340 \030\275\344\205\005>\314\271F\276\226\275\032\276\350\344l\276\230:\331=\034\321\201\276@gP>.~s>\342\025\222\275\024\227\"\275\372\267p\276\000pF>\277S>\276\25615>\350\356(=\224\250\033>\310d\t>\210\225\270=nb\204\276\034.G>\232\221\014>X\351\315=+I0\276\337*\\\276Z\027x>F\2462>b\031\225\2758\320)>\034\320H>\020\003\201<\261\260\202>\\\364\276=.\212d\276`\366\257=X\001\260\274\350j(\275\200r\362<\300\322\375\2738\255\255\275\004\254j\276\260$!\275\240\361\202\274\3240Q\275\214\350\005\275g<\200\276\024\354|\275\234\376.>\210k\355=l-\034\276ZQ~>G\222\"\276F\361\n>i\036.\276$\261\261=\254\215\327=^\367W\276J\256#>\372z\201\275\374\005\212=\341\330\201>\"f\\>hvG>\366\030\031\276\226\313\310\275\"z#\276\310\334L\275\312\226\235\275\364\005\000>\347\264L\276\204~[>\212\303q\276\332\323(\276\326e|>\360\331\367=\000\351\255<\325\211k\276\214\202O\276\336G\035\276\2342\036\276.\257\036\276\260 m=@X\\<|\365\315\275h\266\032>\"\240\203\2758sI=\206\016\336\275\000Zw<\311\034y\276\234\242C>\310\374$\276l/-\276ng\035\276\350\025\270\274\306\2613>\345\177\201\276\250\251c>\300\371Q\276\270\023I\276\316\351\t\276\364A\235=\276\035]>^sr>\277\272{\276\334h\211\275`\314\022\274\244\331F\275\260\376\255<r\262\325\275{\370J\276\022i\230\275\372!\016>Tr\252=\021\372{\276X\1773=\332)n>\314_?\276@%\202=\354\272#\276\034\\\235=\2279L\276v}c>\320\037M>\000\302\321:\007\225\201\276\030\021\242=\205Y\001\276\240kC=\340\321C<\233\344T\276\304V.>\216Y8\276p\230)=t\357.>T\306\017>\305\375\006\276\204\rp>\274\003\247=N\366t>\260\201c> \352\260=l1\233=\360\336,=\020\246C=\300\212o>)\021\013\276\000\200h\275\304\230\002\275JSY>\220]\273=\340\305y\276\374\201%\276\270\227\025>\274A\347=\270\251q>\010\363\271=\236\325\035>\212,\\>X\005,>\274I\311=c\234\202>N\302y>\320\235\030=\020q\323<\320\315\313<\340\256\024={B\201>\022\023|\276\375\317[\276\226\315\350\275\326\362\336\275\3020\255\275\310p(=F<E\276@\006\217\273\030^[\276\272L\242\2750;\006=dG\274\275o)\205>P\222\027=\204\332\037><\302:\275\034\031.>c\264r\2760\302\326<\250\363?>\254&a>\301M\205\276X\234\367\275\346.J\276\323\356\020\276Fh\033>l\243\262=\210\021\006=\272\224\034> :\306=\370\211\215\274*\271\220\275`r\227\275\206w1\276\321\220\201\276\342\362L>\240/q<\342\n\330\275f0@\276\234^9>\344c4\275\371\262\201>\266iW\276\330\017>>\250#\365=b\0176\276\320\036\t=\232FQ>\376L\023>\322d\004>\304\303\360=Z\017\253\275a\003^\276\334\334\262=\350?\221=\304\250.>\032\243\177>,>\215\275x\010U=T\313X\2754\323?\275p\311\263\2748R\177\275@|\200\273\002\226e>\260\334\357\274x,\002\275:C\023>T\243\332\275j\025?\276\362\266/>\312\0172\276#W\205\276\032\330\245\275 \322i>@\265(=]Ro\2764\273%>D~\330=&\t\227\275\330z\021=\274a+\276Dq\031>\250\'Z\276X\227\177=\026z\000>\030\314\002>\320\271e>U\0260\276\300={\275p\2174=tS\357=.ha\276t\3779\276\350g\026>\271\2247\276\370\330&=\374T\334=\004\262k\275\373]g\276\370%\304\275\204\032%\276 \327\214\275\030\326\263=X\362P>\250NF\276\000\0075\276Ru%\276\026\314\001>\331\312\203>x\330/=\253V]\276\023<\201>\2465\323\275h\324\252\275\232\311\375\275l\335\346=Rh?>V}X>\354\201V\276\377|n\276 \r\373\274\371q%\276\317#n\276hN\274=y\313\010\276\346q(\276\225o \276\000\255x<\332\031\265\275,Q\245=\244\3518\2766\022\002>\310S\'=z\275\030\276\252\243\r\276R;\375\275L\305\375=\334\\-\276\010\357\323\274\r\226\013\276F\314H>\263\304%\276FVY\276\350\227\363= 83=\'\201-\276H\252\317\274\016\376b>\024\034[\276\332x\344\275&<\306\2758\327\340\274\000\000\332=\334\225%>vhm\276zP\032>p\235\201\275b>2>F\301q>\000\225\354\273\\\257\277=\034\366\362\275XX\317\275\2104\'\276\200\371\223=H\237\351\274\210#,\276`\343\341<^tY>g:\202>\330\2268\275\332\224}>\334\276]\275\030/8>\256\351->@\336\226\273L3\">V\324\n>d(\355\275\020#\207=,\270$>\252\334\360\275Nl\r>(\3715\276pj^>\366\356j>\000N\215\273I\232\201>\370\013_=Z;y>>\3351>\026\254@\276\2409\313\274H+\356=\302\001R>8?1\276\260<\247<`G\022=<Sp>\352\277:\276#\213g\276\360\nH=\"V\377\275\320\202e=\n]x> )\'\276\200\330%=\276IF\276*\336\340\275{\245+\276\244E\303\275\250\232\274=&4t\276\337K\022\276\214\345c\276\246\035D\276\371\262B\276\022\005\227\275y\2604\276\010\212\\>T\316]\275\300\371\307=\3002G<P\227)\275f\257\272\275>\306}>>\305\177>\314l\257==\356f\276\236\216\014\276\254}\314\275(I\312\274\021ok\276\020\324?\276\232f\340\275\255k{\276\300~\023>\"\313y>\000\360\351\273\200\037s;|#\326=dq\207=\231$\204>\240\307\371<\210\350\344\274\333E,\276\000\324\013>\240_\301<\324\317\222=\305\276z\276\010\t\031>\344\010\n>,rT\276\000\255\362=\250Il\2768\200\r=\000\254\037<@X\003\274\020\0369\276\210\344b>\200\245T;l\0064>d\220\221\275\322u\033\276@\254\031=D&\274=PC\202<\010\316\335\275\024\243\244=\256\215\323\275\336\251~>hKy=`q`=\026zP>\352\t.\276\273\251\203\2768\200!=\241f_\276v9P\276)\236\202>\276\351>\276M\320\200>~\222,>b\301\327\275\350J\230=Jq\004>jOj\276\300\260\310;\350\207\201=\272\345z>d\273Y\276PI\327<E\366\003\276n?\017>\310\266L>\220\206|\276\220M\272\2749\216k\276\316m >\300\343\017\274V\320\016>x\320\032>\272\205\024>\312:6>\350\220\224\274H\221\030\276:\225\220\275\322\314x\276T\331s\276@\177|=\360j\311\274p\002\360=\234\212\353=D\257\252=\020\005\361<X\231\377=\210\364\210\275`\234\302<F\331@\276D#\267\275\264K\274=\373\203`\276\262\311\'\276\250o\025=`\217\n=\362HD>\300s\017=\2412n\276\347\2440\276\264i\014\276\365+S\276\232u\016>Xp\336=\220\305->\276\236t>\200\260\224;\237}U\276\350\3402>42\315\275l\212\363=\266\345e>\310\217\346\275\230J\333\274\22468>f\375{>R\022\r\276l\034W\276\220\200\r=p7\355=\244\310$>\002\227\n>\206\332 >\004D!>\360 \036=\260\274\353=\314\037\372=\260ed>\340Tj<V\nz\276\316\322A\276\232\021\207\275^=x>\000\212\016:\001H\030\276\206\211u>tS\000>\016\246\344\275\276\351\031\276\327\n\"\276\310\236J=\270+\247=\016\272S>T6X\276\250\tK=\272\033\026>\350\023\203\276\000\240\224\272\234\364U>,\240\227\275.\257(>\370>\310=\310w\276=0p\227=\006\375\342\275\034\002f>h\013\334=\340\0203>Sz\202>\020a\037\276\236\350%>|\253]>\377\345\201>\234\241\206\275\000B\025:\265W\001\276\336\233w>H\360\201\276\246\2702\276\340W9=\322\342Y\276pk4>Z\001\222\275|p#>\354\372\r\276\300!^>8e\325\275H\'\345=*vQ>\030\265Q\275\274\217C>\310\320:\2752k\021\276\310\275^>\010\320)=\210:==`\001n=\026A\321\275Xd\331=4W\001\275,M\270\2750t>\276\034\377F>\276\031\034>\372\336w\276u)j\276\311\226U\276\344i\223=(\003\216=\200;^>\306\001\227\275zfj>P!G\276@\311\226;\000A\032\273.\306\005>X\246a\275Jc9\276\264g\021\276\036j\007>\024FU\275\236\273K\276\240m\362<\304{\006\276\340\340\033\274\370\344=\275*\335L>\3347\033\276\262!4>\250\325f\275\210\330X\276\200Y\356=@\361D\276\334\003,\275\264\313\016\2768{=\275\"@\006>\000\254\t=\000\3324\274\330.\203=\266\261\273\275\264M\n\275\260gE\274\300\256\341;gP\204>V\255\303\275\024F\214\275\264I(>L\032r>\210\321\014\276\001\201u\2760HQ>`|\317\275\347\030s\276\376R<>\212\363\361\275.:/>\232\374I>\337\224`\276\306BF>L\360\332=`\332\322<\017\r?\276>\n6>\311\212\177\276\350G\262\2744(\033\276\232u\230\275pP\035>P\374\027\276\202\342S>l8\221\275|\312\371=r\336\207\275\273\352\202\276\334L\007>@`\031\276\310\346*\275\364A\246\275x~\330=-[\201\276\370*1>\200\372\323=0\306\312=^\033^\276D\251\343\275\312\267\225\275\234\3525>\016\266\215\275\370\362\\>\315\023\t\276\232\251\007\276\223pb\276\262\302t>\204]Z>\312\tN\276X\366\371\275\244=\232=P+\346= ^\001=\000wP=X^/\2768\206\004=\213\341K\276\260\323\360<\233{X\276\254\341\\\276\310kK>\376i\300\275\\f\265\275P\353\240\274xX\320\275\300`^=\366\336\377\275\372\315h\276\307s\203\276(H\202\274\374w\356\275~\256\210\275jy8\276\250C\032=\3266\342\275TnK>\0000\347\271~Mz>V\236\024\276\000\334+;X\311\266\275\177-#\276P\355\353<\332\315\241\275\030\007]\276\331\207\177\276\264\265|\275\336\235\256\275\370\346\331\274V\377{>\340\2374> T\026=h1^=\316\341?\276`1,<\300\363\001\274<E\240\275\200\226\265=\2745\310= n\016>\320`\374<\222fb\276H\332\201\275\314\363r\275xGH=\2542\020\276\254\227\016>&}S\276\224h4\275R\343z>d \325=\002<\344\275\3126}>\256)\004>`\300\326\275@]\020=.9<\276\204\360k>\007G\202\276\"\206;>\230\025O>JB\020\276\262\344l>\007R(\276>`\r\276\030\222\016\276\200\341\231;\322\3257\276\262\222!>\365nw\276\330\261]\276\230j\360=\336\343\325\2759\352\024\276\3235\202>\360\331\312\274j;\037\276\362-\221\275\256\230\276\275\207$I\276\230\024\245=\324\007c>\270\356\327\275\nG\340\275p\006\237\275\200\366-<\000\325.=\0021T>\000P\030<\020I\226\275\010\220c\276\262\303\007>\220\214\n\275<\315!\275`\321!<\261\004\023\276\324\373\300=\310\363\214\275\034\242\007>($\004\275\364\027s>Bx\n\276D>\360\275\300\264B>\324J\314=\214\365\260=\277\212i\276\262\271e\276\240\2071\274\206\305r\276M\3676\276\270,G\276@\373G<\300\3076=/\273H\276p\001\024\275\234\032#>\370\351|\276\000\302|:\360m~\275.\376\177>\320\005T=\330\254\307\275\210\273\324\275\352\357\010\276\260Zd>P\252C>\224\225\035>\270\244o=d9\\\275(\215\236\275\216\244`\2768\202=>\332\357Z\276l=_>s5C\276+\224\030\276`\246v<\032Y\337\275\000\254\201<\320\030\316\274\330vX>\241\0008\276PJ\213\274\260MA>\220\377\222<`\300$\275\372\327/>\n\341\001>\332\356s\276\030:\264\274\255\341\200\276\266\247\013>\006vV>\002\250>>\020p\234<\234\263\326=4XL\276\370\343\020\276:\3024\276h\355M>`\223]<\314\010\364=\010bR\276\242\r\001>@\266C=\331QI\276In\004\276\030Wq\276\030\264\343=\200\225V=\200D\022=<\242\r\275\222\222b>P\252{=\300\322@\274\220\254:\275\250\301H\275\215\240R\276$\306\'\275\322\267H\276\374\006\265\275BSB\276&\"W>\266k\311\275$kl>h\225\313=\240\215\356=\3649S\275\246\267\257\275`\301\027\274\220\273V>\360\222\337\275\034^m> q1\275\010\0320=PW\362=\376\013\243\275\266\375 \276Hw\273=\366\035R>\226K\343\275\230\242\350\275\000\3446<\312\322\020>@\006\347<H\362\204\276\000\341\332;~\251{>\200\037\271\275\250\331\375\275\014\030,\276\224{A\276\214M\266\275v\016&>^H$\276\276\232k>\000%\312\272\250\360\026=\266\r \276\026\330\233\275J\317\255\275J\342\204\275,P\366\275\177#\\\276\300r\226;\t\242\201\276\214F\035\276\\\330\035\275\364\204\233\275\244\206\200\276\360Q\307\274"
      }
    }
  }
}
node {
  name: "decoder/dense_1/BiasAdd/ReadVariableOp/resource"
  op: "Const"
  attr {
    key: "dtype"
    value {
      type: DT_FLOAT
    }
  }
  attr {
    key: "value"
    value {
      tensor {
        dtype: DT_FLOAT
        tensor_shape {
          dim {
            size: 64
          }
        }
        tensor_content: "\000\000\000\000\000\000\000\000\000\000\000\000\000\000\000\000\000\000\000\000\000\000\000\000\000\000\000\000\000\000\000\000\000\000\000\000\000\000\000\000\000\000\000\000\000\000\000\000\000\000\000\000\000\000\000\000\000\000\000\000\000\000\000\000\000\000\000\000\000\000\000\000\000\000\000\000\000\000\000\000\000\000\000\000\000\000\000\000\000\000\000\000\000\000\000\000\000\000\000\000\000\000\000\000\000\000\000\000\000\000\000\000\000\000\000\000\000\000\000\000\000\000\000\000\000\000\000\000\000\000\000\000\000\000\000\000\000\000\000\000\000\000\000\000\000\000\000\000\000\000\000\000\000\000\000\000\000\000\000\000\000\000\000\000\000\000\000\000\000\000\000\000\000\000\000\000\000\000\000\000\000\000\000\000\000\000\000\000\000\000\000\000\000\000\000\000\000\000\000\000\000\000\000\000\000\000\000\000\000\000\000\000\000\000\000\000\000\000\000\000\000\000\000\000\000\000\000\000\000\000\000\000\000\000\000\000\000\000\000\000\000\000\000\000\000\000\000\000\000\000\000\000\000\000\000\000"
      }
    }
  }
}
node {
  name: "decoder/dense_2/MatMul/ReadVariableOp/resource"
  op: "Const"
  attr {
    key: "dtype"
    value {
      type: DT_FLOAT
    }
  }
  attr {
    key: "value"
    value {
      tensor {
        dtype: DT_FLOAT
        tensor_shape {
          dim {
            size: 64
          }
          dim {
            size: 128
          }
        }
        tensor_content: "\013$\020>*\325\375=P~\016=X\251,\276\320\361o<\207\250\334\275\240\t\231;P\207\331<\300\000\300<\035\367\202\275Lo\024=\310>\324<]\322\017\276\203U\014>\237\035\010>\340\321\014<\360\\\001\276\010\002\030\276\220\314\036\276.\036\275=\300\233\357\273\364\237\324\275\000H\375\274\250\256\201\274.`\362=\300\361\026\276-\253\n>#y\000\276\235\277\331\275Q\330\257\275K\026\003>\320\317\016\275\320\365\241<\240S\263\275\370\214\030=\365\301\r>\310V\026\276\350S\034\275\260\345\221\275>\350\347=\034N,=\006\034\374=Vm\244=\256*\357=\210\304G=P\274\240\274\330\350\307\274\230\271x\275^\211*\276)O\013>\222\363\344\275\000\262L=\252}\030\276\332Z\357=\026\177\243=\371\320\007>j\201\025\276\3729\355\275s\216\017\276\234\2014\275*\304\363=\3322\247=\263-\326\275\270j\264\2749\247\n\276hg\033\276\375\375\023>\204\331\005\275\200\3743;\200\227\325;\325X0>\340\321\337;Kj\237\275\377\024\347\275\306F\255\275\300\312\r\276\260\340\342\274tAg\275\200Z\334\274\267\374\242\275\300\273\333<\317\353\030>\370\363\342<\270`V\275\264\252$=@\200y=\240\234\330\274\240\273z<\220Es\274\300\210F\275\200\370\345:e/\255\275%0\036>(8\344\274\026\355\246=x)\207<\2200\365\275P\360\354\274\300xZ=:\235\'\276\346\024\236=s\253\022>\260\224\004=\302\337\033\276F&\360\275\004\311x=\300\201\350;\350\215B\275\354\3542\275}\030!>n\013\357\275l\274\312\275\036\003\377=i\322\031>\010\327\323\274\215\220\334\275*I\244=;\220(>:]\375\275\340b\271\273V\335\366=\177\257\"\276\252\346\361\275\363Y0\276\362\034\303=\3301\265<DY\266\275\313\254\023>P\337\341\274z]\240=\200\375q\273f\261\216=>\340\232=LH\'\276\350\024\000\276\334\203\201\275P\320\025\276\354\204$\275~v\231=Z/ \276Dv\031\2763\251\035>@\220\317\274\225\310\247\275\240\252\333<V\013\207=N\032]\275\337\264!>@\352A\275&Yr\275\304J\r=Hz\260\274\226\026\344=Kx\'\276<v\021\275 \313\000<\000\006\336;\251T\020>\242Y/\276\326\033\031\276\365\321$\276\251X#>\362\246\327=\240\t\020\275\000\230\372\270\234\376+=\307\273)>\244\334S\275C\013\351\275`\021\306<\313\236\237\275\226P\272=4L\177=\300\r\026\276\366\200\316=\213\312*>\226p\223\275\251\335\030>\001\273\340\275\350\231V\275\223\032,>\"T\257\2752\341\367=.8\264=\221\315#>\030\253\205\274\331\322\003\276\351\370\346\275\310\204\204\274\273Q\355\275{a\246\275hF\222\2754\027\004\276i\221\r>,8J\275\260\307N=\032\014\356=nC\264=\340\342s=\270\266\224\275\321\320\034>\200t \273\300\363$\273N\213\353\275\342\261\021\276N\274\345=b6\"\276\344qt\275\332\216\365\275~D*\276Q\237\371\275\374#8\275\231[/>\250\354\243<S\204+>%\334\017>\243\355\033>[x\022>\364\2428\275\224\326\014=\000J\277;\360\177\352\2745f\257\275|y\r=\274HY=\310\255\241< 7\025\274p1\276\274A\361\t\276\240\253\327;\320Z\235<HKc=\371I$>$\202*\275\255\377\204\275\200+\322\274\250P\006=\244\300\013=\316\"\352=b\177\035\276\000\"\3409\334\370R\275\250\324\371\274HR\021\276)M\026>\001\257\014\276\013\364 >\020\265\200\274\003D\005\276r\346\341=\367\240\">\003N\003>;\314%>Z\204\251=D\026\035=\300\356\320\275\302\301\310=\014\025&=\301\177\026>\000y\233<F\371\350\275*o\256\275\271#\273\275\320$\207\275\352\372\363=V\211\206\2752\317\277=j\025\326\275\310@\010\2752\313\355\275\300\205\274\273\245o\003>\326\033\375=\241\005\027>\240\021\335\273\220\343\223<\340,%\276#\243\266\275\034B\"\275\2404\270;\357\3151>9:\024\276F\374r\275A>\026\276\351\277+\276\200\370\266\275\t\316\027>\350D\203<@k\243<\314\350s=\351\364\236\275\353\373\005>\262\222\235\275P\017\241\274\212U\006\276(J\346<\337\'\274\275\334\034\223\2754\322H\275\344o\000=\277\343\320\275\220\375\351<\037\236\'>\321\002\215\275nK\323=Z/\034\276!\017\262\275\376g\202=$\341]=P\347F\274\247}\300\275\034\215T=\333\202+>T\034\013\2768\321_\275\224t\r\275x\205\006=[\n\016>\243\014\276\275\214f3=\tp\021>`\217B\274%6\336\275\235\230.>=)\022\276\304_\360\275{c\001>\232\373\301=\032\203\235=\240\206!\275\300\332I=\200\036\026;R\375\353=\322H\r\276\264\r\023=\255\223\010>_2(\276\365\210\360\275T\036\016=@1\327\273\320M\224<\356\203\267\275\310i\340\2748\316\253\274\362\372\325=bR4\276 \353\177=\276\013)\276&>(\276>3\312\275\272\333\371=\277\312\006>\311\347\352\275\032\346\352=\306!\225=\267Z2>X\203\205<H\267\206<\214\263\t\276\346\360\277=\312\332\022\276\250\205F\275\270\343\274\275t\314\033=\024\177\265\275\347\361\n\276\3401\374\275\313\355\'>055<\030\210\027\275Hd\332\275g\343\t>-\241\265\275\035\2310\276p\237\033<|B\376\275@\307\217=\034\227o=Xz\002\276\247h\r\276\360\032A\275 \261\265\274@\351?<\002\365\341=\301\035\025>\241\301\031>D\274%=\026L\366=hd\224\275\2671\224\275\260\307\365<?\222\036>\t\341\230\275b0\362=\231l\002\2769\221\031>xv\'=@\311v\275\nj`\275><\201\275N}\214\275\363\324\207\275j\202\255=\262\261\256=\030\275\027=\200\272G\275\200\221\252\272\374\330\221=<\024\004\276N5\331=\002p\350=Z\002\376=\262m\274\275\373\327\202\275\370D\264\275\300Ln=V\237\334\275\266M\'\276\266\336\026\276`x\323\274\004\232\203=J\361\251=\203\274\316\275\274\001&=\260\032\257<\232\'\311=\302\322\333=\202\355\347=\000q-=\030R^\275R\211\263\275\0172)\2760\271\250\274{\003\t> Mg=\340\311\"\275\217\031#>6\272\332=\204\300\212\275\207\026\215\275S\375\023>\026\376\023\276\236p\237=M\014\340\275\342;\357=PkH=\352%\320=h\214\303\274jN*\276\225\262\220\275\014\010b=\004\350\030\275\316\210\343=\272\025\226=S\340\307\275PE$\275 [\363<j\321\230=&\034\234\275\307f\024>\236=\232=\226\353\270=\024\225\246\275i\235\013>\205\r\014>\211\326\026>\000y\346:\367Z0\276\300\024`;\317\005\255\275H`\367\275 (i=\020h7\274\203\274\017>\226k\227=\\T\\\275\332\2264\276\"\300\312=\t\264\013>_\251/>\\\317\223\275\266\022\365=]Q\004>N\277\r\276~\354\310=\310\326:=n\313\356=\020\033\004=N\252\325=.|\343=6\020\376\275\246\260|\275 \035/<4\017\360\275x<\270\274\325\266\013>\300P\244;\032\202.\276\024\240=\275\260\177\016\275b\032l\2756\245\235=\306\313\230=\340S\354<\240\307\333\275\240\361\303<\350\203\224<\3660\261=\226\351)\276\346\352\346\275?\266\341\275\000J6\275\253\223\035\276\354>\215=<\2209\275p\216\300\274r\264\353=@\n\266;M\355\025\276\315\235\243\2752\370\364=<\316\364\275[\354%\276p\007\351\275>\355\256=\030\215\362<u\314\">\234\2430\275\034\312\300\275\3700J\275!Y \276\210 \302<\237\2441\276\\\216+\275Y#.>\020\032\221=#\350\270\275\224!\004\276\220\rr<\004Gl=\270v\233<z\t\276=G1\021>J\222\373\275\364zW=P\324\237\275H\3441=h\375\257\274LG\031\275:P\307\275\243Z\005>\244\260\022\276\353\222.>\326<\257=a\355\023\276`)\032\276P=q\274\305B\231\275\261\342\207\275\3421\231=B>\215=PH!<,\347G=\342h\356\275\300d\234<:\333\025\276\330\367\342<\2724\347\275\222~g\275\361\224\032>\270#\322<*40\276\310\263\221\274\364\326?\275\204y^\275\354\250;\275\373R2>\001r\035\276\331\223\'>(\301\336\274\200}v<\266]\250=\210l\216<8\013\204=\210\034\245<h:L\275d\177K=\300\252\032=\020{5<P\243\235\275^-\260=\200^d\274H\027\"\2759\322\000>H,\265<t\377\033=\252\020\000\276\222\312\247\275\352\211\270=\025\020#>\200\314\355\275\003\207\001>\017\257,>\243\275->\346\305\013\276uJ\215\2750Z\301\274\032\035\250\275\262\266\316=9\243#>\230L\372\274\024\240\004\275\210zD=\270X4\275\265\2540>\350m*=\000i\267;\\\212\022=\306\256\356=D\366\210=N\0263\276.{(\276\005\323\235\275\260w\024\274\260d\264<\362\223\037\276\010\304f=\340\005\033=\235d\216\275I\3762\276~g\325=P\233\200=\200\343\n\275\213\313\315\275P\'r<\264~\010\275\r\242\330\275\246F\254\275\230\030S\275\200\277\352\272\325\356\373\2758\312\304\275`3\376<6P\230\275\314TO\275\315\260$\276\234\213W\275\033j\001\276T\340o={\352\377\275\312\305\322=\205Y\014\276\334\202\343\275\365\271\003>\013E\017>,\rO=\331\311\006>\326\246\301\275p\351\273<o\231\013>\361\205,> \323\263\274\272\217\222\275{4\322\275\376x\267\275R!\r\276`k\264\275\312c\262=\355\355\325\275\306\334\367=-\206\t>\036\037\227=\360\332?<{\0240>|s\t=@\r\375;HT\372<\0063\264=\033\270\376\275\311\277+>\nT\337=\270N\253\275\264\375\037\276\245\330\025>\370F\225\274\207\263\">zd\202\275\212\241\215\275\371w\t>Dx8=\340;\004<\010\204\217<H\231C=@V\010\276\302-\324=\n@\254=D\203==\340#\334\274\244\243\030\275\323\320#>\346\236\370\275\302q\233\275x\201*\2766\326\002\276\356\205\360=\232\340\364=y\3024>\202i\262=q\n\023>\025\223\027>p\372\252\274\274\250\370\275\230\376\240<\366\316 \276>)\211=2\203\305=\210v\345<Q\261 >\n\272\206\2759i >\210\270/\276\376\340\243=\202\230\364=\320\264\260\274@E)\274\300_><\210\255\032=\020\230&\274\243\241\035>=I\013>\362\n\226=_8!>\320\336\037<\336\366\301=j\262\357\275\340O\021\275\n\2034\276\221\316\250\275\031\341\037\2763_\270\275\271\257->\350d\026\275\2702\027\275\262W\330\275\200:\327;\224\001\"\275[x\004\276\350\003\353\274\311\002\017\276qM\330\275(1\"\276\360l\033\275\363<\035\276\327\333%>\350\233\337\274O\020\244\275\200g\205\273\321\363\036>\224\310)\275\206\225\335=|o\237\275H\r\373\274\306\354\331=\000B?<\355\025\034>\302\334\377=^H\360=\327\326\023\276Uf\333\275@\0304\274F\247\317=\207K\021\276\000&\252\2726Ht\275\0011!\276\314\206M\275sT(>\220\344[<(v\225<\276\274\260=\362d!\276\001\217 >\216\030\265=3\367 \276\231\225\036\276hL\033\276@\210\327\273\227\025\240\275\260\363\216\274d*\253\275\230\241\207=\212)\341=\240\221\"<\350\377\316<\330E+\276\020s9\275\376\371\342\275\'\365\253\275\323h%>\210\276\271<W\265\032>\017\306\010\276h7\373\275@\340e<\017\270*\276\313\177\037\276\200\230v=`\013\r<)\344%\276\200R\032=*\343\366=1o3\276\340\026A=\177\263\326\275\016r\252\275M\336\010\276&\343\235=\374\0012=\351\346-\276\217\270\006\276\232\305\273=pP\177=\360Ig=\220}\315<7m\"\276\240\324*\274\216n\370\275\260\037\360\275\036Q\271\275<\tJ\275\003C\020>\020\207\374\275\032\305\364=\0146\007\276N\271\005\276\363\360\374\275\004\\H\275\370\236\035\276\001\320\004>*^\201=s\0010>^\341\250=\254a\t=5\214*>#\021\263\275\260\320 \275\367\315\240\275\256\273\336=\301\000\035\276\000\027m\272\2734\030\276\206=o\275\304\271m=\340R~\2746+\036\276\246\202\263\275[\316\017><d#\275<w \275\371\003\323\275\270\031\030=\210\035;\275R\300\307=\340c\001\276y\3341\276f\351\211\275\341\227\030>@#\342\275@O`<\205\305#\276\200N\204=\227\034\032\276,\203\357\275`\322j\275\206m\023\276XO\323\274\345\222\303\275yE\r\276F\364\204\275\336[/\276\020\026\255<\333{ >`\321E\274\270\027\347<\320\n\000\275?s-\276\304\314\006\276,\025\t\275\241,%>D\335c=\336\204\036\276\010\230\033\2750X\035\274\006\323\\\2752\352\356\275T\240\002\276\020\270\272\275\272\023\016\276\223/\004>\304\373\032=\250V\301\274\314<k=\250f\247\274\356\002\272=Z\205\245=\326\275k\275 Kq=\266\201\013\276`\201\264\273\364\212\226\275\250`\002\276)\363\010>\266`\307\275\236\202\207=v\321\331=b\204\030\276\243\255\350\275N\\^\275*%\376=\307\016+>\316\332\306\2750\337\004=\245\2401>$\211\243\275 j\275\274p\227V=BP\336=@\307\370\275P\252\010\275xF \276\300\000\203<N\357\224=T\307M\275\003\275\023>\360\330G\275`\026\007=zY\n\276]-3>\213\013\300\275l2l\275ye\013>N\307{\275\234YD=\024\303j=\031\353\005>5\362\213\2753\323\004>~T\330\275\0303U=\214k\024=\355h\331\275dHG\275\273\244\220\275\343j%>\244\304\r\276\300\000\331;\356l\324\275\314i\224=\020\321\271\275\353\241\035>B\337\276=F\335\312=`-\211\275ja\236\27546\244\275\354\375\305\275^\230\020\276*B\357\275Q\364\027>o<-\276\000\245S\275#\340\027>`T\177\275\302X\344=\372\241\305\275\307z#>\204\204^=;z&>\323%\016>\236\315\302=p\355\204\274\276\004\304=\224\214 \275\330U\264<P\206\360<\3202\037\275\354\244?\275\266\025\225\275\260\350\216=,t/\275N\033\240=\202Sk\275@fA\275\303\303\000>\016\300\221=\3264\230=@\320D;#\322\235\275\220\263\026<\316\257\317=\230>!=\024%0=\220\367F<\212s\337=\370\\\206=C\277\211\275\240e(\274\000m\304\272K\023\027\276\310-q\275s!#\276\260I\306\274\360\241H=\021\374\037\276;20\276\304\3352\275\332Vr\275\370J\357<))4>\200\227^;\3205\355\2749\333\026>\244\023\024={\232\343\275^\024\037\2760\327\321\275\000!\321<N:\236=\233\370\351\275\014u\004=a`$>\320\211\333\274\250c\030\276(\356\371\275\261D2\276\360\006\010=t\034_=\274\344D=`E\216\274\355r%>{\203\260\275\2610,>h\215\302<AF\222\275\200\312\315:\304\211&\275\316A\360=h10=\243\3323\276\302\202\347=\372E\252=\003\364\035>s\363\346\275\022\216\314=\376\211\306=\000\342\017\276h6*\276_\277\362\275K*\312\275`\026,\276\226N\233=\216\232\325=+\022\014\276\020\226\314<@\\\236\273\212\'\364=\2602\267<\256\316\003\276\023C\030\276\317\3631>\240\363\366;\364s?=\255\337\">K\305&>\020{&\274\236a\372=\201P.>3` >8\007>=\220\214k=\376\362\315=\315\037\000\276\356\326\324=\222\215\307=\332\003\233=~\247\233=\373\206\273\275\000(\246\274\n`\244=\250\230\036=\260aK<\366\006x\2758\2677=\206\"\366=\200\250c; \365\223=-\254)>\323\002\016>f\177\226\275u\032\311\275\366\032\357\275\017a\030>\273]\210\275\236\362&\276R\206\277\275@\3278\274P\000=\274\312+\304=\221H)>\200\336%;\346\336\311\275\340\030\212;\316\224\021\276L\312\034\275T\232M=@\3150;\266\377\367=\0005h:R\005\251=\010\365}\275\200!L<7\032\003\276\226p \276\376\235\333\275g\255\016>pR\343<\331\366\347\275C\232\233\275\346\374\375=\224\243\016\2763h\021\276(.)=46A=\000\226J;\214*\242\275\251S\010>\030\324\n\276 \316\006=\014\205\202=\3605$\275d\2568=?\240 \276\344\235\037\275l\240\302\275s\202\246\275J7\002\276\333\241\035\276\212\245\026\276\355\027\262\275\260\365\017\276d\347\031\276\352F\246=_\241\t>@P\342<j\227\363\275\207&\002\276\3658\023\276\235\025\025>\260w\021\275@\260\273\274V\361\361=\200G:\275\220\351;\274\272\313\276=\327a\266\275\002\203\334=\331)\037>\324\342>=\306@\342=\003\007\373\275I\t\363\275\025\330\037\276\270\207i=\377\346(>\3508\201=l\2714\275@\214F\273\320b\024<vN\'\276\274;\037\276\004\3034\275c\031\'>\340\235\356;\217\246(\276\333[\327\275\320\207\022<\275U\301\275\347\014\030>\006\350\014\276Vk\317=\304\355\213=z\234)\276=\252,>\211\242\017>\220\337\200\274P\266\372<\314@8=d\275V=\330\206\231<\364\200\220\275r}3\276\024z3=\267\016\230\275\257h\026>\267\350\022>\006q-\276\275\311\025\276@\232\213\273\177\261\017\276\217\202$>\330v\375\274\030\"\306\275\200\315\310<D\t9=\317&\237\275\033a\r>Z\333\235\275:\303\260=\206\021\036\276\242^\303\275\006\341/\276\376r\344=\3676\021>T\246{=\350\221\214<`\022\242\274\276\331l\275\231\354\016>@:G;v\252\025\276\260\003\211<\313\250\014>\315R,\276\201z%>\\*$\275\254\037\005\275}\255\206\275\340\2256\275+\327)>\000\000\370\265&\023\027\276\020\374\353\275 \266\271\275\033p\253\275\2474\245\275\036\244\311=\036\246T\275X(\013\275a\021\263\275\231\251*\276\014\216\216=|\315)\2750<\233\274\004<t\275XP\236<4S\002\275\261 \026>\035\001!>\037!\323\275F\0252\276)\277\005>t8\207=\332\022\306=\200\210\002=\000a\377; c\033\275\324\347\'\275\216\251\374\275\213g\024\276\214\262\010\276 \"\232\275\r\376\035>b\"y\275\313\277\004>\257\306\331\275\351\001\267\275\017\275\203\275\362\222\316\275u\n.>\342\271\253=\017\352\026>\304\0130\275[/\014>\246.*\276\036\314\342\275\340\246\317\274(\2567=\306S\230=\004\272\374\275\367\263\030>^F\341\275\221\316*\276e^\241\275\313r\036>\270\032\202\275.\013\017\276`\270\372\273\000\245\217=\031\313\357\275\372\362\231=B\233\260=\034\241\306\275\366p\202\275.\356\370=\3431\004\276\250\0269=z\331\276\2758\371]=\014\365q=\t\211\007>\230t\325<pdH<]\017\034>\'\371\226\275l\276\035\275\370\334\230\275\273\005\243\275m\312\025>T\364\007=\353a\014\276\265\331\037>\3208\346\2740\372\033=\2207\377\275\217\210->\200e\236\275 \325\261\275\372\006\024\276&\304\377=d\233w\275\266\331\235=^.\201=p=\350\274J0\321\275\303B\030>\213\247 >&\346\316=\0202F<L\300;=F\267\230=\034--\276\243x\032\276L\367\r=j\233\357=F\363\270\275H\036b=d\316(\275\032\004\240=\346\265\303=H\237M\275\001]\022>\224\263\t=z\203\234=\306\254\255=\200\354\366;\220\026\027<`\023k<]\340\215\275\312\241\275=\242\357X\275L\354i\275\016\236\266=\254(\031\276\226\253\271\275\224\3061=\000\370A9\014\035M=hQq=\375\257)\276\020\312\250\274\370\3324=\010D\222<\212\037\227=\351\255\035>\227o\003>W\016\">\235< \276\372\317\220=\363\302\007\276\300gc\275L\226\351\275^j\234=\360\243V=p\317\271<S\236\026>\233m\301\275\324@\340\275r1\304=\232\324\006\276\250\346;= w\311<\312\274,\276NL\227=\203\266\t>\240\322l\274D{o=\005\016\036\276\240\265v=S\264\">\200\013\301:\2609\222\2749V\"\276\240\361\361\275\n \r\276\301\273+\276\014f\t=\002\311\336=\323\243\030\276-p\034>c\204\014>\206A\326=#3#>l\333\354\275\0012\t\276^\\\371=n\373\342=\222\236\363=\204\256i=\021]\010>\003!\">\220\315\002\276c\331\344\275\036Xi\275\336\325\371=\'[\301\275\337\375(>T\310d=\000\251\205\272\361\262\327\275d\356;=\304U\336\275\030\001\215\274a\342\340\275\254E\203=]3\023>z\\\313=\300\200\375\274\360\035\014\276\326\024\233=>.\276=\005\367\323\275\274\202P\275\275\030\236\275\214\272\374\275|\354|\275oh*\276\300\371\212;j\316^\275\266\023\340=\330\376C\275\350c\241\274\250J\312\274G\351\022>\320\345n\274B\255\231=\376\216\240=\016\215\017\276\354\302k=\272\254\331=\031S,\276]\233&>\217\002\230\275\346\360\371=J\265#\276T\325\237\275Be\235=\310 \233<\026Gp\275)1\020\276\2458\"\276 \211\020<\022^\311=\254\2654=\222\370h\275\315x\006>@$\310\274\213\264\034\276\241X\350\275C:\035\276\004\024\255\275\220\257(<J\340\217=L.7=BT\337\275\027\210\002>\252\303\303=\267\314->{\375\035\276/H!>\273\251(\276\277\333\204\275\017H\027>\2426\222=\020\314\034\275z\266\302\275Dc#=\214\036\014\275\364\317\224\275@\213\371\273\246\023%\276\352\360\232=(-\234\274\254&@\275\332\363\356\275 \236\311\274\333o\217\275\310\373U=\207\002\034\276\306)\357=\226@\230=\221@\261\275\252?\364\275bI\266=zf\225\275\310\032\375\275\025\005\275\275\036x\365\275\254\247\016=\r\034\'>\374 }=\372\377\357\275Q\2744\276\227\364\306\275\377A*\276d\222>=l`\000\275\220\017B<\340\250\273\273V\207\362=\340\347\303\273M\354\007>o\335\036\276\037\201\030>>\356\214=\300@\000<\2719\005>p\217\343\274\356C\240=\324\311y=\000\213\346\273\256\334\266=w\t\022>9$!\276\200f\204;\023\373\253\275%;\017>\234\033\000=5\n\t>\023\361\004>\3254\032>\232/4\276\354\374\016\275\326\301\317=\251\036*>\335V\007>\241)\013\276\312\205\017\276\377\2670\276J\313\344=\',\002>\210\265\r=?\315\020>\260K4\275\000?i\273\200\325\367<i_\334\275\020\2104=a\276\032>\350I\214=8\230\333\274P\253h\275P\205Z\274y\234\301\275\272\375-\276\302s\354=\246_\242\275\030R\335\2747:\242\275F\006l\275\004\032\t\276\177\017\367\275\375a*>H\302\357< p9\274|\217n=\322\225\327=\225\250\037\276\335*\344\275\343I\220\275ph\206<SE2\276\314M$\275\220\315)<\342\n\242=\242\376\321\275\365e\312\275K5\033>(\263\225\274#\367\'>\235\257\034>\274\360\030\276D9\031\276\340\313\246\274\351\357\027>j\262\323=p\312\032=l\271\247\275\206\r\017\276R\340\320\275\203-\256\275\300QZ\274J\314\375=\307\t\005>\003\004(\276\200\305\224=\232p\375=\304\003.\275\273r*\276\250\350)\275_\005\006>\336\304\302=\001\006\037>\215h\036\276\2000\013;8\224\242\274cg\031>\335\3223>\264&G=,\363\340\275\262\202\376=\226\010\267\275\252\330\202\275V\224\250=\010a\271\2748v\367<\3766\234=\360\'\271<\210\363\264\274\244\321\007=#b\275\275\242\215\355=\241\0214>\026u\361\275)\316\024>\270!\032\276\200\267O\274_\372+>\303%1>\216\002\330=\344\024I=\030\037/\275@|\242\273\240\343w<\262\022\271=p\231V\274\271\024!>H\315\361<&\035\254\275\222\224\304=y\256.>\250(\273\274^-\202\275\000z\346;\336\032\354\275\tg\230\275\202\307\340=\334\261\240\2755\252\340\275\340\277\334<\304\2043=\270\0251\275P\256\345<\210\234\\\275\005Q\010>\331\365\022\276\0008\321\270w\317\241\275\372\037\232=\201\\0>$\344\026\275J*\340\275~\346\246= {k<y\321\334\275h$\354<dgS=\324\035v=\020\250\321<\234\354\330\275\254\0256\27505\013\276nP\254=\221\313\017>}\251\n>\357\233\365\275\\\277\016=k\037\035>\3078\017>\300\032`\274\300U\227\274$A\217\275\020X\327\274tl\271\275\304\027*=\240J\370<\300\326\t\276\014\214R=\326\220\215\2750\256\023\274\373\327\357\275h\275\242\275\210\006\025\276\320\373\354\274f\252\260=0\0146\274\364Fu=F\217!\276\375\370\'>d\373\376\275\320\nQ\275\243\243\352\275\t@\213\275z\266\336=\253 1\276\260\365j=\320\214\371<\374\030j=\237\026\313\275\367\245\002>l\374\017=\200\374\206\274Y\373#>\212 \274=$\274;\275\000\230\"<8\313\036=q,\035\276\026\247\310=\000\266\2609\030}^=P\025\201\274En\274\275\270K!\275\233\232\010>\350Nh=\264B\007\275\242\264\345\275\027\277%\276\255\2160>\264e\"\276\300\270\203\275@U\\;\016\303\264\275\027G\031>b\227\313=\246|\301=\251\025\023>B\323\254= \356\321\275\316\234\301\275`\r\344\274\236\335\353=\272\320\323=\220\326\341<\276<\271=\245\313\024>1e\016>}\365\221\275\236\361\270\275\014f\035\276\351f\311\275\302}\322\275\245@\034\276lf\027\276P\303|<$\302==\367V\031>MV\023\276*\215\201\275\260*\323\2758D/\275\r{,\276s\200\t\276\210\225\360\275Q\022\005\276\332\336\347\275\014n3=\377\2171>\034;p=F\257\333=\340U\252<\374\366{\275U\377\347\275\212J\336\275\212@\253=\265\313\027>\210\307\262\275\217\232\277\275mO$>8*\360\274\206\244\221=\372\276z\275\233P)>\202\215\337=\334\236A\275\203\213\034>\372\017\367=\324\n0\275\336\216\005\276\300\312\352\275U\246\014>\304\270(\276\000\232\235\272v\266\364=\034\316\205=`\026\027\274]\021\027> \345\356<\326n\252=n\356\257=69\000\276\233,\023>H\211m\275\030\361\223\274\230\262B\275u_(>\360\310d<\316\022\271=x\202P\275B7\235\275*\217\241=\202\267\376=\206\316\373=\200Q\202:\014\203\376\275@ \245;\211\2653>\002\021\376=`n\226\274\200*\240\272=\272\270\275\207\315\006\276Y\177\021\276\000\314\210<%V*>\3408\t<\352\321\277\275\324\307f\275\261\353\264\275v\351\373=\024\217S=\356\240\327\275\370\026Y\275l\312\277\275\346\014\337=\330\344\226\275I\233\331\275\366\207\336=0o)<\223\007\262\275d\242I=\343~(>\200bh\274\266V\363=J\\\341\275\030:u= l\222;\202,\223=\360e\022\275\267\240\r>x\320\231\274\266\366\301=\240\375\013=\223l\013>\364\214\251\275\234W3=\010\251\211=ZC\247=:\271\304=S\261\020\276\256\300\006\276\002\225\216=\256A\014\276J\341\310\275\000\241\017<\240bi<\200E\354\273\321/1\276\200J\224;y\n%>xm\223\275\024|\206\275\257\242\000>\366\357\221=ez\030\276\316\274\254=o\312\016>\367_\354\275\266\235\232=\206/\277=\260E!\276\010\243E\2758\356\264\274h\345\262\275&X\206\275b\377\243=p\367 \275\350\355\364<8h\236\275\331\257 >\257\205\255\275-\371\032>\200\372\376\273\350\3049=\374\266+\276\227\332\014>Q3\024>\200\211\263\275\032\033\372\275\307\372\234\275\3205\226\275\010\213i=\261\010\300\275\354I\222\275\216\323\255\275R\251\210=\014W\373\275\301P\032>8\352\322<\324\264\226\275\306C\276=\262G\017\276\247r\021>\312\316\222=\352\033k\275\220\"S<\253\321\003>\336\361\365\275\307T\006>\366v\356\275J\001\300\275\231\357\003>*\245\320=v/\324=\000X\303;\216x\236=F\211\373\275r\006\200=|\200\252\275\266B\333=\016v\327=\227\212\245\275\\W\005\276\014t.\2764Dm\275 \315Z<\347b\001\276\300\271}\274\214\271u\275z\\\347\275\326\035\314=K@\037>\230k\353\274\222\225\334=\026\'!\276\377\205\343\275@\247Z\2730 \004=\267\026)>\240\002\241\275`l\357;\256\301\374=\020\345\222=\346\220\233=Hs\324<\313\353\001>\262\3653\276\006\005+\276\345Q0\276P\340.\276\260\201\377\274\346\277\254=\254\252D=%\033\253\275\203<%>\033h4>r\322\313=\007u\343\275XKi=9\304\333\275B%\367=\240\346A\275\360W\357<\300}%<\200\337\272\274B\244\260=0\023%<\0005J\274~\313\274=\245\375\020>t,\210\275\314n\001=\205(\231\275\010\370\007\275\243(\026>\371\307\330\275w\203\">\230\324\365\274>\243\361=,)\027=\006\275\360=\256\247\362=\346A\332=\370\323h=L\014P\2758\240\334\275\2477\r>&\332\360= F\344<\032\303#\276\177\227\327\275\225\017\233\275\376e\331=_C\024\276 C\321;h\3441\276(\250\010\275\242_\255=\326\273\236\275rK\227=\237k\'>\354F\r\275o\233\027>\2561\352\275\010w\246\274\236\000/\276\t\225\000\276\220\265\214=\016\217\250=\376\034\354=\303\345 >@o.\273\240\0107\274\242\\\342=\243\037\272\275\306\204]\275\200\327u\274\321\2464\276\240\203\326;\302\037\212=\025\257\020\276[\262$>\245\"\220\275\211o\320\275\200\245\227<b\341d\275\371\253\004>\315\340\032\276\340\376.=\014\250$=w3.>\253\317\025>\375\2511>\310\327>\275\306\270\'\276\000\245z<\244_t=[\202\010>\300\002\221=\310V\222\27466\206=*\337\377=\377Y\220\275\341V\001>\221L\316\275\346q\245=\227q\034\276\275\007\002>\300\276g=\314\334\001=\260\010\217=\243\255\030\276xr\222\275\330\377\004\276\303\034(>\310\312\221\274\300\323p=\306v\375=|\304-=\310\310\272\274 -\031\274^\367\352=tK\026=\370t{\275R\223\272=\240\202\302\274\200\377\207;0\010F\274\320\277\371<\317\312\000\276t\350*\2768\350Q\2758\356z=\010\343\352\275\277\246!>\306\322\t\276\256\202\024\276a$\n>\212R\n\276\255\001%>\253\207\004\276\270\177\013\276\300\377R=\260\254/\276K\001\030>\276\264\334=3|\013>\276\034\371\275X\340\241<\260\026\200=H\367\355<\360Oz<\312\024\266=@\345\022;@_@;\237\222\014>\306\243\324=\310b#\275.\227\310=\3044J\275U\362(>\022V\261=\322\242\373=PB\016\274\205F\007\276\325\004\351\275\316\206\230=\031V\325\275\3625\363\275\316v\351=\244\327!=9Q!\276\265\352\004\276\357O\007\276\360\207q=IP+>\200\301\240:1\032\247\275,\374=\275>V\261=2[\230=7\201\273\275\227\314\024>\231e\n>es\275\275\023\2700\276\356\347\351=\010=\312<\206\220]\275\np\270=\246\334\356\275\006\223\r\276\231\035\023>V\213\215=\033\374\026>\374\333\t\276\217\274\227\275\000\265\210<\267G\267\275\300\2171;z\215\323=h\313n=8\250.=$\230\n=[.#>#\334\274\275\314LI\275\350\362\177=s\315\007>(\276\272<8\357\307<\014\2029\275T\243a=\300\362\341;\2667s\275P\252\213<\035E\006\276\302\316\022\276\306\325\250=\376\261\223\275VA\360=*\201\026\276\374:\373\2753\254\032\276\343\205\227\275\270\300\236\275\230x\267\274\333\235\235\275\371+\021>\236\300\313=\256~\233=\220\256+\276\000\271X<x&\244<J\305\305=\000&\252\271@o\315\274\274\311\035=v\275l\275\250m!=g{0>\265\310->Q\334\211\275\240\223/\274\306=\377=\322W\305=\220\205\t=\357\200%>\005\021)>\340P\242<0\213\031\274\200\221+=\334tC=\000\364\352<\301S\014\276\371\274\005\276pc\331\274$\013-\275\374\3507\275 \233\026=\031_\016>\300\n\203\274\314`j=\010\203~=\362\256\037\276B\250\221=Nw\261=\271]\013\276\026\316\036\276\252\264\203=\372S\t\276m!(>\020\371V=E\214\230\275d\2777\275%\351\021>_\314)\276\336\335\276=\262\027\246=\270\320\000=\300\"\257;a\3650>,\254O=\244$\222=f\364\341=\214\2616\275\350o\350<\010\257\227<\0249\025\276u2%>\240\360I\275\021\300\t>p=\362\274<\227o\275\035\270\316\275@ez\273\324\322\024=\320I\325\275\363h\341\275(\305\030\276[\252\020>\330\"\304<\257@%\276h\236\007=\244Bg=\270D\252<\330d\250\274\342x\r\276z\372\233=jg\322=\323\025\355\275\357\350-\276\240\310s\275+s\016>\331w\016>\372d\361\275\345\021\006>(\024\236<l\201\255\275P_N\274\274\312u\275\200\313\330\274\360\021\302<w\201\005\276\355\206\010>\245`\025>\340<!=\272\270\230=\200\356\342\272\214s\032\2758\016\230\274@\022<\273\246.\343=.|\330\275\300\020\321\274\302\270\363\275\240t><\"\262\305=\226\020\245=mN2\276u\207\305\275R\262\343=Hw\020=^T\260=\204\224\250\275\342\304\234\275\215\"\034>p\342\346\275\300kS<D\337\036\276\372B\223\275\362W\240=\220?j=\347\357\016>/\006%\276\230SI\275L,\t\275#N\034>\215(*>\000\252\252\274\037\237\034>\370\360\200\274p|\346<\332%/\276\222A\263\275\340\352\027<\230\213\226\275\215\356\017>7\036\036\276\303\377\242\275y\t\210\2759\244\014>Op\000>I\352\023>\350B2\275\270b\217<\306\365\256=y0.\276=^%\276\025\'\004\276\300\266\026<V)\304=\212\363\275=\304W%\2760\377\221= \347\020\275#\227\035\276\324\356#=\230\352\207\274\250\302\363\275\200\272V\274:A\024\276\020g\254\275\267x\302\275M\352\'>\250\032m=\236d\274=&_\262=\370&\004\276\377\236\024\276\220\201\030\276\250\310\305<us\r\276\002\005\232=\324YQ=\026\272#\276L_\031=\rn\001\276\220\025o\274\331\310+>\325\370\026\276\251\327\303\275\"\020\216=\024\n\233\275,\307\r\276\346\025\360=\200z\223\273\230,\322\275\355\357\251\275\304\253\034\275\222\332\262=\375\360\'>\234\210\363\275\276\210\374=*\264\240=\021X\356\275\200B\344<L\261\031\276\013Y\035>\217\230\023>se\021>\342j\237=\237<\030>\236R\361=\026\003\304=\000\311\216=\036\274\035\276\3524\342=cp\027\276\354\271q=P\270*\276\273\177\310\275Y\375\003>\354\224\020\275\020\323c<\016\363\226=\216\020\302=\"\272\313=@x6;x\361\307\275\"\224\354=\206\220\'\276\323Y3>.\223\231\275\306\356\200=|\271\202\275\340\2158<\2461\317=\370\223j\275\303L >Eg%>`)4<\366\243|\275\030\236M\275\024\2032=\301\271%>\201\313\036>Ny\274=\001O\270\275@jf\273\376\211\276\275X\220\342\275\027\247\025\276\254oT=X\263\362<3\027/\276#\204\207\275\271\247*>\220\020\275<X)\214<\023=$>u\276\002\276.\340\237\275\020\022\267<\335\277\007>\300\317\364<\032:\367\275\202\333\355=p\311m\274Q\225\010>\313\035\016>\026d\325=6E\353=i\366\222\275\343k\226\275L\265b=\362w\322=L\220U= \334\220\275*\345\020\276\330\372\325\274jJ\257=\000\n\216\274}\356\001>y\177\020>R\255\256=H\344>=\030w\206\274\032\330\027\276\000\355\365\274@\211\022\276\262\216\302=\312\251\302=#c\020>\360Bf=k\301\006\276\2436*>\300cO;\350x\366<\222#\330\275x\364\213< \202\001<\365\2361>\313\246\037\276\206\276\310=\000\353\322\273x\014\026=\024t>=\212\265\372=6-\373=pC\270<\342\366\004\276\362\275\026\276\365\3661>$Q\306\275\246&\323=\200\251\376\273@v\330\273\312\001\306\275L\273&\276R\310\r\276\226\341\347=\330\236\301\274D\216\206=\000\375\003;\301;\033>\232\002\273=\372y\254=\202\026\231\275\205;\031>\341\243\014>6\314\376=[\232\030>\204\220\023=\320u\366\274\"\343\251=>\336\332=_\3743>h\301\t\275\253\364\020>@\210=<\364\304V=\201\261\">\3032\342\275x(\200=C\222\n>\312\374\340=\035\030\336\275\022\356\254=\346\337\315=\370\230\266\274\017\333\362\275\365\347\243\275\340\237\303<\260\014\246<\250\010J\275[4\315\275\001(\032>\346F\307=H\332\226\274\261q&\276\374Bx=\350yp\275\270\023\274\275\014 8=\025r\014\276|*\200\275\343\243.\276\016\013\253=\020\313\235<\340m\337<X\310!\275GW\022>\02702>0\371\325<\201m\033>\320\034\007\276\030\323\333<\252\222\247\275\245;2\276\260\2505=f\313\324=\357\357\353\275e\367.>\236\337\251\275\243\376\005>g\206\017>\362\205\225=2\371\231=:\241b\275\025w\006>\240\323\272;\000rV\275\240\250\306<\300\337\004\274\260\243\222\274\026\360\261=\235\3450>\000E\016;\032\035\275\275\360\003\352<\270\007T=\010\325\220\275\000(\273\272\246\222.\276\247\005+\276q\321*>\235\237/>\026\240\277\275\260w\230<\000v\2429Lp#=\240\336\021=8_<\275\373U\370\275\224(E\275 \'G<\036\'\205=1\265)\276(7\257<\025\257\016>\240i\223=\361\373\314\275\005\305\033\276j\276\206=\032\265\303=\212\325\225=a=\334\275\235\007\273\275h\246`\275\331\364 \276\243\242\305\275\020\352z=\010\023\321\275Y[3\276\315\316/>h\270F\275\221e\014>\264\020\251\275B\344\n\276R\217\276=P\261\325<A\016\347\275|~(=\312\223\242=\254\307\000\276+\023\025>NL\217=*z\366\275P\ru=eQ\031>\354/\177=\271M+>xY\024\276\332\374\024\276\256\313\341=r\355\267\275\341\001+>\313\253\215\275\000*\244\272\243=\236\275r\257\214\275\362\r\216=\177\033-\276\000+\222\273\252\256\'\276pKD<\332~\204\275\373\272\020\276\200\364\240\272i\270\341\275#.\021>\334\2702=\200b\200\2758/\273<\3024\025\276@\017\240\274/o\330\2750=N=3\006\002\2762\"\034\276\350\2653=\250B\357\274\330Cg=qN2>\326=\343=b\246\354=\270\376\231<\332\231\371=\277\252\370\275R\336\244=\027\0062>\372G\274=hs\022\276\234\323\377\275nO\377=Y\266(>\335\377\254\275\201\357+>\340\363\342\274\232Z\322\275\320\342(\2748N\310\274\'*\036>\321\214\355\275\335\354\237\275\000$\351:\352\260\275=\006o\366=\036\222\t\276\302\026\306\275\224\360L\275jE\376=t\355\026\276P\255\372\274`ha\275\217\260\037\276\314\006T\275\364\201\n=4i>\275\360\025\353<\357\030\037>S\024\365\275\013L\'\276\222Q\356\275\262\003\223=\266\356\337=\363\277\025>\260\333y=\322\037\342=\nV\267=P@\010<{R\214\275\322\315+\276\244\357\n=;\276\014>\205|\025>k\370\023\276\350:\376\274&\374\235=lD\036\275$\365\214\275\266D\356=\010\315j=:\373\244=\320\352C\275\277\3463\276\260\227\016<r\202\237=^?\303=\200\022H;\310\364n\275\324\022\023=u\315\327\275\020]L=&#\262=\"\372\022\276\206`w\275B\232\327=\000a\352\2720\304\327\274\313J0\276\232\374\303=\354\323\242\275\0004y\273\201z\203\275 \317\334;\372\231\255=8\350\316\275\324\3112=|\315\025\276\223\232\010\276\361\241.\276\236-\226=\260wr=\0264\326\275\002%\337=\377\311\311\275\201\250\307\275<|Z\275\220F\304<\034+\034=\273=\273\275h\027\254\274\304\024)\276\220\206\207\274\304\023\t\275\340:\210;\360\234\361\274\004\014\003=P\t\314\275f\253\236=\0066\210=8i2=\336\233\006\276\270\243\200<\274\220-=\336d\210\275~i\322\275\005\303\256\275\321\265\217\275{L\006\276\304C\303\275`\341o\274\265\"\024>\276\'3\276\320\311J<\000\n\212<\241 (>\334\017!\276\3175(\276\272\204\036\276\240lx<\345i\321\275\335e\022\276\2607!<\246\211{\275\201R!>\020>n\274L\232\t=8\215\254\274Z\303\214=.N\322=\245g\267\275\235\\\000>\026\036&\276\342\364\325=\242K\214=X\225\013\276\210=&=\000\224\202\272X;\332\274\220\031\004=\372\014\205=\202\000\231=\2504\355<\202J\302\275\037\226\307\2750\260L\275\345\244\035>,\302\243\275\211e\217\275\000!\t\274\366)\326=c\362\016>\024\221%\275p\026\r=\214\2250\276\340q\363\273\342q!\276\315~\036>\242\257\305=P:\202<\232\257\355=\364\3067=*;\225=\002\325\204\275|\323\214=\220&\350\274bJ\353\275\211\0274>\326B\362=\300\3223;\035!0>\t\343\'>\315\375%\276hkm=yU\">\026r\303=$w%\275\262\201Y\275\245\375\035\276\347\371\346\275\240C\250<.\314\332\275\256 \237=\226\242\252=j\222\364=\\g\211=\3402\222=8\033\030=\323P\031\276\226\n\305=\242\357$\276\354\225\371\275\026\316]\275:\273\357=\257\276\017>\270\'\005=\220\024\225\275;\225\263\275\010\021\306<\340m\204<)6\025\276\3320!\276\n\323\310=\322\254\360=\300o\267<\017\2454>\357\001\025><\023|=mI-\276v\275\000\276\333\2501>\324\236n=\246\240\254\275\334\253\023\276\026\247\211=(\330J\2750\021\336\274\323\324-> \246\240<\2005\304<]G\021\276n\245\352=G\2603\276\3443\005\276\023\231\373\275\362\007\323=\216\334\375=F\371\030\276t\334z=\262\376\315=\300\230\204\275\034\t\247\275\361\270\"\276\222\232\332=\232\215!\276p\300\210=\214UQ=\n4\301=\272\201\n\276\331r\356\275<n[=\225P\330\275 @Z=\376\372\002\276\372\031\226=\360vB\274:I\354=d\"o\275\345i\315\275\302\247\233=.\274\374\275yo&>\231\251(\276\324\003\022\275n\377\326=}\244)\276\207\361\030>\226K(\276\300\304\177\273\310\221n=\270\004G=^K\364=J~\253=\020]\000\275F\316%\276k\337\003>\000\234\304\272\300\336.<W\025\330\275\323l\r>\350\301\022\275Cx\023>}\006\235\275\020\271\352<^`&\276\316\226\307\275\276J\256=\252\177\264=V$\264=\010{\245\275\257j\r>\370\025\270\275\304\0209=2L\234=\352\371\230=o4\013>\375\374+>\340\3534<\333\031\034>\000\364]=\224c\321\275\207Q3\276pKK<.\341\201=\000rS=h\220<=E\177&>\010\353\221\274H\2413=):\322\275\275\346\r>\037\223\360\275k\035\005>0\341\360<p\005\010\276\034\316\037=\352ix\275\006\377\353\275\276M\233=\000If:f\007\275=Y\340\001>\010\325\353<\340V1<*\\\333\275\326\373}\275\000\323\233<\206\274\340=\020\245\272\274\020\017\014\276\350\026\000\276\300\307\232\273\261M\360\275\243{,>\021)\t\276\320\317P\275o)1>\014\245\201=\300Qz\274`4\201;\312\305\266=k\267\246\275X\252\261<\263f\021>\363b\036\276\364\321\\=d\372\346\275S\261\251\275\211\303+>\216\222\300=\033\0232\276!\0143>Q\212\341\275\033X\301\275\200n\014\276\330\234\033=\234\371\360\275\220Q\374\275Ks\252\275(\245\275\274\350o\033=P\210\333<r;\035\276\t\266\036\276fd\t\276~7\321=\201\t\021\276Jq\251\2750\267\352<\000\373\353:\001\026!>\340m\001\276 \037\342\274\344\035}\275\266\210\320=\336\333\261=a\\#>\244\226\035\276\000\210\226\274\330\223\202<(\004\273<cT\005\276@\'\322<\t\031\027>\200\327V;\370\227\232\274\227\316\001>\314S\216==92>z\032\322=p#L\274\000*b:\322\303\207=\020\'W\275N\241\026\276\356e\327=\261\330\331\275p\304\227\274\007\201.\276\310\243\364\275\210\036\324\274\310\t\224=\3405\240\274[\356->\206U\274\275\340\237N\275b\306\335=\000\332\224\273\200]J\274\340B3\2758.\331\274P\326\320<\300\220\376\275>\303\307\275\036\354\377\275\203\232)\276\375w\265\275\000\030\003\273\303~\031>\200\211@\275\364*\013\275E\323/\276\346\322\336\275\275\2451>\026\204\230=\366d\266=\364\210\361\275!\311\025>xx\245\274\221\322*>@S5\274nd\270=(\323L=\21427=^c\203\275\376\233\253\275;t\337\275\234\252\t\276\023=\001>H\351\212<\'\247\036>\217\031\037\276L\0307=\006\324\251=\333\337&>u\n\024>\354\303\242\2759\216\001>8\303S=B\371\326\275#\023(\276@\025\234\273\370t\212\274R\246#\276\n\346\256=\027\244\001\276\366\222\356=\n\032\334=\264-\247\275\323\203\210\275\267\033\031>`Fm\275\3001\371<\222D2\276\023\223/>Z\n$\276@\215\255\273\330\362\217=\320N\271\274\324\274\010=\231\223\002>\224\237\000\276\\lL\275p\315\377\274\030Nd=z\022\271=p\255n<\354\240\016\275\300\0234;\367\235*\276\310\245.=\305\377\276\275TU\036\276\311\351\'>\337t&\276\030\363\004\276\360\025 \274+N\017\276\214\002{\275\02342\276\264\316+=g\365\033>~c\355=\020\256k<\251}\016\276\003\277\270\275\2750\351\275\002\000\257=\352\252\241=X*\010\276\331\301\013>\335y\265\275Lc\330\275\350\234\340\275\030%\332<+\355(\276P\245\336\274\336\250\240=h\252\222<\340\014H=|\367-=\360\302p\274\254\361;\275\016G\262=\230\326\032=\330\350\311\2758\267\317\274\320\360t<\370\026\n=3s#\2765&\000\276\221\304(>\000\340<=\242\254\246\275(p\306\274\330\376x=\260\037J=\232k\310=\340\211\257<\030F\314<X\352\017=\207$\">\222\035\002\276\273C\010>\036\r\226=\321M3>`\225\376\273\024\0234\275@\304r\273|\024$\276b\034\236\275\324i0\276/.\322\275\320jm\274\000\267\351\272\300\251\317\273\324\017 =\010~\r\275\316\303\237=h~\276<6U\243\275\264\255\223=\226x\311=\246\221\352\275 \364\314<|\267\210=Qg\032>\20593>\240\242\265\273\317\003\030>\202\213\356=\2168\305=|\024}=\000V\330;0K\206<a\223\031>\326\261\337=9\375$\276\346\357\025\276\261\317\000\276\234\336\001\275\226\247_\275\020\212.\274\242\300\351\275@\246\023\276@IR\274h\214o=\306\025\356=\346,\013\2762\215\240=\266v\265=\324\017g=\000T\210\272\312\225\365\275\\\301\017\276p\324\232\274\356&\230=\346\277\351=\313 4>Z:!\276\353\346\025>Pbn<\232\212\335=\036S\232=\021\t+\276\304\355R\2752\322\222\275*D\276=r\331\325\275Z=\332=\340P\356;\034\\\257\275D\r\315\275u\243\001>\302M1\276\220a\017=\320\031\357\274\210\360\260\275\026G\363=\376$&\276\252\260\213\275%8/>T\004a=\247\201\017>\313X3>\000\020\2128 \r\255<xXJ\275(\361\336<\377\000\007>@\346\025\275dP\"\276\036\321\315=\300\327\344;\034\321\'\276i\022\233\275\234\371\013\276\242\364\354=H}%\275z\237\244=l1\001\275\230{\307\274\000\211\256;nB\332\275\320\327]<\021\216(>\240i\253;G\251\r>\252=\274=\234\367O=H\026\205=&m\344=\000\244\367\273\372K\233=\020Y\360<n \031\276\020\202\315\274pe\327<:\334\342\275\200\235\274\272\0302\265\275\357\256\204\275\214\177\027\276\030\356\225\274\316\010\342=\204\212\t=z;\262\275\374E\007=>*\333=\020\217\377\275\216\277\250=\022\253\335=\343\006\210\275\243\367\014>\036\330\300=\327\3274\276Mb\351\275\274\254\206=\210\231$\276\270\014\303\275Pt\r\275(m\250\274\376\375\332=\264\274\010\276);\222\275@j\276\274\000\375:\2732a\351=cg\317\275]\230\006\276\272<\326\275N%\014\276\324+\n\275\234\0273=\352\277\370\275\236P\320=\200W\202\274\000\311\357;]\007\311\275\267N\014\276\312\353\262=\276\341\"\276\310M\306\275)Q-\276N\300\341=\001k\t>\332y\260=\325\\!>8\310\031=um\017\276\365-4>\023\350\005>\205,\334\275\260(\370<\300\340\002\273\363\230\004>\220\373\031\275\306\'\315=^h\305=@(6\274$\357\037\276\247\267\227\275\324GX\275\310g\333<\352I\344=\251\221\026>\227\3723\276Lp\023=.2+\276N)\037\276\206\020\265=\260\023t\274\320\022\363\274\030\322G\275\213\353 \2761;\'>9\276\032>\366\031\022\276\324\237\027=F \023\276\233\266\001\276\252\312\324\2758\347%\275\242\322_\275\274Ks=:B\315=f\270\007\276\354\377O\275\3138\004>\320\353\342\274\340\213,\274\273\030\264\275,\260;= \307\354\274\366\342\213=\354\205\235\275\000h]\275\240d==\306\342\261=J`\375=\362\340\301=BT\347\275\220/\273\274E\341\033>\232v^\2756.\315\275@\355A\274p\276\315\275(\303\r\275\\M}\275\200\030Y;\330\353\324<\0009\207:\242C\232=8<L\275\376C\233=o\345\003>\250`8\275\020\203l\274-d\000>x\366\356\274`\242|\275\346\211\033\276d\022\311\275F\032\337\275|\365\017=\300\272\004<<v\034\275\005G\021\276\273H1\276\300Q!\273pqT\275x\202@\275Fc\360=(\316\r\276>\300\256=\307w\236\275x\310\204<N\303\260=\204\232\031=\221\250(>-\360\036>\261\035\004>\355\207-\276\236\307\214=3\355$>e\377-\276]\350 >\340Y\276;\353\021\r>\250[=\275\315c/>m\001\032>\010\240\270\275\313G \276\223\"\r>\2708c=}\004\004>\357\330\222\275\021\037!>\250\315)\275(E\023\276\257W\010>p\274J=\310Pn=\300\037\004=D\022\017\276r\227\242=3N1\276\354\030R\275\200\255\003\275\0066\344=\2400E=@\002\307<\020\260[\274\036|\207=\302\316\262=\242\254\273\275\254\334\036\275H\213s=>i\210=x\224\300\274\317\253\023>p>\341\275\016\036\325=\322f\316\275\246\321\232=\3707\244<\n\301\353=\260\3423\275\236\303\014\276j\242\036\276zx\253=\000q\341<X\224\026\276\244jl=\365\355,>\2209K=\027\323\017>\000\370,\276\377\216\243\275S\177\023>\005\371\003>H\244\255<\000\274$\274\324_U=w \026>\300:2\276\370\262N=\250p\200<\220\351\203=\033h\036>\367\206\003\276p\342\016<0\000\002<r\365\317=Z\247\273\275\000^\353\273?T\013>\363_\024>\252C\302=^\025\357=\340\234\017\275\206(\357=b\354\335=L[\002\276t$\027\276\272x\352\2752\277\273\275\020\317\363\274\001\003\032\276B9\243\275\")\300=\302C1\276X\266\354\275\320\265\203\2756\224\246=S\364\034\276\0360\225=\002\020\340=x\366\255\275\334\277S=\251U0>%x\035\276\027\2221>\372%\352=qQ.>\350~Q\275\334\212\357\275\264\017\024\275=\302(>\024\224Q\275\372?\322=\232\222\226\275\340U\351\273#\271\032\276G{$>nP#\276\254\275&\276\025\r\025\276\267\2752>\031y\237\275\376\375\243=6q\322=\320XL\275^.\352=b\234\243=\3304\032\275\272\007\037\276x\221\326<\014\355\022\275P\325{\275\272\000\317\275\247\240\032> \207\346\274\022\224`\275\214\215-=\260\326\'\275\364\027\013\276V\r\365=\257\300+\276\300\353\252;\251`1>\271g\036\276\"J\340=\300xV<\2317\025\276\210O\237<\361\3264>1\273\026>\244\343\224\275\217_\027>H\334\207\274`5\277<&\215\231=\270\032,\275P\264\230<\330Z\320<\373G\026>\340\016H<Z\005\265=\200@6\274\374\212~\275\202J\345=\264kt\275\237B%>\305\372\017>\010r\330<Bk\255=\350o;\275\362\032\300\275\no$\276\177\355\007>x\273\377<\200\017\236\273\'\024\007>\34293\276\330\360\245\274\200\307r<qo\007>\230V\340\274hX\007=\3614\007>\360:\206\275\200\235\334\274\310\201\227\2747\273\022>v6\333=\026|\336=\322Lr\275\332\324\334=}\0000\276\332\250\270\2756\305\337=\256\214\235=+\r\034\276\014b\370\275\334/J\2750\2145\275\000\006\035=n\354\246=^\033\341=\344)O=1\016!\276fi\276\275@:\255\273\217~%>\300\305?;\357z\325\275\230P1\275NG\223=l\031\034\276\264Q\010=F\020\351=`\333%\275V\245\020\276\3743\345\275W\320\335\275\334\305g\275\"e\250=!\225\224\275\203\261\010>\230\362r=\340]T\274\302\365\371\275\004\320\225=\332N\356=\352\333\327=\276\242\244=\260P$\276\361\236\036>\342\267\236=\310o\262\275\340~\265;\230\274\320<\317Q#\276\017\305\005\276\346\375\217=u\021\202\275\303C\004>K\374\362\275\257\306+>\024\275\t\275\251u\023>e\017\014\276\262_\241=\030\223\216<\";\313= o\356<\234\0162\276`Y\271\273\311\326.>\200\367:\274\014\020 \275!\335*>@\251\363<\275\264\001\276\032\260 \276P\313n\274\227\325\207\275\200\255\237\274\034\226x\275\255\252)\276\270\203\276<\310\014\352\2740t\006\276\205w1>\213n\035\276\310X\355\275\020O_\275\024C*\276\377\177)>\356\023\277=\\\226 \276\235\017\n>\272\312\244={\036!>X\005J=\377\221\322\275\244\300\030\276lE\n\276\211t\334\275:w\351\275\344\273`=\272J\323=\013\373\026>\332B\032\276`!\261\273U\243.>x\242\362\275\2770\033>\370Hg=du\200\275N\351\227=H\352\211\274\014\002\231\275T\346v=T\343\010=0\010+=i\231\007>\022a\376=\271$\036\276\210HZ=\240H\271<\261B\">\260\303\236<t\376\n\276\035^\037>\360\216\022<P\233u\275\036\255+\2768\035\275\274\364\030\024\276\230\241h\275\256\337\257=1\006\254\275\247\001\003> \223\000<\200\220B\273\020\031\202=\217\3022>\303\025\007>d6\027=\250=5\275X\253|=\023\337.\276\332\263\274=\000\226\311:\325\246->i2 >P\017\007=\272w\233=\230\323\357<\352\267\333\275\251\316-\276\003\247,>(\242\342\275\2530\034\276\226m\372=u\241&>@\341a\2752\277\314\275x7\340< \214\243;\264\322*\275z,\316=\000,\006\272\360\020\234<\020\264*\274\014\2406\275\030m(\2766>\030\2766\230\352\275\260\272\244<!\021\237\275\037l\021\276@Gs;\362\374\261\275\240(\301\273\332a\226=\r\250\260\275\246\263\261=\265\277(>\212\241\017\276\030\2274\276\244\317\235\275\277\233\237\275g\261\010>\2103\256\274H\242\270\2740\253\274<\376\301\206=H\301\254<2\002\303=:c\252=B]\316=\264\355I=\025\3670\276\032\372\003\276B\215\304=s\362\013>\020 \217=:\202\253\275(\036\377\274\005\022 >\251\352\200\275(l\347\274\356}\276=\025s\034>\327\211#>\204_\024=@q\260\275\213\024&>\000\300\202=q\330$\276\326\216\360=\324_X\275\340\\\325;\002@\241=\334/\344\275\031D\224\275\326=\356\275c\276\036>\r\0042>\316s\246=\220\'*\274\000\330\241:\026b\370=\337x\031>sQ\013\276\272\213\226=\006O\006\276\322$\242=\246\030\334=\3157\216\275\270\352\003\275\320\373T\275\335\3232>,\000d\275\020\000\034\276Q_\242\275@:\347\275\000 \3167\003r\035>\377\025\304\275\334Az=Qx&>Bz\245\275j\326\370=K\226\005>\306\030\367=e\236\254\275p\341\315<\315\333\027>,\256\013=H.E=@\374 \276\354\2401\276\3025\340=\003Q\243\275\010\200\347<\320 \030\276\305\355\000>\016\214\002\276Z\345\357=\332>\367\275f\310k\275V\323\036\276\'\277\010>\310\335\221\274\027t(\276\330\337(\275H\006\210\274~\361\214=^\026\364=]\273\010>|1,=q\250\323\275\010\377\207\274\360\362\303\274\334\275\023\275&\207(\276\2552\030\276\004\263\005=\367\304\006>\212\360\355\275\177V\024>\350f\224<U\272\020>\204h \275\013\017\014\276$\317o=!\200\022>\230\021\206\275\023w!>\261\201.\276\006\233\304=\332\303\367=Ff\271=p\354Y\274&h\022\276\020\304:\274\307\253\'>\032\251\355=\235\267\007\276\257\216#>\0026\236=\234\354%\276\303\177\255\275\340\233\027<\263Q.>\360%\204<\305\270\000>\230R\264<D\027\017\275\023\214.>Mh\r>\000\016\301<\302/\201\275\010S\030=\324\257}=F\206\345=\216\314\227\2759\004\006>\370\033O=\236\334\250\275\023K$\276\304\212\224\275\025\014\262\275t\305\221=Z\335\223=H\347\027\276\300\334\003\275Q\363\037\276\030_\221=\340\373\254</<\023\276^\241\307=\226\266\251\275\220\035\207\275@]N\273\247:\022>\305\214(\276Dq\003\276Lv\335\275f\237\r\276\000C\022:m.\004>Hf\253<\330\315\205\274 V-\275X\350\375<\304\r\360\275`J\020\274\302\303\256=\000\276\243<\244\332\025\276\200\217=\274\244\232P\275\304\275\371\275\356b\357=\366\275\253=\250u\377\274Vk/\276\245\343\031>\\\356F=\010\254\034=JI\334\275j\273\303=x\232\006=G\226\006>WT\307\275\236\004\223=\263/*\276d\227f=\262P\203=\273L)>P\n;=\320p\261\274~\362\302\275\220\330\317<.9\354=\32792>\022T\302=\244=\246\275\320\377\"<\007\247\001>\237\023\034>L\321\035\275\230\322\001\275\206\200-\276\330\002z\275\370g\264<\201\372\000\276\374\343q=\304[\317\275@\332\n\273j\270\262=\010\366y=\217\3310>\256Z\235=\320\306\227<\242w\306=Y\032+>\354\020:\275\260\330\323<\354\3509\275\tY.>\266\376\260=f\256 \276\002o\215=\260\026\355\274t\216X=`\252\321\273&\034\224=\344\361H\275`;K=\262\251\372=\200)\213\272Pi\034<p\315Q=$\220}=[\214\001>\275)\022>\360W\025=0\244\010\274d\010.\276gv\'>\340qG<\204\226q=_\342\325\2750\366\020\274p\020|\274\274\177z=\300j\211\274\362\224(\276P\370\215=\320u\r\276\343\277\'>H\'\347\274V)\273=N\262\244=\270\275i\275\246/\265=\360\215~=\206ej\275\340\3030=d\025\003=N\025\311=\246\326\355=_\373#\276\334\301h=}\376\032>\035\177\221\2758\247\245\274\327\007\006>e\251-\276ak\215\275\236\332\361=\230\373\035=\032\037\324=\020)\312<\340\250+=g\220\032>\r\227#\276\214Y!=\177_$>\260\335\232\275`v><\350@\264\274L\336Z\275r\373\356=n\204\347=\200\272T\273\266f\250=\316\002\275=\354+_=8{\022\276X\0039=\300|P<\r\236\034>\224\221\023=H\003S\275\321\"2\276\365w!>0\316A=.|\273=\037\343\024>|\270H=%\202\025>gg\246\2750\"^\275X_3\275z\276\227=\037\271\210\275\013\224\252\275@H\003\275\330\003\302\275\350\206Y=,=\014\276:\372\213\275(\n\225\274\373C\001>\274\316\n\276\236\310\217=j0\262=\000\317g:\246`\364=\355\315\027>\005\0252\276\262\212\372=\3153\243\275\315\354\236\275:\311\344=)\'\000>\302!\334\275\331\034\001>\233\035\032>\232\210\364=\002\363\273=\216\232\331=\234\177\306\275F]\374\275\270\357\031\275]\376\006\276\356\264\207=Z\\\363=\374\345-\275<E\212\275\372\020\332=\031*2\276\236\202\006\276c\"\037\276\320\203\326\275\276\317\001\276e}\010>\242\335\227=\324\344\277\275\261!\001>\0143+=\330\346[=\262\200\233\275\244-L\275\346\246\344=\016\263\031\276}\'\005>@\237\234\275f\330\023\2764\272\007\275\265\t\216\275\332\241\324=\200\340\235;`\032\254\273\026K\241=)\245)>\320Q]<\016}\205=\370$\333\275\000`\215\267L\003\"\275\264\2221=`\315\216\273\222(\274=r\001\211=_a&\276jG\245=8\266\264\275\353\356\016>X\217V=\200\220\372\273-O\031>`\240a\274w\215\000>\242V\226=\240\035x<\234\277A\275\252\002\225\275\3725\354=\020\277<<(\270\332\274}g$>\334/\371\275V\324\242=\346\207\306=\200N\365\273U\262+>\320Az\274\000\315W:\350\264\225\274\2007\211\272bw\355\275\200\263\036<\260\274\n\275]3\"\276\254\036\326\275\204\007 \275\215o!\276\361\3231>,>\023\276,\244\314\275\034\321\233\275\340\214\327;\202\256\370=pm \274q\n\000>\010\331\272<\332\304\321=Z{\261=\237\2762>\'\031\022>\274\374\r\276\370I7\275\000>\005\273\337\002\032\276\022)\361\275F\255\377\275\340 \326\274\347\236(\276\370l\274\274=\177\202\275\000\201:\275\310\340\310\275&U\277=X\336\223=\"9\242\275\250zV=\'\300\016>\330\0271=`\304e=U#\036>@\244\257\273\211\304\202\275\327\274\207\275^q\024\276\310K\304\274H\300\235\274F~\362=\313\\4>\244\307)=N_\321=L\322\364\275j\257\352=[\331\024>\'\025\016\276\244-Y=\374\372\206=\2004^;\334\264\037\276\340\223L<\020\205\316\274\216\230\220=\226\253*\276\312(\233=\272\202\347=jT\301=h\001\265\274\342\366\016\2768\233R=\013\0202>\322\013\202=\220\312p\275\222\236\327=\306E\362\275\241,\027\276Be\256=\000h\375\274Z\262\335=\201\270\010>,\017}=\"\333\350=B\000i\275\236\312\331=\226\376\'\276\211\r\366\275\370e\360<T\372H=\014\'^\275\346\177\027\276\200\314\262\275\304s\223=\302\326\354=#l4>\340\221n\275\000\255\220:\364\2024\276\300\nQ\2748\220U=\360-b<(;\333\274 \027\021=\226S\334\275\253 \034>\245\316\001>?~)\276~\255\363=\250\240\347\274\177\216\021>\307\007$>\3005\014\275 EB\274\2654\321\275\300\357\317;\"?\311=J\017\237=\001\265\016\276\336R\325=\304\251\024\276P\212+<t6M=\362t\001\276\300Kt=\200\345\335< \022\357<H\301\360<V\013\235=\003\344\225\275\003\327\321\275@\276\376<n%\234\275\320\332\017\274`6>=\246\030\372\275\276,\340\275\3631\030>\200[\247\274\322\022\257=\353\026\336\275\373\325\014>\324VI\275\013\227\034\276\375V\225\275R\332\272=\353\222\022\276\302\336\330=P!\210\274\275j\"\276\260\372\024\276H:\200\274\220\357\361<\224\233\004\275\363\237\331\275vir\275^|\255=\316\227\220=\320\205\222\274\350&\365<\366\215\356=6\352\270=\320\370\003\276\340e\206\274\271\217(\276\250J;\275z\326\332\2750\207\003\276a\215\017>\340\243:\275\230,\355<\216\260\271\275\242\322\264\275\220 [<v\352\215=L\\\001\276\235a\030>e\271.>FI\260=\234\247s=]s\272\275*\353\311=`J\240\274\304\236\"\276f6\277=JS\362=\2007\316\273\003\016 >\177\360\235\275\270\231\256<\240u\322;\362Q\247=\316\377\205=\2219%>\374\r\034=&\324\232=\310\354\263\275\020\343\"\275P5\007\275\000\316\2139\204\034 \276\245\236\034\2764\2462\275)`\027>,\026v=\343\n\n>\032\370\355=\300t\267\275\204\233\020\276H\342H=K\014\016>\332\322\343=\303\310\024>\304+3=\274n\222\275\333>\017\276\020\277\364<\032\037\362\275a\226/>.:\227=>\313\356=.\257\236=\314\357\207\275K\r\004>\026\035\226\275#\242\273\275\343\260\244\275\270\214\t=\307\250\t>\353\201\024>q\003\020\276J\346\316=\270\255\262\275[\222\016>\346\001\351=\276\226\324=2\226\323=\210\275!\276Y%\014\276(!\215\275\002\346}\275\370\252/\275\016\313\306=\212\243\342=\217]->\232\323\271=\007\251\'\276\214\363\035\276p]\020\274t\325\210=\222\251\224\275\030b\351<\007<\030>\344U\027=\"\301\270=\2120\320\275\307\273-\276\000\177W\273\020\205\371\2754z\177=\342\262\274=xG\222=\252\177\361=\014B\031=qx\">\000NS\272\317\325\t\276j\332\377\275K%\204\2750\327\355\274\274\262#\275\340\303\013=\206\253\201=\346\'T\275X\301\321\274<k\213\275\376\021\216=E\016->\334!\356\275\034`\025\275\346\226\245=\340}\232;\264\343u=\006x\004\276\214\253\016\276\203\230\005>\206\035\353\275\377z\212\275<\204W=\326\301\323=Ls\001\276\n\255-\276g\226\005>\0201_\274\271\n\305\275i\017-\276\203u\316\275&\242\271\275n\324\272=\342z\253=\267\010\377\275j\254\025\276k~\265\275\031B)>^\212\037\276_+/>\274E/\276\340^/\275w?\016>vN\340=2\352\264=\273\n3>\240(\305\273\241H4>1\316\357\275\342U\350=PS\235\274/0.>2\240\276=Yc\034>\300Uv\274\026\224\325=p\205.\276@\2400=\022_\250=\3114\307\275@\263V\274\2425\227\275\360r\347<@\204\273<\3266\234=\242\223\226=\360uN\275\340\315\204<;N+>\332\242\024\2768K\202=\025\242\213\275e\264->\334k}=@>$\275\370\r\253\274\367|\022\276\036\014\'\276\220:\272<\032A\004\276\337\007+>\207J\016\276\312y\215=\221\324\014>c\'\003>\340\360\027<\332\205$\276\352\020\332=$\220k=`+\342\273\337\354\246\275K0\021>s{\235\275\260\252\337\274\3760\244=C=\001\276\352\006\350=!\315*\276\320`\216=:\275\007\276U6\024>X}\013\276\200\3241\275\361\000\221\275l\263\313\275\002\347\255=\274\212+\276F&\206=OC\r>\310\252j=\226Z\325\275\000F\023\275x\237P= \342\270\275\337\324\'>\225\031!>\340:\250\274\020\371(<\234\013\r=|qv=\016!\330=\017c\026>\230e\010\275J\355\362=p\025t<Z\320\213=\002\342\255\275\250k\317<`\234\264<\037`\021>\323y\035>\354\363\021=\360\2751<\033\315\006>\010\372\311<\010\224\303\274\225I\312\275nM\217\2757\216\230\275\034M\204\275\030\202\002=\240w7=P\250I\275\264\3604=\250\316\213\274\231\221\271\275\nw(\276t\217\032\2760\225~=^\331\370=\360S\034<U\3001>\245\274\347\275\222\331\217=\240\003\004<\266y\207=\352\210\013\276\177\354\320\275|\326\201=98\270\275\336\252\247=4\200\023\275m\031\037\276\377\260\034>ZQ\341=\346\300\367=\272~\032\276\"\210\307\275X\312\345<\2034\205\275\021\323\214\275\367/\334\275Z\024\271\275SE\010>\314\330\223=A\353\003\276\022y*\276\312\334\022\276\010\311\367\274&2\313=\224\320\305\275\237*\024\276\016\240\'\276\203\201\002>\226\331\371=7\207(>\266\314\260=\357m\031>\270\001\252\274\376a\375=\315O\331\275\231\204\204\275%\024\025>\277B\221\275\227\362\211\275h\372\257\274\260\235\023\275\210FO=\362\r\276=Z\236t\275q\273\031\276P\002\241\275_\005\206\275]\3363\276r\032\010\276X\016Y=p\246\212=q2\361\275\240t7\275@\353Z\273\364\3603\275\314\224O\275CS$\276\030)\\\275v\204\264=\3032\237\2756;\273= *\021\275\'O/>\220\007 \275\223\203\304\275\243\310\032>\3056$\276V8\017\276n\335\317\275\342K\206\275&\313\300\275t\020\366\275\026c\374=\3708\026=W\322\014>p\037\021\275\224\326\376\275\010\305C=\340\323\245<G\215\t\276(G\224\274\244\323\001\276\320\002v<\220\t\025\274 YT\274,U]=\364\230J\275\340\020y\274\252\027 \276\200\264S\275\360\035s<|B\210=$\345t=\266\027\316\275\023\200\">\000N*\273\300\216P\273\2713#\276\240\274\305\274=\375#\276\316\025\266=\300;\250<\311\234\226\275\000D\3779\000\004W:\210\276\251<\256\235\\\275\204\017\016\275e\010\007\276`\252\216;f\261\344=\376)\377\275\323J\237\275\363\303,>;= >53\373\275t\003\037\276\006\223\345\275\213\332\227\275\000?k:h1\207\275\n\177\333==\313\021\276\273\'\000>\344\242<=rd\331=\360\247\374<\374\034\225=\260\206\346<p\261\335\274\300e\244\274\340\341b=+\030\014\276\371~\250\275\306\014\360\275\202t\225=\024a\377\275\344}\260\275\000&\351<\210\037\224=\300\265\370<r\231\251=z\036\353=\361\016\006>\370\367\\\275wr\033>\301J\217\275\230\321\212=@\240\";8\321\216=\360/\024<\223\213\026\276\336q\000\276\232B\322=\250\257\272<\232\317\244\275NL\357=\200\375\205:\372\351\225\275\200\377\347:`\225P<\335E*>l\242M\275S6\002>\357\201\037>zq\352=\373)#>\"~\374\275BH\244=\320}\327<@\037\226<o\3733>\222>\241=ru\202=\3542e=\240\335\376<C\0030\276&r~\275JA\356=\0361\005\276$\271\017\276\241 \235\275\236\365\221=\242s\233=@\237|<\300\354\335\274\334X\007\276\370\260\373<\017\376\205\275\261\335\025>\332#\226=\327\266\232\275\324\257\213=\300S\240\274\023\035\'\276\020iF=\236\t\216\275\355*\231\275\200|(\275\375\\\206\275\324S\013\275P\222\247\275.\320\276=\250\222\330\274 ()\276\010\230\002\276\242\005\312\275:\027^\275&M\347=\330D\351<\245\260\013\276\021$\270\275\276x\201=\252,\234=}\262,>\330K\233<\254i\016\275\030=)=\013%\021>\315\225\025>\300\254\222\273\3602\252\274\313\255\022>\222L\347\275\271\360\017>S\263\032>\270\362=\275#\224\032\276\t\t\014>^\212\235=\366\"\325=\237\026\001>`\004\223\274P@\021\275m\262\210\275<\346\037\275\000L0\271w\321\342\275(7+=\230\275\001\275\260\214\206\274N\317 \276\370\372\345\275\376R\313=\336\003\347\275\325e\335\275\\\206#\275\220\261\030\274\325\032+\276\247\313\030>\227\245\002>\234v\020=.e\034\276\200|\332\273\212\224\245=xdU=\022\236\335=P\004<\275@\354{=\246\247\372=kv\250\275\340\022\277;T]\022\275\240\237\361\275\207\350\">4\n\006\276\371]\016\276\214\251K=PE\373<\340\004J\274\230H\316<:\247\001\276<\004?\275\3301\205<\377\247\014>\0008\211;^\302\253=\000\227\t\273\024W\021=\376\326T\275\225\326\036\276D\375*\275hR\025=\350\312H=\226\235n\275\341=\346\275\350#V=<\032\034\275`i\251\273\030\334(=/2\021><q\226\275\365\214\337\275\340a\353\273PS \274f?\217\275\177\344\002>\347\003\231\275\321s\024>\320\307\017\276\234^y=z\004\345=\214hf\275\220\027\177\275\206\300\273\275o\234\t\276g\3071>q% >\345+\032>\246m_\275\270X\315\274\255\232\037>\343\356->X\245\223\274\360\253~<\026\022\335=p\212G<X%8\275\300\347@;\340\376\315<#B\000>\204\036!\275$\326-\276\033\004\255\275\354\2306=\224\250x\275z\001\340=W\321\035>\230\263\363\274sF\336\275\216\373|\275\r`\323\275@*\027\276\007\t\324\275:>\337\275x\037\021\276\300n\020=\252j\377=\204Et=\271\3453>\273\2171\276\020\022\201=[\325+>{\300\n\276U\302\017\276\010\213y\275X\313\306<\366l \276\230\237\'\276\312\n\212=0a\344<\320\311\252<<\333\027=\352H\214=\275\335\035>Byv\275\000\377q\273\220\313\357\275\246;\034\276\"S\306=P\340\n=\250\275\306\275\026]\204\275@!\212\274\266\346\312=(s\225<\253\313$\276\362\304\340=\030\236@\275\227p->>\255\000\276\340\2435<\202L1\276Rt\322=\251\214\225\275\320n\031=\254\313\212=\351\251\274\275+\327\007\276\364\211\202\275\264\001\002\275S\323\017>*w\355=\325\2024>\262F\240=\212\001\341=pP.\276\201p\005\276\240\266\016\274h\236>=\373\0301>\000\360I= N\365\273\244\325\212\275\222\367\365=7\025\004>\000\200\272:\271!$>\374\332E\275pR;\275\r\365\024>\247\323\001\276\300\177\026\276To\023\276\302\364\371=\336\304\374\275 \234\r=\004P\374\275\210\n\031\276\0327\310=Rd\370\275\212\221\304=<Q_=\274\021\"\276\273\375\310\275\326\356e\275\275\265\033>\t\000\006\276\210\306\305<\"\246\205\275\274\030L\275G\305\361\275\350\3523=\223\376\245\275l\276\000\275\276\224)\276F{\020\276\032\250\242\275\001l\020>v\227\347=\352I$\276\246\305\345=y\036\312\275\260/\030\275\232\371\214=\204\332\354\275h\303\222<\311\316\025\276%\305\027>\022!\027\276eV+\276u:\"\276\205)\t\276\342\003\313\275\2656\235\275\372t\307=ea\017\276\244\247\341\275F\014\373=R\214\276=\310\0069=\017\353\004>\3141d=.\343\316=\240\272\277\275<X\212=\014\027\316\275\206 \351=7y3>\036>\250\275S\263\342\275<Y3\275\2427\274=\312\263\212=\025\014\340\275\007_,>\264\\2\276(\241\252<\356\216\314=\024\277}=\030\007\336\274\375\025\227\275\232\257\005\276\200Ys;\300\030p\274\366\316\270=E\302\">R\024\035\276\362\226(\276^\304\372\275\001\036\003\276\207\331\035\276\236\244\246=?\333\032>\0300$\276\000\017\263:\277\366\036\276@\220g\275\333\025\r>j\354x\275\360Ov=\0321\233=\340\003\346\274\236\236\332\275,T{\275\252\200\277=\264\333\200=%\202\204\275\211\271$>xZ_\275\234U4\276\226\350\261=\226:\321\275\361L\r>\350\225\205<\371\316\007>PA3\274\254S`=\204\r\030\275\227H\004>\202}\265=\254\225\035\275\310\3329\275\236L\377\275\232\223\314=w#(>N\213\326=\260\377\027\275]Z\201\275\234\212\307\275\020\005\023\276\352\216\345\275\214p$=\242\240\373\275\000\310\343\274=X+>\366\t\277=B\313\254=\300>j\274\350\010!\275`=\257\273\030\345\213\274`\307\306<\205\234!>\300\307\002\274\370U\210=E\001->\250\265\215\274\022\037\353\275\340\337\365;\320f,\275(\t\363\275V;\205=\000\\W\271\252a\330=\272\340\343=t\327P=|\241 \276\002\017\322=tGi\275IU2>\266\262\320\275m\302%\276{\211\022>\200\254\035<\242|\252=\260\230\352\274\232\213\010\276W\262\224\275\245\\\025>\334\305\275\275~\021\225=h\2077=\364\341%\275\300\206\033=\340\017\201\273\266\257\026\276\322\360\226=\371K\014>\000\rD\274 w\353;\365\330/>J\355\342=q`\013\276\274\376b=\200\341$\275\234*\'\276QH\024>pI\331\275\004\010\022\276\340\346\216\274L\373\033\275\311\2710\276\321\350&>\340\277\216\275\001k\331\275\n\306o\275\310\207\365<\200\027V<Q\313\032>\356\371\372\2754*\306\2754\021b=8\362\252\274Ln\007\276\2037\264\275\250\242\013\276\367\2123>\251}\014\276\240\016e<\000\027\233\273\005\257*>|S\227\275\214-\201=\320\277+\275\232\265\222=d\026V\275\340\t\003\276\300?h\273\251\030&\276\334\374\021\276\274b\222\275\362\026\310\275\220*\246\274\232L\221\275\204=5\275\353\261\225\275N\211\204\275\263\262\036>pM:\274\2005\301\274\020?T=\210\347\300\274`\321\246<X\261\321\274\236\021\250=\360\236[<^9\325=RO\303=\203=#>\261\300,>\340Q\001\276#p\344\275\260\261\241<j\n\264=\354\245\214=6%\023\276F\364\215=,\2159\275>\377\360\275b=\337=4\r\314\275x\3742=\260\265*\274\036\220\355=\306\360\301\275\334\352E\2758\002#\275(\213\333\274m\202\356\275nA\333\275\204\344f=O\007\'\276\037\205\t>\235f\361\2754|K\275\017\003\">\231{)>\230;,=\201\3062>\334\'\030\275\313=\205\275\257x\025>\033\026\036>\361c%\276 4)\274\331H\355\275\010\265e\275\300\237m\273\260\341G=\316\236\253=\357\277\005>vz\207\275xOo\275\246\230\270=\230\274\334\27529\273=Rb\233=\200p\024\275R\211\314=\205\032\004>\030s\231\275x\013\363\2740Xo\274~\261\226=0\354\001\274\204=\003=5\304 >\340?\223\274\334\362H=\346\261\323\275dI{=\220\t\261<\022\336\266\275\312\006\234=\272n\313=\306\232\233=\227\223.>\373\026\017>k\251\034>\354\0332=+\361 \276p#\214\275\000@\0167\254\013=\275\026\236\275=4\267\016\2760\3028<`\201\216\273\354<{=g*\213\275;\312\354\275\277\236\240\275W?\022>\006{\235=\020D\036\275\020V\254\274\240\344\r\276#\343\275\275T\346\032\275\300\031\026\276%\\3\276\361V,>\032T\244\275\202b\230=\330\316\256\275\021.2\276\363\346\345\275\224\303\037\275\2022\250=*\227\261\275\031\351\031>V}\327=,\013L\275\034\234\235\275\202\252\320=\024I\223\275\240\026\010\274\260;8\274\200^\246:0*\r=v\336\034\276s\226,>\000Uq:\333\264*\276\000>_=\300k%\276\204\200\021\276\352I\271=\352\006\301=^\321x\275\336\246\341=\003+3\276p\321\355\274U\023\">\264\\f\275|g.\276\351B\000\276\216u\327=\342^\350=@\333\364<*\3361\276\200\\\266:\360\243\246<\360\213\030\274\354\t\017=\321\310&>&+\234=P\246#\274\340&\351;\031\350\000>\3673\027>\243\334\032\276x\034\001=p\\<\275\261\305.>\200hc=\030\267\260\274\256b\037\2768\227\035\275\324\273\021\276\350\360\372<\236<\336\275\252\"\350=\254\007\022\275\240+\361<\2643*\275&\377\334\275\243\233%>E\224\003\276\363\357$>x\344\337<JE\327=Wt\020>\022\213\273\275\236\210\320\275\177\0161>\347\372\215\275\037\234\037\276\225\016\t\276\030b\r\275\225\376,\276\032D\223=\250is=\260\355l\274\005\204&\276\220;\375\2748\347\233\274@\251\'\276\250\337\273\275\243\n\321\2750\374\031\275|.J=\313\340\'>h\261\362<\000\233,;l\253~=\203\314\006>\003<\022\276\006\341\256=\272\371/\276\354b)\275\375\"+\276~\373\336=\210\356\226<\014O\'\275H\265\020\276\361\236\'>@\267\213\275\004\366\257\275\220W\231<^\241\251=\300\252\010\274\214;u\275\\5\'\276\000\264\277:@\277\211\274\205\3274\276\216\016\365=\371\350\311\275\237q&>\314\236X=/\237\'\276\260\347\356\274\250\033\"\276B\267\263=\000\351\":\373\272\'\276\322\256\363=\376\315\346=\364\036e=\3509M\275\310\367D=m;\205\275j\352\022\276\002\343\201=yo\020>AQ\353\275 \246\307<1\3442\276nw\366=\267\243\003\276\340\334\237\273\360\334\010\274T\252g=\306\271\250=\344\023==\017\211\021\276\023\323\237\275\222\261\330=T\016\003\276\200X\360\275\010=\013\276g\004\003>\331\336\003>\244\375z=\232k\264=\200\034\301\272\010\224\334<\327\377\004>\334\305\212=\021\332$>\370\234\030\275@p\016\274\200d?\274\364\004E\275~\313c\275>(\302=\027\0140\276\377,\020>\"N\275= i\335\275F\342\351=v\354\370=\343\"\313\275\216\307\235=\340\005\\=\232\000%\276\035\021\236\275\236`\264=\210|\326<\2268\262=\260f\340<s\306\350\275P\3652=\035\244\022>\034\274X=p\035R\275\270B\000=<&\013\275P\374\300<|_\005\275D\025&=l,\356\275\0002h\272\240\302\307\275*\307\035\276p&\215=\001\271\024>?i)>(\r\251\274U\342\035>\252I\335=\322\347\224=\257>\014>r\202\222\275\2203r\274\274\336\210=\366\373\332=\234\034&\275\231Z/\276?C\357\275\310\n\331<H\211h=\335U)>\215\335\315\275P\262\225=(\r\346\274\265.\035>\225\241\t>_\311.>E\244\013\276\316\212\345=+\353\013>\200\276\260\272\230\330\255\275@tb\273\262\220\301\275\331\361\266\275\"\314\217=X\350\307\275D\347\t\276\005\007\256\275\301\241\037>\210\307\035\275\016\352\006\276\214v)\276\231\363 \276\306X\362=p\000\030<>c\206=\232T\226=Q\215\260\275\265\324\240\275\r\325\000>\0305`=\021i\005>\202g\367\275\307 %>\247\0231>\030\257\\\275.\323\007\276\370\345\363\275\361#0>\316\374\341=\334\237\304\275\200l0\276\010\217\004=\3520\306=<\232a=X\241\221=,\014\027=*3\341=\366\356\300=\202\371\377\275\237\031\320\275\266\311\263=(\214\234<\231K\027>\302^\326=\322O\010\276\000p\2329\276\254\331=\020\264K<\310(\006\276\370[o=P7w\274LN\005\2759\014\275\275$\220\034\275^[\371= \"!\274\" \336=\013\343\022>\312\360\324=\344\372:=P\331\r\276z\262\021\276\033\025\017>4\215\026=\377\007\t>\303\267!>\210\007;\275\330\'\037\275HY\t\275\010\025+\276t\370\214\275\0043\017\275\270\022\037=HaP\275a\210\010>\261\344\005\276\323\013\374\275\362\216\357=\260\230q\274p\306\022\276\212:\243\2750X\007\276\210\003\325<\335o/\276\\ g=v\201\234=\005\277,\276\201\253\024\2764.c=\257\3214\276\221\312\n>2(\235=B\201\257=\334\0248=\\\234\023\275uT\004\276X|\271\274\323&)>\344jY=\230\331\032=\024\010%=\371b->\370\"\275<\232\343\245=\310\207\336\274\273\001\r>8\033n=n8\224=\222<\031\276\n7\323=\000\036\202\273@\242I<\207\334\025>$\017\002\275\221\266\013\276H\033!=\365\260\027\276JG*\276\2318/>\377\205\024>\316\245\274=3K,>\033\271+\276\004\253\037=&\225\035\276\374\2522\275\222\355\347=)\333\343\275\346%s\275\340\257\017=\002\006\237=t\350<=\316\351\203=\202\227\232\275p\rp<\033\312\003>\342\221\003\276\200Z\314\272\253\350\304\275\242\330\312=PHU<\215\303\256\275\250pw\275u\264 >0\267\233\275\201\033\355\275\240L\354\274\022\244h\275\262\221\260=\363\203\017>\260Y\361\275\300x\216<\020\237D<\223\351\342\275(\270\030\275\336\303\207=\177@,> \352,\2756\324\321=L\351\251\275\366\313\212\275\036A\276=q\177\026>\034\t\013=\302_\r\276\370\276\352\274\316+\353=\214\033+=JJ-\276\200\366\271\274\204\025D\275$S\014\275<\2701\276\332\310\246=&\261\016\2762\231\313=\272\260\267=\264\304\035=@\036\";]\"\027>\030J.\276H\330\351\274d\365A=\270\324\251<\240p\225\273D\370\006\276-\360\353\275\313\243\034\276S\n\014\276\353\3620>\034\010\n\275\250\023\206<~(\235=\277w\025>(\232\377<\257\363\016>r\365\n\276\000\271\370\275\261\350\310\275\370|\366<\324\024\355\275\010\226\025\276b\370\267=:\311\205=\033\"$>\\\032\036\276!\361%>\342]\307=I\177\367\275\250\353\036\275\350_B=\300\334\356<y\2433>\300`\355\273(\017\304\274\210!\021\276\252Q\276=<\325\010=\347\314#\276\3000\017\274N!\332\275\002\237l\275\023\216,>\262\307\370\275\2255\032>\301\036\251\275\365/\035>\240y\224<\200:\000=\004\2722\276\322\307\277=\265\360,>\221\245\024>\240\017\202=\\\033@\275\347\336\030\276\220\234#<\177e\233\275r\003y\275\t|\031\276\"Hw\275z\304\357=\323\316\003\276\253\177\221\275\343\022\303\275\331&\217\275X\025\341<\243H\000>\233\036\312\275n-\345=\257\366,>\373\247\026>\236\322\235=\000\304\363\273\340\003\274\275\204m5=(\356\316<\202\265\257=\250\3760\275\002\214\202\275\021d\036\276\025\305(>\306#\030\276&\334\337=\260\274}=XO\346\274Vr\316=\000\335x=\302\t\325=\200\307s<CO1>\204\374\204=\304\215\221=\"\n\356=\"\327\365\275\320\364\302\275\265\3420\276_\025\264\275M\006\233\275X\031\326\274\032~\307=\332P\355=^\201\002\2768[\273<Mo#>\240==\274\331\032\207\275\310S\221=c\344&>\246\246\334\275\214\314\014\276|\021\247\275\221o\034>8<\201=\277\235\035>X\300\213<\344\007\032=(\321?=\336\023\245=\311\300 >+ \001>\2055\370\275N\353\364=di\310\275ex \276v=\252=\360\237\306\275\354g\'\275do\302\275,\317\035=\"D\020\276\253C-\276\243\307\277\275|{\t\275\212j\250=\352\234\275\2758\007\036=\252\267\220=\222\244\313=\360\262\013=\251\325\002>p\224\321\274\300\006\"\275\240\355\210=[\2141>B\304\033\276<t =\372\211\223\275\200\2222=\300\271\361\274&A\226\275\273+3>\000\317C<\t\2501>`\224@=*\202\235=A\321\n>\315p+\276p\304\260\274bs\204=)>\027>\267\017\260\275\034\000N=\230b==OZ\375\275T,\250\275\232(\303=~g\340=\345\262\003\276\320\000\361\275\210\377\216<\230R\240\274\352\'\022\276\220}\315\274\313_1>\000\247\234\272\377I%>\020\202\272\274:R(\276\250\211W=\336\345\277=P\372\314\274\216g\212=@\337\305\275 \253\024\274\334\030$\275\340\002G<p1\212<\300\347v<n\364\276=@\261\036<\212\020\274=F:\206\275>D\232=\200\036\344;\230|M\275N\210\304\275\320\022\005\275\251v(>\233~\"\276\213\204%\276/\265\020>\311 %>\202\254\362=%\200$>\243\303\004>\374%/\276#r\022>(\n\"= \320\200=\352\304\370=\262\372\206\275\257\323.>\332\231X\275V\257\327=\200\324O<1.%>\311\354,>J\\\332=\255\237(\276>\037\020\276\305d >^\036j\275\223T\034>\311\246\224\275\377\n >\322\242\232\275\356\2002\276\240\254?\274u\0035>@\225\013\275\200\306\274<4\212%\276\327J4>\336\204\224\275\227\377\027>\330Z\n\2768\237\201\275\224\227T\275H\256x\275tH\037\2750F\276\274\2068\005\276\220\0254<m\001\">\326\301W\275z!\255=<\254\215\275\266\244\247=b&\207=\212F\004\276\244E\'\275\n\223\267=\337\241$>\230!\350\274\246\341\303=\320\347-\274x!\014=z\367\246==c/>b\346\324=\347\254\031\276Kq\275\275\2443!=\335\360\003>I\3163>\205\031#>s`\016>\306\213\352=\035\233\355\275\334^&\275u\2361>\307\317+\276\020PO\274<\214+=NI\352=j\345\365=lG\212=R\020\366\275\215U\033\2764\027\001\2759\311\270\275\300\320\002<\371<->\314\016<=\256R\324=,\335\027\276h\334\243\274\275N\026>i\255\252\275\374\220\270\275\240uS\274\010B\325\274\002?\304=\225~\300\275\331v\001>\246\365\337=\017\2612>\t\230/>\303\361\032\276\2204,\276\215\362\r>\276Is\275\357\215\254\275\013\247\006>o\256\'>\2561\362=r\n\335=iQ\004>\3677!\276\2401\323\275\330\007\t\276\241>\022\2760<\326\274s>(\276\n\031\347\2759\'\025\276\023=/\276\013%\t>2S\021\276\000@\372:X\223\337\275\220\225!<pg\337\275\230R\367<4\016&\275\330\177\032=>\307\214=\306\206\326=*\315e\275\257E\362\275 \332\366\274\314\231O\275Dk\001\276\230*\022\275\215\332\">x\213\221=\000\306\316\2734F\013\276vB\300=\235A\006>\234\036#\276\255d >|k\237\275\265m#>\344\2240\275\334e\032=\2403\002<\364\207\335\275\312G\235=C\353\313\275\224\303\375\275\330\257\340\275`v\221\273(m\245\274p<#\274\234\n\010\276B\211\362=@\027N;\341y\037>*\221\201=\356\003\360=\302\035\004\276\322\036\224\275\0105\036\276\344c!=\336M\354=\336-\372=k\210\010>\367\"\007>d\006\016\276\256)\n\276X\346\236\274>*\204\2756o\360=`5\364;\014\026\001\276\034&\252\275\377A\002>\007\301\020>w\020\027>\303>\005>6\203\017\276,e\014=X\014\315<\200\363\224:\351\335\034>\240WI=\273O#>f\273\372=\334\177E=\336*$\276\317\247\004>\000\300\214;S\000\277\275f\332\367=\324\252`\275XO\355<lah=\226\014\210=H\022\257\275I%\270\275f\002\302=\002\024\017\276\202$\217=\216\350\216\275\3428\342=\262f\017\276\030i\213=O\301\326\275\252t\002\276H\330\334\274\213X\364\275\365\322\020\276 t\251<\"\245\004\276p\2068\274\034\032?=\2642\320\275(H\037=>\236\261= \226\247<\030\217\237<\016\322\260=J:\320=\004X\n\276D\356\007=y\236\'>ta\357\275\220zM\275\310\355\031=\302\3011\276\260Cp<\341\3254>\224\000\026\275@\267\252<\000`\223\273\000\225\021\276\230??=E^\n\276Xw\313<Py\023<$%\213=\316\336\334=i\003->\361\374\013>{U\013\276\r\2751\276\372Y\351=\332\370\006\276\340\2065\2745/\026>\252z\302=6\031\256=:\'\261=\363\272\005\276e\347\001>\3709\337\274F\275\225=\274\344s=\326\304\375=\203\004.>\200\006\226;p\276\007\274\003\215\257\275\262\265r\275\r\234\037>]y\035>y\341->7M\352\275\222\004-\276\207/\276\275l\016\307\275.\007\220=\246\257\375=\243u\000>\3765\200=\276\242\323\275\213~,\276\330W\212=\242\204\331=\212\240\325=5\004\026>\313\373->F\375\224=49P\275\210B\203=\277\002\226\275\240H@=\267\204\017>[\376->p\224Q\2750`\342<\200\0236\275\352\373\357=y\370\036>\336O\277=\033p3>j\367\361=Z0\202=\362\023\375=\033)0\276P\2210=\265\241\n>~\301]\275Y\373\210\275(r%\275(\n*\2760\227\006=\327\3063>\340\306\260;\241\355\022\276-s#\276\320\303\314\275\016\026\230=\0008G\273\007\372\000>\242\030\214=5\3241>\356w\356=\240\207L\275\254\353\212=X\2160\276\250\354*=\000\240\360;S\232\261\275\202H\353=\253q\031>^\\\316=\270(\017=\275\035/>\271\334\276\275\324\261\351\275\360\327\325<@\353\342\273\024\230\'\276#\3730>9(\031>\2603?<`K\245<LVa=\300$}=\310\227\004=\037-\213\275\263\210\367\275Q\203!\276G2\033>\214\\0=\365\330/>@\"\267<\003\t\034> 