node {
  name: "x"
  op: "Placeholder"
  attr {
    key: "dtype"
    value {
      type: DT_FLOAT
    }
  }
  attr {
    key: "shape"
    value {
      shape {
        dim {
          size: 100
        }
        dim {
          size: 16
        }
      }
    }
  }
}
node {
  name: "decoder/conv2d_transpose/Shape"
  op: "Const"
  attr {
    key: "dtype"
    value {
      type: DT_INT32
    }
  }
  attr {
    key: "value"
    value {
      tensor {
        dtype: DT_INT32
        tensor_shape {
          dim {
            size: 4
          }
        }
        tensor_content: "d\000\000\000\004\000\000\000\004\000\000\000\010\000\000\000"
      }
    }
  }
}
node {
  name: "decoder/conv2d_transpose/strided_slice/stack"
  op: "Const"
  attr {
    key: "dtype"
    value {
      type: DT_INT32
    }
  }
  attr {
    key: "value"
    value {
      tensor {
        dtype: DT_INT32
        tensor_shape {
          dim {
            size: 1
          }
        }
      }
    }
  }
}
node {
  name: "decoder/conv2d_transpose/strided_slice/stack_1"
  op: "Const"
  attr {
    key: "dtype"
    value {
      type: DT_INT32
    }
  }
  attr {
    key: "value"
    value {
      tensor {
        dtype: DT_INT32
        tensor_shape {
          dim {
            size: 1
          }
        }
        int_val: 1
      }
    }
  }
}
node {
  name: "decoder/conv2d_transpose/strided_slice/stack_2"
  op: "Const"
  attr {
    key: "dtype"
    value {
      type: DT_INT32
    }
  }
  attr {
    key: "value"
    value {
      tensor {
        dtype: DT_INT32
        tensor_shape {
          dim {
            size: 1
          }
        }
        int_val: 1
      }
    }
  }
}
node {
  name: "decoder/conv2d_transpose/stack/1"
  op: "Const"
  attr {
    key: "dtype"
    value {
      type: DT_INT32
    }
  }
  attr {
    key: "value"
    value {
      tensor {
        dtype: DT_INT32
        tensor_shape {
        }
        int_val: 8
      }
    }
  }
}
node {
  name: "decoder/conv2d_transpose/stack/2"
  op: "Const"
  attr {
    key: "dtype"
    value {
      type: DT_INT32
    }
  }
  attr {
    key: "value"
    value {
      tensor {
        dtype: DT_INT32
        tensor_shape {
        }
        int_val: 8
      }
    }
  }
}
node {
  name: "decoder/conv2d_transpose/stack/3"
  op: "Const"
  attr {
    key: "dtype"
    value {
      type: DT_INT32
    }
  }
  attr {
    key: "value"
    value {
      tensor {
        dtype: DT_INT32
        tensor_shape {
        }
        int_val: 1
      }
    }
  }
}
node {
  name: "decoder/conv2d_transpose/conv2d_transpose/ReadVariableOp/resource"
  op: "Const"
  attr {
    key: "dtype"
    value {
      type: DT_FLOAT
    }
  }
  attr {
    key: "value"
    value {
      tensor {
        dtype: DT_FLOAT
        tensor_shape {
          dim {
            size: 3
          }
          dim {
            size: 3
          }
          dim {
            size: 1
          }
          dim {
            size: 8
          }
        }
        tensor_content: "\204`z>49\214=9\030\036\276\200p\312\275\017/\206\276 \2029\274\000mh\276\032\t\211\276\016\273\">,\333a\276\320\317\207\276\204\024\357=v\017G>\020)k\276<p\377=\3179F\276\230\204\230\275\010\226\030\276\240\300\264\274\035\tP\276\372\3112>,\344K\275\214`\002\275$\255\373=\004\307,\276t%\205>0=\207>\220$\206>p\007\362<@\255\340=2\354\203\276R-\001\276\340-\316=\344#\203\276\233\214t\276txo>\276*Y>\2008\350\273N\033\210\276\272_\224\275\274~=>\364\010\265=\304\014\306=\314\221o>e:\203\276.>[\2760\2706>\334y\233\275\374Sz>\036\362\253\275\250\224\352\274\350\014\200=\000\344<=\236Q\277\275\304\206&>.\227\035\276|\367\367\275\240\256\353<\026\327\031\276\034\326\345=\004G\244=\244y\260=\364\204\212>\214J\033\275\277\331Y\276\346zG\276<zq\276L\205T>\256\204z\276\000\t\207:\004w\202>\240\377\364="
      }
    }
  }
}
node {
  name: "decoder/dense/MatMul/ReadVariableOp/resource"
  op: "Const"
  attr {
    key: "dtype"
    value {
      type: DT_FLOAT
    }
  }
  attr {
    key: "value"
    value {
      tensor {
        dtype: DT_FLOAT
        tensor_shape {
          dim {
            size: 16
          }
          dim {
            size: 24
          }
        }
        tensor_content: "\224%\305=\032\007\243\276\2160\264>\335\335^\276\240\307\211\274\240\254\373\274\320\r\272\275\264\221\005>\006\375\236>\266f\245\276\372\252\215>\\\270A>\240\005\276<\000\227\374=\314\\o\276)\n_\276\000\005\273\276 \352l<\200\365\225\275\317\274\255\276\250\323\360=\250\025G=\266\025\265>\227\336o\276D\007\377\275\270cz>\375\226%\276\244`B>(1\034\275\203@P\276\234\232\210>\212tL\276\302\231\241>\010[\r=\177y\264\276B\325U\276V\260\264>\353\027a\276\222B9\276\364\022\252>R\023a\276\214d\235\276Pd\306\275\360\332\374\274hy\240=\020\224\314\274+\304\202\276\211J\210\276\254\314\276>0\t\315\274\301\3135\276(\252m\2752,\264>\210-Y>\330eM>\034y\253\276|\354d\276\300\263\362=\372P\272>| \233\276\214V\201\276\0248\336\275`D\016\275;\333\246\276\355\241/\276\342O\221>\214\225\005>\202\275\303>\n\031\212>3\320\252\276\336hb\276\034\204\236\275\004\245\301>D\010s> g\014\275*\276\213>\330\230\217>\004b\221\275p\226J>\316\213\205\276*0\305>D\305y>\360`\204\275X,d>\310\373\213>\230\307D=P\315X>td\033\276\210\233>=\234<\345\275\200\244\255\275L\220\017>t\206\202\276\214QN>0\337y\276\363G)\276\240:Z\276d\356\362\275HJ\t>\310}\205>\374\024\211\276\010\006\312=\324\346\373\275p\006,=\200P\002\273\254\275,>\254l\313=\214\n\'>\004\242\'>\034\372\037>\010gf\275\240\020\352=P\206S>z\000\227>\340\205\t>Di\215\275\"fE\276\234\t>>\330\365\206>*\351\251>\021x\263\276(\240:>\010\224\230>-T\241\276 \235\001>\254\366Y>ew\022\276\2173\244\276\205.&\276\374B\014>\014\035\272>\310\033\207=\242\200\271>\330\342v=\000:\205\276\010\';\275\220i\'\276\372\275\305>\024\317\245\275\014]V>\250\306\000\275\354L+>\206\023\301\276\240-Y>_\023s\276\370\343p>\340:T\2758\353\022\275`\3209\2753\353;\276\200\243\027;\350-\351\275C\355|\276h\372C>\240\211\254\274W/\024\276\320\237\027=\0307\302\275\354\202B> m\373<\252`\257>b=\251\276\nN\260>\244\332\254\276\340\214\t=x\313R>`\246\223<\347\017\254\276\004\213\201\276~\206\260>\240\302\256\276J^\243\276\"I\267>P7\263=\234\342$>\240\2617>\220\002\213= \035U>(\365\267=\346K\210>\2343-\276\235\005\275\276\377\307y\276\324\236\313=DJ3\276h 7\276\2562\202\276\332\t\215\276\224\275\240=h\3104\275p,\274>\200\243R\274\360\364s=\016\220\260\276$\325s\276$\3019>\366\277\225>\200\000\216\273XO8>\276\212\240>\370\014\255=\264\276a>0\346\330=f\007\302>\320\351L=\304\373\221\275\027|c\276`!W\274\320 6>j\267\271\276\341n\301\276H\263\254>\260L\277\274(g\234\276d\227\257\275@\337\270\274\262\360\237>\030LK=\202\273\233>@\326\321\273\314\332\251\276x0h\276\314\016\220\275Hp;>4\306\006>8@\241\276BG\032\276\016\335P\276\200\340\200=\334\320\217>\257\014O\276\224\351\023>\275\256\232\276\255\230\246\276\320\352\316<`\346W>M\370\277\276p\333\346=\300\\\345\273\370W\256=dP\253>lH`>\000\031\320;\000\374\265>\275R\263\276\324<\027>\320In>\020\245->\026zM\276z:B\276\230V\205=\366a\303\276.\021\226>|\207(> \023\224>|}\027>?\273i\276\001\024)\276\210\244\247\276D`\">\344)6\276\034\"\235=\354V\275\276\224\240\224=\243\203\266\276$\213\212\275\224\253\246>8s1>\271\326*\276\200\207\375;0\234\016=\240\032O\276_Z]\276[\244v\276V_\304\276|\307\325=$\311\240\275p\200P>|p\005>l\350\200\276\000\251-\273D\313y\276\346\001\300\276E\n\221\276\350\356\276>t\024\301> \353\363<\024\216\327=\360\021A=ep\305\276\231\374\305\276\000\030X>\372\023\267\276\240\245\314<;:\304\276\212\323\255>0\276\203\275\240\244\207\276\356)\210\276B\3144\276\330\365g=\010\365\032\275v\305c\276\314\205i>$\240\225=\232\216\274>t)\021>\374R\267\276\004>\227\275\305\363\255\276\310\265\254=\210F)=\361\010c\276\\\205\203>noF\276\363Hp\276\2169\206\276p\324P\276@\367F>\234j\212=\304\2374>n\313\223\276\241[)\276,\376\306=|\n\261>&F\212\276qS(\276tI\205>\372\226\252>h\356\005>\234\234A>\220E7\276\2627\232>8\3271=,\204m\276\364\345\024>L\215\026>^\203\265>zD\305>\310\373\223=jH\207>\240\014\206=\262\210\250\276\234\003\276\275\"\346\250\276~d\255\276a\221\246\276\0301\374=\363\237\203\276mA,\276\240\221+<\244\354\005>\010&\213>R\032\306\276\360\2300\275\332\243\217>\317\'X\276\220\276\216\274\025\301\263\2768\032\242>Q\327\263\276t\263\006>@\"\232=\252\367\226>$\361\223>\220\3674\275\264\375\'>\244\266l>\351o(\276tx\350\275\235\031\021\2760P\310=\261(>\276j\353@\276\030\370?\276Z\025\205>\244Wo\276\340\360\273>|\003Z>\324\215\242>\035\354\\\276\372\234\304>\310\356\207\276t\241\360\275"
      }
    }
  }
}
node {
  name: "decoder/dense/BiasAdd/ReadVariableOp/resource"
  op: "Const"
  attr {
    key: "dtype"
    value {
      type: DT_FLOAT
    }
  }
  attr {
    key: "value"
    value {
      tensor {
        dtype: DT_FLOAT
        tensor_shape {
          dim {
            size: 24
          }
        }
        tensor_content: "\000\000\000\000\000\000\000\000\000\000\000\000\000\000\000\000\000\000\000\000\000\000\000\000\000\000\000\000\000\000\000\000\000\000\000\000\000\000\000\000\000\000\000\000\000\000\000\000\000\000\000\000\000\000\000\000\000\000\000\000\000\000\000\000\000\000\000\000\000\000\000\000\000\000\000\000\000\000\000\000\000\000\000\000\000\000\000\000\000\000\000\000\000\000\000\000"
      }
    }
  }
}
node {
  name: "decoder/dense_1/MatMul/ReadVariableOp/resource"
  op: "Const"
  attr {
    key: "dtype"
    value {
      type: DT_FLOAT
    }
  }
  attr {
    key: "value"
    value {
      tensor {
        dtype: DT_FLOAT
        tensor_shape {
          dim {
            size: 24
          }
          dim {
            size: 64
          }
        }
        tensor_content: "\206\307\214\275\370\2309\276\260(l>\202\303\302\275p\264i\275\3005\364\275\300\320\344=\276\207\210\275\260\031\330<\254H\317=\2549\224=FN&\276\230\217\372=\252\002.>:\354@>\263\343|\276$/z\276\000\350\"\272\202\260Y>\032\306u\276\223Y\037\276\353\356m\276(p\t>\300\335v<\230E\250=\034\227P\275\350c\010=\313W6\276h\357g>\344\235\014\276FG\034>\300\301\005\274\000C\277<\346\3716\276x\020G\276T\2646\276\332\004I>\370h^\275\r@\203>\342q\240\275d\227\336=,xc\276\225~\200\276\360\331\022>\265\"\037\276Xm\346=\316r\035>\300\323\034>\234\213\033>\020\236q\274XJ\r\276\210G\262=\350~G>\360\327\023>\350n\034=\200@\234\273\n\211\"\276\350T!\276\334)R>\200\200\022;T\020\025>E\357\200>l[\322\275\000\251\035> \250\322=\262\341w>>>\255\275\"e7>\352\000o>\204\255\204\276N\260\177>@pF<\300\033\277;\236n*>~?t>\027~n\276\250\275,=x\331\203\274~4a\276\234m\271=h\"^>\266\3736\276\2405Z>\310^k=V\214\022>\200,\365=\270%&\275\2024\007>\307\251\202>\360\222\036\275\270 \303=\002kw>\034f\020>-\266w\276\200l\355;\000A\323<$\306\037\275@\'\252=\376\236\003\276q\353\204\276\342\352\243\275\250\345\254=\232d:>\353XY\276\305.\204\276\224\3605\275\313\230\201>T\355\335\275j\240\272\275\212\034L\2766X\020\276\242B\006>\3108\232=\004F2>P*\202\275\036\025\026>p\t\030>j\361\203\276\330\235\022\2764\273R\276\330\'O><\347\314\275\202*\355\275\370t\360=\352E\363\275<D\243=\354H\023><KB\275\370 \341\274\220\344\r=X\022\024>\340\317\002<\200l\025;\260T\221<\222\025\357\275a1F\276,\'&\276T\205\221=l\307\224=\010\021!>,\033\361\2754^~\275z\030D\276\226\373`>\220\233\322=\032Uv>\304\272\014>@\244\253=L3c\275x\035\357\2754!\254\275\215\017o\276\030Q*=\224\210q\276\002\367U\276\332\177O>\270\341f>\247\345\026\276\202\371\'> r\277<\232mJ>g\311\n\2768\307\201\275 \215D<\030\213A>H\001\345=\360\274\312<t\000q\276\3260\025\276\017\351J\276\224\231\033>FB\243\275\326\002\210\275U\311!\276=6S\276X\352\013>\242\311\022>4\254\357=T?[\276\020\300\035>\200\202\024\275@\276i>\004\3315\275\204\030\265\275\024j\326\275\310\225\265\274\036\300\265\275\200b\007\274,N\231=\260|\220<i\352\201>\354\353\234\275\024\000o\276[\314u\2768\306\241=8\330\020\276\201`K\276\207\032\021\276\316\212\r>.^\014\276\200y\033\273\023\3305\276F\037\254\275t/\221\275\206\256\032\276\004\373E\276\267&\200>\374\222\017>H\365==\364\247h>\202`4>\302\375\212\275\236.g>\02676>\354b*>\\\004\313=\236\333\034>\322t\311\275s1\020\276\364\302a>\210(\276\275\326\250!>\240-\031=\210;\225= R&\276\344\017\363=\244\236N\276\344\023\253=Hc\313\275 \205w=\210\301\240\2748\211$\276\315\331w\276\232BT>\350:Y\276\201\207X\276\327\356V\276\200\244h;\232zQ\276\227\322\022\276\320t\221=\225(\033\276\250\200\323\275\000\"\377<8})>|:<\276x\274$= \316V<\3247?\275^]&\276\020C\327<b\245\200\275\223g\025\276JF\034>$ZU>+\310\201>5\342X\276\204[]\276\336\313\230\275\370\365\342=\254z-\276\276\342\027>@Z\177\275\304\030S>\237\325\204\276(\235\342\274\000\223[\275\000\260\300\275\256\027->t?\332\275\210E[\276d0\022\276\3103*=0 \265=>\344\276\275\000&u\273\000\347\334\273lF,>^m\031\276\232\237\306\275\246\337=\276\336\357H>\214\237\207=LSP>\205\245\t\276\206\230;\276\204k\014\275\021\307}\276\370\003\026\275\226\311O\276A!\203>\235k\205>\004\301\277\275J\313u>HRT>H\245\002\276\334*&>vY\205\276\032U~>\3102\276\275\360:\276\275@\242-\276\017)\n\276\2263b>4\357\022\275\276ZC> \201\007<\300w\255=:)\026>\200]\332<\306W\352\275\260\271`\276\324\2050>r\316=\276\300\271\327\274\300\372\234\274\014\014\301=N\212H>\336\226*\276\244\232i\276\030\014j>@\252\363=\365Z\005\276\211C\"\276M\346\202\276*\305f>\313\261r\276\254\034\355=\034\330f>\322\226\302\275HEO=\313\223^\276\320DS\274\237\334c\276\310~\227\275\214\361\\>\265\010\025\276\321c\202\276\036|\021>\366\014\200\276d8C>\204 \r\276\344d\373\275@\332\236;8\364L=Kt/\276\355c\204>0R\311\2750\213\n=\032\002+\276\330\321W>\256G\201\276h\271c>\214PS\275\354\022a\276\370FL\275\340B\324<h\365~=\240\270\316<&\302>>\300\0166=\004U\273=T\352\320=\376\346y>`0f\276\260\276\022=I`u\276\006\215\242\275\360(~\276\n\232!>n\034\\\276\000\323\223\272\324\2167>%F^\276\320\227\331\275\000\r\270=\224\326\005>\240\325J\276\212\222~>P\327\017=\362\347%>\206\3702\276\310\274H>l\216\004>\260l[\275x\345\214\274H\244]\276\031\020\205>v\227\'>\270\262s=\366\360\226\275\334\326\010\275\356\272u>\n\235\300\275\330\215\333=\320\224<\276@\000\211=\337\370\201\276\007kd\276XJ\273\274piY=\376R\317\275\300g{<\240o\224\275\010\254i=\256\374R>\226M\032\276\350\255X>p\300\210=r\000\374\275p\343\225<\220z\247<L&:\276jFv>\334\2712\276H<\276==\307t\276\322\3236\276F\257\n\276\254,\317=^\274A\276\262\310q>\021gQ\276\n~\344\275fQ{>\340=\252=(\265a=\330\201?\276\324vb>3\277N\276\020/$=LF\343\275\347\006\n\2768\021\335\274o\235m\276\340JZ\276\030\260\220\275\366\360)\276`\021\240=\250\370U>\310$\346=\n\"D\276\344\020\351=\364}o\275\234\237&>$\0264\275\316>c>b\016\313\275RH~\276\252\001s\276y\r\031\276\272\324q\276\020{\207\274OZ\205>ln\032>\n\323*\276\211\231\201>t\267G\275j\026 >\004\357\367\275\223\216Q\276~\271R>\222eL\276\006\2633>v\257\235\275~\246g>\240J\035>\264\303\200=\200\374\013\273\000\235l\276P\270\266=@\301\336\273\020lT=\210\320|=\351\200\205>\240\210\341<H\362:=\306e\177>\010\271\213\274\366\225\016>\022\211V\276\270\006<=\300\334\316<0\266S=\240c\023>\304\373\036>\254s9\275p\312\352\275<\227\\\276 3\237\275l\211\202\275\215j\010\276b\000]>x\247\306\275\356$\014>\220\241i=X%\264\274\314W\004\276\004{\306=hQ\315=$\241\332=\017\200s\276\200V\261\2744\245b>\360\365\204\275x\316\025>X\3313\276\254W\335=\214\235!\276\005z\'\276\002\242=\276\"\354?\276X\246\251\274\230w\032\276\200~\223\273\360\001\334<\260Gx\274\000\000\330\272~AE\276\025!\204>\0230L\276\r\234\177\276@,8>1\013\200\276\030]\376\274\304\217\302=\237\213\204\276\014\313\235\275`ze\275\260\342\265=\224\201->\212\362g\276\326\343%>M\003\003\276K$\205>\200X\030\273\315\267Q\276|\364\351=\260\202~=\220\030\357\2744(\337\275\340q\312<\234\333!\2766\203`>\000\263n\274\320\342\024>\'\260\204\276\006*\253\275\000\232H:\341\237k\276~\252Z\276\344\350~\276\350\200\000\276\312\2425\276\224\034\"\276A\"y\2762\247\n>Z\345.>\240\277\024>\264\214\307=2\202\031\276\311h\'\276\253<\t\276\304\006\217\275@\017\212;\300\0134\2748~\367=\020|\013\275\244\033:\276|QP>j\3104>:kw>\020\325p>\000\240\342=@\366\322\273\334\254\326\275@~\'<\236\224B>l\365\217\275d\275\014\276\210\232\341\274\334\006I\275\330cG=8m$\275%\227W\276\250\214(\275/\247r\276\300\314\024\274\223TQ\276\300\374\033\274\030\034Q>\354iM>\000\336`\275\025\240\203>z;,\276\2700\032=\350^6\275\\\037\025\276N\315?\276tSB\2754B\371=\240\020F\276\210\2179>\326u<\276\010\024\330=}K_\276`4\034\276\000lU=\206\246P\276>\353\021\276x\244_=\354|J\276LpW\275\312\221\003>\316v\343\275\224:G\275\200\322\033<@\326\324\273\316\034\030>8i\374=0\027\022>PA%=\340\270\377<0;\206=w\224\200>F`\026\276!\332P\276\240\352\375=J\357\217\275\300\341F<\3253\203>\274\353\017\275H\t\334=\307\203#\276\230\3547\275\320\272\350\2746[E>\370,\225\275\314NC>@\350^=\204\215\033>~\200\033>\340\234\002=\030\177Y>\314\310}\276\";S>\202\376\365\275\032\030\320\275\204\345\336=\230Lt=\256~j>\325O\204\276\3601\235<\250]\334=\304\300N\275\006\014\274\275\276\255\014>\332\2257>\310\346\003\276\235\350\202>\214\352\225=\\|\005><\030\202\275\020\220\222<\214\363\370\275\340\322K>p\\\347=l\0304>0\231\325=Hk\363=\300O\026\274h\332\002>\322\223\010>\273\021\205>\210\237\001=x\367\262=R\2772> \242\r\274\300\265\336;\304\336\363\275\230\020\'>@\271[\275br\257\2752 \177>x\344\221=^:(>Xhj=\022\377\021\276\316U\035>\256\374\253\275\014\242.>\032O\\\276\375\320P\276i\207\200>\002\014q\276\340od>d>`\276\360\354<>J\372\372\275-\346d\276\330\3231\276d\2431\276<\306}\276\260? =\320\362\233\275\220\036\310\275^\235B>\2444c\276\032\211\006>\226&Y\276$\376g>\233\277\203>\334\236\346\275\320:\361<\3039\202>@\317C>\212\325<\276P\332\246\275P\356\031\276\000\321\007\274H];=\360L\001\276&\350/>^c\016>p\nS=\321\004\036\276\326\202\253\275F4\273\275_\373+\276$9\371=\264Y>>-\257\201>\010\254\327=hKD=\230\233\235=(\372\321\275\370\\q\276\026\360Y>\340~\322\274\360]\240=\302\317\264\275\320_T\276b\312\226\2758@!=\312\013E>\220\272]\274\250\276\000=(\341\270\275\000\343\362\272:\271w>0\311\000>\307\360\204\276\333E|\276\226\020C>\217#\202\276x\303\364\274\002DG\276J.\254\275`16<\266\370N>\200ct=a\030m\276h\346\230=\200\337\024\274`\237\220=!\332s\276\250[p>\252\200\336\275\362\020f>\315\024\025\276\034.\216=P>2>\014\\$>n7\217\275t\323\331= \253o=\336\313\177>\004p\302\275V\265\266\275\316;\223\275)L\202>i\335Z\276\034\3643>\257\250\203>|\177\004\275\004\n\374=\000)\003\274\312h?\276Xn\331\274s7\037\276\262\"d>\320^Y\274$\261\361=,IB>v8F\276\242\266%\276\200\252\263\274\270n\r>\300]\022\274\200\215\301;\300\304\346=Z\274O>2H@\276\020\000[=\222\246+>\370\020\370\274\235F{\276\"\311O\276l+\237=l\"\205\275\010\257\026\276\010\215\004\276\364B_>\326\215&>\232\315\254\275\356\365\333\275&\nF>\214\315\016\275\240=\371<fG+>\216\277[\276rm\013>b(c>B\320\201\275zI\346\275\n;\347\275p\025t\274\276\037\273\275x\341%>`\365\300\274\020\022(= \025\256<.N\033\276$x\255\275\340\313\373<0\257L>\3300\376=\216\332\240\275N\205O\276\352\256\261\275\200Kt=\\E`>X\0234\276\300l&\274\177Y\201>t\331\304\275\322\260\204\276\240~/\276\314l\352=<\235\365=w\261h\276\364\205\014\276\206t7\276\274\010\"\276\370\207\004\2750\351:>\340\211(>A\344x\276\222\224o\276\361\023}\276\300Z\002=+\234\205>\004\r\241\275\204:\357\275@\315Q<^=\275\275 #2\276\300\216\246=cl\205>\326\357\030\276\030\276F\275\333\276H\276\200\307\247=\262be\276\340\213Z<\200\3326>\234SI\276\035\237F\276\360\247\273\274\242(k\276\354\213\305=B\270_>^8\032>\n\200\r>\304\300m>\270\027\027=<<9\276\nd\241\275d\3742\276N\353p>\006\317w>\270\222t\276\000\257\211=`hA<\224)\203\276 \232\316\275\274\210\341\275pY\007\276(n\035\275\323\330\202>\014BE\276\300^\312=`\007{\276\230\337,\275\024\\\220\275\355\010\203>,\212\331=\030\340\313\275\274\rW\276|S\231\275\344\302R><\207\037>\n\271C\276\352\315\323\275VnT>\000c\257;d\241&>`\264\033>\266\006\">\024\3731\276B}K\276^\247\323\275)c\203>\223e9\276\3203L>\276\335\205\275\000\006\353\275T\254\021\276\264OT>\020\023\315<\200\267\240<>X\024>\236\262\222\275\274,$>\336\006\020>P\247W\274\370\227^\276\310\266\002>\351\247\203\276\031=u\276<\240M>\310\313\354=\224\001c\276\332\204e\276\314\316\013\276\262\363r>0)u\276h\377\003>\224\232y\276\244|c>4\nl\276 \335\037=\370X\017\276\004\016C\275J`l\276\324\332R\276\360\212W\275R,\177>~\3505\276\020\377\017=@\244\357;\014\206\234=\343\261Z\276\300{\t=!\016\202\276\204\017\027>\010\033\004=\200\014\036<\304{->0\363\001>\212c.\276\244u\206=\260\200\227\274\000\'\n>\030\t\313\275|6\274=\266Im>\254\346.\276J%V\276b\254s>\000\034l\274x^\027>`\374\204\274\324`?\276\240Y\030\274<\220:\275\207\223q\276\260e\230<\32456>\270y\342= \332\035= o0<\214\225#>\351l[\276!\371\202>\306\027L\276D\377\035\275\200\307\024<l\025m>\022=\336\275p\000\201\276q5@\276\276sQ>\354\270\351=\344\254\220\275\272\'K\276\202\016H>}t\200>\260\036\214=\020a\253<\352\320n>(X \275~O\010>t\013T>P\021\355=NJx>\230*\260\274\200l\240<T7j\276XI\"=8\177s=\261[4\276\nhX>\3774\205>\250\224\222\275H\267Y\276\026\313\356\275 %\n>\034\245\002\275\324\305\n\276@\026\222=\222\351A\276z\317\330\275\361\035\201\276\330\334\260=\312/\356\275\344\377\245=\240-\267<2\3739>\244 I>\310\274A= \260\301=`Y\233<\330N\267\275\216\004?\276\010U\007>\360\207@\276\270\n\207=\210][\275\000Q\234\2740\252\244\275\350\216\\=\004\0237>\270/\020\276\246\023P\276\0062}>i\"\025\276\200\214A\276\341\265\037\276D\306\242=\302\222\314\275@\265b\275\020\202\231\275F\363a\276F\343;>\326ds>\300\034\347;N~*\276\370)\301\274\263\027\202>r\302\345\275J\335\306\275\210\233m=nQ\337\275\264\320(\276\262\026J>\037\201y\276||\210=8M3=T\314Y\275\274\344\014\276\000S\030=\346\0276>,\221~\276\010\261\363\275\334\037\335=h\327\021\275\000:\030\273\020\262\300=D\205\022>\361\010N\276\300ZH\276\200\267-<Y\245H\2768\265\244=0\255\366<\3423\003>\016QB>\230:8\276\020D#\275\3770\205\276`h6\276\310\322>\275\n\177$\276\366\242~\276(\250+\276,\277\315\275\020T?>p2\314=\320\"\256=bS\005\276*\030@>j\322|>\354\000]>\177c\000\276\240\344\006\274\010,\020\276\211\223p\276\004\367#>\342\037\215\275(\3329=f\361\306\275T\032\317\275o z\276\000\252\377\272b\270?>\230GN=0v\240\275\034^U>\234q\017>(\217{=\000\306-\273x?5=\306\352g>\250\034\305=\274Y_>\030\366\302\275\276\231\'>\365\355X\276\362\1779>\230\347z=o\215,\276\022\203|\276\270\344]=0\222o=\210}\014=\277\336\202\2768\272F\276\034\251\217\275\236]8>\372s\213\275 \225,<\362S\002\276.G]>\306\037\022\276Cup\276\300\216\357;L\300;\275\356He\276j\263\225\275+\236m\276\270\200\262=\372[9\276\316R\357\275\316-\010>\232\021W>PBI\276\254 \034\276\356\201\033\276\372\210*>\334j\225=zx.\276(\240\027\276\003Qy\276\000\354~<\310\366!>T\2021>;fI\276\030\025W\276j\330%\276F\347S\276\337\271\202\276`\266g\274\234\312\177\276\200\202F<\244k\210\275\260q&>h\023\252=\026\304G\276,\177B\276\352\310\014>\"\272,>\360c\265<z3r>\344\232\212\275}P}\276V\347S>\344\273\375\275e\272v\276,d\367=bns>\350$\"\275\300\242\230=pP\217=\360\024\365\274\303\214\"\276\301}]\276I\241P\276\250\352\013\275\216\277\037\276fe\030\276 D\025=\350\030z=>\247{\276\350\211\006=h*\341\275-\014\204>\346r:\276sK?\276&+V>(\177\256\275\240\031J<`\304\010=\030\303R=\307\376\033\276\\\345\305=\024\353\366=X\231\346\275\314[b>\270\354N>\362\t~\276\350Y\354\274\243M\200\276`\327_<6\026?>R4/\2766\264[>vcS\2768\357\005=\266\364\002>\360\350f>\334\263\310\275\232\223]>\000\377\034\276p^\364<`\206\200\276n])>\341\341%\276V\320V\276$`\365\275\206O\202\275\3547\033>\314\rG\276\236\332\000\276p\367\022=\000\360\334:\340Vi<P\232@>r\365P>\"K{>R%i>x\332\273=r\355\025>\366\355\005>\274\331\027\276\037a\204>\344\306\201\275P\244y=W\267\202\276bN\002>\032\253O>\024~\201=\344\203\242=\240\221\201\275p\352\322\274\304\004\204=\200\230\264<\304\3209>\215:\000\276\020\036\264=@\223\213;\240==>\000\356~:\003w|\276\334uX>\300\003s>(%\270=\"dL\276\376UG\276\271\245L\276\357>O\276\376\007N\276\000T\365\272\320\250\350\274\214I\247\275\320\027\013=\"6b>\370\\~\275\020\327b=p\341\310<T\025q>\370\357\020>\314J\354\275\000\005\002;P3\207\2750\273U\275\2005\013\275\n\267T>\0365J>\304\306\302=\330\252\n\275\220{\034=\010*\241=\250\331\351\274x\001\321=\260\331#>P\201\201\274\304$\204\276\264Y\240=2j^>\206\3549\2764\271\001><\021\036>\322\260B>\306\212\036>\016\300$>8\276K=\354|u\275\244M7\2752\3748\276T\232\017\276h\347\300\274\252b\262\275\206\"\005>$\010g>N\376%\276\216\352(\276p|)\276\240\252b\276\356\366J\276\026g\'\276\357\267[\276\340_\006\276\234\203\027\275hv\006=\314\337\317\275\342\337\t\276@\372\025\274\350\323\311=\266jP>\224o\037\275r}c\276p\313\326=\252\375*\276x|\202\276>\246\033\276s\266\035\276!\022V\2764\315\271\275\235o`\276\212~}>\302 ~>\252:<>V\312f> 4\317\274\004\320O>\032\206j\276\030\t\262\274\334\246V\275\320d\203\276\200\017\272\275\022\370L>x\222e\275\275#\203\276\274\362<>\000Ze>P\035\366\274.{x>p\025\272\275\270*D> 9\021=\242\362\t\276\244\351\240\275\306\243W>\244\023\252=h\365T\275\020\035n=*jG>\350V%=\324\177\330=Lx\307\275\000\363\223\273L\234\236=*\201q>\240\200E=\2114^\276yFG\276*\007;\276\340SD>\036\362v>[(R\276r\246Z\276j\336<>\240>^<\250\027\322=T\300\206=\002\211d\276\321>9\276\344\261`>l\342\022\276\274\372H\2768Uy\276$\030\323=\270\277N=\200Q <npC\276\360\377\355\275\304\215\000>\244Q\346=\264\033\322=\230\3255\276Px\214=\304\332\370=\257\305j\276h\253\365=t\271/>\304\246\301=\036\025\275\2758\332&=\256\030\017>\3603w=P\016\"=\270\211\013\275\375P>\276\260cY=.\323\315\275\240\352\206=8\020t=\014\276\276=\234\252j\276\022\304v\2762Y.\276\004\372\357=@\323\277\273\374\222\366\275\334\203L>\336US>\374K\'\276\0109o=\366My>\346\035|>z\220\010>\262\244\231\275b<T\2768\263j=j\\\247\275\236W-\276\251tW\276\320\030\212\274\264\337O\276\210\033b>\226\332\006\276/\317\202\276,\205\200\276T\276\001>A\202K\276\230\343u\276\031N[\276\033jc\276\250\377\201\275\240\260\247\275\344\357\303=`\333\n<\320Es\276\207o\006\276(\307\373\274\216ZL>\220\230\002\275\250\304\250\275P\356!>\200\277\370\273\360\272U=\316\227\016\276\200\031X<\242D\t\276\304K\017\276\2004v;b\230\"\276P\001\260\275\363\346\204>\352\372k>3\2504\276\305\257O\276\200\265\n<\376\213;>\372\032\375\275\300\'\021=\234\214\326=p\031\233=\036\013,\276H\360P=D\364\211=H\360t\276`\234f<pt8\2754\343\003\2756\302l>\020\266\241\275\214\037\030>`\226r<@F\310;\336\0016\276\320\001\026\275\360\324-\276\344[[>b\250\266\275\200X\222\273Z{U>F\311\277\275y~!\276\32082=\260\t\003=p\311\003=<\362\263=\204\202\327\275\256&\026>\364\345\237\275t\240\004>\356\313z>\002\371\356\275\022B\260\275\330\005\003=\030\307\252\275\237\n\200\276\004\353\361=\036RV>"
      }
    }
  }
}
node {
  name: "decoder/dense_1/BiasAdd/ReadVariableOp/resource"
  op: "Const"
  attr {
    key: "dtype"
    value {
      type: DT_FLOAT
    }
  }
  attr {
    key: "value"
    value {
      tensor {
        dtype: DT_FLOAT
        tensor_shape {
          dim {
            size: 64
          }
        }
        tensor_content: "\000\000\000\000\000\000\000\000\000\000\000\000\000\000\000\000\000\000\000\000\000\000\000\000\000\000\000\000\000\000\000\000\000\000\000\000\000\000\000\000\000\000\000\000\000\000\000\000\000\000\000\000\000\000\000\000\000\000\000\000\000\000\000\000\000\000\000\000\000\000\000\000\000\000\000\000\000\000\000\000\000\000\000\000\000\000\000\000\000\000\000\000\000\000\000\000\000\000\000\000\000\000\000\000\000\000\000\000\000\000\000\000\000\000\000\000\000\000\000\000\000\000\000\000\000\000\000\000\000\000\000\000\000\000\000\000\000\000\000\000\000\000\000\000\000\000\000\000\000\000\000\000\000\000\000\000\000\000\000\000\000\000\000\000\000\000\000\000\000\000\000\000\000\000\000\000\000\000\000\000\000\000\000\000\000\000\000\000\000\000\000\000\000\000\000\000\000\000\000\000\000\000\000\000\000\000\000\000\000\000\000\000\000\000\000\000\000\000\000\000\000\000\000\000\000\000\000\000\000\000\000\000\000\000\000\000\000\000\000\000\000\000\000\000\000\000\000\000\000\000\000\000\000\000\000\000"
      }
    }
  }
}
node {
  name: "decoder/dense_2/MatMul/ReadVariableOp/resource"
  op: "Const"
  attr {
    key: "dtype"
    value {
      type: DT_FLOAT
    }
  }
  attr {
    key: "value"
    value {
      tensor {
        dtype: DT_FLOAT
        tensor_shape {
          dim {
            size: 64
          }
          dim {
            size: 128
          }
        }
        tensor_content: "6S\361=\256^e\275\203\236$>\200\236l<X\215\310\274\312\327\007\276\354\261\r\275\300\336O\273D\032\t\275N\346\222=\255\030\313\275\260\347,=!(\275\275\304\206p=\314BP=0\263\271\275\024r>\275\300\262\373;u\206\t>\207\0223>\240\306)\275\3712\005>2\234\204\275\344\024\304\275\270\356N=J\\\376=\350?#=\361\037\331\275|\277Y\2753D1\276\260\353\235\274v\232\325=H\213\n\276~:*\276j\326\216\275E\0273>\246A\333\275\245M\024\276\300!\355<\210<\363\274\205\0253>\213)\017\276\224\034?\275\000\020p8\016\241\345=\253o*\276\335\227\033>@\270<\273\346\357\253=\360\236\247<0\242d=N\245\007\276\020\200\"\276\200\010K;\276\305`\275p5]=\220?`=\200m\300\275\302\210\244\275\354n\204=\314Z^=\256N\274=\201$\007>2-\270=\005\243%>\303 \256\2750\001\025=\342\332 \276\233%\224\275&:\330=K/\005>h\025\336\274C\031\003>\022\034\253=L\253\013\275{\3363>\200$\014\274>G\244\275\370:h=\035\344\016\276F\262\265=_\337\033\276\324\237 \276\321\227\r\276\360\340\323\274)0\r\276?\365\036>TY]\275\271\331.>\274\324\017=(B\336\274~K\373=*%\251\275j\345\332=S\365&>\235k\021\276\221#\032>\360\231\255\274\266Z\254\275\2068\353=\310\351:=\251\007\027\276?\342\022>\353\261\303\275\256\\\346=4Q!=\356n\257=\000\267\002\272\020S\354\275\020\321\006\276\333p\'>pG>\275\230\353\327<G\246\323\275pI3\276\301x\220\275z\014\361=\362\254\252=\222\021\300=\246^\267=8u\220\275\230\000\203=\263\234 >\227g\013\276\200\207\346<8\203\253\2758\r\372\274/4\017\2760\237E=\311\246 >\347\336\232\275j\214\215=\352\374\302=C7%>\022L\221=b\t\214=\261C\007\276$\334M\275\346\354`\275\370\235\354\275PG\266<F\036\223=\2702s\275_\010\'\276\260j+<O\027)>yA\327\275y\257.>:\242\017\276\2158!\276\001R\275\275\200\005\261\274\203\317/>\202*\027\2765\017\305\275\027\356\033>\253\355.\276^\344\343=\017\3360\276\210\264\307<\261K\005\276\331\264\033\276<\334\006\276\365\220\036\276\274U\001\276ln\206\275\227\274*>`\264\276\275\002\013\322=?\371\210\275\210m\325<\331\364$\276:m\353={\271\240\275N\236W\275\250\206\300\274\212\017\222\275@\330\347<\201\200\t\276\240\3252\275i\346!>)\243!>\277\323\225\275\207\257\242\275^\245\234=9X\017\276\004C\036=\027\373\000>6\267\255=\036\235\271=B \365=\022\2150\276\230\206\027\276H\237\253\274\242M\326=\342\275\212\275\021\337\003\2768)\313\274\220\201L=\260{\030\276v\244\306=0\030#<\3406\277\274\267\335\022>9\227\335\275\323\365\001> *\274\275\251{!>\010D\017\275\010{4\276L\336#\275\343\356%\276\303u.>\200\315\006=\3573\000>Tp\001\276J\020\232=\302\r\361\275\020\0350\276\253\366\230\275E\253\022>h\214\303<\300\315\352;\262&\023\276\000Qa\274\206[3\276b\242\303=2^\375=\033-->(\346*=\000\013:=j\322\254=p\207\022\276bj\226\275\306\251\313=\2442i=z,\245=\000\177\313;\300\323<\274n3\356\2757h\357\275@\222\004; \177\333<\2376\344\275\204/\'\276n.\367=\210\324\246\274/\256\024>\251\214\035>\320\342|<\314\242\"\275\232\003\266=\3648\331\275\360\230\341\274\234\372,=\250\257\276\274\300\232L\2756\232\354= \320\000\276~f\260=\340\033\341\274m\364$\276\263L >j\237\216=\260\236X<8\250\355\275\354\231\376\275\212D\316=\211k\211\275\211C\016>8/\360\275Th\205\275\300\342\362\275\333\373\n>@\204\001\274P\330\336\274\362#`\275\340\302\274\274\342\343\266\275JIh\275\272\363\272=\214\353\345\275\320\321\254\275\232\231\230=g!\225\275\231w\001>z\246\326=\003\030\033>\340\377\004\276Z\033\317\275@\260\221<8\0064=V\352\372=8\362\333\274\266x\370=\0247\036\275\232\313\254=\214\312R=\310\233\246<\033\2212\276\231k)>\301\344#\276\212\333\342=\247\341)\276&;\214\275\240\367\006\275$\217\230\275SM\264\275\260TZ=0\2431\275\200L\303\274\312\275\375\275T\344C=r\206\352=\254+j\275\370\220\372\275\020\024\003\275\020\3467\275\202\222\335=J\016\035\276\276\236\030\276\274\321v\275\330\034\037\275\000\345\240\272\255B\257\275\n\\s\275[\2271>u\260\033>\340\303\241\274\"\267i\275\020\027\357<Sw)>4\377\202\275\253\217\n\276J\247\373=\026\016n\275\232\231\321=\364\275_=\026\027\344=\272}\317\275f<\267=\242w\207=\240\362\013\276t5k\275|\207\003\276\306\235_\275\222\353\031\276\240\205\202\273\246\262\350=\224\334\036=P-s\274\273\365\211\275\247\n.\276\336\306\320=\3119\337\275\006\365\373=\370\364\003\275`\257\220\273\036\006\354=f\240\322=\240\264}\274b\333\327=\206\377y\275`rC<\250cy=\233!\001\276\246Q\261\275p\363\374<\267\364\"\276h\006\364<\020\177\025<b\016\350=a7,>\310g.=\264\333\307\275\010\n\030\275\003\253\223\275gd\027>\224\227\225\275z\223\217\275r\331\254=\336P\263=\3056\036>\037\r\'>\033\212%>\022\361\362=\210O.\276ZT\001\276\276\264\321=q\207\026\276pP\273<\336m\212=\35444=@\2141=l\220O\275\203\352\004>\300\247\345\275\376\205\372= /D<\310\201\350<;{\035>\311Z\023>m\363!>\\NW=h\340\374\274\342&\356=\263\236\302\275xU+\276\270\354\006\276*_\234=F\232\277=\261\343\035>L\235\033=\226\301\262\275{\0041>\374\236!=\336q\350=Z\213\330=\310\326\334\274\230\235\357<~>\343\275\370\304W=|}\024\275\200\334\035\273\300P\010\274\357\366+>\300\327\253<}\311\373\275\274\251\027=\205\0300>\034\240-=\212\362|\275\022o\325=N\241/\276fN\306=\000\220U8\246\\\203\275\374\257*\276P}\262\274 \017\370\273P1\346\274z\336\010\276\340\260\207\274\270\315|=\"\244\364=NZ\004\276\366`\355=w\355\226\275\266u\371=xcL=\240\2611\276.\250\302=\316\325\037\276/\"\027>V\324\336=\216S\346\275P\274\'\274\331\265\021>=\356\242\2750;\312\274\340\\E<\323\313\"\276\306\334\312\275G\364\014\276\205\274\215\275\030\255\367\275\376\267\231=}L\002>\310\307\005\275\250{ =i\2064>\342\341\304=\310F{=\310\t\260\274\000:h=:\275\215\275n\317\n\276\025\330\006>\222V\272=\027\334%>\220\336\270<\354\306U=\342\204\354=\340~\022\276\010\003$=\n\267\032\276\'P\'>\326#\037\276!,\006>[C%>\014cR\275?h\303\275H\313\005\275\263\247\001>0#\215\275\372\227~\275SH\023\276\000\032\324\273t\267O=\202\r\205=\260\340H=\340f\246\275\250\253t=\354\240;=r\344\354=*\364\344=L\201Q=5\333%>\344\316\220=\233~1>\024\223O\275\\\320\357\275\370 \222\274@Xy=\241,!\2761\324\n\276\314\347\306\275\376\226\276=\244\276\032\275\260`q\275\027\265!>\224\213#=X\211\346<@\224\n<\224\r\001=\256\004#\276\377i->`\262\006\275\276\341l\275\324\001\004\276IM\025\276\000\374\227:!\234\036> A\013\27460\020\276_\271\"\276L\217P=\302!\235=a\035\">2\235\366=\220v\203<\302P\345=:C\300=\340\014\366\275l\252\221=\200\032\242<\024b\341\275\345\034\023>\320\003K\275h\332_=\214\251\213=\335\312\023>pr\007\276n\301\234=T\232O\275\2559&>\320\003]=\026\\\310=\231\352\006>\"\245$\276\263\310$>\213n\035>\320<\225<,\362q=\270\301$\275.\340\253=H\016\033\275\230,\340<\230\247\236\275\234\240\356\275\'V1><\n\336\275\240Y\337\274\006\305\024\276\002\274\311\275K\315\004>\024\273g=\2378\022>\244\\C=\316v\304=u/4\276\272b\302\275\366\266\360\275\300\356\213;i\016\">\000\202\275\275\250\275\226\274\037}\216\275k\013\016>\362\000\263=V@\314\275\350\0033=\033@\002>\034\360\275\275\220\025\236<\030p\224<\030\374\357<(n\027\276\333\017\033>T\3449\275\260\241\026\274\352v\034\276\262e\264=\264\023:\275@\216F\273\254\311\225=\316r\201= E==IE\026>\376\271\371=\350\221\372<\030\241\211=k,2>\2305\215=\340\252\004=\200\306\212:4\013h\275q\260\350\2753\352\303\275\323\0045>+\2303>\245\240\"\276\340\003\'\276\225)\224\2758\010\322\274\330{\351\275\241d\203\275\301\246\032>\260Nh=\324\334Y\275F]\237=h\320\'\275\200\226\257\274lX^=\030\372G\275\025r\016\276\210\377-\275\020\335R<\354XZ=\335\352\334\275zT\234=\3144a=E?!\276\2242P=,w\206\275\342\255\272=\374\355T=\322\300\245=\236\276\020\276\220H-\275\343\304 >\206~\371\275\231 \010\276\370\026\325\275V?\254=Q\311\002>Nn\316=\376;\001\276\300\352\000\273W=\234\275\033\303&\276\016\217\261=\023u\033>w\210\004>\205\231$\276\000DI=$\346\002=<\331\034=\"=\330=\305n\036>[\024\233\275tI\301\275Ni\351\275g\241\237\275\314\341\346\275\262-\337=X\3636\275\220%1<\271`\'>Tf\214=\244z\347\275\317\373\324\275\014\320N\275_F\256\275\207G3\276)\346\'>\361\3721>\016\214\353=\354\266R\275\000\003\237\274\374\340.\276\263\3651>\336\006\301=\267B\025>\374-\374\275\200\302\265\273,l\n\276\201V\001>\302\350\367=\375\205\000>@},<\004b4\276_\217\237\275\300\222\220\274-\005!><g5\275\360\310\321<6^\215=\237\250\007\276\210\372q\275*\324\320=h\302\022\276\340\031\032\276\250\215\355<\332^\361=\223C\006>\036\225\243=\030`\212\274\323-\024\276\236\322\301=\340\3761\274\362\241\327=\010\031\276\275\302\202\325=5\003$>\213\207\007\276\326\273&\276\"X\241=^]\226\275+\003\005>\266\333k\275}l!>\367\0371>B\346\037\276\305r\234\275` \022=\230|\004=zD\354\275#\340#>fT\334=a_\n>\306\253\342=\254\001v=LW\345\275J\223\017\276\366W\321=\030\203F\275d$&\275st\007\276[\221\000>n?\356=\312\266\247=\000\346\330\274T\360O\275D7\207=vA\351=2\235\306\275\341\233\253\275\300~%=\033\037\330\275\032x\370\275\364[\000=\n\350\241=\260\2113\276N#\302=\001\254$>^h\364=\003\335\005\276?\0062>\336\022\327\275\"r\375=\324\236\214=\366\303\310=\007\344\003>\230?\371\275\235\375\025>ay\">\367\213$>tL\333\275\226\342\234=\200iL\273\021n\227\275\030\222q=*:\027\276\317\025\034>\230\366\343\274\212}\367=b\032 \276^%\226=Q\234\254\275\010\373\005\276\034\211S=,\317\023\276\303A\003>7\273\013>S\353\341\275\270\"\334\274\035\024+>\0246\027\275\\\216K=:q\265\275\300\231t\275\240\276\223\274h\\\203=\260\261\353<\362\336\267=\256\017\246=\372x\347=\\\227)\276H\021\267<\302(\r\276X\316\372<L\252>\275\236N\275=P}\366<\036\353\212\275>r\217\275\034H7=\372\376\350=\020\364\037\275\234w\030\276a8\'>|\221\033=$C\211=\240\030\226\274/\234\031\276A\235\273\275`2\374;\001\304\353\275\354\230\341\275\245I\016\276\223\321->0\036w=\260\323\004<\367\204!\276\000\370\2668\331\2171>\302\351\027\276!\203->\331K,>v\3771\276o\216\251\275@\000)\273AW\020><g\003\276@\n\213<\000\340\032\275\221\375\035>\266K\253=\230m\245< \234\\=\200\302\231;\234\n\021\276\370J3\275\240\327\223\274G\334\330\27503*\274\200\177\277\272\342\376\320=\340\257\310\273\356\233\345=\350\242\256<\305\376*>-\222\035>|\204*\276J\314\241=\244\257\024\275\320G\341<\204\302u\275\263\326\004\276\333\3231\276 \274N\274\"r\326\275\200\236\n=\221U!>i\314\006>)3*>(\0271\276\300\245d\274\000+r\273\340\300w=(\257\037\276\374\004\351\275\263U\'\276\013\273\324\275^j\372\275\314N\007\276z\'\000\276Qi\326\275\024\2560=\375#\307\275\234\300M=N\365\222\275.>\217=\365\200\032>\005p\023>x\374\223<\200\246\250\272 \361\201\273`2/=oL\337\275\002[\027\276_\373,>`Q.\275\n\315\370\275\275x\006>P\006\341<\331\274\003>\350F\021=\360/\310\275\017)\r>F\020\241=\361\246\203\275\236\013\232=\200\252\217\275\316\331\241\275\336/\300=>\243Y\275\270\264\263<\324\234V\275Z\204\324\275\3472*>V\223\377=\376\007\303\275`\372\227\273p\254\201\2744\2730\275\0003\302<Sr\210\275\364\251#\276_x\032>Ne\r\276\330\036\255\275cn\017>\224\233\277\275\2564\036\276\210\027c=vq\261=~\222\346=\235\3530>\212\250\242=&T\360=@\025L;n\353\377\275\026\007.\276\213\030\324\275\304\'<\275Jd\262=\320\370\023\275\nB\352=0\267Z\2754\t\177\275 \024!\276I\'\375\275\003E(>8\263\205=\014dO\275\226\261\274=Dg\002=:v\325=!\2172\276,\224\"=5H\330\275\200\263\354\274P=\202\274\273\260\354\275~v\254=\371\2064\276\270<\003\275@\266H<D~\326\275\326\010\302\275*\244\254=\216\353\360\275\200f\210=<g\217=\312Q\325=1\177\r>7\337\004>@\364\r\275(\006\006\276@\307[=\n(3\276\230\347\313<\000\200\240\270\010\217\365\274\270\275D\275L\003\254\275\350%/\275\373\263\240\275\344,:=0\033R\275\001\252\013\276\374u\013\276\220\321\237<V\370\300=\264@\364\275\203\034\020>\033H\033>\275`4>\005\0252\276\300\"\221<\375\215.\276J$\246=\366\362\353=}\2661>\270n;\275\367\006\027>*\375\225=\014\2539=\302\034\264=\272\\\347=~O\226\275\222\300\362=\260\311I\274\270^\255<\254\314@\275\334\255G\275\376\323\355\275y\275\"> \316 =h\355+\276\250b\377<\030\353\245<\n\351\364=D\'\202=6\361\262=K\210\354\275\312i\353=@\250\336\273\220\271\364<H\341{=\" \310=\352\364\262=\220F\023<\244\357\002\275p\207n\274\313\322+>\260\250a<\325\207\035>\374\241r\275P\213\017\276\220\004\217\274\200\013\032<\206\'2\276\361\355\"\276\256\354\265=\346\\\344=\302\232\256=`\202E\274`B\375\275\2444\205=\240\262\347;\341\220\025>\360\265S<4\2317\275F\r\324=\205i\004>\271\003&\276N\340%\276\202#\326=\233\320 \276\220\337\200<\2774\"\276&\3730\276\336R\016\276\302E\034\276\340\212,\275\364)\273\275\000u8\272Le\227\275\024/\036=\200\206\343<\010\303\212=@e:\275\276a\275=\322\n\\\275\326\350\243=O\007\027>(\211\277\2740\352\335<\000\305\246\274\200\215\204=\224ay=xW\023\275P\202\356\274\000\007k\274i\240\">Xi\346\275\220\360\004\275\026\272\265=$\377.\2752\346\266=\271\343\004>\200\230j\274o\333\036\276\353\221\017\276\364\340b\275/}\260\275Zj\327\275b\261a\275\222\375\351=^9\n\276\304\333Y=|\311-\275\360MH\274\231\216%\276\306\233\317=\362\025\276=:\251\020\276\236 \360=\025\252\337\275\241\360\013>(\231\331<\357\034\346\275\340k\217=>\340\302=H\204\004\275\365w >:\237\276=\312\236\350=\230\220\022=\363}\016>\3063\227=$\244,\276\n\312\332\275\300,\355\273\000\264f:\300\031\036\274\250`\200<\000_\252\273\224\005C=\014\307\035=\030L<\275 \017\021\274\307\214\024>{\035*>B\342\'\276\032m\264=\336.\256=5\030\033>Tv\024\276\347\342\t>\266\266\267=\177\2603>HM\321<\357[\025>\235$\323\275b>.\276\356\227\257=w\2710\276R\351\323=\253\3171>\360\375E<\371\364#\276\246\332\320=\232\317\021\276\026\373\254=\340\\\223\275\355d\020>\r\321\006>\276q\'\276\022j\336=\300\315\000\276\326~\240=\225\036\031>Ag\022>\227\000\340\275\336`i\275\333\224\000>\300\264\362\274\377k\017>\366\244\271=N\236\325=\032\344\356=\244\0101\275hl\030\276\357E+\276T\241I\275\033\213\027>\246g\351\275\000\204n\273T\232(=\010\360\001\275H4\211<\204\251\002=\002\372\316=N\272\254=\314\316H\275L\001)\275\224\370\331\275\230\314\320<\314\240;\275\353\241\246\275\320\022\254<@G\201\275\2639\000>\334\024\036\276\000\252\322;\026b)\276\340#\311<0\355\324<c\3030>f\310\306\275\004\316\032=\224V\212=\326\306b\275\033\002\016\2764\216N\275\340\014H=\223\224\004>\010\374\r\275\264\tn=\355T+\276\256j\360=U\316+>j\355\226=,u\215=\300@\201\275\300q\021<\021\202\'>41)\275\304\201\366\275\266Z\323=Jf\206\275\030d\227<\322\007)\276\330)\232\274\004\246F=\"q\372=v\305\352=\311\376\016>p\242\227\275\326\"\352\275?\301\032\276L\215U\275F\324\377=@\250\347\274\274\253\327\275X\264?=\207\277\032>\340\025\364\275\277\316.>\276\355\233=\200,\002<\210\352\341\274 \204\321\275 *\272\274~\310\233=\262\200|\275X\323\357<@\203_\274\312\216\347=\010+\331\275\236\344\332=\321\n\221\275\217\267\t\276v\304\361=\260\363\221\274\260\'\374\274\024\034P=<\330\030=Q\t\006\2764c\013\276\220\300\340<wS\004\276\325.1>T\366\\=\331-\350\275\r\323\233\275\227?4\2768z\017=D2\241\275\\\215\020\276(\273\376\275v\234\330=jB\372\275\240L\331<\325\230\021>\210\377\371<\332/\263=M\320\376\275jN.\276M\'\246\275\014\264(\275\363}\036>\0248(=\276\340\324=5i\227\275:\244\334=l\030\027=\253\254\021\276\350\372\352\274T+X\275\232\010\316=\306q\327=KK\274\2755\323\250\275\321\265\016>D\3625\275\373\251\030\276\301a\272\275B\243\357\275\230b\341\274\240\315\246\275\257w\032>\306\343\371=Z\003\006\276\372-2\276\210\232\240<\274\332-\276Bb\375=\256\346\366=\341v\016>\312A\353=\021K*\276\252\017\r\276\310\235\350\274@\346M\275\000(\263\270\362\234\345\275\252\310\247=y\2311\276m03>\'\007\355\275u\210\003\276\006s\212=\276>\377\275 \236*\275\340\220\213<\324dK=\033\267)\276\2006\002;a|\n\276\350\230W=\245Z >\246\014r\275FY\344=R~\242=\363>\001>\204\377\000\275x=\275\274\273\'3\276\"p\277=\031\277\250\275 \2076\275\210\363\313\274+v\006\276\246\336+\276:\347\233\275\310\367\020\276\320YO<\302\\\304=`\270\007< r\223\273\330\261\211=\343?\301\275j\203\236=\nl\346\275!N0>\272\023\307=&\231\235\275!\353\231\275|~+\275qG\316\275{h\037>\242Y)\276|\344g\275\252-\230=\320.<\274H\377e\275\000h\002\272\000\374\033\276>\336\363=Qa\025>py\201\274\371\250+\276.\260\244\275\006\211\243=\200\024\201:\372bc\275U\251\316\275\332\031\013\276\204\312F\275fW\314=I\325\233\275\300\346\036=JI\312==A\377\2757\332!\276\36000<\222Z\314=\201\243/>$E1\276\300Y\221\273\246\335\313\275\016\235\377=\340\355{=\320\230\230<]\204,>\344\313&\276/\214\004>V5\271=\250\253(=\314\337\255\275\334\2064=\364\367x=\357t\313\275t\332R\275\276\276\241=f\340\247=\363a!\276\\*N=}\211\007>\366\036\301=\352\361\010\276\332\'\307=\336\024\247\275\213\023\026>g\341\345\275|E0\275\200\236\036\274\"\006\025\276j\033\344=p\215\357<*\254\020\276x\2514\276e\233-\276\3176\007>\302}\360=\217\202\321\275\"e\347=\270\007v=\321\302!>\332\310\320=\240\r\370<hW\274\274R#z\275V\215\305=.y\272=H\300\252\274\035\020\025>>n\323=(Sa=\210\243r=te\212=\321_\010>V\347\240=\327\350\017>\340(\356\274`\273\222\274\347)3>\355\330\030\276\257\3110>~\033\347\275\304\241!\275\006O\243\275\212\252\251=\204\371*=\316\313\353=j&\270= \276\362<@\3077\273;@\220\275w\316/>f\364\357\275\0312\002>c\374\032>\364\034w\275A\031\007\276h\234\376\274\300\026\026\273\202\343%\276\202\211\207=\230\264\216\274\000xX;0j\316<Z\222\337=(\r\375<)\376,>\252G\335=\362\255\312=\33553>8\356w=\200\211\240\274\332\300\371=@\261\261\274\r\r\023\276\000[\227\2736\177\360\275\241\346\010>\365\360\'>\304\0303\275a\2352\276`\332\032\274\304\364!\276k\202\n>\260.P\275\342[0\276\001}&>Q\217\365\275\201\350%>\032d\243=\254\204o\275\223n\364\275\020\243f<W \366\27502\251<\330^\026=Y:\"\276#\302\000>\316\261\025\276\335\236+>pwy<ED\033>t^\026=\363s\005>d\003\032\276X\312\227\275\244\370+=\361?\037\276$\225\346\275t\373\362\275\204x\312\275D\262\013\276\207\275*\276]\2424>n\265\373=\312\036\205\275\355\272\020>\210\024\244\274\2628~\275\244\250\020\276@\017F\274\341K\">G\006\275\275$-)\276s\251\205\275\270\316<\275\200\370\203=\2369\243=\342\344\212=\014O\001\276r\001\003\276@\364\314\275e\370.>56*>\270(\352<\031\270\024\276N\333\242=P\233R\274\234\204D\275X~T=t-x=\266\024\253\2755\227\327\275=\032 >\022\223\340=\346s\240=\007\333\312\275N\244\330\275\250\333.=\215\2364\276\200\\\347\274\237+\326\275\224\361@=a\252\221\275r\346\334\275\270\n)=\024k*=\353\271\025>\306\222\222=Nv\301=X\331\016\276w\214\210\275\326\352\311=Q\244\036> -\271\273\344m\212=\016\207\213\275\250\005\201<\202\367\374=a0)>G\265\022>\241\357\003\276\233\'\201\275>\301\327=n\353U\275h;\265\274\010\346t=\230\3274\276\252Y\214\275\006\337\330=\005\275 >\276V\235=\226K\366\2756\204\335=\205\306\013>\310n?\275x\311{=\256\323\264=\352tx\275\200g\315\272\374\226\004\275b\337\350=y\271\320\275\273\344*\2768\274\224=\n\222\233= \177[=\303y\030\276B\323\257\275$?\013\276p\324\033=\360\002\356<g\322\000>h\217\215\274\340\343\026\275\225G\000>\254m{=B\330`\275\365M\230\275\020\266b\274x\373|\275\233U >\200\362\002\274\226\352\275=\024\226W\275\320LM=\022L\225\275C\226\347\275\346i\257\275\366\364\231\275\350#\207\274\271w\021\2767F\013>;I\013>\370.B\275\211Q\302\275@]\006\273\206\316\240=[\017\005>\254g\010=\205K\004\276:uV\275\010\246*\275,\034\036\276\222\335\254=\236p\246=t\366\022\275l\310\020\275`p\266;y\267*\276\231\325\014>\312O\323\275\340#\205=u\345\002>\356\354\275=j\353\247=\224\267i=\254\363\201\275%o\033>\r;!>\0375\271\275\000w\010\275\336\t\320\275\341\230&>\000\323\017\275\304\323/\275\376#\341=\213\253\021>\275\243\025>L\202P=\307\222\346\275\270K\016\276\271\206\272\275`,\302\274\360\020\017<\025\0362>@\002\013\275\010\354\353\274\344\353f=\210\356\364\274v \374=v\304\230\275B>\243=\236\013\242=d\354t=?\207\372\275X\207\200\274\3226\313=\310\252e\275P\306\001=~,\007\276\353\231\025>\216\025\362\275V\241\310=\222v\255=\005\300\241\275\3317\037>+\346\270\275\022k\030\276\244\333_=\030\"A=\227\020\002>\206\301\255=\356c\301=\277]\335\275\300\342\244<\020[\370<\310I\254\274:\363\356=\227\363\262\275n\256\341=\316\317\322=P\004\326<\302\256\356=\304(!\275\370Z\374\274\000f\367:\320&\273\274\000\032!;c\264\n>C\3443\276\026\345\354=z4\224\275\364Z\223=u\361\016>.\014\237=\265\250%>?\212%\276\373\226\210\275\000\002\326\271\000\014H\272@\233?=\302\241\250=\030\326,\275\013\2420>\343\354\016\276V\030\222\275\250q4\275\256\246\343\275@N\220<\004\265\010\275\035\213\341\275\310\345\266<\236*\006\276\370\221\313\275f\200\240=_\301\234\275\204\034e\275H\3076=\210X\271\274\264\252\"\275\000\372\313\271\336\352u\275p\376\375\274@\243\023\275\007\233(>\377C\206\275@:B\273{\035\347\275 \r\244\275\302\302\360=\340\232\315;\247\266/\276\360\252n=t\322\027\276\270y\334<j\341\010\276vNX\275\177\227\r\276\271)\027\276\217\221\016>-P\247\275^\266\240\275\230A\003\276*\363\304=e<.>&\327\007\276|\025(\275\024\020\200\275(\306\351\275\016\326\332=\374\214\033\275\324\233\013=6\301\323=h!\207=\022\275\322=h\007\375<\203}\006>\037\265\n>\270\302\316\275)\n\020\276f\341\270=\346\'\234=,O\265\275pl\021<\020\330[\274\230\0142=\311q\001\276$\320\221=$\257\333\275\235\'#\276H\030\030\276\000A\272<`\236\026\274\'\207 >\315\262\004\276\350o\016\276\200\360\314:\300\360Y;a\007->L~/=\214\211*\276\303\376\311\275\200[\177<\252-\236=u\331 \276bWU\275\326\3552\276f%U\275\007\260\301\275\252n\025\276\310\323\035\276@\305P\274\3739\024>\362\353\376=g@\221\275\273?\035>\204\262\014\275\347\004\005\276\244\2655\275\023z$>\360G\242\274,\030*\275\253F\000>\335\004\250\275\256A\253=\332\313\263=\220\3033<\020\221\017=\033\026\020>4\255\003\276\300&v\275>i\203=\264\235}=\022M\251\275\026\223\001\276\005\3363>JV\364=8\353\365\274PA+\2748\000\007\276\n\214\237=i\033\013\276\270\201\272<\274\334v=`)P=X\320\033\276\300{Z\275\210\257\"=m\226.>N\266\322=\314\351E\275\323>\r>\220\327\277\2740Pq\274\342\232\301=\270\360\376\274^\335\277=2K\364\275 v\033\276\373\'\013>m\000\212\275\020\265T=H\021\206=\252\037\255\275>\356\366=^y\t\276\223\315\033>R\220^\275\000\336m=P71\2750\013\360<*\300\244=\001\347 >\0214\020\276X\364\264\274k\024$>\376z\230=\212\245\373\275 nw<\240s\261<\3409,=\3654\010>\226M\373=L*-=\330:\306\275FM\036\276\255r\004>.\n\361\275\241Z\253\275\327\350\212\275\233\253\306\275\274\220\003\276\300\340F\275\323\232\025\276\360\271P\275FO\342=\224\255\367\275\320\265-=n\337{\275[K+>U\3023>\233 \007>\000@m8\254\351!\276@-\027;h\244w\275\323\260$>\360\262\200\274\340|F=\227Z(>xH\237\274\034Q\016\275\004\013\341\275\031\311(>\336{\300=\337\351\220\275\300\300\263\273l]\035\275\002`\220=\020rT<\nY\205= \0054<\301\244\024>\360\202\n\274\375A\031>\350\014d=\363\t\002>\272\337\220\275\220!)\274\271\267\013> 0\246\274\224\010@=\215%\346\275\202\3602\276\364\373Z=8\346\315\274A\305\033>\004k/\276\3078\022>Ef\027>\000I\343\272\307|\016\276\200\231\217<Z\314\347=9-\017>F&.\276\210Q\304<\332\251`\275p\2757<\206\367\335=\230\320\207\275\215.\021>\334\0306\275\240y\367\273\210i\322\274\025[+\276\212H\344\275\227^\002\276&\271u\275p,\277\274\340\254=<q\374\002>\250>\215=\344\246\t\275\215\340\223\275TeB\275j\276\006\276`\350\331<6\014\315=\n\235\234=Cg\r>\320\222\314\274\202t\204=\275F\336\275@\031\260\2735d\014>\\\2061\276\037\2273\276Fa\331=\277D\004>\322\371\"\276\"\251\250=\352\225\237=C\2671\276\0000\2708\275:\n\276\253\211\n>o\234\373\275XD\342\274\016]\257=\223Y\n\276\02782>\376e\346=t\014\211=@\021\201\274x\312\311<\032:\246=\220\035\007<\302f\232=4<#=+[\334\275vX)\276\226\271\324=@\020\302;N\203\222=\020/O\275\373F\222\275\246u\347\275\270\313\027\275\310G\014=\2673\037> \272(\274\0106S\275\001r\212\275\022\245\212=PDM<P\002\000\276\350H7\275\207\323\027>\230\'\245\275\267}\315\275\270\033\255<@\261E\274\022\271\363=@\026>=\002t\231=,\336@=\t#\267\2756\034\234=\326%o\275x\243\\\275\022\377\343=\364H\'=b\320\342\275\224\343\374\275\364\256\007\276F\340\260=\366\236\356=\270\311\224\274\324\353\036\276\273\376\016\276@Xn=e\245\r>\352F\230=D`\215=:\266\035\276x\252\004\276\263\271\220\275\rU\271\275n\350\255=\032;\214=\2209x=bm\234=\212\333\240=\210\374\336\275\3461\270=\220^]<\313\221+\276V\303\207=\264\372\004\276\270\336F=~-\207=\330\rU\275hv\343\274\364\216\321\275%\r\r>\203\217(\276@\254Q\275\340w\007\274\374\3355\275\016\016\264=\020\255}<\003z0\276\373&\025>\332\334\006\276\332[\371=\216\312\361=\274\031#=U))>\321k\363\275Un\322\275\300\351\302\273\205\311/>\254\247\370\275\231\313\313\275\370\356j\275\253F\254\275\375\022\232\275\300\246i\273\373\220\025\276\260AJ<\036\356\363=Gh\023>\312\233\002\276\314B\223=f\212!\276\353\267\026>\243`\005>\200\356n\274\354P\026=\020\360\002<\333\363\035>\016\316\274=z&\020\2762\000\024\276\244\360\206\275\206\224\270=7\t\035>|\254y=\3175\316\275\235\2201\276\273\212\024>\212\001,\276\270\303\212\274\214\332\270\275\007\036\014>\370\343P\275\347\373\016\276\364\214)\275\214\'D\275\366,\307=\240\\\235;\255\360,>\225\3252>Y\3042>\335P->\362\234\321=`r3\276&\352\022\2768\234\235\274*\027\315\275\2403\016=+\243\233\275\304\224\205=@o\014<\217\210\024>&\232/\276\220\251\227<v\037\374=\356\3302\276\231\035\263\275\370\302\366<o\235\037>\271\352\253\275:{\242=\223\027\306\275\343\233\037>\314[2\276p(\316\275\000\275\205;(\221\215<\022\225\302=\346\032\342\275\036o\241=`\215\373\274\201\2553\276\000/\375\27209\351\274\375\007$\276,\n\030\276N\375\300=I\371/\276\267\3741>\210\260\256<\0008K;\357R\">\375\007&\276\230\2507\275\3446E=*\013\306=\324\360\225\275\300\365\\=\346\276\257=\314I\277\275q\005\'>\320\377\304\274XM\222=6\375\244\275\267\321\036>\004\2402=m\r(>\307L >\342\362\342=\370\t\212\275\241\305\355\275\346/\266=\206\227\271=>\255\357=\2721\311=\205\366\237\275\370\333\372<\013\004\034\276\220\021\254\274\314}p\275\373\026\017\276V\316\371\275MD\r>H\n\274\275T\214P\275\306\201\344\275\005- >\273\004\010>eT\016\276t\000\331\275H\277\263\275\373\241\013>\2339\003>\241\025\302\275\341\2420>\325\267\274\275d\346\030\276 \260Z=\037\001\334\275\311\2443>$_\004\276\302`\362=\344\330\n=\032\250\373=\036^!\276d\t}=\326\325\343\275\224\376 \276\311\247\031>\270\375G\275\260gY\274\366\274\236=\301\260\t\276\324\'3\275\345\343+\276\026\360\004\276(;\271\2759\231\t>\017\313\005\276\207\013(>`\214\220=|\343\323\275\3461\014\276\200\305\354;\372\231\260\275]\031\016\276H\360\213\275\210\217k=43A=\014\330\016\276\341\351\322\275\020\254@<\302\237\266\275E\233\355\275\014\365Y\275\006~\310=\274\311I\275\243o\r>y<\010>i{\t>G\203\"\2762\333i\275[\3642\276\206I\226=\224\213w=\310\312\024\276\216\2434\276\354[-=\300,\271;\326\001\243=`\215\354\275Xq\321\274vg.\276vV\343=\300.\231\273\036\211\367=\005V\020\2764\300\322\2754\200d=9\221\227\275\266x\255=\262\316d\275\200\221\320:L\323\301\275\275\273\023\276\300\242+\274\305\342\007>\317\013\t> \n%\2766\357\335=t\333\024\276\033w\316\275\240\021\261<-O3>H\325\035\275ap.>\325;.>\350\3228\275_Q\211\275\277 \276\2750^w\275\370\373\355\274W\022\327\275\333\024\203\275\200\203e\273^s\036\276\002\323\354=2\244*\2763,\031>\330<y=\324W*\276\2208J==\351\027>^\356\335=\240KQ<P\303c=VA!\276\372:\023\276\334\024\032\276\350\232\375<@\333\025\273\3122\t\276R\260\325=\n\372/\276\364\343\223\275\022\254\347=\022\255\024\276\2365\241=R^\245=\224\034\014\276\330\340\212\275D&\031\276\232Z\257= \312\305\275 \262\306;0\242\326<n\016\227=\203\304 >7\343\252\275P\312\237<\025\177\227\275nX\235=\317\207(>\020\030M<\325\371\271\275\350M2\276x\013\346\274\324\303R\275\264*\026=\r\204\">u\216\333\275\264\353m=vr\365=\002\361\277= }\246<~\304\311\275;\034\246\275XJ#=\177g\340\275\373\223\035>T\\\367\275\234\263\233\275&\205\373=\310\204\350<\007\262\014>$\231\006=\360g(\274\205\304\026>\275|\027>v\250\267=\020\323~\275\023\234!>\'\215\">z\227\254=\242\314\204\275I\017\220\275nm\363=\245\360\'\276\314!&\276\307\267%\276\033\366\267\275l\0001=\360\2139\275\204\030\310\275d\347*\276\326{\275=\262c\334=\336\r\025\276\246\260\243\275:\003\255=\240\323^=P\177\"\275\3128|\275h\310T=\261\n0>\207U\320\275\265*\351\275\343<\232\275\006+*\276\227\260\005>3\346$>0\216m<\3416\027>J\221\036\276D\266\014\275\263\360\003\276\270-p=(.\224=\251\255\343\275\000\200.\270\004\020>=D\375\035=A\330\t>\0227\035\276\363\251\007>\201\275\261\275\247C\033>\3003\324\274\353\3240>d\010\"\275z\247\243=\240\263\251\2734&V=W\324\030\276\324?m=\r\355\026>\370\035\216\275\203\231%>\327\177\024>t\371 \276v\235\277=T\231\002=\356[\343=`\373\247\2732\034\312=w\263\027>\000\306\016<\326\315*\276\240V\365;7p\n>\256\177\261=B\271\364=\2556\253\275\034]\372\275\255\350\303\275\300\322\353\274\204$\252\2756 \010\276\204;^=\tQ2>\301\333\024>i\273\264\275\252\370\250=h\354X\275l\037J=p\006\315\275\225J(>lB\276\275\324\t\031\275\027\262\310\275\212\337\237=\220\236\250<I\227\007\276\376\316\'\276\262\3221\276P\\\022\275\240\366\210;y\336\027>\250\361\006=\276af\275\033\260\355\275\004\312o\275\363s\027>B\371\037\276\213S\235\275\334\333\340\2758\254O\275\230\265\003=\240AB\275\321\201%>;\351%>#\326.\276\000oo<dw\007=\237\013\036\276\370E\300\275E\214\024\276\356C\251=D\227\037=\353\n\004\276X!\273\274\342\327\335=\001\354\024>@\307o\273,S\306\275\252\365\273\275\217z\257\275\200\222\033=\365.\025\276\240\200\024\276\2057\310\275\005\356\010>\214\217\243\275R\001W\275\274\033\007\275\230p\377\275\000\300\2678\340)5\2742\245\365=x\316\216\274\206X\027\276X(\355\275\2605\020<\032\314\263=c\316.>\313\333\010\276:/\336\275\300w\321\275%\317+>\277\370\034\276<\005K\275C\364\017> \031N=\240\356\323\274\374\220,\275-^\026>ZW\274=\006\326\366\275\243g\036>\234\345\005\276\332\242\301=l\353G=P\177y=(\017?\275\330\303\237\274\320\247\300\274rT\300=x\342\005\276\002;3\276\364\311Y\275\377\033->[\322\235\275\25044=\237\346\033>\335\n\n>\320\223Y=\210$\n=\240\265\222;t\3750\275.\334\233\275\320t\n\274\3234\215\275@\212\313\274\021\237 \276&2\036\276\365\335\020>(S^\275\326G\344=\000\324S9^\323\024\276\366\373\344=\306\376\006\276\236V\354\275\262}\357=@\262\204\275l\342.=\313\332\030\276\357)\001>Q\272\024>]\243\024>\323\244\250\275\013\0250>b\262\316=\227}\366\275e\241->\3341\024\276\216\333\333=\300\013?\273\010M\255\274p\246\030\274\344\2240=\220\317\016\276\000\'K=(\002\023\2762\327\355\275\331F\035>#\356\350\275\366\210\223\275\210\256\255\274x\311\223<R\005\251\275:\364\267\275Be\241=M\367\002>X*@\275\320\276\004\276\200\362\020<\245\035\">\263\345\032>x\002\216<\360\223A=\360\025\003\276\000Xu\272\002\364\226=\310\t\001\275P\337\007\274\n\306\312=J\000s\275\340\214\226\273\260\233\221=,\227\311\275\240\252\007\274\r\374 \276\2744\267\275.\360\362=2\377\354=\2240\211\275\362\317\221=\300#A<\275\010-\276\210c\001=\247\231\021>qq\262\275N}\324=<\244\215=\363\323\330\275:\221\212\275\006\364\222\275\000\321L\274\222\336\367=\332\226\275=\200\370\250;\232C\343=\204\271\005\275\031/\226\275\302\037\315\275-\306)>\217u\034>\3246N\275\300\301\231\273\321\331\n>HRq=\304Hc\275\002&\000\276\000_\026:\247\0300>-\3614>@yJ<\000\340\3578\200\002\232\274\306\257\330\275\2141\t=\026y\230=\\\307\003\275\'s#\276\362*\366\275\016\237\017\276l5\\\275M@\240\275\000\311F\273~\020-\276\274\340_=\314(;=@e\230;b\304\201\275\247\212\220\275Hg\223\275\002z\357=\266Q\371\275\310U\315<r\004\267=\234!\375\275\261+\034>\021\214\004>P&\223\274\262\343%\276\354\271\354\275\324}\001\275s{\000>\351-\330\275\305\204\013>X\036\'\275\256\247\356\275\243\214\242\275\264`&\275\310\324\201\275\352_\323=\315\001\"\276\374e\032=a\270\227\275\356\372\372=\243\211\256\275\256\027\344=\224\325/\276B\2760\276\200\202\302\272\231\007\032>\220SW<B\256\327=\337\266\013>\363\206\036>\310\304s=\240\325\215=;\312\007>\003\315\262\275\034`\005\276fY\352=\204\243\213\275>\360\322=J\216\016\276\210u\217\274\362K\224\2750.5=\210\324\211<6\377\277\275Bg\365=k+ >d\236E\275\232[\024\276\246>\342=\200\321\010<\320-\023\274\010 G=\030\032A=\037\351\003\276#\026\031>\231\340#>\230NF\2750\316s\274\345G,\276_\263+\276c\226\266\275\002=\307=G\033$>~\231\010\276\340\'e<\255\033\017>\024\215$\276\200Z\265;\211[\242\275\250d<\275_;\'>\3250\007>\3333\313\275:\277\213=A\014\004>\360&#\275\340\005\020\275\360\023+=\344q\212=\023r\215\275h\317\250\275\253\230\"\276\230\335\230<\356\\\304=0\275\001\274\351p->o2\005\276fp\267\275`O==\370\215\305\274@\3748;\277\343\035>P\000\013=\210\347\"\276dT\023\276\320C6=p\362@\274@\346\226;\264\3575=\230|\331\275\234\3527\275\206D\272=\033\276&>\354\245u\275\236\206\213=X\\\226\274\205\317\247\275\337\"\004>0\n\362<\261\327\202\275\304}\010=\002\300\322=\210\372|=\244\200?=\023\334\003>\356\005\'\276[\313\020\276 \364\230\275Ro\203=\274\273\030=\321\021\247\275B`.\276\200\233\031;g\212\037>,\236\001=\205\024\023\276(\242+=\'\2144>\370\226\027\276\340\317\232\273\251\026\221\275\004\000\004\276\335U\272\275\034\037\302\27533\t>\276\0102\276`\300-\274\366d\217\275R\361\322=:3\352=\020\227\201=PSf<\220~\033<>\270W\275h1\213<\010Z\251<\000\243\325\27464\353=\376c\374=\267\004\003\276x\004\320\274\310u\255\274\236\242\314=l%\037=\340\245h=\006\220\265=p\2149<\300\236\302<\247\242\020>\027+\n>\301\345.>P_G=\354\301==\267\261\341\275w:\020>\300=\214\274p\265\022<\036>\306=\344\345q=M\227\227\275\321\001\311\275N\225\204=\303\0103\276\320\352\352<P!G=\006S\246=\022\257\323=\300\376\323\273\334\250\010\276\037\343\032>j\220\342=c\3622\276\376V\313\275\000\242\352:`&\277\275\304\344\251\275\306\"\313=\240i5\275P:p\274\240\243\276<\300jh=\214\323\025\275\370<\326\275A\323\342\275Mu\300\2750\205K<\036\240l\275\270-6=\262\036\264=\300\376\337\274\252\202\335=\324\347\"=\220\357q=<H\031\275\317\034\256\275Hk\202\274\234\016n=\345\2622>{\206\034\276\347\246\305\275y\211/>\017\331\337\275\252\211\354=>8\201=Q\022\">H\253D=p\272\n=\320\0252\274\214\003&\276\200\324\265;\202\237\t\276>k\212=\0229%\276P4\234<PK\264\2752\367\277=X\306#=\311\364!\276a\317\234\275\222\213\223=\256\306\333=)\262\025\276\355\351\026> \313\023=D\200U=\356\275\254=\340\374y\274y1\207\275_\024 >\342\301\244=\026\\\270\275\022\354\303=\037j\341\275\352Xy\275\023<\031\276\302\327.\276\361\212\001>\215\345\n>|\307\220=@\307,\276\002\212\371=\262G\361=\254|t\275H\360l=\200fF\275xy\276\274I(#>\033\010%>+j\200\275\032V\256=+\360\241\275`\205\377\273\304\\\206=\255\2203>\220\250\342<\370H\323\274\030r/=(\314\202\274X{\251\275\260,\016\276\211j%>y\272\024\276\306\255\331=\0007n;.\333\231=\002\351\312=\307\376\240\275\025_\021>\300\347\"<;\237-\276\235i\263\275C\362\215\275\036\222\342=\022\310Z\275\240\0217=8\273\370< \374\261\275\312\314\330\275p:\005<\320\237u<\310\221\327<\372\342\355=\376\217\247=\334\032\221=\3500k=R\031\261=\230\314\300<\240\244R\275\306N\020\276\202\036\241=Fb\345=\2001\316:\\0z=\300\311\324;\323\252\023>\346T\357\275\366\024\345\275\200\022\264\274\207\354+>@\024\207<\240\355\035\276*\375p\275\212.\033\2768\237\350<\364\2002\275\"\262\'\276\260\230]\274$B\'\275\256\006\024\276\000\027\371:\212\002\261=\3121\341=\244\371T=\332|(\276\0004v;\024W)\2750\024\376<\310\343\334\274N\027\366=,I\003\276\271^\006>\275\317\004>b\026\234=O\344&\276\034\003\376\275\034\223Q=/\'\311\275\341\016\003\276\246\332\360=\270\256\333\275\240\225\345;\2660\237=\224\347\347\275\303\336\032>p_\025\276\005\032\273\275Yk\023\276N#\255=\343\034\264\275h\004\010=ot2>8\344\001=\210\036\037\276^\031\013\276\215a\004>\304\213\244\275@e:\275\021\332\246\275\rl\024>0\375T<o\313\007\276\204\216\341\275jB\221=\035\312\031\276,\231(=X\273\373\275\340\027\260\273\227\n\270\275J+\271=G)\364\275 \377\370\274P#$<$QW\275\252\350!\2762\367\n\276\014V\223\275\026\365Y\275\367\2140>zx\321=P\344\177\274+\261\001>\306-\017\276r,\343=\320\203I=q\033\003>\n0\213=\025\r\000>\360r\272\274\345`\213\275\246\347\331=\322\030\243\275\342\3341\276=\372\314\2753\036\324\275 \0135<+\213\006>\230\370\r\276X\234?=\266\212\016\276\366\350\324\275`Z:=\274\250\017\276\265\346(>*Z\314=\300\376\223;x\250\035\275b\002\327\275\276~\355\275\357=3>n\020\204=\002\266\203=\374A(\275\016r\362\275h;\333<\344\327\216=\300\324\006\275(\320O=\362}\n\276\343`\372\275%\244+\276\314#B=+?\006\276(Y\022\276\276\256\255\275\231\333\203\275\357\263\234\275\236\375\022\276V\002\204=R<\001\276\320!+=\016\024\367=\216s\330=8Q{=@\363\034\274Z\250\263=Bl\237=\356~\316=d8\203=r\337d\275\302k\355=\3434\030\276\327\3422>\374\334\034\275\250\264\013\276|\366\204=\310j\210<&L\251=}\304\007>\303`\207\275 \343\243\274\264\347\351\275rE\271=f\342\210=\276\345\237=\250m\t\275\230\245J=\305A\032>\372!\270=(\234\340<\214U\n=\200\315\014\274\247\2321>^\245\002\276\370x6\275\340\351B\274l~\006\276\207`\274\275\2677\017>\324\214\301\275\320\017\005\274W\026\312\275\340\324\355\275\301\323/>\360\030\004\275M\200\260\275\336}\223\275\376\361\363\275\236\325\301\275%M\033>\340i\274\275 0\223<\"\024\206\275\302Y\303=\265\274\354\275\316\214\375=\240q\303<p\223\236<\311t\271\275\201\021\254\275\220\np\274\325\365.\276\300\264d=T\335\212=\000\356\214<\211\354%\276;\3143\276\314g\206=\364]\"\275\252kw\275\226\370\312=\353R\300\275\327\263*\276\330\317\025\275\300\256\177<\256\353\330\275\233\334\001>\354\326\247\275\260\007\310<\324\317\002\275`\010\027\275j\263\362=\313H\004>\337K&>\262:\305\275\330\373\311\2752\271\316\275\215W\006>$\270p=\346\264j\275\000\343\005\2736\021\224=\000\031\032=\300\225\037;\222A\355=\236\370\260=\306(\223=\260\315\177\274\200\330\327<\300\3246;Nz\251=\2167\316\275\2706\013=\014J\213=h\337\212=\206\347\210=\263\371\223\275\3509\301<09@\275\360&\n\276\372\374\376=\360\014\332<\020Bn=W\202*\276\313F\014\276:\377\260\275\327\333 > \2067=\000\241\014;B\315\353=N\326\315\275\020\351\014<\026X\242=\240\034\201=@^\273;\270\377\256\274\202\237\351=XQ\224\274`fA\274MD\350\275\323h1>FT\355=\357\261\016>\250\316\325<M\266\025>\004\311$\275\300v\220;\000\374\024;T\367u=8R\216<hE\324<\000o\026\274\036X\266=\032\254+\276\360\002D\274C\033\005>lN\217\275\241\227$\276\214\363\030\275\216\003\003\276\0003\007\276\241\217\005\2766\033+\276\260Sn=(\355\371\274\344o\004\276\211\352\306\275\306\027\333\275r\364\235=\010\2271\276\233\364\027>\020\204G<\242\t\360\275fi\014\276\001\310\016>8(\216\274\326\277\366\275\2541i=\000\223\340;\224\311\232\275\230E\200<\321\346(>N\314\316=\210;\215<@\337\306\274\273n\217\275\017\367\031\276\275\371!>\262\310\321=L\217\230\275\270\250\262\274\240.\217;~\244(\276\200T\"\276\335I\231\275\037\375\003>\000N\257\273F\216\246\275\241\035\024\276\014u\370\275>+\036\276\230:\371\274z\355\306=\306\036\304=\347)\336\275\363\017\016\2761u\024>`\313`\274l\023\337\275P\351\221=\224\227B\275\304\375\212\275\260\2505=9D >^\327\211=PU\212<\2040I\2754\"O=\002W\027\276U0\342\275@;\r\275\317\277,>#\301\222\275CE+>F\246\226=\355\270)><-u=\356\273\313\275\252\321\256=\236\310\371\275Wo\252\275= )>\032y\305=\302l\344\275Xx-=L\030^=\245@\024>{V\002>\247p\025\276\372K\377=\212%\005\276\225\245\352\275\001\336\006>\213\003\257\275\005\0023\276\361W\313\275^*\326=\360f\t\276o\001\302\275,g\021\276\352x\244=Z|\025\276\330<\203<k.0\2765\003\013>T\203\206=k\310\034\276C\352\"\276\365&\001>\351\313\">\234\305\007\275p,\024\275U\"\303\275<ma\275\365-\026\276\356D\205\275\276\316\326\275\343\333\026>\366\344\226=\365\207\023>\253\'\237\275uw\004>\265\0344\276*\370\274=\206\362\324=\010\032\255\274\250\200\004=\016\003\024\276\005\323\010\276J\233\330=\'\202+>@\034\233;\245O)>7\256\250\275\224\325~=.\274\300=\250()\276H\3070=\225\245\211\275Qv\304\275U\013\230\275\270e\343<#0\030>\366W\345=\2245\001\275I\343\n>#\213\033\276\314\3045\275\336\227\252=ag+\276i\223\023>`\242\202=\005h\226\275\000\356\267\272\254s&\275\371.\004> o\007\275\243\270\010>\3565\324\275\240\257\317\275*\003\264=o\032\033>\356\236\301=\035(\007>\3151,>| \177=\360\345i=*;\361=\220\274\352\275\'51>z\304\266=\311\266\021>|)Q\275e\301(>\350\244X\275 <x=\356\374U\275\245]\207\275{\236\030>\000\000\035=Ot\034>\227P\316\275\320\304:\274\34233\276P\327\375\275\000tz9\346\322\332\275\251\017\033>Z\355\253=3k\020>B\255\251=\3123\221=5\2600>\217\331\021>iE\033>\226>r\275\376A\264=\000pJ\270\312\226\333\275@^L\275\266\000\377=\000\326\326\273\324@%=\320\204\217<\234V2\275\275\2130>d\220\310\275\240\324\325\273\034\300 =\000\'g;\302\026\360\275&\247\270=\234\261\035\275\220\333#\275\320\267=\275\244\343\276\275&]Y\275\250\360\335<\310y\237<\200\000\211<\3408\275<C\003\023\276\340\371y<\360z\254\274\300J\010\273Y\t\000\276&\202\322=\360|D<\324=\322\275R\337\332=wB\035>uw\013\276\024\276\035=^o\353=f\245x\275b}\212=\260^e<7V\031\276\322\252\377\275\010\003\207\274\226\t\333=\240\3376\274\026\207\243\275\2503\221=\320\010<<\"Y\210\275\"\007\335=\333\240$>\005\034\004>\3309\037\276\236]\261==\014\344\275\014\177f\275\000S\336\275)B\227\275\0247\221=\200\306\231<\"\320}\275P\267\276\275dY~=\347\005&>@\365\332\274t\035!\275\270\253\021\276\2106\313\275XtA=\365\313\031>\314\306e=\364G;=.D\326=b\344\300=:\213\236=l\247!\276\000\333#;\270q\003\276\340`\"\276\324\036\021\276\350\034\354<\343C.\276\002\216\252\275F\363\346=\200\371\002\273\031\332\031>\316\361\361\275\232\346\234\275\036a\312\275\243\303\335\275\023\211\346\275\030\374\362\275M4/\276\370\377\245<:8\346=\224\211j=\200\326\225<ij\036>\325d\264\275nf\001\276\022|\375\275\n\031\357=\335\227\021>X\003\222\275u%\316\275\226\364\235\275\360\253\002\275\004\265*=\366\347\300=\322Z\347\275\370;E=\310\360\031\275\327\311\002>\370\317\306<\360\005\004\276\240)\210\275\332z\273=\002\313\202=\316y\354=)l\001>nl\337=\037\224\006\2760!~<\300\314\265\273\010\354*\276\177\214\237\275(\370\375<\363Z1\276\214u\030=\354\242V\275\2350\271\275\'\0214\276EO\005\276\314\243\035\276\000\216\035;\200\003\353;I\346\035>T^>\275t\234j=tW\\=Y\354\317\275iF\000>\020\252\256<\021\333\037>\016\016\202\275\027\276\242\275W\214$\276\226Y\004\276\225\3570\2763\227(>\272\330|\275\262\020\243=:\266\361=\r\034\r>\022.\262=\261_\310\275\372\203\336=\301\217\007>y\205\321\275S:\215\275\250\347\200=\260\036\334\275\320\021\372<q\350\004\276\273?\016>:\2540\276\342z\301=\220H8<`|u=p\230{<6G\303=\322S\343=Dvw=\214\020&=\177\032\301\275\003\"\305\275-\\\026\276\017z#\276\220U:\275\200\337K\275\344^\037\276\320\371A\274\340\'\240;7\"\034\276b\326/\276\0375\036>B\363\023\276\260V\363<\265&\020>\002B\333=@k\344\274\242\251\020\276\322\036\227=\200W\275\273p\275k\274\321B->\000\347\240\274\300\227\212\273\371\210$>\342\004k\2752`\332=\206\337\013\276\232\352\327=\020\3561\276\020\005\223=4\016.\275I=\007\276\324]g\275\020\257z\274\202A\335\275\315\3701>\nx\211=X\361\261\275\346\344\343=\351\363\301\275\006\031\325=z|\260=Hl+=\277\342\005>`\"\213<\312j\324=\300\316\020\274\342\340\212=\200R\212:\016\247\275\275\366\033\321= \020\000=O\241\244\275\\#\233\275\251V\026>\234\017+=\263\240\030>\210c\204\274\3054/>`\006!\274\242=\236=0\334M=\"\305\275=\320Y\244<\244\007\224=>\016\017\276DE>=\260\272\357<\271\364\255\275\231\225\000\2760&\270\274\250\260H\275\225\202\314\275\031\346\034>`\023\344\275\344\033E=\372\330\253=\000r\202=D_\336\275\2006\347\272IR+>P\261#\276\232^\356=|_I\275\275@\344\275\242r!\276\303>2\276\212[\330\275EH(\276\254\017\374\275\0269\036\276\022\334\010\276\010h2\275\024\206\030=\020\224\001=9f0>\035\374\201\275HV@=\264\323\027\276<\313\232\275\265Y0>\266\024\345=\375\333*>\355\307(>\034\354f=\350v)=\036\260\363=,\025R=\330.y\275F\344\314=$\035!\275l\216T=\264\336e\275\252#\t\276\301\002\002\276\177F\321\275\354\354\t\276-\005\305\275\311\326(\276\r(\006>\246\013\250\275\260\321\373\275\276\243\302=5\323#>\242\225\334=\000\200\357<I|$\276\222\221\374=\263\177\021\276\300/\234;\000\326\373\272\256\277\026\2760\323\336\274\0208\034\275\260^\002=\300\017\r\274\240\337}\274\254,\"=\267s\307\275\000\300\2437\300\006\372\275j\363\276=@\030`\273>\375\030\276,qT=\\\177\000\275\024\243\250\275\244|\035\276\3469\342=\000\334\374<\234\315p\275\362\251\361=\360}F=,\267\n=\365\331%>\300\257n\275\362\321V\275\000\305\r\275t\274#\275p\333\031<\376s\353\275\224\0233\276\222\352\267\275\37331\276\010\312.\275H\367&\275\327\0242>@u%\275rh\262\275\314\177n=\376\265\305=nH\374=t\345\003\2767\3770>\317\272\250\275\330n\311\275`\303\373\274\372\202\244=\004\256\034\275@\037\006\275\320\215m<{2\t>\200u\341\274@(\306\273\'\214\002>2\256\274=\275G\221\275\210\036\301\274 \305\261<w\301,>\347\3234>\024}\321\275(\340(=\200\027\243;xz\243\274fn\347\275\216\250\266=\262s\307=\320\234\354<h\233\200\274\370\3304\275\207\000/>\252\340\250\275\300\216E=\322\317\334=S\2634\276\242K\356=}\214\313\275NL\371=@|\375<\246\263\337=\022=\234=\257\316\034>6\234V\275\247\0014>\310?\033=\020\354\021\276\264l\027\275\325\212\033>$\013\222=e\272\305\275aT\027>5\300+>\212\372\312=\270n\275\274\365s\025>kd&>\033\321\337\275N)\232=\017\227$>\334\342o=\033\265\t\276@\032\232\273t\026\254\275>\231\262=,\035H=\300\240c=D\005\352\275\334YP\275\271\377\324\275\346o\360=\255U\342\275<\214\t\275\030E\003\276ts\024\276$\305\215\275x\350\245\274\203,4>\377\340\031>\200\337\231\272\200\177\007<\210\314(\276\327\310)>\360\007Q=\255\233\260\275\360\030\014=8\357)\276\026r\354= C~=\364\026r=j\354\254=`\263*\274P\237T<\271:\331\275\300\207\253\275z\315\250=\271\030\026>.\222\320=&\2722\276@\223\212\273\257\377%>\035\2251>\3104F=\210\262~=\204i^=\022b\254=\304\270\032=bG\361=\034\356$\276\024\217h=o[\037>]%)>A!1\276P\217q<s\200 >?A,>\354T^=\226\256\345=T\273\023\276fY\327=\020\334\t\276\370\343\241\275\365y\006\276yj\232\275\361E\016>\262M\233\275r\214\351=$ve\275\276\205\241=\342\235\036\276\362\021\250=\300t,<\222{\216=m\227\027>m\243\024>~f\312=\235\335\017\276L&\017=\255\336\027\276\372\227\210\275\rq0\276\214\321\007\276\360\030\211=B\364\217=\000\332\216\272\336_w\275l\314Y=\030L\234\274bK\260=X\374%\276\340a\237\2730~\020\274\026\242\227=\367\212\033>\263\010.\276\250(\242\274\277\346 >I\242\'>\016\375\266=\344=/\276d\0134=\305\331\023\276\256{\342=\222d\325=TB\"\275\336J\213=\213\356\032>\364\256i=\032<\344=FP\351=\000\272\202\271\375\236\000>\030\300\217=\257\361\034>\366\241\215=\236[\031\276\371f*\276\252r\323=\316M\021\276\242\313\342=R\"2\276tr\225=\221d*>\300 m\274}|\361\275\030\031\235\275\224LT\275\323\223\245\275&\036\362\275@+\344;\300\3723<\237x\010>\340\336#<4\354\243\275I\305\000\276\224\016~\275\321\275(>\214e\205=\264`]=\312e\317=\363\260\245\275\216\350\035\2766e\325=\205\216\037>\270\341\034\276\017\2554>\344r\027\275\306\205\233=\020\332P\275\005\223\257\275U!3\276\325\035 \276\252\356\303=\226\266\327\275~\330\211=U\220\330\275\276\025\217\275\200\261\350:{L&>\t,\001>\374\234M\275\206\324\244=x)\026\275\310\312}\275\232\344\016\276V\257\014\276\340\267{=\326\213\212=\201\366 >g\013\003>\002l\231=\3637\t>\330#o=\340b\223\2745l\261\275P\343\343\274\237\t&>\000\254\203=`#\301<\300\311h<U\031\036\276u?\001>J\033\231=`]\225\275,\027\007\275 \223\033=n\371\375=8i\256\275\306\226\242=\270\352\335\274\340K9\274\255\206\005>\362\364\265=a\236 >\350\025\034\276\277\272,\276(b\272<\3609-\2768\r\234\274E\034\030\276\265$&>\327\247\200\275\300`W\273J\322\221=\247/\036>L\221\352\275BA\374=4\310\014\276\276d\325=_\007*>\034\347P=\233\006\255\275\210B\375\274\271<,>cv\320\275,y\022=\023\335\361\275n\030\341=\202\207\352=\240R\320<\037\216,\276\244[\037=@\306\014\276\255\235 >9Q\032>\336\tU\275\215t/>\354\270\210\275\353\223\234\275\022\302\375=\000R\314<\360\361\304<m\010\032>x[\253\275v2\235=\364\2058=\300|\';\'\034\003>\376Y\341=X\204\007=4\300\305\275\220n\331\275\020\215d=2h\315=\226m\360=\271\267\030>\265\3573\276\352o\002\276\222\231\360=\300\226\300<\'[*>@\004\374\2749\255\001>`E\217\27466s\275\220\375\242<\250R\233\274\"\301\230=\367\253\020>~n\321=\252\312\310\275\252*}\275q\001\002>7\037(\276n}\244=\224\311\325\275x\247\205<\376t\317=\322/\360=7\274\">\322x\341=\2705\360<\235\034\003\276eI\215\275o\224\'>\034t>=rI\375\275\222\312\356=\336g\177\275\304\032\346\275\221u\r>H/\\\275\004\340\220=\244\2333\276\023\254\037\276\'\325\031\276\374\307\336\275\342X\304\275\006\200\204=tg\214\2757N\006\276\245>\271\275\354\252\370\275H\025\335<`\032\030=\2401\331;\333\205\273\275\274\371O\275\226\3440\276lT\001=p^W\275h\346\366\2744\305!=pH\223\274\316\336\233=\332\237\275\2758\361\362\274\207~1\276~=\364=\213]\022>\020\355(\275\361\253\353\275\300\312\260;u\347&>@\251\307\2730\005#\276\222\367\227=\240{\221\273\256@\377=\016\361\364=\330\204?\275\320\030\220=\247\026#>\307\\\324\275v\234\372=\222\t\350=T\207z=\031\370\014>8\3263\275\377\314$>`+\346<Jb\301=\254\370\010=\307x\'>\263h0\276\366-\313=\220\2370\274\260\2367=\236\366&\276\372}\374=\307\352\020\276\366\335\251\275\237?\014\276\224\341\033=\352&\312\275\222\323\341=I\006\032\276`\025\'\275\240\317\370\275\260Q\014\276\336\352\332=\252\244\207\275\2575\025>fm\233=\306L\020\276\333\372\023>\300N[\273J\021\322=\365\300\311\275qE\035>\315\370\215\275|\017\014\276>\315\257=\316\210\304=/\311\031>>\330\021\276\252\303\343=\033\371\033\276\343\006\016>\236\202\202\275\001\377\031\276\016\250\265=\254\022>=W:\260\275;7$\276\010\370!=2\324\217=_\357\016>v<\275=\200\247\251;\210\221\324\274<\2425\275\310^\"\275\000\224\304\271\000\245\336;H\007\221\275\276\014\256\275\337\370#>\213\350\014\276Y\014\241\275\n}2\276<!\217\275\306\272\252=b\225\325\275@\241\265;\010#\226\275;~.>?\310\006\276\364By\275\016//\276\227{\316\275Z\342\231=\220\330H\275\330\303\306<\212o\255=\200\237\245:2\232\374\275c\264\325\275\370\312\'\276\340\244^\274\230\2470=\023\273\000>j\371\377=de\004\275$i@=@z\205;\207\001\000>\2202\371<D\243\033\276@}1<\360\307\003=\220\337F\275\326\036{\275\223\017\327\275\366\303\357\275|\022\007\276rU\260=,+a=`\350y<(j\023=\r\301\017>\242q\227=\0009o;\251\026\013\276\373\356$\276c\020\016>\302Q\034\276\326\375\352=N\367\317\275M\0140>\204U\223=0\316N\275\260\335\317\274\010\304,\275\240!\006<\244O\036\275\000\027\227\274\360\247E\275Rw\007\276/\227\344\275\212?\253=\212\243\t\276\366{_\275\002\013\275==~\306\275\254\210A\2756\242\244=\220\224@<\262Ff\275,U;\2758\265\316<\030\377\322<\030\277\013=\267\344\017\276\352\356\237=\021\322\335\275\364.\276\275\312_\350\275\"b\213\275\033\3444>\300\226,;\230K\221\274\033\022)>\346_\230=p6\"=\361\276\n>&\263\331\275\260,\216\275j/\006\276\000\337\314<\024?w=>\300-\276\014\350v=\360\014[<Z/\234=\016\037\331=o\272\337\275\261\374\215\275\370\217\346\274<\356D\275\002\325\310=\253+\000>\020S|<\200\212\236\274\2639\206\275\317a\r> _\323\275\000Y\317:\2472.>^*\265=&w\316=\003#\356\275X}\215\275\\\237%\276*<\272=\352\273\245=\270\347\232\275\355\343\210\275\000\253\206<Q%\027>\203M\032>\262n\331\275\340A9\275a\233\214\275Cr\034\276\261\'\270\275-\356\025>\002[\324\275`!\220\274\274\360\222=\014JF\275 Vz\274\006>\013\276x\007\275<\014\262q=\272r\350\275\236\002/\276\262\303\226=\007*\306\275 \337\356\274L_\330\275\321h\030>\262\243\364=<R\352\275\215\006\026>\3138\n\276\361\257%>\222\327(\276\333\0274>T\374\254\275\362\272\357=\"\371\356=\272+\024\276\327\254\003\276\014\213U\275\226\354\000\276_\340\030>\222l\331=P\303\355<\225\3133>\3067\240=**\223\275\030\252\312<\366R\356\275\246+%\276\374\341\213=\r\316#>\372\271\374=\312Y\325=\010Q^=\326\255\324=\360\000e=X\010\321<\340\367\301\273\245\262\025\276\240\026\267;\032\235\327=d\334\020=\017\n\315\275\312P\250\275\000*z\275\000\t\266\274a\353\025\276\261\030\263\275\200\024\322<R\215\211\275\031\021*>\340\356\253;h\342\375\2750\326\026\274of*>|\020$\276\265\201\203\275^\366\236=\014\255\016\276\200\246\235;N\017\232=xN\353\275\204[-=\313{\030>` \301\275\307\014\004>\202\317}\275\216\232\330=V!\023\276\355\035\201\275Dg9=\215\324\240\275\333\343\277\275`\2164\275z5l\275\000?m\272@\352.\273\034\303v=\000\337-:\010\3412=\340\326\206;@.t\273\013\2244>\214&!=d&\037=0\375;<`/;\274W\235\021>\013\273\210\275e\342\310\275\340\025Q\274\324\261s=\324]\202=8\026\206\274\224JN\275\362t\273=.\244\364\275\360\202\353\274\370\303]=\342\222\206\275+b\n>\373\350\023\276\203{\031>\250\016\357\275\226w\235=p.f=\240\300\216=\367\313\274\275\214\306\035\276\366\243\307=Z5 \276]\353!>\3328\207=\000j\372;41\340\2757\320\245\275\000\n\027\274\000\002\271< \275\271\274d\373\355\275Ft\"\276P\202a<\220\016\002\275\2503\235\274\\\013t=\200\312.;H\013\215\275;\373\356\275K\1774><z\025\275\000\2772;\020\tg\274\021>\371\275Wa.>\246s\366\275\203\037\017\276\014y\207\275h\206\204=\237%\021\276\027\337\001>\310&\225\274\201c,>\345\211\007>\032\336x\275\300\354\226\274\002\277\370\275\322\341i\275\177\204\305\275\244S\034\275\327\345\263\275!\253\346\275x\354\001\276*@\224=\212\002\276\275\244f\002=}k#>\277\266$>\000\245Q\272L\013\034=\353\316\322\275e\242\'>\006\020\363=\003\0240>_\031)>\270\300\272\274B1\227=\340a\227\274\002\257\334=]\362\027>_,3\276\330a\245<@\207\233<)U\026>Q:4>\241\345#>\000Hg\274\300la=@\214v;;a\020>&\017\242=f\200\230=\220\032\027\276q\016\034>Bi\260=\256F\225\275\n\014\347=\240\215@<\304ym=\266\224\354=\010r\201<\000\212\261:\355n\007>\322\n\355\275\204+i=kK\250\275R \234=O\221\312\275\200:$;\006\321\253=\036{\351=\230\356n=PO%\276\275\035\'\276i\212#>\322b\234=\3122\344=\376f\203\275v0\237=\330\r+\275\340\"\300\274e\251\036\276k\177\024\276\300\004U\273\250t\326\274\274@\225\275\2329\236=\250\341\370\275\330\327\362<\344\235<\275\350\032\032=\210%\360<\214\264.\276\037\264\026\276<\374\005\276\213\256\007>U\324\240\275\326\344\245=\\c\221\275\226\270\257\275\3675\264\275\237\253\025>\225b\243\2751\327\004>\013\373\302\2750\242\374<(R\300</p4>\200\213\200\274 \274\301\274\317\257)> ;\232;\300Z_<h\033\337<t\2674\276\356\033\367=\331`\313\275\227\0320>R\013\030\276@P\367\273W\322\323\275@-\320\273\\\340Y=pw\313\274\310\013k=\306\315\314=\252,\212=\246\022\227=B\003\222=6\320\225=\"e\235=\206\225\210\275@\276\233\273J\337)\276S\244\036>za\030\276\372\341\315=Ar\r\276p\256\034\274\256A\007\276N\340\013\276\255\322\023\276\234\377%=\370\tk\275\256O\r\276\330 .\275J\354\212\275P\240\033<\364\357\'\275\370P\353\275\316\353\263={\010\245\275\220\340\300\274\232e\003\276\362&\351=\240\007\256;hV\352\274\274\273-=P\2700\274\300u\232\274\340}c<NWc\275\330y\001=\246T\365=\320\360\364\275\300\253\320\273\020\032\037<M\365\271\275\233\220\033>`\346`\274=\306%\276\236J\364=<;S\275D.\'\276H-\341\274b0\236=\017\022\020>8\346\206\274qy >\000ta\274\275\211\024>\323\033\006>\314\277\023=\3550\004>\313\213\032>n\033\326=\006\200\376\275\" \227\275\247`,>\230}:=2\364\315=,\322\325\275\251\215#>\0353\016>\220R\224<^\3531\276\002\200\354\275X\327\025=\270\234\212=A\240\'>\332A\250=\225\243\003\2765\345\005>=8$>\034\274\007\276\000\2004\273\352\205\321\275\257\214(>\210IL\275\003\023\t>;_\004\276\035\272\013\276p\247n<rU\350\275\000L):\240\365\305\273\230%\200<\354\021\265\275(\332\310<~J\230=\272:\020\276\366\215U\275\242\303)\276\241\2574>?\337\031>\236?\343=\345\356(\276(=\010\276`\000h<\372\211\244=!\343\214\275\0006W=\314Y\262\275>\333\340=\316\324\253=l\222.=0dI\274\200\000\222\274\020\016\244<\321\373\005\276\007\270\260\275(\0270\275\024\306\t\276Px\264<\000\334\006\276x@\264\274g+\033\276\332\342\025\276\360\020\372\274\2700\212<r\237\313=/e(>2@\002\276`\301A\2750\025O\274\000\321T\2723?\002\276\246O\357=aF\013>L\037M=>\222\234=\334\352w=\217\024\300\275V/\353=\211r\237\275\301t\006\276\030\2422=F\r\325=\244#\312\275\020\301\356<\276\352\227=\241l\027>\'\370,\276pC?=\330\253\036\275\010\023F=y\377)>\324|\034\275>\336\204=h\021\216\274\335B\001>\254\257\035\275\357\016\230\275R\370\245\275w\250\224\275\003\320\r>j\234\300=\036\nW\275P\304x\274\366c\224=\211\014\016>\260;\004\274)6\271\275f\301\364=\222\013\017\276!\341\035>m%\027>\264\016v\275\023\235\005\276\0369\362=\020\234Q\274\264\226\006\275\251\376\017>\024S-=\346\232\365=Sl\024>0\304\242\275\370\222Q\275:\335\365=Hq\275\274\313\001\000\276\320\2542<\2526\241\275\230\371\311\274\364\334I\275\006V\013\276~\363\227=\022Fp\275\001\'\">\000\216\230\271W\3441\2766\211\221\275@\037&\275\372\365\376=]\242->\270Ag\275 \253P=\345\3640>\306\0074\276~T\214=\306\246\332=\330X\035\276\207\314\013>\322\201\270=\335\202)>\204\255K=\320%\367\275,\316\237\275\310f\003\276\r\0263>\336G\310=\201\020\007\276\307t->\207\021\035\276\034Q\345\275\000J6=\324v\310\275\210R\352<xE\023\275\000\035G\274\232\374\r\276j\032\273=\375\0061>\203 \n>,\346\003\276FT\272\275\320\336\'\275\320\305\207\275Ak\262\275\246p\312=\270\024G=\352\177\316=X\274\"=\244\3441=\006\334\021\276\252t\226=\370\037\266\275\220\320\202\274\230>\305\274V\314\347=\025\257)>k\235(>\214eG\275b\373\347=[#(>2W\316\275\202l\"\276-\313\001>H\200a=\206\366\373=\265\325\033>=^\027>\210X\006\275\217\250*>XM8=8>y\275\260\3700\275\212\322\320=\210\356\251\274%\357\221\275&>\315=(\024\305\274\324\033\037\275\362\036\313=Ts\212=)\346 >\252N\234=*\360\377=\252+\240=\214Q \276\n5\336=W\330$>\010\036\n=\200\300\031;\000\341\321\272\200\344\002\273$\216(\276B\3100\276\352\252\334=K\220\234\2758g\305\275|\017)\276\2403\252;x\360\275\274\232\346\323=\300%\n\274\235\262\n>\224\304M=\225\225\216\275\250\252k=\271\363\345\275x\312X\275\241\276\224\275\000E\214\273\322\025\200=\350\201\004\275G\201->H\032^\275\230\233\201\275L\300=\275\240\230\255\273\260\0134<h\377\352<BS\361\275\261y >\230\321$\275(\262\255<H<\204\274\320\205\317<\016\267\317= \314_=\236s\353\275\250n\363<\350\201m=\241\262\317\2759\341%>\240C\326;\357U+\276\'F(>\333\317\314\275\346\370\317=\020\366\274\274t\021\327\275\232\377\232=\017Z#>\016_\273=\230_\370\275\000V%\275V2\303=Xr\263\274\253\323\r>,\221\330\275\212;e\275\217\364/\276\367\340!>?\300\202\275\211b.\276\031\213\005>\356\217 \276:\215\267=\2208\337\274\361\364\016>\020\242l=\364\005\310\275\0245\020=\243n\005\276\203s\007>\262\372\332=\216G4\276h\265\335\275\355\362\215\275\210W\014\276^\005\307=b\034\356=8\351\270\275\300\2654=\000\"\3579$\014Y\275\'\223\035>\364\253\016\276q\243\026>\373\237\375\275\300Y\321\274\300\343\347;~\260\306=\316\201b\275\225\345\355\275\010D;\275\024\255z\275l\265%\276\037\254\226\275\260\216\025=\356\253\372\275o\360\020>Y\247\032>\320\034\236\274\360?\037=k\016\003>r\030\314=\306\344\244\275\336}\233\275.\262\353=[\276\320\275\245\206\373\275\347\002%>\351\227\035\276\222b\261=\326\027\330\275eD\023>\377\260\001>\315\321$\276\036o\306=[V\261\275\363K\021\2767\343\246\275\335K)>|p\003\276&\n\352=\027\311\315\275kW\254\275\211&\327\275 h\004\276\262.\302=\320\243\027<\227\324\220\275\220\261<=\264\352^=B\350\343=\037\342\037>\350\257+\275\321\211\323\275\212\"\357=\212S\263=\212\347\n\276\217\235\030>\330\204\013=\251\3622>P\324{<\n\034\323= \327L\275\032_\276=\254\243\364\275P\n%\276\310\264\305\275\025\200\253\275\254\023\026=4ik=\372q\202=\252\354\263=\022\020\'\276*\331\316=\374\022/\275Z\351\247\275\200\254C\275p\013\333\274\346\263\345=Y\300\021>R\335\327=\246\273\023\276\037\224)>\"&\351=\271\030\020\276\231F\014>\200\334\372;h\233.=\325\376\024>\232\245\243\275\200\342\177\275y\365/>(\362\303\274%A,\276\330c\320\2740\306\007\276\244\204\024\275=b\344\275\006\353\271=\334\006+=\260\\\255\274\nv\261=\340\267\207\274B\273\243=\023\327\206\275;\032\370\275\314\225>=\0229\371=\"\337\306=\210\234|=\254A#\275`\033\313;\214\021|=H\362\024\276\325\317+\276\327\202&>U\226\005>\324\344G\275Z\225\227=.l\377=\306V\265\275\332\221\023\2769:\005\276\310w+\275A\251\027\276\000\222\035\276\000\220N9\202|\303\275?\014\006\276 n\230<;\032$>\226M\260=H\235\316<y\350/>\240\234\364\275\000\347/\276m\277+>];)>\204\200(\275v\272\366=\006\273\310=\253\314)>J\333\277=\204?6=\371W\311\275\260\323(\275\362 \271=\255)\000>\354\376\014=h\327@\275\303\210\r> \313\207<b{\221=\235J.\276\351\007+>\264\207s=\346\373\272=\000\314\2409)~1>\270\324K\275\226\010\242=\210\017\350\275\0324\210=\363\371\025>\004\217\237\275\223\342\314\275\010\276(\275n\342\332=\262v\021\276_+\005>\250z\272\275\270\r\236\274\020!\032\274\036\007\315=[\000\206\275\215\266\325\2750\037\022=\200\352\305\274^2\236\275z\232\375=.j\323=\275z\036>\256]\272=\210\237Q\275\024\257\017=\276\323\227=\014@\003\276\025\355,>Og\001>\001;\035>\224\270*\276@}D<Z\261\361=\354\216\323\275Zp\201=v\200\377=\260\017\013=\224\033\217=\024\231\'=\002\223\220\275\304ab=\277\274\330\275\"W\216\275\000\227\037\275\361j\035\276\340\353\214\273[;\332\275\230\337\031\275\340\340\373<\356\207\326=`\0145<4\277\031\275\005\235!>\370q\244<\354i\035=d\327s=\014)\"\276\263\341\234\275Z\334|\275\206\000\303\275(r\335<\224\220\037=\357\263\020>\250%\357\274\205\241$>\342E\375=8\241W=&\342\240=u8 >\232\332\313=R\006\270=\006\000\374\275\311\327\r>\302\'\333=ptr<\274\207m=xU\224\275\250\343\372<MD\207\275\306\341\331\275]\3172\276N8\257=\331\261\331\275\236\363\266=*c.\276P\367\377\274\332\232\231=yO\003>\354NL\275W8\020>\220(\322\274\220\341i<\234\276(=\t\021\234\275\371\324\013>\354\2156\275d\204k=[.\037>\256\024\344=IX\030\276 \240W\274`\206S=\023y\000>P\273\245\275/\300\n>|\320\240\275(X\221\275\220\020P<b\311\363=\213\260\314\275X\2449=\232\3621\276\220~U\274\264\212\022=\031=\213\275\310h\315<h^+\276D\302L\275\214!.\276 \"p\274\"\254\254=\0039 >\233\020\211\275 \262\237\273h\346m=f\371z\275\273\364\014\27647#\275\300\353x=\262N\335=[\t\021>\315\2574>\241_\027>\266i\347=Y\224\032\276\005\033\272\275\300\325T\274\343z\326\275\360U\000<\372S\355=?l\004\276\t\0042\276\310\367~=\240T\274\273\334F`=P\340{\275u`\301\275\203*2>\247\211\267\275X\317\337\274@\360%;Q\375,>\253\305\226\275\2005\004<Pj)=\354\304\231\275h.\017\276I#\010>\224\362=\275\000\037\034=\370\340N=\002m\377=\'f\003\276\350\362\337\274\300Z\266<\276\372\312=!\223\342\275\002_\264=\314S\016\275\365k\037>S\330&>\3201\001=(\337\007\276\0209\203\274\300\t\037\273\314\303)=\260\256\t\276\200\377\221=wM\'>\354\000\003\275zM\354=\360\\\207\275J-\325=\322\373\311=m\323\027>2\'W\2750KM=\000\025\276;\"\036\215=\316\244\031\276/K\007>\252J\312=mI\203\275_\374\017\276\'z)>\r\3612\276\234\020a=p\241{<b2\260= \357\032=\251,!>I\\1\276\264w\005\275\033\227\247\275\330+\363\275\340Dx\274j\316\310=\226m\345=\360\267\021\276\020\323\020\275\270\255*\276PZ\202<\017s&>\020\016\030\276\030\241\003\276\003\351\230\275t=\002\276\247\032$>/\204\230\275\321\336 >.\230\347=\006E\351\275\236K\360=\320\262k<@\024R\275e\337!\276V$\374=\372\373\216=N\253\205=U\360\227\275-T\226\275\024*\270\275\337q4\276\333{\">+\376->\370\342\r\276\300\205\375\275\022\361(\276\360\235,<*#\026\276\224#E\275\034\306\215\275\216W|\275od\275\275~d\375\275\000\242\213;\204\022\030=\356\376\203\275pR\315<\231\036\361\275&\310\010\276\000\210\274<\005\224\017>P\331\253\2754\345 \276/a\227\275\034\0370\275j{\311=\006:\361=\230\007\006\276\000\2350;Um\323\275_t/>\010\236\n\276\240\0136\274\244\016\177=\214\223\033\276\206\347\004\276j\024\332=\230bO\275\337V2>\350\244\323\274\014\354\367\275\233j\022>\020[\221\274_\206\005\276*\315\231\275\326\340\207\275\276\201\345=q`\030\276\022\234\323=#A\022>`)6\275R3\321=\016\215\007\2768\302\304\275#f(>\200\032\240:\207\221)>h\227\331\274\360\321u=\341z\302\275\360\326\364\275f\034\357\275\364h\210\275\211x\'\276F\000\331=`\231\217\275\352\230\322=\364O2\276\250_F=\342\020\206=\\\261Z=\365b\300\275\370_\027\275-\376\361\275\024\277\034\275\325\212\224\275\014\036\003=\256s\315=\217\372\003>\020\002^=\351\200/>\252T\225=\264\346+=\302\2640\276\276\212\255=\236\344\254\275,h\031=\223\0072\276\001\376\003>\000QE;\017\302$>x\225\345< \027V\274\270\2311\276 \301\301\273\032`\357\275L\321\003=\206R\272=\214!\n\276\3341;\275_>\002\276a\211$>6D\303=|\332\263\275\234\241\235\275)\n\001\2760\216\023\274\004\247j=\326\014\207=\355\276\030\276\326\030\322= v\235<\274ug\275\260=\035=\276Y\346\275y\262\037>\363d$>\265\230\035\276\270)\253<h0&\276\240k\340\274\237\213/>7)\031\276\260\235\334\274]\264\003\276\224\235)=\007D\n>\200\224i\2746e\024\276\340>1<-\335\001\276\3728\352\275\350B\305\274\320M{<\201\020\007>\210c\264\2750 \031\276\t\277\264\275\323\302\032>h\242\365\275Rw\351=@H\277\275\200mS;\243v\350\275\014V5\275\270F\253<\202\"\365\275^\275\271=LuM\275@\214\217=y\220\007>\271\272\031\276\321\276\007>.\326\333=\337\032 >_x\034>6(\245=\275\003\033>\300\022\256<\257\033\001\276\034e\376\275\340\367\020=\005\\\003\2760V)\276\200\354\331\274\333v\220\275\237\341\017\276Sd\336\275[k\036>k-\r>\220\221\004\274\340Z\302\274JW\363=\206\346\374=\300(\345\274\2618\037>\352q\202=H}?\275\000P\377\273\247\206\025>\321\331\321\2758\254\"=\350\217\031=P\246\242\275\232\213\256\275jt\304=\317\243\006>\320\020\034\275\233\305\235\275%z\210\275\330D\000\276\341\270\'>\034\306\'\275\r\005\200\275\000\240\210\273\353\363\004>\356\025\003\276\300\036&\273\n\251\275=\030+\307<\350 \376\274\372\221\243=x\004\323\274\200q\226\272 J\014=Pyh<5\305/>\241\n\223\275G\177\016>\256J\306=\362\006\201=\003\016\016>\306\227\325=n\360\272=|\034\005=\000 \2169u\023\025>|\324\033=X!\333<\377\335!>\026f\252=\231c\004>\023q4\276\320\':=\026B4\276-G\027>#<+>\334\314\327\275\263<\354\275\300\000\265;]L\007>\226\205\215\275\276\004u\275\240>\316\273\220V\353<\312\324\370=\343\310\027>\000PA\271\372j\325=\314oV=\335\233/>\360u@<\026\320\372=#~\300\275\240\375\223<\036\344\352=\030\345n=\313\365\346\275\270\304\217<\3630\006>6\241\334=\222\201\235\275\225e\347\275D\250P\275m\367\'>\372x[\275\330\331z=\314\003?=\263\307\007\276y\260%>\226\305W\275@U\214\273\257r\275\275\\\341\007\275\034\203{\275\243\010\371\275pY6<\352\271\313=\272\327\365=,H*\276AV\226\275\333\211\035>\224\313[\275\232M\262=\000\267\247\274)\254,\276 \231\032\275 c\034\276,\346j=\300\303\355\274\270\265\351\275\332f\204=\240\022\266<\022\211\305\275^^\276=\210j\350\274\347\2434>\252\362\232=\030\247\220\275\311\341\333\275\235%\027>\000\365\356\275\370\343\004=\342\206\236=t[H=h\305\247<R\215\233=-\031\001\276\037`\013>\221-0>\274`\266\275\032\314\273\275P\326\346\274\244N.=F\326\344=$/*\275\316=\375=\250\221v\275\376\371\321=\377\365\267\275\026\372\321=\354\353+=P\211\r\276\230Y>\275\215m\016\276\230z\314<\300i\206<Y\316\016>\240\027\241\274\230\020\314<\213\373\263\275\200\227\365\272\334\363?\275\225\316\t>W\273\"\276\253V\264\275\032\226\014\276\227{\002\276\240uf=\006}\264=\300\353\310<Zc\274=\000B\353\273\236b\265=A-\017\276i\354\016\276K63>\333\377\006\276\265\272\036>g{\017\2760\022\234\274\016M\035\276\177,\027\276\200r\247\274Z\021\212=\034\005\020\276\240mA\274\306\t\274\275\200[\212\274\273y\017>\252\256\310\275(\362\344\275\033n%\276sg*\276CJ->\260\211b\274\250\007\320<\324\327\332\275\006T\215\275\030\262\250<,%U=\'\240\023>\035(\036>\321j+>\013\0242>\220\233\001<0\243\224\274\020\357\355\274pt\316<\010W\026\275<j\017\276V\314\360=^\037\356\275\030Fb=\240^\013\275`a\213\273b+\244=N\031\353=h\302\267\274\277\247\342\275#\217(>\321\036\021>\300l\324;;\276\255\275\277>\027\276\201!\'>\340r,\276\220\3056=\342\333\271=\220\0172\276\212M\354=\367\334\256\275\237\211\023>\010w%\276\210\277\322\274a\313\001>8\253\253\274I\033\203\275d\262}=X\212\273<\334\355]=\247\325\036>6\265\321=\000\356\215=^\003\366=#\203\t>\000\203\304\275\'\314+\276G\006\014>\3164\273=\207\263\'>lO!\276\010\242}\275\331\314\325\275 \227\310\273FI\371=\360\312\035\275P\227\222\274\360\025,\275ZZ\233=~T\262=m\247#\276\002\317\365=\000X\257\271\220\321\035=U\032\024>\251\257\267\275 k2\275 \032H=\246\030\260=\225/3>\275\2023>\001\242\246\275,?\022\276 \232v\274|\020 \275\325B\267\275%\205\007>\365C\377\275\206\357\\\275@\211\206=~a\207\275\354\244\215=\017Q\t>}\014\004>r\351\344=\2307\223=C`\022>\301<\021>\243\331\316\275\342\326r\275\213\332\260\275?\'\206\275x\2576=6U\263=\027\237\n>\016\r\371=\273&\214\2752\306\342\275\035G\033>g7\'\276\202!w\275\"Z\007\276 \347M<\030\343,=\222\351%\276\222\274\354=\200:]\274h&\353\275\025L\301\275\300\230u\274X\326R=\203\033\036>\035\221,\276\335Z\026>\000\341\274\273X>\212\274\214L5\275^\314\373=\340\r\377\274\320\031\325\274\251$\r>\272.\243=\034v\306\275H\257P=\222\326\311=\255g\302\275\274\036!= \226o=r\257\262=\366\377\246\275\360\320\245\274I\026\002>|\3548\275\252\343\030\276Za\266=\030u\027\276\304\343\021\276\314\365\007\276\331=\350\275\2071\247\275-A\">)\204)\276\350\253\257\274\200\036\214\273\026\246\306=Xe\270\275\231\233\277\275\030c3\275\231\010\004>\200\235\002\276\350.\271<|\271\206\275\324Ak=\330\316\334\275\274\263\224=\312\302\354=\312\257\357=\232\325\264=(\330d=N\010\266=\026\250\204=\020\252U<je\262=\240B\373\273]\203#\276Z%)\276\215\237\020>lL\362\275\326p\034\276\230\327@=n\'\226\275 \237\"=,\207$\275\322\241\260\275\236\241\r\276\276\222+\276\227\275\037>!\225\035>8\322\205\275\366\344*\276\251^\007>\3773&\276T\224\"\276\220!-\276\211\304\216\275\220\006\034\276)M\013>\002\251\303=\030\023#=\256\202\272=d\355S\2750\345\354\275LD>=\377l\330\275\260>\310\274\252}\312=iJ\030>\342\035\263=\tH+>\300\247{=\273<4>p>\'=7=%\276\362\231\240=\271k)>x~/=\334P9\275ww+>\274o\205=O\327\027>\364\205\271\275Fk\210=J\332\256=_0\217\275\016\252\371=0\253\277\274\364\021H=\245\232\026>\300{S;\307e->@Q8\273\240=\225;\350\344\202\275\300\303\036=\014\247_=X\254\214<\356\025\007\276&L\302=\350\016\014=\324\0346=(ac=7k\271\275\202p\320=n\035\371\275\204\007j=\373!\323\275>\256\300=\240\004\024<\233.3>\270\3078\275D\021\027=\n\275\032\276\315\263\t>\034U7\275\255\334,>\216\032\352=\360\266v<\214(\207\275\273{\">\262\374\362=V\335m\275\200\264\372;\010&F\275\230\211V=\270\257\230\274E\215\305\2758\276\302\274zg\240=\344\026%\275\277\000\272\275\350\341\234<~\177\232=\321\263.\276\201\323\330\275h:\005\275[\t\030>*@\210\275L\206G\275\220D\222\274\330\356\007\276\320\342!<\310\377,\275f4\377\275\232\374\233=@a\353\275.\010\325=m\373\031>\300\254C;z\333\273=]X\021>\250\235\007=^\321\376=I&0>\000\016\356<:Q\375=\374\226\014\275\304b,\276\373\252\220\275\200*y\274:\330\026\2768LQ\275\234j3=@\342}\275\351\025,>\000\354\227\275>\240\210=\r\0272\276\234,\224\275\275h\312\275~X\327=\246\213\366=/i4>\300\303P\273\266m\217\275\370\274d=n)\350=+\213\003>\0104\376\275\325=&>t\327@=\245\377,\276\0140\321\275*\322\355=\300\005\362;(\272K=\025\226\r>\254\017\336\275d1\027\276\210\277_={~\024\276\246u\230=\260\252\032\276\322\025\300=\256\340d\275 \321\325\2744\004\357\275\267{\361\275\000\n\310\274\220\"\206\275\222\350\234\275\304\251\014\276\330\216\245\274\215\376\014>,\204\215\2756k\246=R\324\262=\322\225\375=W\304\315\275\003\333%>\240g\010\275\025\353,\276_\220\320\275\252^\235=\242?\n\276H\213\002\275\355\312\352\275\300A\357\274^\357m\275\000c\337\274\304-\002=\346\212\371=\264\230X\275\302\246\300=#\324\'>\271u\335\275\200\367\241<\033\324%>\356\313+\276\267\257\244\275/\340)>\254\2722\275\273\231\r\276\201\025\014\276h\331\237\274\360\006\240<\320\005\240\275\307\235\270\275\035:\234\275\376\265\306=\200?3<\206\243\356=\307\020\002>J/\337\275}\207\331\275\200\337\254<\003\340\023\276\331\213,>G\243 >`@\272\274\275A\265\275Me-\276\303T3>\320\3043\274\212\225\335=\377\215\r\276\000\374E\274l\340\212\275\003\302\023>=\212\024>,\216i=\021\331\035>a{\r\276\316\343\205=KV\212\275@5J;\267\256\001>L\221L\275\274\034\024\276\016\217\255=`&\033\276\322,b\275\362\024\327=\326u\307\275V\275\314=~\313(\276\006u\306\275\300y\376\274F\017\373=\272\347\252= \344\305<\335\"\025>H\300\321<\236\326\363=v\017\214\275\017\314\021>\220K\331<\342D\026\276p\203b\275\250k =\331\023#\276JP\t\276f\300\326=S\203\">]!\276\275\370zh==f+\276s\327.>t\024$\276\030/c=\3403\331<\260;\004\276\352\243d\275\0319\271\275\003\254 >\206\270\267=\361,\251\275{\247\013>\311\037\005>\300\354\005;\217\343\013>\004?\\=O\014\005>\375\251\350\275\200IP<\274K\216=^\014\265=\330\371\330\275@V7=X\231\205=\320\213<=`\225\270<B\346\321=\222\025\233\275\002\313\337=2\242\254=eL\014>\030\234\273<\300+\002;\375J\221\275 \235p<\213\007\030>\202\336\204\275\256\240\200\275B\013\237=@\331\262<\020-A=\375\024\035>|9T=\372\305\376=\272\3214\276\374\340\037\276\033\264\004\276H\271\224=\252\264\376=\221+!>\032\202\327=\321~\000>,\0214=J\367\364\275Z\244\014\276\351\316\'>\376W\326=@\356l;\330\216\006=\340\373\251\274:\213\240=\340nT<\220\013\242\274\242_\277=\272V\267=\206\017\256=@\220\374<\364p2\276\000\231\277<Z\340\312=\214F\330\275\310P\314<\020Z_=\350\nL=(\347\370\275\340\223|\275\230N\020\276\0239\032>\230\031)\2765\227 >\024\245\004\275H\320\301\274\025`\035>\000\024\267\271\005\210\225\275\020\352\366\275N\226\250\275T*\r=\023\237\030>\310\350z=\000I\010\275\321\031\003\276\026D\341=\232\267\237=\372#|\275\'\346\r\276n\246\035\276e)\031>\300\037\305;\035\243\n\276b\246T\275\314\227\n=\314]\002=\026o\227\275\000\351\252;\020\3075<\212\266\256= \206\025=\351\314!\276\366\033\262=\275J\022>\"\275\327=\300k#\275\000\016a\274\270\364\214=\350Ww\275\266\270\347\275\375R\200\275\212\332\327\275l\321V=\217( >\204\030\372\275,\317$\276\032\254\177\275\343#\002>P/V\275\241\003!>3P\352\275N\001\031\276x\347\217\274\013^\005\276`\253\363<pd\307<\215 \260\275-\006.>\312\241\245\275X\330P\275-\010\343\275 :r\275\2702\266<\300\245\023\276\016s\014\276`<\201\274\274\366_\275f7\232=\014\0053=d\3563=\\xN=zG\262=\226<\224=m+\016\276\000\324)\272\017Z$\276\0321\311=\352\033\216=\3543n=\022$\247\275IF\365\275\210=\377\274\354\017\023\276P\200\"<\000\013s;\340r\264;#9.>h\224\223\275\246V\243=\ng}\275\206|\022\276\006v\247=\343 