node {
  name: "x"
  op: "Placeholder"
  attr {
    key: "dtype"
    value {
      type: DT_FLOAT
    }
  }
  attr {
    key: "shape"
    value {
      shape {
        dim {
          size: 1
        }
        dim {
          size: 24
        }
      }
    }
  }
}
node {
  name: "decoder/conv2d_transpose_1/Shape"
  op: "Const"
  attr {
    key: "dtype"
    value {
      type: DT_INT32
    }
  }
  attr {
    key: "value"
    value {
      tensor {
        dtype: DT_INT32
        tensor_shape {
          dim {
            size: 4
          }
        }
        tensor_content: "\001\000\000\000\004\000\000\000\004\000\000\000\010\000\000\000"
      }
    }
  }
}
node {
  name: "decoder/conv2d_transpose_1/strided_slice/stack"
  op: "Const"
  attr {
    key: "dtype"
    value {
      type: DT_INT32
    }
  }
  attr {
    key: "value"
    value {
      tensor {
        dtype: DT_INT32
        tensor_shape {
          dim {
            size: 1
          }
        }
      }
    }
  }
}
node {
  name: "decoder/conv2d_transpose_1/strided_slice/stack_1"
  op: "Const"
  attr {
    key: "dtype"
    value {
      type: DT_INT32
    }
  }
  attr {
    key: "value"
    value {
      tensor {
        dtype: DT_INT32
        tensor_shape {
          dim {
            size: 1
          }
        }
        int_val: 1
      }
    }
  }
}
node {
  name: "decoder/conv2d_transpose_1/strided_slice/stack_2"
  op: "Const"
  attr {
    key: "dtype"
    value {
      type: DT_INT32
    }
  }
  attr {
    key: "value"
    value {
      tensor {
        dtype: DT_INT32
        tensor_shape {
          dim {
            size: 1
          }
        }
        int_val: 1
      }
    }
  }
}
node {
  name: "decoder/conv2d_transpose_1/stack/1"
  op: "Const"
  attr {
    key: "dtype"
    value {
      type: DT_INT32
    }
  }
  attr {
    key: "value"
    value {
      tensor {
        dtype: DT_INT32
        tensor_shape {
        }
        int_val: 9
      }
    }
  }
}
node {
  name: "decoder/conv2d_transpose_1/stack/2"
  op: "Const"
  attr {
    key: "dtype"
    value {
      type: DT_INT32
    }
  }
  attr {
    key: "value"
    value {
      tensor {
        dtype: DT_INT32
        tensor_shape {
        }
        int_val: 9
      }
    }
  }
}
node {
  name: "decoder/conv2d_transpose_1/stack/3"
  op: "Const"
  attr {
    key: "dtype"
    value {
      type: DT_INT32
    }
  }
  attr {
    key: "value"
    value {
      tensor {
        dtype: DT_INT32
        tensor_shape {
        }
        int_val: 1
      }
    }
  }
}
node {
  name: "decoder/conv2d_transpose_1/conv2d_transpose/ReadVariableOp/resource"
  op: "Const"
  attr {
    key: "dtype"
    value {
      type: DT_FLOAT
    }
  }
  attr {
    key: "value"
    value {
      tensor {
        dtype: DT_FLOAT
        tensor_shape {
          dim {
            size: 3
          }
          dim {
            size: 3
          }
          dim {
            size: 1
          }
          dim {
            size: 8
          }
        }
        tensor_content: "\275B6\276u\255\206>\366I\377\276\344{\272\276!C\027\276q\310\225\276\023\375\216\276\300&)\274\220\331\307\276\3340\271=\366\236\345=\273C\232>*\211\001\277r\301\263\275\023\264\001?`\224;\276\242\353\236\276.\265\331=\270\336\202>\027`\005>*\353\263\276$\270Q\276\265\207\211\276\000w\307>~\355\242\276\303G\332=\314\027\006\277\007\020\006\277H\020\325>\302\206\367\275\216>\206=\346\300\236\275\264\240\002\277e-\270>1\247\004>;\233\016>\026-\212>\010\000\265\276\302\377\000\277#va\273n\373V\275\22271\276\002\242\244\274\267\253\311>1$\234>\303/\235\276>\374&\276\252\253\223>\217\024\322\275\004z\'=_\n7>\246\023\275>\234:\252\276L\030\r\277\332v\242>\217\316u\276\313q\007\277BW\273>\242$\324=%Cv>\013\363J>\001\351\326\274\345\337\004>\233\237\007\277\310\342i<\234\271\315=7\275\350\275IA\347>r\357\210=\007\206\266\275\020G\265\276J\032\242\276"
      }
    }
  }
}
node {
  name: "decoder/dense_3/MatMul/ReadVariableOp/resource"
  op: "Const"
  attr {
    key: "dtype"
    value {
      type: DT_FLOAT
    }
  }
  attr {
    key: "value"
    value {
      tensor {
        dtype: DT_FLOAT
        tensor_shape {
          dim {
            size: 24
          }
          dim {
            size: 24
          }
        }
        tensor_content: "\316\032\234>\204\312\036=\265\362\365>6\023?>\231r\335<\234;\200>\'\312\335>\0016\313>\210\211\027\2776\214\206\276\256\233\017>O\030\024\276\024\032\232\276\345\222\223>X.\003>\340\211\224\273\251\004\025>\002\036\354=!\002\312\276\2145\312>\256\3745\276&\341\356\276\373ER>\2461\231=c\333\013\276\370\264&?g\363\200\275\361\275\204>\023o7>R\t\202\276\005\371\263\276\027\347T= T\230\276#\\%\276\314\273\025<wN%=\026P\365>n!k>\037\377\r>\2013O\2765P\372<I\201\007\277(|\340\276\246\204\363>\275\363M\276J\223\343>\354\3107\276\302\306\250>\300X\312\276=\215\263\2764\217\020\277\240\227\252\274b\302\255>L\\\032=\315[\030\2767&\226>\255`\357=\354\201\370\276\370\017\247>\376\243\212\276\246\277\246>\300\330\346=\211\272c>:\226\330>A\317\263\276\361\233\236>\017\351\032\276\377F\017>i\231\326\274\360\363\354>\335\217\267>!\366\377>\304\007\021?;\332\215\276\261\025\">T@\331=M\022\031?\344y\340\275\024\343\327;.\022\265\276T\315W=\233\037b>\021\242\005?\356x\275\276\275\237\366=\002s!\276C-3>\3421\227\276c\267\357\276\3169W\276A=\000\277\331\202/\276\375\252\233\275\022\004\324>\330\313\206\276\312\336\252>J\225I\276\263\305\305\276\365\204\231>\330\201y\275e\352\233\276\205\235v>^\342\336\276s\201c\2768.\250\275\013D\225>\234\026g\273I\030k\276x\325\354>\217.\244\276\022j\273=\220o\270<VW\360>.\251]>\323\340\251\276t\243\266\276BZ\005\277\3560\200>\203\216N>\240\225\255>\031\217\245\276\207\240\010>\377\026i\276 \333\t\276H*\313\275\016\031\241=\354Y\262\276\001Z\366\276\013\311\230\276\227\313=\272b\031\261>@\201\305<l\330%=ZC<>Rr\264=\230\006n\276\346\374\007>b:\277=0\214\257=x\203\000\275\007\377\264=x\022o\276\322\356\315=\'\203\362>\305\373s>q\024\025\276\371>}\276n\316l>B\033\035\274\244\362\023?\2569\300>t\211\230\276\320\321\014?:\367\255\276\007A\253\275\317}\356>s\277\276\276\270\270V=\312\030\211\276\206\262\244>\025\365\032\277\033\350/>\214\331@=\325\374\374\276\367\226x\276\335z\211\276\210\320\343\276V\370\346=\266?\235>\251W1\276\307\215\301\276\2537\212\276\\X\263>\227\323\266\276\3518\370>\342<\277>\371l\261\276H>\320>t\232\034=\n\247\205\276\036\204\013>\211\350\245\276t\213\230>\344V\364>\222\373\223>O\237\322\275\271\rS>\307\033Q\275\373`8>N\035\332=\006\317\355=\014\305X\276F\001\254\276Y\231E>\340\206\377\276p0[\276\177\354<>\236m\000?\357\363m>!C\313<\014b\020\276\223\211a=\254A\341>\335\355D>\t\273n>h\336\213\276\236\221\305\276\204\021\324\276\030\220\262>\222*\230\276\031\233\366>\\\352\005?O\213%=R\271\355\275\261C$>\304\346\254\274\261r\353\276\365\262\263>Y\304\006=(\213]\276^\264\303=\303Z\246\275\201\\\351>\341\342\310\276\312\022\323>f\216l\276\335@\004\277ch\276\276\352~\300=*\366/>lA\307<\357J\264>x\317\257>\204j\007?4\246h\276\240\317v\276\010\235\371\274\307Ju>@\216\030\275\306N\363>\302P\341=;\330\264>l\007\223\276\210lR=\356\r\307\276m\331\373\276\227\013\313>\327\261\017?\3070\253\275\266\231\210\276\277\022\303\276\312]\253\275\335\221f\276\030B\017>)\237\214\276\306\013\253>\025]`=\300\304Z\276\314\316\033\276`1\362\276\374\216+\274\213\303\336\275\322A\273=H\341\353>nx\303>G\207:=\013\035i\2760S\236<H\260\312=B\210\021?l\324\377>\374\354z\275\320\323\213\275\342JD\276\204\353\265>\033\031\014\277\363\261\215=3\203\200>a\365\"\276\213Bf>f\315\006\274\222SG\276\2210\001\276\324N\347\276xz9\275\200/n<\264yI=\005\353\250\276f\013\311\275tG\266>Pz0\276\234\363\335\275\326\342\337=\306p\353<\335\030\024\276\244\257J\275\243\363\273\276\367k\367>\227\301\216=\263n\272< M\364\275zC&>\224\201{=\2262\212=.\017>\276\247y1>\214\177\241<}\362\300\276J\225\273\274\010\177\250>\321\205\353<I\346\254\276B\376\376=\254\241#\275\313\211\255<\340K+\274\032^\216>\255\312(>\270p\363<\"\267\005\277\220L\230>\263|\211\276\'}\033\276u\346A\276\363\243\313\275\202>F>p\336\020\277\\j\022>6i\367>3\371\353=N\243\324\276\354)\264>\221\003\373\275L\273\264=\343>\252>\'\364\014>tx%=\330\346\325\276M\177z\276\245\177\252>k\3636>6\263\356=O/\001\275a$\204>B \253\276\311U\351\276|\003\215>\210\226\007?\327\376\255>\227\200\255>\216\264\027\277\365\207\234>B\361\271>\272\201\362>\320\241\256\276J\245\307\276\205!\210\275\3070\252\276\314\010\300\276\300Z\240;\327G\376=~1\271>\020h\273>\207\276\264\276\3567\330=\325AJ\276R\345^>Q\362\352\276\315mY\276\332\341\376\274#[\221>\260\n\304>\004\366\250>(\337\231\275.\004\246>\300\217\027\276\t\023H\276\314d~\275\177~\r\276\037p@=ZJ\037\275\236\252\230\276n\233\335=\031\030\221\276X\353\312\275\332i\260<\002\321\250=H\235\262=\224\005]<\277\247\035=\0040\346\273Q\364==p\036\033\274\374\257\021\275p\031a<l\253I\274*\321d<\366g7>i1\037\273\230\271\025<\\q!=,\004\001=\216\315\235<\245\226\372\2744\314*\276\254\205 =\0168 \274\326\241\'\274s\300\010>\374\275\310<\270\020>\275j\365g>|G\027\275\352\243\300<\316\313\263\2754|\016<,\303_<\204\346b=Xg\035\275L),\275\262\215\203=0\226\222\2768\003c<\021\214\017>\320\265\344<\304\3511\275h\315\036\276/\355\226\274\324\220\226>R\245\242\274\036|r\274<\206\014\275\260:\">n+\204\275s\244\'\276V&\007>\323&8:P\317\242\275\331_\000>sg0;\366\262[<\256\252\211=\236\014\340<\322N\273<\220\265\302\275\220y\277\275\371\177\376:\224\377<=\355>?\276\220\371\351=\205\037\020>\222\235A>\264v3>*\332\n8\355\230\255<\302\351\013>:s\275\275\361\027\332\275\" \224\275g,\203>\344\342\033\276\'\033?\275(\221*\275&I.\276\224\241\364=c\344 >$\3333\276\013\357\350\274r\037\375=V\227e>\311&\031>a\341\\>\336\364\237<\215\343\017>\201\231X\276\331\322\'>\204\254\353\275d\227]\275\2752\315\274\0220\201\275\024\331K>b,\014<`]\230>\266.O>d{\313\275\260$\232=\217\264)\276\351\235q>\323@\320\274\223\346\004>\273\223<\275\246,C\276#\246,>P\351\311\274\034Gf\276\357\203\177>j\033\242=\351\324K>\352\370\332=\0363,\275\310RK=>\360)\276/\017\230<\276\215\220\275\266?\217>v\323\303=0\241\215>\020(\350\275\262r\311\275\227\2043=\200&\n\276\254vW>\224\317(\274\344sv=\"\273\213\275\246_\025\276\3225\231>\372@;\276b)\004>\363z\266=g1\372=\305\343\t>\254\241w\275\"r\240\272`\310\225\276X\"\226\275\337\211\021=\352\242\331\275\'\010\345<\017\005l=\253\347E=\027~\256\276\275\224\242<\231>\000>\207HT>\215\315V>\034p\007\274\334\341\364<\372#\226\274\213\262#>&\003\356=\244\237\236\276\004\021\013\275\224\370\\\275\007\303:=N\003\200>\315\255\033>\205\321x>\374|\030\277\345\223Y>\346\317\327\2721FY>\033%\230\276\301\225p>\317\210\223>\366\326k\276O\340\206=\230\377\245>\323\326\266=\010\226(\276\016\203`=\017\346\">\245Lw>\032\231m\276\225\235V>\177` \276\352\006;>\301\233\267\276\225\010\024\276T\037\204>\205\200!>\372\245\217>\3705\020\276\021\210l=\355\001\t;\206\345\306>"
      }
    }
  }
}
node {
  name: "decoder/dense_3/BiasAdd/ReadVariableOp/resource"
  op: "Const"
  attr {
    key: "dtype"
    value {
      type: DT_FLOAT
    }
  }
  attr {
    key: "value"
    value {
      tensor {
        dtype: DT_FLOAT
        tensor_shape {
          dim {
            size: 24
          }
        }
        tensor_content: "\311DX\273H}\256<\034\240\232=\000\000\000\000\372\325\'>Px\213=\\9\005>q\032@=d<\316=j\225T=\340A\317<u\353\363=B\025\214\274\000\000\000\000\3040\252\275\202[1\275\370\235@>\026\2007:\232\023P<\330\245\033<\206\307\230\276u\017\213=D\321\021\274\004\312\024>"
      }
    }
  }
}
node {
  name: "decoder/dense_4/MatMul/ReadVariableOp/resource"
  op: "Const"
  attr {
    key: "dtype"
    value {
      type: DT_FLOAT
    }
  }
  attr {
    key: "value"
    value {
      tensor {
        dtype: DT_FLOAT
        tensor_shape {
          dim {
            size: 24
          }
          dim {
            size: 64
          }
        }
        tensor_content: "\376\215H>\032\324\274<\240\327\226\276N\237\247=\206\224|=H\025R\276\033\267.>!4\230=\2215\244\274\375\206.>\234r\210\276\020\254\247:\210\007\370\274\217\264\355<\373So\276\n\251\206>\245[j\276\364B\007\275\346\263\202=\227\266-\276\004L\250>k>,\276w\367n=\200\206\021>\004\207\320\276\013\020\331\276c\312$>\3103j\275x\021\025\274\243\263s>\314\205\r\276|\207\244=4\245W\275!\302w>\241\217\254\276\252\017\362=\365\354+>(C\217>\262\236_\274\262\260\316\275{w!>\333\331\031=O\316\263=zk\222>\034w\315\274:/\360\2752\006\261=r\206\344=\033\177\263\275\364\342{=\244\351\214=oi}\273\226\343`>[\236W=\323\t\014>\255,\320\276\305_n\273\267\035\003>#\021b;\037\377\204<\027)\301\275\016O\314\275O;h=^\020G\276s\327)\276\252\326\262>\320d\205>J\246\306\275\227\371\336<\201\016r\276<-==\373vp=\333\346\237\276\352\254\303>\316Q\266\276\006\245\343=\313Nu\276\004w\260>\306\'\351=>\032\331\274\375\345&\276\206x\370=\305\231I\276Z\210:>\355\215\215>\257\274\211:7\251\005\276\034\370\344\275\310\000\010\277\3718M\276\254\001z<Jw\260=b\217}>a{\251\276>\226\202>%\314\304\270\316\024X\276\326l\223>\030\252\320\276\335\277\3509\244\263\203>\342:\240>\364\347\321\273&\230\232\275\357 d>\360R\366\275\227[\r>m<r\276\316\025\352\275+:\322\276\317\022A>\3065\325>\010$\272>\367\236\006>UL\276>\204\305\202>\316\000\341\275\374\304/=\336Fi>\303\025P\276\216L\275=\361\351\202>c\234\250<\246\353\304\275\225\317C\276\276\201\245>\206\270\305>\360\326\233\276\346k\214=b\254\007\276\322\371\352=|\351{=\310y \276\307\2433\276@\344\245>W\361\203\275&>g\276\226\251\202< ~\362\276;\342\256\275\365\322\234=L\201\007\275Dv\\=\376\200>>\360\351\275\276\203zL>#  \276uC\247\276\363\305\010>\200\007\373\275,^\'\275b|\021>\375\371\033\276\247[\260\275\022\230\250\275\356`k\274\"\037\272\276\273\225\216\274\000\207\272\275zh\202=\365v9>\244\272\214>C\352\013\277s\353\232>l\273[\275\225\221\213<\250\\f<\302\365\240>\320R5<b!\227>C\001\"=\230b\220>\323\257\231>\340M\243\2759\366\211\274\344X\323>J\354\320=\257\023\225>\3045\356\274,\010\313\275\'P\207>\352\274\277\275\356\252\323=\244 \273\276\240\367>\276\351\003\\\276\357g\026\275\240j\261\274n\006\274\276\254\033M\276I\303\206=\273\200\266\275\002~\005>hlz=\304x\301=\350\377~=\030(\337\274\"!\240\275\300a\317=\030\261!>\000v\303\274\330\177\213\274\004\204\307\275z\314Q>\030p\223\275\357\335=\276\350\022K=\344\301\027\276X\240\344=\254s>>\354@\013\275\002`\\>P\372s>j\237G\276k\336\'\276\360\373\t> \305\264=\272\304\264\275\344z1>\300\017\265\273\220\226\333=\2001O> 6\275=w\257c\276q\354b\2767\371\037\276\\\251\312=\312\034\214\275\020\027\221<.\361t>\244\361\237\275\360\027\243\275s\237\204>\014\2202>h\272\r=\366\3055\276w\3717\276\037P\021\276 \270o<\000*\002=\2051r\276Xa,=\344G\364=\306\201+>\272\341\343\275\376\234\347\275N\200\016\276\014T\251\275\336\221p>\376\313q\276\270\320*\275\036jG\276\3405\313\275z\2521>\210\315\260=L2-\276[{4>\247\334H>\227\275\223=\031X\031>%C\317>H\341\264;t\014Q=W\265\355>\321RV\276\321!\310>\004\'\354\2760\241\232>\0138\272>\246>\303\276\360\214d<\222\301\350=?\'\312=\360\032\274\273<\242\256<\256\016b\274\342N\276>\247\207\017>\024\370\222\274Z\237l\276\\8\312\276\253\243\001>c\313k>\226\202\032\275`<\243\276\225\3525>\243\2742\276#\002\000?\270\033\232\276w\317\305\276#\022#\276\330\216m\275\217\234\366>\033S\314\275\3552r>fv\344\275\2737w\276\302\220\232\276\211\354\207\276\032\304\375=\022\\\315=\257kr>\367\317\311\275h\026\277>\254.\221;GI$\276\000\356\016\275[\265k\276L\245\334\274\352>\242>\240\236\021\276\237@\321\275\356\244\254>\263\003\242>\300jZ\275\357\241\206\276\230\221\237\276\274\300@>\261\005\361\276\3505\371\275\004U$\275\277\272\226\274\026z\246\274\374sJ\276[\233\014>\027\213\327\275\210v\346\275\'\013/\276\366\253\013\276uX\204>\025\254\023\276%\377R\276RM+\276\003\240\034\276\243/\r\276\257E\216>,{\003\277;\255\002>\230\020\204>y\215x>\007\372\201\2754\367\276\276\027\243\006\276Xz\217\274G\362\314\276\177\317\364\275\362\230|\276Xf\311\276\225N}>\244\262V\276\203$\034\276\037\350\241>\017}4\275\271\223,\276\341\311[\276W\215M\276@\334Y\275\240\306z\274\217\334D\276OE\017>\014E\220>QEr\276\n\006\315=\241\"M\276U\321\333<>\323\322=\226\205\332<\357\375\034\276\234!\224\275\376\375\347=\234%9>1\366v\276-\r\226\276s\277\247\275,\241c\275U\031\004\277\330\234\323>\214\032\213>^\276\037\276\254\267\223\275\371v\007\277\200\345b\276\352\346\336=9\204<>\311f\200>\307\rE\276\356\010\352=;\357\252\276\330\267\343\275\272\020A\276\202G*\276\317\331\315\275\327\256\004>\263<j>\361{q\2762X\317\275\027\024\027\276\243\035/>\377\r\t\276\021v\300>\300a\275\276\177 \223\276Hmp\276~\325\215=\"\215?>T`\260\275P\t\017\275\010K\317\275cL\303\275\216\217\225\276\241\243\372\274j4\371\275\3031\020>\311\'\001>\335\313\217>\304F\345\275\257}\323\275\244\300~\275\224\201\243\276o\007\026=vF\'<\317k&>\304I\220>\340A\247\276\202\220\371=\r\376\307>Q\336^>\203\005\226= \332\017\276\246\262\251\275#e/;u\377}\276\264\323_=\003\206\314<o\221\025>*\214\261=\230S\315\275\311\355\027\276B\007\300\276\"i\350\276}\304\222>\303\221U\276\'\357\241\276\"\315\260\276\203\372\375\276T?\034=\214L\235\275\377\333\032\276\267\373G\273\243\264\035\276\000\231\303\275\302\244\345\275\324\345\031=\357\233\022>\205\217\204\274\217&u\276\212\224\322>\342\254\255>\264\356\332\276\001\3329>4\303p\275\032\026\244=qH\r\276\312\272\315\275\247,\010\276\220\333?\276\021\320_>\305\254\\\2769\n\214>\226\255\346=\225\000!>hX\177\276u\235i\276U<\035\276*\200\373<V\224\375=\337\244\236\274\210\360\323>\245\332\023\276-m\t\276\032\r\211=r\037G<S\034\276\275?\217\031\276\272\310\224\276\316\276\373\275T@>\275\0054\201\276\245\014\207\276\021\275\214>P\201\321\276\342b\006=s\335\'>:\374\014\276\234\245,=\312\230\273\275\362D\247\275\306}\246\276\203\304\251=\333\337\250\274\263\\P>B\350\257=\204\310\271:\254\016\246\276.\272\323\275\206\201\022\276\276C\255=\242w\t\2763\301\237\276\214\211\225>\357\320J=\242\254\366=\367\327\320\276\035\206\232>A\324\217\276\203@\324\275^\311\322\276x\304\202>\224\300`>\2313.>x\215\034\275\200\212\207=\263\317\222\275\036]\240=\324Vw<glo>f\003\267=\213\031\274>\201rS\2761ZV>\232\031X<zaJ>\240\333\322\276\310z\261>\200\217\240\273(\257N=a@\207\276\243\241\370\276\033\313q\276\0034\n>\364\004\004\276R\273\214\275\241\362\264\276y\002Y>T\250\247<\332v\327\275\303r\036\276\022F\357=\2177)>\363\333v=\252(\322\275\216\n\270>\305\342\010>\323\374\311=\310\325W\275\313\363\224=\2127+>\204\021\214\276V\273\335>\361#\276<\014J\240\276\230\341-\276\302\355\214>\235 \276=\364l\241\276\222\226\032\275\365\006E>\315#\r\277t/\212\275\005\020\307=\2238\204\276Q\262\027>6B\340>>\006\273>\262\230\255\276\030\272R\275\005\345\241>\025\013\325\274{fF>\200S\211\276J\224\231\275\236\361\343=\014w\343>\027\007\360\275\010\233\376\275\245\230\213>\254^\226\276Ql.>\341b\217>\367\003,>\366\247\224=\246\311\305<\037\266f\275\266\372\361=R\277\244=\212\337\321=g\236Q=\352\n\202\274|\275\030=~\002\331\275\357\031l\276\t\000{\276\254rq\276\302>\272\275<?N>\330\314\367\275\250I\351>\310@o\275C\252\251\275\363\2214>w\037\233>b\'\242>7\355\007>\277S>>\327\275\340\272\362\265\267=\316\3731\2755\230\330\272\315<\035>\204m\300\276I_\\>\203\264\220>I?\355\275\315\3035>\347\375G>\213\247\322\275\233\023\231\276A\311\223>\207\207f=rS\233\276\177e\224\275\035\253\315\276\007hn\275^y\271\275S\001/;\016\322\261={\267\014\277\231\337Q>.[}\276x\266;\2759P\227>\022\313\213\276\336\265\316\275d\177y\275\213\205\347>O\216\200\276\245\276\246<x\030\247;\212.p>\203\2049> Z\362\2757\036F\275JuG>L)\252\276\230ej\275\300b\311\276\2042\315>\370\375\336\275P\024S\275\367\223\201=U\224r=\363AN\276\'v\033>Hf\023=C\035\007\277\227:\273\276K\250\200\276l\240;\276\004\016\177\276q\303\233\276\253\344\026\2765Z\017>\271\202z>g\250 \275\356\247\237\276w\321p\276\3766\234=y\266\261\276\267^>\276t\026\362=\263hW>9\034V>\214D\244=\023\022\324>\234\035\342\275\010\rO\275LA\003\277w\243\232\275\305f\245=\211\264G>\335\004\352\274xQ^\272\346\240->h\361\203\275\275\364\301=\346\265T>B\223\344\274s\331\201=Uc->x\264\227\274\240M\016\277\234\234\010<&\213\341\275L\255\335>\205\031\300<\030\224\026\275\315\207\010>4QN\276B\023\341=\352P\302=\367S^>\342\362\351\276u}4>\363\006t>\217T\355\276\375$\003\276\222L\220>\356\223\237=\2360t\276vH\026\274\211\223\332\276;&y>\315KZ\276%\034\013>\364\321\363\2739N?\276\215\304\314\276\340\260\032\274\315\325\311\276:\257\271\276\242\206\246\276\313q\200\276\210r\331\274\025\260G>\273\034\205\275X\277\333\275\237\252l>q\211\300\276GM\201\275\'\311\026=\363\000\"\276\024\016v\275\314\"\252=\n\035q>\267A\317\275\202\021\347\275\"\244\321=_}b>[/r=\2219\r>\216\365\222=\212|\224\275\021\231\177\276\232\034h>\267\203\'>\374C#=\326\232\364\274|\363\357\275\207\036\r>\343it\276|%j=\236N)>|\271\332>B\232l>\335 \337\276\2073\020>\254\275T\275\345\203D\276\377\306\200>\210\020\214>\215\312\220>\370$q<\336\324\326=Zw4\276\014\354\337\273\366\003\377\276\366bu<\341\260D\276\033$]\276\025\241\274\274\237\275\013\276\222m6<\252y\272>\224-(\276\317\275\313\275\262s\317\275\324\rg=%j6>w\344S\275dZ\261>\341_\225=Zn%\276\373n\317\276\302Q\377\276\t\300E>\307\203\273=\256\016\326=\236_\227>\362^\316=\207\252`>\260/\350\275\010\345\273\276\331\324\014\277\"d\211\275Qq\002>\346s\371=\205\230\014\276DC\375\275\365pA\276\336\324\201\276\241\0204>]\333\020>\343\247+\276\215Ic>\'E\274\275U8m;\177\324N\276\311~B\276\326\352\000\276\216\214h>j\206\250=t\024c=\325\264\227>d\014\010\277\031*\223=2\377&<]\230\020>)g\267\274\313\253\026\276\027\2429\276V\335A<_q\304=\200\343\346\275h\305\007>p\324\355=\014\232\226\275` \204<D\323J\275^U\204\276\006S\201\276\304\021m>\243\371e\276v\270\237\275\032\335\177>\260\217F=\264\265i>\274\027_>\220q\361<\254\225\340=\300\364\256;\032\255\355\2758\205\212=\270\245X=\232\365h>:\274\221\275<p\266=@&\337<\354Qi>\200\3337=\340\215\030<\302]\006>\320l\313=f\231\031>\256X#\276\276\014\267\275@H\334=LCP>pTB=$\014\272=\204\233\236=\260\265\255<\3436\200>d\213\273\275|\263\261=\300W\036\274\322\021+>\330\371\013>=x\205>\\9\033\275\224t\350=X\335r=\330\217X=\364\024c\275\312\000d>\020\335\275=\000\302\277=\177Qc\276\334#\323=\214\"\267=\200\257=\273\230\'\336\275d\205-\275@\261\000=\226m\006\276p-\304\274\014+P>\374\013\236\276l\333\264>\345\240\201>\266b\212\276\215,\033>\323\372\301\271\251s}\276w\277\322\275\336Z\234=\367DF>\262*l>r\351\200>\0346\332\275\031\260\205=pb\035>\256\031\014\276\235\222\240\276fj\203\276\346\342\201=\334\227\275;/W\001\275N\354\372=\250\252E>\376\273\201\276M\371\375\276+\271\241\276\275\026\325<S\330\272\271\264\321\354=m\350$>s\255\253>\233W\321>h\\\232\276\257v%=\3040\353>\274\214\216==\253V\276Om\363=\013\3675>\376I\366>\223+2>(\337\232\273S\2110\273W\372\024>g\247\t\276\377\336\017=\303>\211\276Tx\013\275\344CH=X\337s\275D\266\364<\0202y=86\206>\020g\245\276Xy\251\274\254\016\232\275\363\201\313>\307\354\026>\253\343>\275>\000s;N\254\275>]\326\304=\260N\351=\275(\022>&\236|\276dr\316\275\344n`\2758\215@>/\361\264\276\372k\206=#>\'\275\375\330,\276\2046\320=\233,\313\274%\310\306\276T\276q==\322\211\276\255\305e>\332m\301={\216|:\274\356\300\276\300\005\002\276\234\0160\275\246\026\206>8qM\273B\257\302=\013$~>\200XM=\225\027h\276\233w#\275\226\253\244\275\207\2661>\024\2132\274\372\216\211>0\264j\2740\002r\275\352\212\263>\033O\265\276\023!\"\276vm\242=\305d>>f\021\320\2753\3775>\216\303\273\275\245?\247<\264k\351>\342\273~\276\202\327\312=;\230#>Z\314c>iC\211<\206\363\325=8C\306\273\364\243\021=f\033\342=\351D,>\312\223\225=\247\276\224>\216\306i\276}\005\372\276\224\305(<\016\275\335\275*\321\365=\237\202\202>\037\261\342\276:\353\270=|\023\224\274D\271\224=\214\320)\275\032\210q\276\274i\212\273li!=0T\341=\325Q\022>,\212\023\276t\251\310\276=<\216>d(\321\275\374\271\246>\226J\353=\3575\036>\351\364\037>\331\351\010\276\244\033\243>\333\004\226\276\014\025<>\2111\256>\214\303\367\273#\262\030>\365\\\006>\004\277\374\275kUZ\276\343\311\377\276\203J\247\276c\223\326\274\240\244*\275\234m\213=@|\311>7\322\216>\014O\231\274\371\217^>wn\022>8f\207>9&\252>\003\205\024><\001K\276t/l\275\214;\205\276\256.A\276\354nQ=\253`Z>\372#>\276\311\211\213\276}L\010=0\007\301>\216S\241\275eu\n>\\\276m=\240Tz<\306\332\365=\303\373-\276\036\227\006>\2200&=\226\365(\276w\"\200\276\027\230\006\275\304\314\024\276\212\254\254=\215\361\"\276\316y\355=_\034@\276r\t\311\274\340\370\256>UN\007>9\203&>\256.c>\036{\214\276\340\004w=LE}\275W\373\303\275\031\"m>q:,\276\360\354\334\276x\016\334;\2727\356=I\017~>|\333.\274H\036W<K\332\255\275\352\032s\274F\214r\274\274\277?\276\244&\303\276\333\361\234\275\266\321\\<8\020\276\275\205\004\260\276\1774\177\276\234\014\037=\263\205\\\276:\371\303=\350JF\275\365lf\276\365\0024\276m?\037>\245\201J>\017\017\334\275\003\033\r>\327\020\233\2752\227\277=\366\030\261>S\2520\273\203\304F>c\373D>i\361\007>\307\251b>\206\276\336\275\2313\323=\356\035\343=\353E\320\274\247%\352\275\234%\\=\372\177\032\276\027\273&\275I+\013=nO\231=\2633r>\203\3264\275ab\206>S\334/>FV\241\275.\022D=\333\335P\276\357\366U\275\177\220\201>\221\034\244>\237-\313\274\252\"\305><\311\032\276\363Pn\276\365\324Z>\'oJ>F&\243=K\300\352\276D\323\321:\003\207\032\276\'b\300\275\325\335\207=\333\344\036>\204\233\377\275\354a\350>\301\376f>\000}\271\276\251Q\006>\241\304\025>U\230\030>\251\346|>\031Hi>R\033\307=@\316\347\273\334\006\265\276\003\235\002\277\335\333\321\276\177\216T>\311\3161>\230\313/\276\"n\205>gu\025>\336\351\264=*\265\016\276\004\215\n\277\376\273\211=\320<\266=\375\3724>N\021\356<\232.\224\275n\2154\276k\336x\276\376\230\210=\374\314\206\2756\330\266=\376\315\037\275^\372\330=HF\265\275\267XN>$\'w=\010\345\n\276\2143\210>\344\354\025\275\004\2625\276\004sR\276\371e\330\276\033\322\215\275Xn\022>\273\355h>\031\032k>C\3401\276\2440\203\273\317+\004>\343\226!\276@8.\275\030C\007\275\245{w>\240\372\315;\226\237@<\351\361\237>d\342\027\275\221:\247\276Z\016\346=\355\304A\276\204\227\226\276\254\225\207\275\322e7<!\177Z\276\342\355\341=i6\311=\226\214\004\277b\017\231=2\361\202>\371\227\006\276\203\311M=Qq]>\261s\243\276~\222\372\275x\324\006\277\337\016\002\277\013\3203>I\263v>\306\356\320\276@(\371\275\313\305e>\323:\262>\211\225L>_\263\352\275tJ\246\276ow\315=)X\020>\266\244\027\276P\264\206\276\356\306\324=\236p\234\276\216\336o<@2\253\275\3418\034>M\262\n>B\331\336=\322H\250=~Va\274o\203{>?J?>$\211n\275Q\177\025\276L\001^\275\"\243\224>\244\361\314\275\221\355x\276\235`m\276z\361P>\260 p>M\2109>\r\276R\276Z?\221\275\370\031\250>\235<\256\276\226\024 >/y\216\276?\014\225=\263\234\301\276S+:>\325o\364\276P\225\204>\220\202\274>\347\2439>\2411^>\232\r\266\2752U^<\220\202\254\275\227X\321>\247\365\345>)\367_>\322\n\'\276\'X\037>t\275\246>%\347+\276\272\2221=-\201$\276\000\275?\276\322\227s\2768c\035\276\200\026\321>AL\333\275j\026\312=\315/\377=\0273\004>\226\032J\276\251\010\235\276\220\350{\276\251\023[\276[\\\363\276\227\3460>\235h\225\275\252\253\013?\2440\227\275\312\306g\276[6\223>\343=\350<\243\240\317\276\273\n\230>\216-\322<\211A\247>\305r\374\276\240OC>x\212R>\006\341\212>\240H\\>w\213\035=DGe\275(+\024\276\265P\215>\337\007\005\276\366pQ>U\330\007>\006\343\274=\301Y\210\276\r}\252\275\262\275\276\275Z\\\016?\\\303Q>A\236\025\276\177_\026>\324z\271\276\255L0>\240b\236<\352e*\276\203\363?>\360\361\360\276\332\232\"\276\014\335*\275$\321\341\276\207\331\002><\275\217>\313\0272>\304D\246\275\354L\312\273\223\021\316\276\375y\256\275:p\330\275\371\243\202>\235\223s\276\252\230\200<Q\264\225>\266$|\276\034*\264\276\3169\305\276s-y>q\335\035>\370\235\035\275\310\215N\276(\227\330\275T\302`=*\341\336=T\0235>\271\226`\276a%\361<\216F\227>\276\361\310=\260\024\360\275\265\244n>\013fS>L\225\251\276n\337J\276\274\0255\276\310\323\216>\302~\024\275(\237\326\276\327\271\n>\332\247\245\275\317d\233\276\023-\257\276\026c\203>7\260\'\276\230\347\001<\230\033\036\276\317\235\325\275T\n\t\275shx>\034\225\315\275\3533`>\031\267\014\276V\207\321=\025\321\204\274F\"\202>r\017\213=\3034\270\276\t\034^>\005Z\022>f\243\226=>\266 \274\014/\007\276\270\217\371\276\000\205V\276\374)<<\335[\274\276^\265\307=zB`>\3628\331>zM\220\276|[\362\273\242\020\014\277\236\337\215>\240\376l\274L{\332=N\300\245>\332\363\351\275U\234\031>^\266i\276\242\244\000>{\236\345\276\316\302\301\276\256Z\003<\304\371?=j(\026<\327\345Q=Ho\251\274\336\021\313>B(\337>\003\357\r?\247\030\370=C\245\326\274\225\322\317\276\362\n\313>\374\304\222>\301\2406>\274\252\256\274\371\275\362<\313M\222\275\202\2641\276\005\213\271>i\257\252>\302\203\352\275\350\000\034\276\277T;>4\256\317=\333\214\311\274\357\364\305\276\010I\000\275\214]\255\275\317\004\350>\240\207\303\276\007`\271<\340\340y\276\322A\235\275\311E\220\276\234Oq<n~\240=|\251\300>\007\320\231\276{\325\003>U\340?\276\240o\311>\214\332\006=*\205B\276\307y:\276\243\326t\276%|T\276\272\221\223=e\340\274\276B\003\244>zE\343\2764\374\037=\253\3303>I\332\035\276\333M\367\276\022\"\202>}\324-\276H\252g\274n\025\245\276\312OH\276cDj> \0060=C\214>\2757?\225\275\217\246\221=3\345\275=\177QP=\237\2464\275\213Kg\276\034\206+>\215vR\276\265\303>\276@s\344\276\200\375\232>\217uf\276Ix\254\276\362\224\250=eF\035>]\007\225>T\302\014=\306,\226\275\366\302\354\275V\236\311\275=-\202:\245O\271\275\016j\310\275\274\202\021=`\312\226=\343kk>V\217\252\276JA\303=\037wb>m\204@>\367\203\212\276GCO\275X\352\225\276P\365\220\276~xg>\356\031\342\276\t\0249>\212\2636\276\233M<>"
      }
    }
  }
}
node {
  name: "decoder/dense_4/BiasAdd/ReadVariableOp/resource"
  op: "Const"
  attr {
    key: "dtype"
    value {
      type: DT_FLOAT
    }
  }
  attr {
    key: "value"
    value {
      tensor {
        dtype: DT_FLOAT
        tensor_shape {
          dim {
            size: 64
          }
        }
        tensor_content: "\272\177Y=\335d\273=\215\261\320=\346u`\274\211NQ=\000\203\300<A7\232\275\031\232\227\276FP^>\221\352\204=\241\324\230\276\276\314L\274\206T#\276zh\021=\312.\177=lz%\2745\240\230\276\022]~=R\230]=8\351\310\275\244\363}\274\362P<\276\351\376\303=\000\000\000\000\241\324\230\276\241\324\230\276\342\3300\276\342\271\332\274\334\245\033\2740p\316;\022\270/\275:dL=\202$\027\275D\252B\276\241\324\230\276xZS<B R\275\336A\317<\300y\030>Z\346.\275r\026\331<\342\206\'=\242\370\002\276\005\243\243=\251\036\226=\n\333\371<u\264\331\275\331DX;E\025\235\275uF\245\275\302\315*=\302d\252\272\346u`\274A7\232\275\202$\027=]7\230\276<\200\010>\252\"=>\022\270/==\307\313=\241\324\230\276<\200\010>\345 \301=b4\000\275"
      }
    }
  }
}
node {
  name: "decoder/dense_5/MatMul/ReadVariableOp/resource"
  op: "Const"
  attr {
    key: "dtype"
    value {
      type: DT_FLOAT
    }
  }
  attr {
    key: "value"
    value {
      tensor {
        dtype: DT_FLOAT
        tensor_shape {
          dim {
            size: 64
          }
          dim {
            size: 128
          }
        }
        tensor_content: " \3319\274\030\321\000>\236)\245\275\342\231\270\275\301\363\330\276\255\313\313\276:\r}\276\340\0104=\255~\301\276\2158\323\276\321\332\307\275\246\205\352\276\230\020\276\276~U(\276$\313@>\241\356\353\275\311\223\364\275I\265\350\274\3663\337\276\362\271\002\276\341\222k\275\025\362\324\274\004\257\347\274\200\307\201>bt\251\275\315^\233=k\304\234\276&Jb=\240`\262=\210fF=\260\354P\276\\@\263\275\365\315\363<\305\254\204\276\0135\216<\256y\257=G\316x>Ty\355;\023\363\330\276F\363F=T\273\005\276H\244\314=\006\227\316\276ysZ\276\252\307\206>\274t\330\276\364\226R\275\260\376\032<\022\007\324\276p\214\035\276T\023\001;\340L\026>\374\036\275\273\264\370%\276\340g\265=\250\350\355=\036\225\035>H\240C\276V:\004>\360\350\350\276\030\023\253\276\372\237=\274\246\375*>\264\354\234\276\204\321\034>T\213\n\276D\246\313\273\260\351\030\276\025Pn\276@\"\306\276)\256\260\276\227\344\026\276\003\262x\276lB\366=\236O[\276\357\375\021>L\247~<z\245{=\200\352\353\276\3625u>\322\016\256=^]\315=\226\004\363=\220\300{\274K\324\300\275\250\n\274\275b`\355=\366&\222=\000\301Q<d\2547\275\326\214\376=p\235X\275\342\233\317=\302\357\305=Cj4>P\227\"=\304\233\214=A\253\206\276\307b\027>\252\215O\276\234y\241\276@\261\373\275\230\222$=p\005n<C\210\207>\340\351y<\370p?=\276\223Z\276\002\310%>\312\222\221\275\335\003q\276\213\356}\276\013\265\312\275i\220\201\275\357[\030\276W\361\003>\"\346e\2756+\260=\202\371\334=\323\306\'>\256\311\t\276K\332%>\250\217,=\037\337\342\275\250\222\244<\031w\n>h\370$\276@\355\221\274\364\022\260\275\270#\356=\014\013\355\274\026\306\335\275\266\003\314\276E|\223\276\020\014|\276s.=\276`@\207\276Vy\227\276\0178w\276\000\362\213\276\3144[\276\250l\243\2761\250=\276\031\272\027>\2405\233;\023I\264\274\300\177\312\276\224\366\253\276\321\354\n\27293\270\275\331\366\220=\255\331\372<\345\243\234\275\242\334\201>\\_\201=\014\2530\275\202\3644\275\\\270E>\313\232\261\276\266n\274\275\322\003J\276k\376S>\351*\010\276\333T\350\275h\310\255\276{\352w=V\272\267\276&\244m\276\004\223<>\017KA\276\373\246@\276\220V\034>9e\204==:\342\2751\2631\276j\320\374\274kR\225\276\005\024\347\276\014&\306=VFu\274`g\231=1\007\276\276uL\367<\362n\031>\306\022\327\2746\344\342\276^pS>\343\021\226\276\251\267L>b\323\210\275Xq&>\266*\216\276^\371\274\275\240\257k<`\361\260=B\362\017\276\301H\335\276N<\330\276\257\247\321\276\2652\222>\240e\332\276-\022\007\276 \0320\276\336\300&>-\345\275\274Ox\322\275\374\370\201\276.\374Q>\000\350\275\271\246>\325=PVZ\275St\024>\354\230\026\275\203h\024>h\226\364\274\325z\317\275\300f\261\2752B\235=<X6=\260@c\274d\034\027=C\341\022>j~\251\275\240\215U\274\220\220M\276\333\376\247>\310\326\346=o-\325\276\251\204\273\276\220\212\320\275\255\373J\276\\\234\223>\013\200\003\276\310&J\274\230I\365\275\344\007\310=\240>,<\372H\224\275,\317\204\276\333\331\305\275B\352\030\276xQ\237<`w\225;\327\371\034>\005\300\022\276\000y\325\274\241\313\020>\020\002a=\202\332\351\275\320+\034\275H\346)\276\2052\022\276\032\022\301\275\362b\271=\000M\240\273^\372\335=\261\273\323\275U\245\225>&\032\020\273\366\362\025>9\305\\\276\035\234\275\276\360\331l\276\370\210\220\276e\237\240\276\025\244\305\276tVJ>I\200\212\276\234\375\013\276\312a(\276\025H\215>\204Q\036\275\200\201r\275\325\222\277=\212\271\315\276M\324\220\276z\312C>\014\0279\275X\204\304=\3139)>\2253\222\275ZE\201>\257\251\221\2760\213\347;|\003\211=Sm(\275D\000\362\276\005\026B>j\227\'>&\251R\276\236\375\301\275\350\004B=~\314\200>p\254\272\275at\265\276\016\030\354\275d\025\373=\214\210\022\276\253\373\224\276Q\325\006\276^\344\177>\327\236\264\276-78;\272\200\\\272\212\342>\276v\355\236\276sL[>\275\246;>l\364\224\275v\t_\276\261\363\033>\030n\013<\217\375V>\r\336\210\276\260\325\333=t\370c\2761\323\250\276\306T\002\274l\234\347=\276\001;\276\267\203\355<f\345s\275\347\036(\2760\300\354\276\020M\362\276\220_\031\2766=\265\276>\320\016\276q\351\260\276\005\231_\276\222*\266\276?\rO\275\036\232\005>x\030\364=\365$\317\276b\311\257=\216\025\355=\335\264-\276\273\245\027>;\200 >\025\355\010\276\240\276\377\273B\031\223=\300d\037=\026\214\256=\030\231\'\276\370k\255\274Z\311\300=\370\212\345\274O\025\003>\306*\\\275l,\205\275\210\203\275<\030\022r\275R\266\003>\300\302\326\276\376T\317\276(\243\202\275\346g\021>\362\241\255=/\306\035=\0142\343=\370+@=\350<\254\2738\205\237\2768\314 >\336\242\021\276\013J\210\274\207I\314\275G\240\t>h\267\021\276\320M{<Rj\363=\277\232*\276\302V\016\2760TG=\366\022\302=\2565\343=\220jX=K\254,\2767]\034>\201-!>\300\0306;\031G\023\276p\014\261>\034\0259\276q\023\317\275oW\317\276\256O\314\276e\216\313\276\322-\272\2766M\360\274&\320\335\276\267\350\224>p\361?=\356c\225\276d\236\201>\304\306W\276YV\372\275\342\3037<\302\311\223\276\027\264(>\234\244\361\276\352\276Q\2767\304\250\274\032\315\326\276\225\t\t=F\264\225>\367\343\341\276\371pE>\2048*\276\227\350\204\275*\370\364<Y_d\276\262D\314\276i\010\225\276\362\372\001>N\327\345=sI\225\275\330\227\204\276@\034\303>\001\305e>\236\027\005\276\355\270\202\276\277\237\032=\325\036M\276S\223R\275>\030\365\274x\030\004=;\004\203\276~)\253\275\354\000J>\236\263\335\276\024S\335>\344\014\323=\252SA\276X[\222\275LSh\276\274\3763=w\356\317>,\350;\2754\031\354\276|\021\024=J\236\313>\357\014\270>\014\377\236>\240\032\027=\211\212\324>\306\227\220\274\200\320Q\275\352e|>A\'\353\276\366g\225\276\nb\031\276\372)\016\276\224\337\262\275K\227\324\276rd,=\377\031\202=\223\313\270\274+\023\251=W2\233=D\"\261>\220\036\324\275H\032\247\274\334\325\006\275\275\035 >\027\246\t>J\262\245=4\211\374\275\310*\265\275m\332#>m~\274\275\002\304)\276\232\376\301=\350\343\347\274\357~1\276\230_\357\275\350\367\271\275\014\371\345\275\025\365\361\275(V@\274{\357\304\275\034:h>\003\336\312>Wu\304\276~\260\312<m;\325\275\240\214\271=s3\226>\030)\262\274p\355\205\275\202_\020\275\"\327w\276w\251z\275\246\344\266\275\002\351\361=;\312\016>\213)\013>\347~\017\276\201K\024>\236>\236=\374\373\314\275.\351\017\276\302\253\230=\022\212\246=`\373\266;\000\177\244:Dl\030=\317w3\276\260\304\252<\354E\006\275\273\000\233\276\201m\260>\027L\030>\322\370\177\274Py.\276=\027\327\276\342(t>\230\266i=< \032\276\335\312\327\276\nk\270\275~\316\301\276%\222\236\276\310\242d\276=\220\006\273\216\3627\276@\3147>\364\025P<\356\237\343\276t\334r\276\312\210\';\264n\314=7\241&\276\003\255\025>\001Q\361=I\215\003>\266L\332\276P\271\002=\007\313\203\2760u\242=\240\222\224\276\006Lr>00\307=8\351\033\276\241#N>\307 I\273\0244\342\275\316^\235>\215,\255\276$q\014\276\257\312\037>\227\207\201\274\335\341\372\275\032\244\362=\261]\212>\363\273r\276\352\377z\276\3371E>\"\217\336\276P\005;\2764s\"\2762\313\247\274\332\236\035>n\025v\276\262\355\200>\343\234S\276\315\243\343=H\372:\276\253\003z\275\264\005d\276U\031\345\276\323\tP>\267\263,\276)\r\232\276D\347W>\264\032\033\275\211N\023\276NC\310\276\\w:\276\200\3277\276b\350\243\276\331\255\247=\273\257\341\276t\\>\275)\372\373\275\360~\334\275\350\201N>`F\016>\013%\205\276\260\207\225\274wD\263\275}\346\037>EG\030>\362\332\304=@\323;<A\322\"\276F#\346=0\235\'<,l\025=\022\320\022\276\315\317\217\275}U\272\275`>\323\275\306\213\231=\200H\037=\0343\203\275\343\265\201\276\252\3700\276\320\303;>F\006\303\276]C\263\276\264\301\211>%\221\026>\200\332U\275\004UH>oH\017\276\301\341\313\275\234:\027\276g~0\276\225\305\203\275\370\320\004\275PM\376\275\006g\352\275\037>!\276\374\230\363\275\006\270\343=\341v\261\275\302\374\177\275.W\022\276J\031\211\275\177\265\252\275\\\350\346\275\262S\200=\214\263f=S\303\017>\306\005\226=`d\202<B\203\031\276d\261\t>\010\312~\275\032\247\221\275}H\332=\331\243\306\276\277\034\306\276_\031\336\275\320<\200\276n\340\211\276\200=u\276r\333D>e\203\236\276\214\002\r\276\205t\242\276>sQ\274`M`\275t@\030\276H\201\201=\316`6\276\302\214T\276\204\373\001\276\177\301\221\274\252\207\204\275x\203*>\220\277\242<\316|\000\275Q\255=\276\270\310&\275\355\257\240\2766\0037<\273\005\303\276\345\002\031\276\235Z\005\275\213\312\337\276\235\300\024\276\244$*\275\':\303\276\025\251\266\275\273\253\033\276\263P\320\274\245\222X>\n[\014>\226\361\025\276\005\343\202>nGT>\365L\217\2764\242\026=\002\351\335\275$8S\276v\004\333\276\242\255&\2732\'\237\276\210\210\006>\007\237\254\276\2044\014\275\0226\000=\364\231I=\250\007\322\276@\027f=\307\327\200\276\026y\024\276P\342\236>\032A\327\275X\313@\276<\217\365\275b*\240=gW\365\275\325\251\272\275\252Ut\276\256_)>\206\200\211\276\014\"\221\275\325+\227\276\372\227\273\274\232\025\306\276c\005\351=\254}\332\276\222\214\325=\332\372\240\276\342$g>\240\342\032\276\251D\023>v\356(\276PW\257<\216\251\301=(h\r\275\000\021\232\272\014\304\030=\370\004\267\274\306{\215=\374\220\212\275\200\331\331\274\235\221\022>8\220\231<z\326\336=\316\276\262=\037Y<>\377\021\211\276\010\212\347\275-\216\177\276\251\344\266\276\337\221\225=G\t`>\223\327\243\276\274\217\262=q/\032\276p\3576=\304p}=\003U\226=\367\323_>p\235\"\276\304$\230\273T\375C=\337\350\335\275\276\301\360=`\316\373\273\276\202\006\276\002\377\310=\335\234\266\275ug\034>\276\362\300=\n-0\276\222\030\350\275\000\346\2769q .\276\311\335\272\275\233E,>)\r!>Wdh\272\326\345\220>\240 F>\026\213T>I?\\\276\236\246\211\276\217\253\312\276F\002\255\275\030X\225\276HN\334\276T\177\001<\"d\343\276\\i\261\276\220\376\207\276\275v\215>C\210\316\274\241\210,>\267TY\276\252\345\247\2765\301\353\275\025\335\332\275T\201\302\274\265H\273\275\272m\034>\316\237E>\241\363|\276q\352\327\276\036L6>\242\006\016\276\\\330\203>2<\020\276\244C\254>\247~\223\276\356\206\342\276\344q\276; i\372=+\306\200\275\214\202a\276\266YT\276L\361\264=\033Z\013\276#\237C\275^\256\006\276\306\340\032\275\324\013\n>\002\332\340\276e<\374<\367\323?\276\223\247\312\276\322\016\026\276\310I\345=\240\032\202\274\260+F>w\360\341\276\237\227G\276\212\325\352\2759\240\023>\231\350\212\276:\346\032\276dX+\276\001\216\320\276\364K%>>\026H<$\002~\276\333\257P=r\314\357\275\216K\241=\331\304\270\276\273\343\302\276_\237\212\276tzE\2767*\315\274K9\325\276\240\355\t>X\237\263\276\342\345<>T\341?=\220\330\214;\252\227\316\276z\017O>\235\3674\276\000L[\273\\\247\007\276v\030\265=8\211\344\274k:\010\276\367\004.\276e\303\002>\310\005\225\275\246;\301=3\347\344\275W\361->8-\332<\000\346\227\274p\2529\275\361u\025>\302\252\214>\314\223\253;\370\022\003\275uv\204\276\221\303t\276|\205`\276\242+7\274\335J\333\275\227z\370\272W\360\216\276}\344\336<=\003 >@\014Y=\333\262\320=\221\014\220\276\260q\001>(k\346\275\343\252\027>\254\030\024\275\177N)>\340;\240\274Z\272\377=\260+\202\275*\t\241=\340\277\254\273H\2161\276\260\207*\274d\225\033\276Bv\262\275\202!\226=\300\227G=\316y\226=\276S\334>\260\221\273>\304\261V>\270Ub>|\265\270\276i\260\276\276\334D\230\276\3646\324\276\263\305\311\276\352Z\316\2761\342\350\276<[\335\276s!\266\276]1\201\276\341\266\357>\006e\205>\375\212\207\276\314x_\276\024\265+\276\rv\222>2\024\010>\005\257k\276\301\274\327>\220\234\021>\276\366\333\276\017t\263>\364|\010\276S]g=\316\346\357\276\337\240\241>\270n\342\276M\360\312>-\021\335\276\207\216\350\276\203\026\214>\374YH>C\225\252\2763\251+\276\275Q\362\275b\313\234>0\'\306>\016(\036\276~\317\033\276\0244\025\276\344\227C\276\360\323\235\276\315\301\227\276G\312\301\275_U\202\276\303\314\301\2761j\251\276Ag\273>\241\316\334=~\325\356\276\3203\304>\\\226\315>\275/e>\252\027\305\276\320=\342\276k8\333\276a@\211>\021\016o>\327\021\327=\351B\372\275\363\030`>\321\343\033>N)\345>\\i\247\276\0007\227\276\024\257\231>N\212\010\276\340\330z\276pR\300\276\014M&\276\033\363\230\276\036\013\302\276{G\304\276\265\177\244\275\244yt\276\345\217\031>h\375\354\274\304ib=\353\217\r>\016o\224\275u\377\016>|\376S\275=G\017>,\257\263\275_\211\340\275 7\317\273\335\235,\276\226\322W\275oN)>\364\220\032\276\356\274\371=F&*\276\330\263P>%\236\312>\312GY>J{\022\276}\347\276\276\330\377\007>\003\244\240\276\006\271\267\276q\270\n>\247<\203\276jNO>\274\372\223\276\245\314\355\275\253\023\375= \027\261\276\202!\334\276i\\\337\275\010\203\321\274\260|\274\274\001\331\246\275\246\361\313=yF/>\340\236I<\243\330\234\275\234\220R\275\320\317\370<\231,\006> *\373\275\304\r\t\276K\234\002>ol\237\275\310w3=\230\301\217<\236\034\214<\010\3050=\000C\211=<C\246\276ce\300\276\357\361\307\276^\323~>\312bQ\276q\371\223>@\021(>\206\304\225\276\272My\276,2\215\276\237\3238\276\261\n\222\275\002\363a\276<\316>>r\341\204\276\355\241\220\2760\236\003=\306\'\206>\364Z \276\232\360\232<\211h;>\\ \216=\037\327a\276\220\347\t=d\242-=:\005Y\274\236\nM\276\240\244]\275V\215\344=\200V\212\276\036\177E\276\023\350\233>\320f\016\275\360|\336\275\n#\224\276\0044\005=\2728A>\357\357\212>\202Y\271\276\320\275=>\3774\265>u:\275\276\244\207B\275\252\305\200>\204\301p\276a\010\233\276\003cC\275\227\024\201\276\241\275\253=\311\177\322\276\'Q\201=N\300;=\265z-\276\343\236\360\276\211\200{=\260\202=\2760\004\"\276:\037\321\274\003\301?==\360\330\2764+>=Z1\232\275\314\347\213=ZL\232\276I }\276\225#\362\275\214\010\355\276\"o|\276\235\326\345\276<\342\262=\013u\331\276Y\374\237>\214\305\313\274{\243\211=|;\207\276ZO >\203\377\347\275H\204\342\275\306L\253=4\034m=\300\273\362<Hw\017\276\240\263\204\274\252?\316\2751\014\n>\250\014)=j#\261=\261V%>\244\310\036\276\320{\335<\354\247L\275`\321R\274\022\203\003<&BC\276\316m\"\276bR=\276\245x\212\276(\373\231=\366\200F>\320\027\307\275R\003H=N\306 <V\037`\275P\336\341;X<\037\275\250Xk\276\261\001\221\276\314\332\235=I\271\265\275\000\234\315\273V\242\352\275\311e\004>\312\332\326=`A\263<\313\367\350\275\016\212\345=?\227\256\275\260h\353\274t\332\002\276\002r\274=NX\260=\336R\263=\270$\245\275K\3240>Bv\004\276\034\247\r>z\255P\275\260\rF>z\226\005\276g\201\324\276\344\262{\276\375\320\203>\004\272\007\276S\313\220\276hA\354=F\201\244\276\277\243\331\276\236\221\263\276\214\245\244\275\370\314%>\244I->[Hk\276\235\233t\276>.\237\276\215\021b=\346\036\267=\360\347\231=\234\232\241\275\310\n\273=\316_;<y\244\217\276Mp9\273H\"s>\000\222\006\275ybm\276\243\037\262=\330\224\217\276t\277/\276n0\340=\326\024\200\276\213\270\246\275\356\245\266\275\350(\334\276.\323\335=\n\337\306\275\343\300\357=t\211\001\276\024\212\357=N\323\000\275\212\021F\276\222\0377<\230A6>Fi\031\276\226\330\303\276\336T\212>\322\"\207>P\236G=~\266\267\276 1\276\275r\316~\275\010\310y>\r\272\354\276\254\260\313=\341K\377\2755\334\352\276>t3>\262\202\200\276\013\321\313\276\226\322\303=T$\016=<\342D\275\364\247\223\276TW\225\276K\231\234\2764z]\276\331\220d\276[c\271\276\360\362=>\270U\336\276\270\250a=^Q\023>\340\214/\275\202n\207\276\306\245\031\275\240\037v<\322 \310=\244\250\024\276\215\211\003>\330\253%\276@\356N\273\216+\325=\312@\271=t\025\031\275\231\227\252\275\330\')=X\247\310<\340\310\031=W\374\n>\244\036\210\275\033\224\021\276H\365\361<\304u\014>\313\\,\273w\214\304\276\204\310N\276\374.\312=\005\335\210><\223\213\275\230\341\016\276p\'C>\350\224$>\240\021b\275\276\270b=yt\324\275*\304\245=Rl\207<\030\344\263\274\034)e=F\307_\275<^\314\275*\236\333=\347g\260\275\342p\323=Z_\212= \226\003\275@a;<\241\3070>\300\027[\273A}\'>\2240\036=!z\007>}\210\002>\224%L>\300\220\254>JE\316\276\r\010g>\314g>\276[\'Y>|\251\005\276.\025\212>\256\"\206\276@\357\220;\3129\360\276WQ\312\27657\226\276,{\024\276\t\001\233>\275>\277\276IW\240\276\014?\024\276~\345S\276Z*\\\276\270\027\212>\242\'\203>\320Q\243\276\004\2140>uk\033>\221\241~>\377\265(>lS\037\276\244\030\017\276R\036\231>J\321\236=\254\010\352>\342X\223>\320\365\236<9\2576>\313\320\343>l\271(\276\"g\367=@\016\253< \374\345;\264x\307\276\177\237\304\276\3001\237\276\341\353\332>\325\235\353>\341\312\232\276MQ\322>{\031\027>0\343\304\275\243G\274\276fP\207\276\3437\275>uj\217>OI\346>M\177\203>\372[\250\276J\234\335>\001\377j\276\333\327\201\2769\n\340\276\352\177\220=\n\322\236>\321\027\'>\204*\317\276\342Q\215\276Go\255\275\"`A>\nS\217=\204L\204>l\251\343\276Q+\342\275U\271\243>\354\013B\276\224\177\322>=!\231\276\247\320\204>\335,\024>Q\032\236>\331\306\216>B]\031\276\337V\321\275\276\004\232=\206\206\230\275\320~\251<\024\371\006\275\236\313\262\275\265\3602\276O\235\030>\200\213e\273\220*\341<\200\225\367\273\204\357N\275\360\267o=!\330\344\275P\330\333<\240\340\013<\325(\007\276\223\271\250>Ig\346>\3525i\276b\2732>\006\377P\276\326\300\337>\276|+>\034\224-\276G\247\">bi\223>\366\007o>\016\376G\276\222n\331\276\207\014\307>\206\221\207>\260U0\274\230\320\000\275\240Co\275\322*\\\275H\210\'\276\356L\351=\000\264\207\272Cl\253\275\2461\272=\020o*\276f\t\232\275\000\235h\274\332\270\r\276\232+\311=\310/g=*K\373=\335\331$\276\2075!=\014)\230\273\363\247K=\332\223\026\276\321\223\252\276\330Qt\276\313i\302>qS\221\276\265b7\276\243\273\225\275\237\352\344\276\240\004\311\276\340\311\352\276\275\375\201\276\340>\300<\240\017%>\320\313\231=Y\205\371\275\335\357W\276\250\'*\275AI\216\274\210\264\236\275\315Y\350<\260\263\004=\314\017\236<\371<\304\276n\005\352=W\320\233>\"\351\033>\342\357\225\276\327\252\235\275\304\342\377=bg\231\276\333 \312=\2535\311\274?\225-\276\351{,\276\030kR\276u\265\222\274\003\214!>@d\007>\023\004\213\2760\376\273\275r Q\276&\203\013\276n\335\202=\236\014\035\274@\236\224\276L\255\221\276\324K\341=\020?\t=\202$\234>\213\316\216\2765\3077\276\240\250\337=\343E\027\276\032}\306\276w\\.>\246\365B\276\374y/\276oV\036>h\n\375=\317R\332\276\034\327\301\274\030\332\026\276\233\304\212>=\331\240\276\002\216=\276\203I\273\276p\272\302\276\201\261\010>\031\327\241>\236\274a=uG\203\276\314\024:\275\260j\204>%\367]=3\245\213\276v\365\332\275\316%\271=\340=\227\275\230\341\256\274\331\337\014>\330\240$=`T0=\033\324\020\276\310;\n=(m\273<`\362\313<[\336\262\2751 \026>\237d\303\275\334\277\277\275\200\014<\273\224\277Z=\224\262\310\275\027w\371:|O\014=}o\273\276\033!j\276`U\232=\330\\\367\273/f\025=\372h\350\275jSY>\364kE=\274]I>\222\022\223=8:2<\022\207\200\274+\325\034=X,\323\275\004\351\n=V\207\333=e\374\037>42:\275&\253\267=\206\321 \276B\352\216=!\335\033>n\344\235=\351Z!>\340\204\"=\272p\247=H\235q\275\300\351\346\273\272=\021\276\377\243\005>\340i[=g/\324\275\037i\020\276M\213\337\276\340\260\241<\374uc=`\310\034>1\306\215\276\033\307\300\276\344\337\315\275\266Y#\276M\326\210\276\033\326\217>\354\001W\274?\261\252<@&\027\273M\r!\276z\252C>+\3715\276\315Q\027\275\261\237\353=\271\314\356\275\301V =\306\225\310={\354\n\276?@\301\276\205\235\032\276\020\251\271\275\005\220\245<\377\030\260\275r?\301\275n\325/\276\356\006\256\276\2514\306>\216x\365=\212\300\333\275\200i\240\276f\225\214\276L~\203=>qJ<\201\245\245\276\332\272\247\276\231\022w\276\344\315\247>\3207\332\276\254\365\n\276\004o\207\276\221\266h\276!\344\266\275\222\316Z\276@=\261\276\266v\224>\223\267\276\276\203\246j>B\223\001\276\314\305(\275|QW>q\031$;\'\"v>\\\315\243\276\363\n\277=\234\246\346\275\262\217\346>\005\010%>Rr\245=\340\2317\276\212s\306=\377e\233=\324&J>\354\361\311>\034\313}>\303\006\244>&\233\213\276\315+\243\275\301\361\312<\312\224p\276-g\343=\247\242\324\276\033\265\361=\2424\323\275\300o\027\273\310\243\366<\177\340\314\275\220k\037\276p\213\275<\262t\315=6C\372=\254{0\276\273\036\031>\n\210\215\275\332\200\300=\2565\312=\252\370\243\275\200\344\231\273K.&>l*\304>\347\265\037\276\362\"j>\323\375\263\276\346\255\252\2763C\273>\350\325}>lMi\275(\216I>\255\315\013\276\340\005z=\3500\006\276\320\254m<\324AW>\342=G>\242\354 \276H\227\300\274xBt\275\350\242\262<\326L\301=e\300\020>\240\242\202<L\\\333\275\270\333\360</\201\027>PJ\223\2759=\235\275pY\304\275w\220\003>\200\366\352\272M\003\026\276\304\017\"=\370\213E=\310D`\274\310DO\275xd\201>\375\213\262\276\376u\206\276\352\"\341\276-*c>p_\314\276S\361\314\276\365\352L\276\001\301\273\276\252\256m\276\334\024\327\276\316!\202\275I\230\207>y?\235<\322%\251\275\337\271\355\276L<5\276@\223+>\242\370\032\275(\206\310\275\236o9> 7-\275L7\217<\247\306\030\2764\177\367=X\314c<\254\325\315=P\245\225\276\n\243S\276\216!x\275\316\354b\276\262\252P\276\005\306\254\276\306\237\346\272,\261\303\273\320e\346\276\"\210A>\005h\370\275\236\232o\275M\317\241\276f\320W\275<l\226\275,\273O\276B\260\203>P\362\007\276LF\"\276D\2170\276P\372]\274\3400V\276\211\304\320=T,\251\276\374\3613>>\2659\275\257R\020\275\0015\210\276\036\027\274=\035,\375\275\207\"\256\276\332OY>\304\314\321\273\276\235\343\276T\0021;\367\363\267\275\205\361\240<R\376?\276F~=\276\375\276\300\276\316\213\017\276$\305\005>\212a\356\276\034:\177\275\003\335\177\276r6\016=8\2535=1o\234=z\320\207\276\227c\004>xj\246<\000\224.\276\302\377w\275\324\014\031\276\020\200\014\274\\-\220\275\014w\032\276L\214N\275 /\022\274\270\311\220\275\260\267.<Xf\375<|\1774\275\177\327\247\2758+a=x-\347<\360\314\200>|\032\314=\010e!>\364\226\255\276\333\324\274\276\344\366]>\250\264}=\266<\020;g\323\267<h\316\032\276s\243\"\275\234\236#\276\004\207\225=6\354G>\024A\377\275\370\"\033=Tk\007\275P\201\t\276*\305u\275\316l\333=\370\351Z=\333\r\337\275\361]\036>\307\220\026>\370.,\276\220\2248<=\225\n\276\337\341\016\276x3\227<}c\024>\256W\360\275\000\365\000=&\001\212\275\266\360\211\275Z\'3>\356\207\217\275g\256\322>u\272\233\276\375s\341\276\010\352\247\274~i\331\276\rF\276=\014\211I\276\332\253\247\276\204\224\211\276\304\320\213\276\020]S\274*\227F>\243ez>uV>\275~b\217\276*\320N\276\'b\204\276\360\346\210\276\020\301\207>\322\322N>\250\354\014\276Z\037;>\370\234\337<AMr>\224\375v>\3330*;<\031\316\276 \272\305\274V\3011>\000\367-\2742=\235>-\027\346=Z\227\224\274#\006\266\274B\364\225\276c\026;\276.\226\025>LU\223\275\254]\226\276\310G\345=\265\002L>\311\020\237\276\352]\203\276\030U\232\276\005\001\247>\374E7>d\270\200=H\375\303=\300H\000\275>\256\n\276\260\210\005=\240-\233\272(\250\277=\242\030\274\276\203kb>\334\350\212\276\'_\255>W\204\026>\362A\261\275\361\031\211\276\220\202\t\276\000\345w\272\374\251\313\274\300\205F=\200\275\234\276D\t\243\276\255c\206>\016N\272>\265\\\250>\2204\322=p\025Z\276\343Xm\276\326L\332\275z\010\025\276\023<B>w\305\371\272\0009\214\272\366\233\337=r\307_\275\355\262\004>\022\302\262=\234\002,\276p\215\264\274\236\310\265\275\260\351\257<UK\033>\277!\264\275\237?\023>V\300\335=\220\000\215<X\257\231<H\270\233\274`9\351\273N\267\261>l\272\275=\300JF\276\220\345z>\371\224-\276L\312.<\334w\235>\"\221\266<\354\'%>F!^\275\027\333l\275\270\220\270<\326\200\356\274ZD\207\274g\227}=\244\331\253\275p\233t\274\373\3751>,\241\344\275\034$o\275\300NB\275\210:\005\276\335H\215\275\254d\026\276{t\022>\352\244\315=}\0353\276P\212~=\036\324\304=JR\266=f\031\253=\250X\261=\274<\344\275\336;4>:C!>\n\377\241\276$\227#\276\256\213P\276\302N\260\275\232;\342\276\260\014\221\276\200\370!\274\374\272\233\276YM\234\276\205\'o\2764.\035>\303\356M\276\034\263\360=\224\273\036\275\005\003\327\276\301\001\301\276fW\346<\013\377\005\276]\235x=\312\210\274=\207\314\313\275\370\242;=\342\245\234\275\010\205\373\274\266\177X<\007tq\276\000\322\225\271\224+\217\273t*\231=\211\007\246>\300\247D>D\270\021>\260`\021\275\004\274_\274X\224\237\276.\265\222>\262(\233\274G$\242>\220\034\255\276`\177[\275\234F\005\276/Rj\276\371\303\200>\024@4\275=\347(\276l\205\271\276\326T^>\242O\027>\212\245\017=\265r\345\276^\326\022\2764\010J=|\255\004\275\275E\305\276I\234\254\275E_\267\276\270\230\002=\236 \220\276\274g\024<wE\213\2769\374\016\276\r\345\016>h\244%>l\'M=\347\375\313\276\336DT\276\236\346\326>\205\215\360\275\010\205\245\276\240K{\275\033F\351\276]\024a\276,M\261\2758k\330=\010\354\360\276V\271\007>\222\217\212\275\037@,>\317\037\341\275b\274\022\276\030\005\237\274}#\010>\372\374\367\275\206k\234=@i\014\275:b\246=\2161\342=\000\212d:\014\376\207=`I5\274@\3254\274\300\022\016=\261\3277> rl\275d\230\256\2740;\337\276u9\323>\224k\224<\014`z>\202\334\331=\000\263\274=\246$\207\276\032\242Q>\214\210V>5M~=\230\361Y>Tn(\276\256\312J>\212@\306=\370\207\330\274\203\235\n>\000\027\345<\340]\221<\225Z\033>\275\314+\276\204\306\030\275,Hw\275*\017\201=Gw\036>u\314\010>-\277\027>\205\263\353\275\026+\345=.d\221\275\310\260\214>p\266d>\225]\261>J\325\215\276:\252\352\276P\373T\276\366\272\217\276y\331\r>\204a\223\276C\247 >\334\026+\276\000\361\332\276\324\"u>\024\003\017\276\314\354\273\276\340\306\n>\004V-\276\216/Y>6#`\276\213\231\005>\315\370I>\n\350\341\276 W\"\276\353B\304>\351Tr\2763F\356>hi\317\276\320*\235\276\225\305\275>\330-\305\276\202\332d\276\307\244y\276\220\306\346\276\364g\342\276\273\312\266>\375\'\200\275\326\000\225\276\010\201N\275\272\262\333\276\\\031\254\276\225\275\326=\353\023\232>\363\362\303>\253r\316=\265\211K>\226\346)\276\374\274\327\276\230\016\324>\307w\301\276\315\273\241>\025\033!>j8\214>\251\334\237\276<X/\276\207\334%>\320\333\361>\024\304J\276\263?\324\276\321$\303>0.\206\276`\367\336\276\235\273m>#\366#>@13\276\370\351\222\276\370:\376\275\374H\320\276\224\277\255\276&K\300\276h\326\"\276\324\222D\276\265q\307\275\027\311\267>\254J\304\276\232\2156\276\240\373\240>\344O\244\276\243\377q\276\2104C\276Nlx>\206\232\312\275\231\276\030>\351S\035>P\270>\274\000c\244:Jz\212\275\207\360\000\276\224\211\021\276\226\013\342=\270\211!=\372\222\310\275\372\212\253=\220\223\300\274\322i\302=IL\033>/!0>-\272\261>S8\207>Cp\222=b(G\276\2322b\276m\010=>\202(\310\276&\250\362\276%@\377=\201Y\230\275\001f\354\275\206\222m\2763F\232>r\202\243>X@\033\276\355\304\302\276\033\334->\224\225D=\355\315\322\275\220\310\357<\020\024R\275\n#\313=\264\266#\275f5\245=\237\221!>\341\301\364\275\020\264\010\276AI0\276\220w\030\274\354&v\275\350\362\316<\306\355\330=PNt\275\361\260V=\213l\211=\360F->\004\302\274\276\274\357.\276 Td\276\331\223<\276X\021\262\276\245\024\206\276\254\222?>\024\'\336\276\346bg\276\214V\215\276\353]\334=\300Qd>Hy\"\275T\235 >\346\262P>\261\307\332\276O\243Z\276=}\314\275\374\274\032>l\361\'>\322\210\320\275 ,\315=R[\266=\320\217\241\2755C{\275m\376F\276\257\222\274>E\007\014>%\006\201\275~\275\010>[\370\035\276\"#\"\276\377\214;\275\010K@=\370=\346\276\363\3457\276Z&\037>\240\2425>\004\213y\276\334\036t>\037B%\276\266S!\2761\244\000>\223I\013\275y\244*>o\002\347=\027\'\257<\n\216\r=\362\316\222\275w1\225\276\337\230.=\254d\321=\325zc>\200\243\240\276\331u\355\2751\325s\276\304>\007\276=]\r\276\025P\202\275\247)\356\276\316\201\002>\024\3373\276\341\230\310=\212B\254\276(,V\276\377\361\215>D\221q>\177\020\211>>\375+\276Vu >\275\\P>\307\004\026=/\312\263=UU\202\275\244\203W>i\215\030\276`\343\030\276\210\267\000\276\303u%\276l\247\021=\360\347\352\275\343\t%>\016J^\275y\365\005\276b\220\202\275\2372\034\276\342\236\n\276\310\206a\275\250\363p=[\216\034>\323\332\022\276<\2775\275\274\234\232=\202\252\007>\334\363\373\275\362u>\276O\205\313\276\221\335\321\275\222?n\276\326\332b<$\247\230\276\312\206\225<_\014\007>\"\337\276=\314\027\371=\271\274\270<\005\275\221\276]\356\216<\2774\027>|\366.=\000\336\022:4\223q=\"\t\363=\327\262\026\276s0!>8\0226=\351\237+>\2437\r>~\333\370\275\257\034\312\275\233\263->r\310V\275_E\013>\351\376\302\275\234`(>)\3415\276\300\361\347=\333\316\333\275\2319\310\276M\356\252\276\277-\322\276\"\303\225<,.\022\276\211h\326\276\302\020\000>\032\033k\276\355\333p\276b\224\227\276\010[\361\275\277\351>\276\372\215\361=\304\317\030>)\003\341\276\357u\341\276\033\2236\275x\271-\275\034\231p\275\n\201\025>z\337><?\005;=aR\255\276\200\277\224=HU\336\275\207+\322=^\023\221\2763D\300=\000\027\321=[\357\360\276\376\366\221\275\253\"\r=\0047\000\273)$X\276\033\230\334\276\3508\026\275\220a\026\275\017\025!>\332\226\262\276\317!\306=\336\377k>\364 \246\276}\330\214>Sdo\276)(\324\276\004s\205\276h\t\252=c\266(\276\024]\036\275xvP\276f\031>=\315\204\000\276\016K\231=\246\220\006\276XRR\275\212\264\202\276\304\0263\276\327f\224>\250c?\275\244\262\251\276\214\351\215\2764\367\006\276\252\217>>B\010\240\276\267\326\243\276\276<B\276\262\262k\276\320\3669=\221=l\276\013\240\304<\315\216\205\276\373\337\256=\300\275e=\367A$\276\300\312<\276\253\n\367\274\025\244*>\342\313\214\275 \337\267<!w\212\275\245}\023\276^\025\361=\225\246\020>\355\264\024\276?\375\345\275\220\253:=\010\206\252\274\270\242\262<\367\372\321\275S\3653>\340\006\257;\366\355 \276\\\264j\272$\314\266\275\212\2729\275HBS\276\2709U\276XY#>X\035\222>8P.>\212\274\306\275|Dj\275FTG\274\2024j>E\\8\2762q\376<0f\236=\213\303R=\013*0>\002W\345\275xG\321\275@\230Y\274qC(\276\336c\274=\273\364\005>\370\200\330<\341\352\003\276\377R&\276\300\362&<\354\006\000=\035r4>\000\225\373\273,@ =\333G\245\275\030\252\304>#\367#\275\006\340\216\275Q?\025\276\201x\324\276x\032\302\276`v\'\276\344\371\025>%3\316\276\220\204\007\276S\017\225\276\210Ze\276\231\237\236\276F\355\227\276\025EW\276Xa\206\275\004\210\354;Z\326$>\377\213\322\276q\242\323\275E\371\032\276\010o\257\275\266F0>\372\033?\276o\033\021=\204\r\366=0!\373<t\363E>Z\223/\276\312$\344=v\207\203\276\366C\274\275\322\274\354\275\016\234\342=\210\227\355\275oo\276<\276\271A\275\026\233\303=p\321\351\276@<\"\276\003R\223>\202a\204\275\230V6>8*L\274I\342I\276\230\341\014\276`\035\207\273<\034\"<\315\363f>\215:\224>\206VP>\210\202d>_7B\276\250\327\r\276\010xd<\005e\255\276\201\023\202\275\224\211\355> \315\206=z1\304>\260*_=a\232\027\276sa\206>\216\026\257\276\227\347!\276\224\365d=\234e\277=\240:u=\262\3330\276nk\325\276\270\002\314\276\214^a>\013\211\347\276O\314\316\275\325\035\305\275\230\372\324=\\\013N>_\2223\276Y\336\264>\352~(\276\234\033*\275 J\004\276P\302\304\274p%Z=B4\207=\216\374\357\275U\004\240\275k6\351\275xo\024=\336\020\347=\304\2314\276q!3>\337\354,>\310M\230<\203\212)>\255\377\341\275\215\303r\2730)\037>-?\220>\362:\336>qn\331>\360\306\323=\336\002h>u@8>C\244$\276\036\241\237<\014\322\277>3\250x>X\3408\274 \007-\275K5\257\2758\225\362=\337v\341\275\240aa\274\016\373\332=j\307\305=\336\374\315=\022\251\'\276@\311\300\273\200\r\003\273\330\254\211\274\221\240\023>\376\260\240=G\230%>nz\177\275\016l\245=I\306\017>\"\212^\275\237\246\235>\314\033\267\276\370\001\016\276\r\345\244\276l\337\236>\306\022\225>-\333\237>\031A\242\275\264By\276dS\221\276\371G\311<\237\224\336>\370`(\276\271\004i\276\317\376\300\276\035\365H\276\326\211z>\330\254\001>Qwi>\202\277)>*/K>lK\010\275,\256\214=\326\354\323=\347 \332\274\310\263N\275C7m\276\270\240h\275eb\005>)@\035\276o\216\374=\010\267\306=0K5>\262\014\326\276\251\227\220>iP\032\276\001\323\033\276\034\002\326\274C\350\241\276,\231\273\275\207\351\242>\241F\200>x!\260\276P4\362\275\331C$>\021\n\204\276:\213\270\276Y\002V\273\223i+>\200\220\331>\3574]\275v\270\003\276\332\211\020\276\231\'b\276\027\317C>\026R\004\276F3O<\367t\307>LaL>\366\215\300>\252s\216\276\234\312\230\276p.\367\275`\300=\276\275^\t\273yN!\276u\004\265\275\300\3118\276a\230Q>\003/\207\276\230\037\231\276\376^\037>\013\315\357>\357\010b>\372e\236\276k\277:\275V\203\325>\336\240\202>\212\236\346\276\340\013\305=8g\274\274\337C\031>\225{\017>\252W\247=\217:$>\316\031\317=\206\037\231=\356Dv\275\350J?=L\021.=\350:\334\275\3047\204=\203\334\022>\376\021j\275\351\324\025>\220v><\364\356\216\276\243\022\234>\303\355\021>;d\346\276\356p\360\276\273\240\010\276f\3510>D\327\230\274\360,Q\276,\267\301>z\376\">|j_\275\030\353\371\274\3520\374\2752d\224\276?&\310=Lf\211=\376\325\270=\"\027\365\275\030\260\376<E\302(>\274\021.=.\235\010\276(r\326\275\330\266+=J\203\345=\300\263\352\274\203O\201\275&\213\316=\010\234\221<\023\303\322\275\221\261\020\276\357%\270>&\256\370\275x\3628\276\375\3666\276\327\353\232>\2411\253>\301\216%>j\342\206\276}\226\210\276\240\224\272<m\374\020\276k\363\234\276I\014\315\276n\027\210\276K0\\\276K\235\246\276\332\010\n>Rn\305\275\210\240\320\2768\316\265>\206\271r<^\272\025>%CC\275\204\335g\275\210\323\347;\342\235S>A->\276\302\305\323\275\266#\243=,i\373=7,o\276:\303.>L\363\257\275\314\360\004\276\221q\205\276\265\300j>\022\337\002>\200h\255=h\227t=h\365\216\276\235N?>\360)\263=A\026\261=-T\010>\034\2667\275\2625p\276bA\200\275\310\211G>\240\231\330\276\346\204\037\276\317\346d=9\351\375\272\r\242\260\2769\003\320\276\224\342\013\275\266_\016\273\304\320W\275\234\330K\276Y\233$=&\305\336\276\376\266\032\276 r\013>\376{I>\270u\261\276M\300\333<\340lk\275\310%\363\275Xa\272\274:]\014\276\324hE\276\037\327\240>\021`\315>UN\214>\374W\321=@\303s\276nW\374\275\323%\315\271\010\364\202>\323\335\206\276\206\243\236=\000\347M:@>\250\273\236\352\251=Q?\030\276\366;\215=s\271.>u\370\240\275\335\n\246\275\375Q\003>b\346\223=\321w\033>\260{\366\275y\3711>\305\341\035>@;Z\274`\311\023<f\303!>\2737\361\274\360\014k\276\346%0\276S\005\316\276\254\020<>\325\206>\276\022\251>>\000\302\324=\306\367\t\2742\261\n\275\370O\034\275B\351\014\276\201w9>x\256\031\276h\252/=H\307\366\275\205j\341\275H#\345<\301\210\344\275\030Uh=\356\224\275=\316\004f\275\n%2\276\354\214D\275P\250\200\274\230\010\336<\206\320%\276\300r@\274\000\276C\274\224\353A\2754\034;\275\214#\260=\363\255\033\276\3105\370=&7\r\275s\240\206\276\367\271z>\330\3220\276\336X;>\370\307\310\276S[\341=?\224\314\275\0210\244\276\363\221\331\276\002\003\221>\346\2140\274\2311\004>\227,x\276\266\033G>*c\237>\240\231\010\276\323\307\230>\016\344\207\276 |G=\346|<\276(\244\220<\304\025\236\275\031Z\336\276\035\013\240>Tu~>\3631I=i\257\353\276o\004\371\274Y\034\366<\005\337\335\276\003\000p>\272\0353\275\210}j\276\376~ <\001I;\276|O\001>\032*\203=\206\330\020\2756\340\332\276&5\204>\n\253\377\275\n\260\301\276\206\005\302=`\331>\276\004%f\276\377\236\317\276h\032\013>\317\"\364=\313Y\254\275/\026\325\276E\016Y>\233\363\005\276\025\201\223\275<\031\200>\003l\003>\227T\344>g6\277\276\177\024^>\363{\202=k\242\277>\034\021s\275\024h\213=\206g\271\275\257*\225\275\263\273Z>\004\206=\276\207m\317\276\244*0>\224\010d\276\234g\316=2\204\253>\337G\037>}Kj\276i\3079>\272\024%\276\366-%>\323\252\023\276\301\332\214\275\"\325\231=\274\303g\275\330\226=\275\366\340\371=\235\240\000>+\212\241\275\240\261#\275\365W+>\202\341\232\275\340\351%=\202\177\305=\247\261\033\276hc\352\274\257*\334\275\366@\270\275\305J\251\276\3445\234;\265\305\347=>\370\316\276e\036\312=\275\r5\276\312\3547\276\274h\273=4\231\250=\nA\r<\340k.\275@)\'>\033H{\276\247\324\033\276\353\273\010\276p\361\373\275\323\263 >\007\357\014>\340\341\334\273\324g\210\275c[+>J\2521\276\360\023W\274 ;\322\274\331!\024\276\376\344\321=\035\373&\276Q\021\225\275h\300\215=\236\372\372\275\362@\206\275\200\205\252\274r\250\255=\2403\006\275\320\351\024=0zh<\226,\266=\223\2133> \256C\274\034\3726=\346\305\317=}\324\305\275n\315\006\276\375-\016>\206\205\303=\272e\274=\344\311H=\222\003\200=H\276\277<%O4\276\360\201;<DB\365\275#\356#>\267c\027\2764\354\020\276\247\346\027>\254[\002\276\220~\257<\255t\212\275\244G%\275b\272\327=\314\357-=\'\001.>\234\275\034\275\245\365\004\276h\025\340\275~q\312\275\262\317\370=\220\232@\274\240j\371;\025\303#>f\277\210=\030d*\275\214\301\203\275I\342\000>\376 \013\276\350\352\204=\221\022\033>\200P\237;4\331\352\275\3556*>\240w\000=&\255\314=\274`~\275\0006s:Y$\034\276\033\007*\276*\263\343=\023\337\227\275\220\0255<\300\213\302\274FX\361=R\364\354=F\021\022\276\346\267\376=\206\325\375=@\215\375\273\263O\030>\234\000,\276\340y\224;C\361\321\275\232\006\303=\256\277\003\276\362\351\261=\236\371\247\2752J\345=e\017\037\276\002i\237=\000\314E;\370\273&\276~\276\304=\024&[=\315\3164\276\370o\004\276\220\305\035\276 ?|<OC\312\275Px\007=\325\311+\276\302\312\335=GN\024>\3448\231\275\200\352\377<*\223\233=(\316\002\276\2300\231\274P\0214=\326\213\201\275\035\370\270\275T\022A=:\315\253=\337\014$\276~S\372=C:\010>\245\311/\276e\317\200\275J\005\257\275\240\275P<Ro\266=\364P&\276\260\256m<`\237\253\2732\310\273=\0000\023\275G\263.>\240\363\335;O\0310>\020-i<bp%\276\230\206 \276\020\220D=\246\366\202=h\333\256\274%\231\215\275\360\245x< \363m<\234w \276\360\363P<)/\020>\206\364n\276\211\302>>\206\274\225>\017\256\014>\224:5\276\217\214\306\275\374a|\276b\244\217>\301\251s\276\020\013(\276b/R\276\314\320\244\275\344d\027>p\275\004\276\256\216\304>\345\225\362\276\334s\204\276\364R\252>\034qv\276_\037\324\276\264E\307\276\312\315\003\276\266\321\232\275\202\313\017\276\322\003\226>l\310\256\276x\327\'=\336\020\263>X\357\324\276\237@\247\2760\336\210\276\240\023\346>\200\2205\276\216\237\246\275\325m\351>,<\311>\372\022B\276\356\352T\275\025\242\013>\343\325E>\236\203\335\276\002\033\245>w\341\307\276^^\317>\2206\350\276\266J\034\276\"1\004\276\237\327\t>\t\320\262\276\370\253l>\361\366\237\276\223t\227\276\006\242\356=\300G\345\276\001\201\321\276`\313\204>\375\363\236>\014\361\001\276b\0360>_\035\346\276\370\nH=\305\212\261\276\266\177\027\276\343\316\006>F\257\027>\272\237\363=$%\232\276@=\177\274V\353\205\276\021%\267>\247:\202>\004\362\016\276&%\213>\017\000\324\276\256v\200>v\274\234>q\341\362\276!\306\367\275\224s\266\276#|\300>4A\031\275\320\264\001\275\003;\246\275J5\376=s\300\032>\277\377\003>6\375\340=\226\231\274=\200\031\307<q\353\032>sx\323\275*\345\252=\322\030\242=\324^\030\276\035\032\313\275\355\252\004>~g\235>\203\210#>\235\353\272>\332\276\231\276\246\033\334\276\031\361\343>\213\226+\276,F^\276\032r\343>\006\270-\276\236\232\277\276\263*\200\276\372\335\235\276X\004|>.RZ\276\000\252\276:\000\341v\274^\234\322=\322~\360=v2\362=\020\373\r=\211\340\014>Z\014\234\275 \014\220\275L\233\021\276\316l\255=l\255\206\275\200qe=R\276\336=p\334\362\274\211\3400>\25590\276\033\332\260=@~\246>\315\360\346>\004\267*>\037\301\302\275\200\220\177\276\343o\236\276Do\261>\230\240\247\276kD->/L\304\276\203\363P>Wu{>H\313\237\276\245\027\235\276\303\215E>\230\016^\276dmR>\025Z\332>\033\225\036>\275\276\">\341z\244\276\310U\275>\314\006\250>o\r\247\276Y@\214>J;\316=H\232\207>\366\225\347>[\272\273\2766)\205>0\310#>~\320\344\276\200\367\345\275\267\240e>\001e\277\275\360|G\276t>\006=\233`\315\276Kda>h\363\000\276\276\236k>\002>\003>\007\361\305>\226\362E\2762~\033\276\304\"P>!2\322=\200\336\021\276\177F\330>\3264\211>\224\262\331>\320\323\013\276\016\265 \276p\004\326> j\217>m\007y\2765\265p>\324\004\246>%\013\025>\211\304\031\276\243n\242\276\004g\327>t_J>\310`<\276\210\274\023\276\206\261\272>)\000z\276\271\373\323>\247\366\265\276WDt\276\335-\353>\016G\307\2761\037\316\276\330\312\346\276\345\353\030>\274\235!>\301\002\200>d\306g>#\341\272>\346\013\211\275\322\232b\275\360\006J=2\2351\276\036\247\203=\262\204\360=(\177-\276\020\341\333<\342\242\367=\243\034$>\261;+\276\270\377\366\275CT\n\276\214\341s=\330\313x=>\205l\275ZR\246>\220\331\222\276\n\362\253\276\355)\324>\361&\306>\023\025\316=\342\253\253>\\\010/\276~\003\247>\257\220\266\276\271\246\253\275a=5\276\242/\250>\035n\331>w\006\'>\212\233\024\276|y\035=\303K\013>\206m\313=\342\253\335\275X\230\036=|\321\332\275\272\333\235\275H(\360\275\026(\217=hC+\275cy\325\275\310\277\335<\\e\207=\330\213\233<\206\231\255=\247\007\270\2750\035\366\275V\016\256\275\377c\006>\2142\005\276Yp\255>\350\363\307\2766\022\230=_R\277\274\tv\234\276\255\222\230>\216%\201\276\254\021\311\276\245F\222\276RW1\276\271\372(\276\013a\222\276x\300\247>*\2277\275\025\321\311\276\227\260\205\276b\311\224\276\276\3710=\3550D\276\234?\036>Lh\211=h\3732\274l\nO=|(\213\275\250x\034=\345\"\372\275\036\231\032\276\032W\271=\216\357\224\275#\020\233\276\325\027\013\276#\366\360<\032\'6\276\206\031\306=\271P\231\276tE\351\275^\314\010=\022\360\017\275\326\352\361\276\303\362u>iR\353=<\244@\276\230\266\241\276\032\234\017\274\202@\216\276\275\206\257\276V<\204\276\240M\313=\303N\255>\317\274\302\276\010\007\013<\333#\231\276P\237n\275\207\204{\276\374\325B\275\366\341x\276<\361Y\276 !\302\275\343\320\201>\001\233\250\276Q\357\235\276z\224\341=o\006\206>X\310\200=\325\342\276\276\025Me\276\345d2>\254\344\001=\330\243\220>\232z\366\275x\302G\276\372\2060\276\272\023\252>\016D\367=\2022U\276\266\023\350\275`\324\360<\360\257\275\275mG\001\276\232\310\020\276\270\n\316\274\200\177\226\274}#\r\276\356X\372=\266A\273=]\034\t>\246\261\362\275\224\237\307\275\377\325\315\275H3\316<>{\356=\240\233,\274\223\357\322>\200\267&\275\336\023\256\275\226&W\276\301\240\214\276\307\237\230\274V\221\005>L\244\213\275\330\213\203\275\335\304]>\210\230\301\275\035|R>\031cg\276A\341\032>\370\320\211\275\213\020l>\030\221w\275\020\374\202\274\017\025\322\275|E\205=w`\005>\234T\017\276J\352#\276\207\376\033\276\362\277\331=\375r1>\332\362\322=\024\315;\275\350\007\373\274\361\"\264\275\200\025\212\272\332\234\321=\3718\260>\246\005/\276d@\016\276\332\376\020\275\034\250a>\2319\321>\221\033\021>\243\370\206\276\264\237\266\276\021\r\013>N\320\256<*\204\215\276 \274\243\276>\362\274>\366\216\244\276\360A\030>2\350\024>cx(\275\004\333D\276d\204\216>f\212\t\274\017k\035=\350iX\275\\)U>\353\263\232\276\213\214]>\306V\226\276\326\3045>\2102\204<y\214\234\2750L\300\276\r\r\030\276\301\202e>\224O\311\276yPf>\263\2222=\273\001\001\275r\223\034>\346\354\337\276MQ\212\276\241\245j>@\335\332=\244TQ>t\345\277\275\220\3559>\324\210\212\276<\262t=\351K\200\275\220\257\202\276:\024\302\276\023\023L=\315dT\276\342\254\300=a\217\251>\330=\"\274\271(4= \242\033=\227\371\220\276\214\310I>\244\314\'\276_\312\234\276\254\277s>;\273o>^\360\362\276\026\254\370\275\253\310\212\275\251\346\202\274\224\316-\276\366\234\001\276P\211U\276\222Bx>\363)\203>\3603\230>\337\304\225\276$\367\344\276\304\241B\274\2347\302\274\2272\316=vY\016\276D\324\270=\033U\r>El\010>\274\260=\275\305\304\030>\315\330\005>\240\032\017\276_Q\310\275\356\207\345=f\355\241=P\376\007=S\035 >W\242,>\314\262\362\275j\027\035\276+E\016\276@\325\200\275\224Ya>\365\337\030>\360\304d\276P\270\355\276_\210\233\276\364\222E>Q\321\253\276\3770\227=c,\330\275^\244\241\275\024v\260\273\340J\217\275\206\312\243\275\'\215\231>\240\325\264;~*W>\202\300\276\275\036\030\026\276\n&\372\275F{\337= l\'=wJ\034>\200\334\323\272\262\303\301=\033\207\037\276\t-\002>F\365\365=\270[`\275hv\260<\331\254\301\275X\034\365\2750Z\321<S\313\321>\037\370(\276Z\377K\276\027\r\006\276\354\301\331\276\240\321\231\276C\272\225\276\237n\232>\334\364\265\276\366\3311\276\370\240\246\276\300\025\307\276\341W\307\276\223\374\230\276\271\274\035\273\365_\241>\240&\252\275\343\020.;n\006\255\276\r\316\024\276\031\\\211\276\355\340\221\274~\210a>>\351\005\276a\220\243<\340\303\214\273q\333\212\276\361\265b=1\223\037\276\n\252G>N\260\356\276\317Kf=\226\013\222\275\023\312p>\204\232|>\253\364S\276)GK==\375\023>*h\256\276\2469h\274 \"\353=\276\350-<\t\201\340\2755\303\241\275k\002\251\274\367\025\241\276\232\205\266\274\320\266\271\275?\342\274\276\257\214\330\276]\263\324=j\202\236>kg\014>\300\355\200\2769,q\276\225\270\220>R4l>\001@\274\276\004\364\353=LC\303\276v\003\257=\2508\">\240B\030=\356\031d\276\224,\002>\220\342\013\276\272\2714>\346\177\227\276\247d\363=\343\314q\276E,\330\276\325\354\363\275\306\034\207\276\271\030\250\275N(G\276\004\346^>m8M>\004\2252\275\203\236\225\276j\231\210\275\254\322:\275E\232\027>b\306\313\275\277p\315\275\222i\251=\030\177\252\275@gh;o\306\254\275\374\361\004\275!I\263\275\005\365\342\275|\313r=\324\265H\275D\274\013=\347r\224\275\304$:\275O:V\276\324\010\220\273\215+\217\275\342N\212\276\201\014\211\276\260G\204<\370\'\303>\216L\036>,\'\302=\226(#\274\014\314\307=\372\347T<\330`\017\276\217\345\014\276?7\353\275\014w)>=\240\037>I\267\277\275@\351\335\273H\255\313\275@~\307<\306@\370=4\376G=pa\364<l\001\232\275\340\214\341\273\360\363v\274\024\025\006\275\264\327\r=\300\300\313\273\340\\A\275X5*\276\266h\201>\020 \230=\345\367\336<\240\244(>\344|\000>\200u\250\276\032\317\302>\031-\221>u\300\272\276p\004m>\272\2171\276\017\313\244\276\221\367\231\276\336qd\276\312\366\210\276gZ\311\276\216Vt\276\026\200S\275<\033\000\276\344y\266\276\245\266\217\276\2321\313>\270d|\276<\214\241=V\261%=\200X\252=\247\233\232\276Bn\260=\246\212.>\353\337\246<\242n`\276A\355\226\274\370\035\203=\352\253T\276 \352G=\255\220\240>\256nH>\025\r`\275\277\332\240\276\022\022\010\276\307eD>\3503\245= \374\261\276\031\365\270\275\244\223\312<:\024\233\276\002\033\317\275\352\t^>\344\302\266>\376\305`\276B~\231=A\261\260=\257>\027>\264\335\206\276\036\371\235=\037\rh>\234\377\017=\226\233\242\276\364\255\274=\372\254[\27605h\276[\321B\275\316\2076>(+\027\2766\230H\276\234\210\212=^e\265=.#{\276\232\214\357\276dB;\276:\275\355\276\020\025\005=?8\253>\371\264\005\276\242\216)\276\023\236*\276Qe\205>J\352\037>\246w\222\276T/b\275\033\246\">\363\244.>\320\007o\274\340v\374\274PG\372\274\000\256\2629\010\004\234<\372\322\300=\200z\331\274\3404\222\273*\016\262=\365)\313\275\200`<\275EF\000\276\213y\'>\240M\324\274\260\256\006>Tt\006\275f\205\322\275\261_\200\276z.z\276\226~\220>\366\203\024>F\t|>\030\032\351=\332\357X>\252\245\363\275\027\357\204\275Si\\=4)\272=6]\324<\023\200\331<jD\332=\2706|=V^\000\276\000\223\r:\022\034\256=\377\364\026>BS#\276\266Z\216=\320\236,=\0105\312\275\307\326\361\2750Q\260<\246\024\001\276F\253\250=\302\365\306=\"B\343=\220\333\244>P\n\237\276\330\276\304\276\334\264\263\276=f\325>\271\323\325\276\214\316\334\276\361~\222\276\021\221\313\276\211\037m>\005\003&>\355-\345\276K\033n\276\334\314\305\276x\005\211\276pbb=\256\212{\2744\3305=\3164\342\276\316\344\221\276\315H\216>u\306\250>h\234\036>b\3672>\222\262\221\276\224\250\263\275Eiq\276-\323\'\276x\026h=P;S=\'4j\276C]\377\274\372\235&\2758~\206\276\026\220\355\275\\\316+>\355\024]>\376\013\346=\247\335o\276(\'\036\274^\346\272>%\271\036\276\265 \256\275\365;%>\177\357X=K|$>\356\210n<\244\r\224\276,\3019\276\274\240\271\276Z\234:>\317L\313=\000e\002\276\234\220\352\276\222\260\201=\034\267\023\276P-\327=\304q\261\276*0#>7\r\220\2768\'4\276\362\372\002\276z\241\004>VTZ\276\320\356\004\276\016\205\226=\356\336e>\200R\257\273\302\342\034\276\242\344\301\276\320Q\262\276\365\267<;\004\300\301\276\350\034_>\220\255^\276\2601\200=\232-\326>fX3\276\355\255\234\276x\243\017\276\265\300\r>\310\345C\275\224\312\014\276H\347\023\276\362\030\336=\306Z|\275\034V\207=~\300\014\276\332\344\025\276xCf=\360}\201\275\014l\035=\000\r\302:\263\257\016>6\001\263=\340\037\004\275A\022\023\276\002\3621>R\311\205\276\260\014\252\2767\030\257\276\231|\202\276\274H\213=\217\306\307\275pV\300\276\320\006S>\217\177\246>I\2121>\233\351\236\276\031+U\273\301\347\274\275\300\305\n>\374g\317\275\300\216\337\274b\342\244=\310\3524\275.\207\365=\0074\021\276o\016\254\275#l\016\276k\003\361\275\277K\234\275\247\203\021>%\272\213\275#\327 \276\236g\222= \371\024\274\274\252\210=\247\330D=z\3034>\024\026|\275\300`\020\276\373\020\353\276\"\316\003\276\031Fp\276\352n\005\276\342\014\231\276\334\014\207\276(^V\275\262)\025\276\252M\205\276\016B(\276X`n=\200:F<*\241e>\246\337\322=\032\016a\276\342\234\227\276t|\356=\000oi=j\343\211>P\305\027\275O >\276\016S\t<\350\252\351\276\030&\276\275<,\250\274\372\272{>\n\006\n\276\366\"&>\223\256\311<\244L\216\276\265 \231>\\JR>&=i\274\025`^>\230oK\276\032\306\n\276\225/b=s\365\'\276\251\307\272\276\276\233]\275\002h\232\275E\205\340\276\025\362\017\276\313\\\035\275\254j\303\276\234\361\335\276\266\352p>\\\341!\274\200\010]\276\346\232-\276\227,\244=d\240\014\276\240\001\201>\322\262\354\276\315Uj\276\033x\333\276T\343\267\276\335\327\332=\250y\377=\353\367m\276\260e\331<\0361\020\276\373\'\244>\367w\357\276\2239\245\276\030\261\245\276A\244\312\276\377\330\217=\t\202\311\276\350\232\367\275\3044,\276\364\235:\275\'\232\303\275x\264x>\223\244\306\276\347\362\334\274\266\255#\276tM9\275\201Z\025><x\034\275X\351\223=\0270\226\275\240\272>\274\004\362\221=U\240.>\371\003.>VX\246\275\r\274\025>>\222\311\275\222\202\207\275C\276\321\275\t\\$> \265\325;\234C\'>t\n\344\275_\213\271\276\304S3\276x\024\266=\303w\253=\362_\237=mB$\276\241\365\303\275&\376`\274\246\365C>\"\320\030>\206\311W\276\355\306\333\275^\346\000>\033\213\227\275\230n\251\275\304b\035=\310\324\365<\0205\350\274\231\311\270\275a\322\351\275\361\005\034\276\365Z\212\275t(\177=p\316\272\274U\276\300\275\006q\332=\010\'\211<p\271/<7\0304>_\344\377=\213]\301\275:\261Z\276\364\211\302=\221\266\364\275\304\320~\276\322P\255\276>7\310\275Q\323\204\276\020\212\276\276\026\306\\> \273\331\276\331+x\276\353\303\226\276n+\352=\370\206}\276^\234y\276\326pM>\260\256i\276x<\242\276\257\345;\276\"W\200=4\260f\275\206H\337\275\000U(\275\304\276\334\274y^V\276\216s\'=\247O\000\275<~0>B\261\201\276L\2716>|;\r>L\'0\276\366:\205<\"\307Q\274\t\336\200>\312V*\276\301\274\217\276\022\010\205>X\202\227=\304\322\030<\345\021\327\276Z\356\216=\224\246c\274\352/L\276\210cF\275\332U\226=\234\306v\276=\364\272\276\036c\244\276Z{\351\275x\337\265>\314\271\273\276\357\353\200>\274gS\275s\025\213=\266WI\276d>\223=\214\237\317\276\352\255\347\276\002\312\223\275\373\211\033\276`U&\276\014\201\330=+\372\'\276t\023\337=\376=S\276Pd\024\276#\205\300\276\226{\346\276\246\364\307=X\327\036\276\016\217\272\2755\312\213\276rz2>\0044\306\275(\007\226=\306\336[\276\326\216 >\0227\360=\206\003\272=\320/\004\274\262\263\336=\360\315\032\275\000}\227\274m\277\302\275O\372\022>\3608!<\306N\306\275h\037\235\274\004\366\032=$e\027=\210G\264\275\016g\354=\204c\030=\017\200<>p\353\027=\254\027 \275\364\255<\276\310\014\253\276\210\212\002\276\270\201 >H\336\203\276\3347\022=\307/\330\274\214#\313={\327\010\276%\346n\273\371\360\177>\211\324\251\276\236\250\202\276\277o.>N\022\235=\360;&\275Q\333\000>\002V\346\275\2356\221\275v\226\260=XK\324\275\366\262\365=<Q\237\275\0008J\273\211\354+\276\034Ml=Zd3\276\363N\016>\030\332\010\275\356\302q=\341T/>o\210\273\275%_\000=\370\027\350\276\322P9\276\306\304C\276\363\345\321\276\212\261\350\276\022\003z\276\304\034\314;n\275\026\276B\303\304\276\ty\357\276\227\327\216\274\220c/>\330\023\251\275\252\027\\>@\227P\2760\334\016\276m\372\200>\nQ\327=\000+\007>x\347\221\276\203\270\201=pK&<,\227\260\276\346{\247\275LU{\274\374gI\275X1\334\276:$\373\274\210X\260\276>`g\276#\020c>h\322\300=\r\024\342\276\025\321$\276U\245\356\275jr8>\032?H\275z\323)>\334/\206\276\246r[<\326R:\276\014\255\025\276\\\2055;\244\000\321\273\000\030\321\276&\361_\276\013\206\215\276|Y\314=\252\222\202\274fD\265\276y\355\037\273\201T<>Ng\007>\3456p\276\263\323%\276\260\311\235\276\270\354\232>>\272{<\231\303\221<+\354\350\276\244?\007>>\264\230\275W%\260\275\257\024\205\276\371*\031>\225\014\220\2761\217w\276\333\363\001=\204]\216\276\334\203\344<hR*\276T\371\023>\202\203\202\275\024\337U>\221\346\373\275h\010S>\031@2\276\240vi<;\323\022>(t\350<\212=\323=\306\317\371\275#s\362\2750\027\'\275\340\317s\275\350\010\303<\020\017\016\276\324G3=\354X \275\241Z->\271R\252\275\000\2640\275&\037\240\274\200\026E\276B\267\212=\341u\326\276\006\211\227>\376\0223=\226H\027\274Qq\013\276\363\337\214>q\330\243\275|?\363\275p\362\032\274\361\312\270\275\343\220\303=\177*\376=\216\274@\271\2708\024\275\311,\027>v\320\233=\004\237\026\275;P0>\350\177]\275V\266\317=\242\351\370=\326j\302\275(\231!\275\273\365/>\034\024\016=\006A\225\275\262-\330=.\355\004\276\345\261\010>i\354\242>\340=\321\276\375\204\201\276\2553\211\276\0007\321\276\371\200\026>\216u\314\276x5\315\276\374Z:\276\360S\327\276\335\037\271\276\220\030\267\276.\215\332\2760\264.\276\364\022e>\266Z\004\276\273\347\324\276\270c\200\276l\276O\276\214\2217\276\352\235H\276\305I\231>O:\273\276\213<X\276\345\324\311>\304\232\021\276yf6\276b\t\217>\250#8\276w)!>\007\243\252\276(2\204>+\313k\276\000\373@\276.\340\326\276\323;\232>Y\016\262\276\210)\023\276\273D\303\276l\222\234\2762\247\331>\341#\205\276A\336s\276 \226<>\276\232\262\276\202l2\276\'|\313>\n\234\270\276\245\337\355\276v\243G\276B\336\305\276\016\236\262\276\3347r>\2338\303\276\205\323\256\276\271\267\264\275q\024>>v\253!\276({\331\276j\037@\276Q%\271\276\3713\313>\374\202\251\276h\276\r\276f:\201>\340\212\244\274\264&\250>\320\336\360<\235\227\322\276\202we\276\202\327\224\276X\"$>3\222g\276\253*\312\276\247\250\253\276\344\262X\276\217{k>\027E\264\276\344\273\231\276\303j\215\276\336O\036\276]\027 >\243\020\265\275\230\002T\275\204[\310\275Z\002\366\275\214\035\024\275D\356\004=\332q+\276\304\212:\275J\261\270\275\260\3400\276m\0004>\026\365\'\276\322\333\353=\300\320g\273\033\017\375==\274\321=p\260j\276\242-\t\276\245\025\326\276\330\277\225\276j\371\025\276\320\265\'\276\261\005\257\275\256\330\321\276;\231\223>\020\240\245>\302\001\004\276A\276h>\376\310\230\276\304\374\307>\220\276\230\275\\\225\216=n\201\300=\200\354\216:@\245\256; \336,\274e\257\034>\360\245\200<\352\306\341=\000\3442\276\000\275\324\274H\n\001\2768\275\027\276f\2601\276\030\355\220\274B\332\343=\224j\342=\230v\352=7;\244\275\036\240\002>\306s\201\276\251\363M\276\211\230\326>\r\374\333\270W\024`\276W\236\260\276\244!\356=\352\220\266\276\274\200\237\276\004\304\357>20%\273\034w\220=Q\222\345<\206\356\220\275O\207\326>\277\270\204\276\362\260\r>Tg\027\276\304\362\323\275\2541\014>\303\025\376<~\316\301=\230S\337\275\333\203\333\275a\032\";\301@3\276\n\257-\276\317#>=Ag\377\274\350\240\250\2767\314\265\274\024`3\276RL\205=\002\010\220\275\374\273\034\276\006\003#>@\016\370=b\331S\276=\323\301\275\202\362\004\276\036\231\347\275C|\222\276\241M\212>\346i\233\275\374\326\240>\342Z\203>\024\257\003>\261\347\324<c\277\022=\231\203q\276\372I4>\244\304\211>u\245\205>\373X{>8\372\177=\211VG>\2534\234>\214\360\244=\004i\005\276|\222\256>$\251\017=\200\365\214<\376,\333=\331\234\202\275\3054\206\276\310S\004\276\312z\225\276\370\334V>\032\025\215>2G\000>\311\360\225>\\}T=\216\351F>7\302K\275\'0\261\276\214,\001>\305\013\303\275\234\220\212\275\000\242\265<\000\014\216;\362\272\316=1\301-\2764w\377\275tC\303\275J\256{\275L\220o=4\375\001=\033\223\004>\340\177\022\275j\374\244\2754PD\275\221\250\267\275@9\n\275\321&`=\314G\\=\273\202\343\276\231\026\246\276D\332c\275Ib0\276@@\014\275\244\277\266=\034\n\323=\020\307\324=\016\262\016\276\202\330/\276G\362\006>;5+\275#\231\272<\r<\034>\316-`\275\376e\335=\375|\030>Q[\r\276<9\023=4\231L\275\030^\235<\357\311\021>\271w\023\276~:\275=E\253#\276\230X\356\274\270/\371<\004\276\027=n\243\217=\013,L\275\324\274\374=\241,[>2\344^>\000i%>\251\357\245\276\261l\247\276\273\022\274\276\311\214\200\276O\301@>\207q\327\275O\336\220\276Y\377\242\276\271\024\344\276\334r\017>\273Pn\275\344\334\262>\374\303\320\2738\252n\276A\363\333\275e-$\276l\225\256=\035G\200\272\225N\257=\2002\353=\256>\n\276))p\276$\216\222=\317~X\276Ck\014>&\272\327\276\375\267!>\004J\263\276\255$\331\276q\355\034\276b\253G>v\351\226\275\360\205\241\276U\251\212\276p\261$=^6\202=\to\373\275.\2525\276,\013G\276\227\037\257\276\344\3432\276(\000a>\227\210\236\276\004#z\276\020<3\276\330\260\273\2754\301\340=\347\313\231>\366\310T\276\236|\025\276.\376*\276!\311\337=J\204\344\276\013\372\223\276\270\331G\276\347\031\342\276t\276\345=\226J#\274\027i\326\276\211\031\005\276\316\354\017\276Ky\352\274\262\323\260\276x#\277\276\335\221\216\276Uv\362\276\262|S>^\203\030\276\272W\003>\352\016\t\276l\261C\276\350-\027>\361D-=B\000\217\276\313\312\256=\370\244\000=\212\267\237=\251\367\255\275\270r\221=\266i\001\276Ku\271\275?\251\033>\320\327\024\275X\215\370<\312\377\317=\200\211\215:\310l\344\275z\244\376=w\221\333\275H?\351\2740k\024\276^~N\276\n\305\034>\266\005\366\275\002<\026\276\252\317\231\276\233\233\302\275\374Yc\274R\345K>\267Ku\275\332\203K<\005k\215\2752\030\361\275\221\3225\276[\2169>\202\001\203\276\020\025\224>>m\303=\3715\032>\036\207\312=9s\'\276\247\317\222\275\024\0207\275\222\224\310=\000\204t:Fe\375=>]\204\275d[\302\275b7\026\276r\322y\275\224\035P\275\360\236z\275Mj\334\275\374\257C>\334\317\261\276G\322+\276\252\000\361\275\261\277\305\276\rk\244\276g\336\214\276Ew\347\275\237\342\227\2765\247\351\275\212\212z>\345\352\355\276\302\241\037\276\250\371{\276}\323\226\2760/\014\275\2000\177=\010\266\373\274\247\266\362\276\250\247\253>\3749\267\273\315\213\307<\3373\202\276g\362\262\2749\024}\276#\321\033>\323\223\224\275Z\333\207=US\327\275p\216\245\275\231o\300\276\270\001^>B\3627>\372$\261\276\036\347s\276\221\233~\276t\274/\276\333\202\204\275z\332\351\276\215\323\233\275h\344\303=\266\274\306<\327\253\235\276\362 \317>\353VY>\030a\003\276hA\317\276<&]\275Y\357\306\276\326\313%\276\230\341\247\276J\254K\276\351\302(>.\304\320\276\231\200\237\275\342ll>\273o\t>R\327\221\276\240\021\265=\270\255\243\276\301\016\341>8(p=\240\255l=\360)\014\276\360\361$\275\244\317\014\275\n6\023\274q\223\346\276Z\312&\276\371`\320\276\353\023\207\276%^\320\2762\342;\276\235\271U\276\314\350\225\276\337\243%>\2449\321:o-D=\267\014i\276\320w\205=\002b\311=\340c0\275\2448\315\275\024\217/\276\235\337\023\276\270\376\375<,\356\016\275\023\271(>v\321\004\276h\242#\276$\372E\275\200\375x;8\261\013\275\242\202\256=\200\257\340\274\312\022\341=\333\333x>\233\231\346>\3720\024>k\026\244\27652\344\276Xa\345=\2050L\276\260\264M=G\237\006\276\r\221I\276\253\r#=\374\265)>4\213\\\276&H\245\275\340\3575\274\376CD>\202O\336=t\355+\276 \335\375\274\022\267\322=^Io\275\350\006\177\275p\265\031<}}\024>\230Z\237<o\202->\300bx\2750\311\316\274JC\002\276\243_\227\275\267C\023><\r\026\276\260K\323\275V\202\371<K\236K>\263/\201>8\242m\276\364x\333>\024\357\023\276\300\247G\275\016\211\240\276m\215\232\275X?\225=\373\307\033\276\216;N\2762\336*\276\020\334\037=\242N?>(\207\216=|:\263<\220\004\321>\247\371\272\276\346\226\330=u\350\277\274\255\364T\276 OP=*\315J\276\317\034\207>\032\367\243=\274\177)>\302v\217=b{\007\276ZQ\356\276?5\032\276L\234\314\273\242\n\227=\217\023h\276U\'\322\275\254Al\275\240\304_\275\354\nz=^\207\272\275:fw\276\2056G>\021\377\202\275\005r\"\276\361\252r=\306\010\332\276\022\201\373\274\345\355\320=\361\270\324\276y.\345>\360\004\276=\3621\010\276\312\221\020>1\205\354\276\\\315\216=9:,>\257kF\276=G~>$\t\016>o\244\264>\351\245\270\275\310)\264;\273\236o>\000\3654>\303\340,>\202fx\275\304\027n\276\300\352\354\274&A\216>\343>\336>\374]\344>\37029\274\023\365\232>\344\324!\276G\256\304>|\337o=\362$\222\275\303\265h=\343#\347\276\376\277\225\275\000\226y<\302\"\003\276l\230(=Pta=\273\342\307\275\376\351\343=\240\213c=\020\347\016\274\260\\\300\274\212P\354\275\020\265\344<\237\340\025>\316\226\253=\323\341\006\276`\316\222\274p\310j<\375\352>>ik\006\276L\346\357=\035\215\257>\271\274\006\276)\245\262=e\217l\275\366\t,>(\312\013>h\032\r=\027\230\235\274\260 \274=LM\025\2758\211]\276]\2749;/\'J\276\024X\030=\r\323\">\245C0> \361\016\274\217O\205\275\037H2>\225e1>]\371&>`\277\365<\223\207\034>(I\004\276\034\243\'=\301\200\307\275\370\"\024\275\370Z\035\276\326`\320=\010\311\347<l\375p\275\210\301\231=s\034\254\274\032m \2762*\314\276\353\234\243\276\342\2762>Y\332\314\276\024\304S\276\362\276\230>~\026\017\276\023\202\320\276\256H\t\276/#]>O#a\275+\341\226<Uw\"\276r\270\265\276x\225\311\276\004X|\276\246\r\272\275/7.>h\327\362\275\231\236X>E\332C\276\'\365\003>\270E4>@\221i\276\036\211\027>\366\216p\276\235\022M>\205\316\274\275\031\255\233>n\221\251=\334\204;\276C}\031\276\032\356\'\276\026\353\204\276F\"\270\275\250\203z=\215[J>\361\367\277\276\376#\022\276i\203\220\275\206\2535\276@\240\321=\265r\007\276I@\220\276\177\373\323\276\270=B\275P\231\261<\334-)>\346\337\007\276:\025\330\275\020\373\333\273\004\002l>k\t\250\276\270\274!=D\320\016\276Wn\'>T\223\n>IJ\222\276\317\025\341\276\361\337n\276\'\330\025>\263\345c>Z\365\014\276U\301\374\275\016\322\260\276\3730\363\276\304\217\207\274K\246a\276\313\235\202\276\357m\254>N-\030>\224G\366<\037K\245\274\036#\362\276ply\275\332\367\013\276?G\'>\247]4>+\353\242\275\020HN\275c\340&>\223\3212><[N\275\252W\271=\010\211\316<Iy\334\275\0229\245=Nm\256=\273y\005>(\351L\275\207u\235\275\030N#\276L|\024\274\345\216\245<\206\235l\276\220W\222>\026XW\276\\\341\243=\261V\r\276\210e\234\275\035<\266\275\235\274\253=?\275^>\316\361\274\275\021\330S;\337-L\276\354\033\341=\000\341;\275\013u\031>\341C\030>\\2V=\246\276\365\275\030v\216=\230\016;\275\373\363+>\340\357H\274\235\210\003\276\3205\005\276\226\023\352={5)\276\303}\016>\344\223S\275b\336\323\275W\026\214>\247k\251\275\213M]\275\\#\262\276^E\355\276\354?W\276\026\252\r\276\\y\354\275@\276T\276\260}\025\276<\347\352=xF\202\276\354q\316\276\323\026\314\276\254*\220=\244h\246=x\234\030\2748\321e\275p\351\'\276y\nq\276+\342\244>\263\211\336\275\350+V\274\264\366\367\275@d\340\275\316\345.></\341\2752\325V\276\215\370:\276\177\022\226\275\372|\201\276\276\344\225\275\t\212\224=\373T\334>\216oo<\265\0234\276\365Z\017=\207\360\302>\212\304T\276\360\017\247=\264\rk\276\274\242\374=CF\221\276\323\320#=\300\247\300=\320\220\017\276;-\336=\300&\000\275\371\321\277\276\3523*\276\231\363\377\275T\t8=\327\246-=\262\216\017\276\373\323\222>\274\327b>\376\344\010\276@\377\031\276\034\366\264=V\317\211\276\375<c>M\332\322>\026\233~\275$\261C\276v\220\026<(\363|\275t-\224\276r\023^\276\240\271\264\276\201\245\220\276\n\334g\276\302h\305=\202Wb\276\212\352h\276\306.Y\276\205\255\233=\007\343t=\256\227*>\367\030\322\276\211\226i\276\342\243\372\275\272\310y\275\317a\007>p\2368\275R\202\346=\310\200\020=\004\360\350\275\211\302\r>\216\370\003\276\253\3071\276\250\267\230\274\020\312\377<^\224\332=\276\337{\275\340\310\330\273q\221\217\275\252\335\274\274%|\275\275k,\037>\030\354\310\276\340\352\247\276\335\377\235>\t\031\t\276\233F(\276,\025\370=\373\235\311\276\237f\314=\005\263\230=Z\010\321=\247C\340\274\006\026\010\276[\004\201\276?\256\221\275\2504\271\275o\371/> \331\255\274]h\030>\312\304T\275\260*F<B\025\007\276\033\347\016>\320\006\330\274h\321\233<q\230\016>Aq\253\275\263\037\273\275\0359\200\275\366\266W\275\227\220\254=\320MB\276\000E%=\003]\341=e\274\361\275\005\267\320\276\225\322\222\276\247T;>\034v\316\276fX\242\276\273\013\r>\tZ\225\276\222\r#\276.C\301>1$\240\276\256\324\210\275\250\301\302\275S\242\027=f\257`\276\201\033\225\275\307\213\225>\234\022\362=;9,\276|A_\276\352E)=\36047\276\';I\276\031\357\002>\306\367\231\275jQ\273\274X;\237\276\215\206\026>\0135\271=\200\025\205\276\'A\257\274\233\305\017\276_\t\316=8\320U\274x\310\275\2760\272\037>\310\364\234\275\")\033>\320\336\246\276\314\336\343=\254y\307\275\324v6\276\017\021\'>\272\361_>\376\362\001\2760\342I\276\250G\215=n\335\320\274\203e\212=\254P\n\276\374h\276=~\360u>\255=\364=TH\000\276\371\367\216\276x\303\351\276\266n\250\276,\345\267=^\004\236\276GX\306\276\304\264g<\200~4;Py\370\274\303\365\205\276n+\360\276\376\374\314\276j\004\003\276\003\300_\276\306\306\000\276l\210\023\276\\#\333\276,U-=\332\310\336\275\205\304\227>\240mS\276\342\010]>\232,\357=*\211)\276\200\260\341:\020\007\005=H\327\017\276\240\004\307\274\262 \221=\322*\341=<63=\306a\334=\234\333\034\276\351;\014>\345|!>[\246\013>\315Y\005\2766\373\025\276RQQ>\340\230o\275\252\313\232\275\344\206P\276!2\247\276s\030\236=\366\023\275\275\324$\313=\364\251H\275\215\207$>\350\001H=8\222\211=\234B5\275\010\330\367=\305\244\257\276\037Z\340\274\326\341t\275\200_\272< =\327\274\036\232\242=H\374h\275\324\377{=X\250\235<I\337\340\275?`\r>@Y\375\274\331\016\337\275yZ\037>B\036\'\276\346/,\276\250\032\211\2742\264\341=\246\300\237>|\033i\276n\366\330\275\t\256}\2767\363\303\276\035\306\217>\002\302\237\276p\206V<\244\374\204\276r}\207>\335\002\035\275\001f\327\276\336yD\276\250dj\276\215%\236>\355\254\206<\341J\233\276\203fh\275\266\205.\276\267u\260>\223\312/\275\351\234\266\276tN\302<:\312\237>R\210\224\276^7\017>\216\364)\276L\271\277\276m~\334\276\355\034\226\276\260\016\242\276\232\300\274>\216JB>\257J\021>-Sg\276H\037\333=\230zl=\312ea<\305\235\017> C\321=\220\362\312=\005\232m\276\271\362\250\276e\013\023>\022\240\000=J\004\341>\374\232y\275\256\234\331\275\314\311\226\276\"3\007\276\224\301l<p\0264>s\307\034>\004\351\\\276 \325\362\275Z\270>>\217k\266>\025_\256\276\372\367p\276\366&\223\276\206\360\234\275\265\302\214=N\242\235\276\034\215\000\276\014\370\022>\340\027\372;\325\210\357\274Vy\360\275\265\376\301\276SH\207>c\211S>\361\236S;\366\245\213\276\244\000\322=\024t\327\276\027\235\343<\351!\342=\226\372\371\275\203\027\234\276\377\0237>\"*%\276hk\201\274\021(\001>\264\274O=\370\264\031\276\013\311\017>3\036\035>\344\267\033\275\332\001\026\276~\'\343=\316\204\327=\330r\025\275pd4<?\3564\276\006\323\'\276\233\267\017>`\241\">L\004w= \003\200\276\362\270\236\276q\304\277\276\320\322\210=\322NR>?\266@\275\220<\335=\016\202\373\274&p\027>!K7=\002~E\276\\\362\252=\223\243\010\275VM \274p\343D<\377\334,>\031\336&\276\300\341\n\276\230\241.\275\352\316\230\275)\330\325\275$_\225\275\360\007\035\276B\342\356=\2306.\275\220\212J<\360M\262<\220\3655\274\332\005)\276\303z(\276\371A|=pA~\275gY\271<k\035\361\275\267fp\276\034\331\313\276v\3318\276\244\200V\274\036%\363\276\022K6>\230\306\215\273\246\265%\276\227\234\247\276\256\345\301\276Im+\276\033\322`\276\375Co\276\020\341\366=B\0212\276\336/\202\276\0006\340\275\2749\375<(\232\247\275\010-\341=\216\033:>\254\022\035>\237\023\305\276\250\rd<x\362\214\2764K\007\2762e\354\276\\\216&=\362#\036>X\316\246\276\023\221/\276\351\327{>\017m\037>Z\220o>\315\240\357\275\274\330\243\275\324\203\346=\262\203\277=\262\241\010\276P\340H=XU#>\350\236\254\276\344;3;)\260\211=\004\315\021\276\'\254\335\276P;~>t\226\243>kWS\275wd\301\276\373\033l=R\t_>*S[>\274\320c\276\344\237\227=NE\326\276+m\306\276\033\030\264<\032\220\007\275\347\203\351\276^\341\020>\277\376\017>\036n\343\275\306\254\246\276\034\327\221\276\332\252\226\276H\324\332\276\277W\251\276A\016v\276Cf\343\275_\003\341\276i\247X>\005[\255<\321x\226>x\267P\276\256\020X>\234\246\323\275OC$\276\363|\023\276\0214\315\275\202\261\312=b\037\270\275\200b:<\326t\346\275f\234\350=\326\324\275=#\3162\276\230\314\202<z\304\300=h\216P=\270CF=\360\274r\275?\217\033>\274\014\013>\375M\016\276VB\320\276h\350?\276 ;0=(+\251\276v\343\323<2\006X\274\374\024\306\275\334\031\005\275\313}\326\274\n\331!>r\253\n>q\256\366\275\226T%\276\016T\\\275D\206o=\3600`=8\'\205\274\020c?\274\200u3\2732\251\313=\370\270\222\274\327V/>\210\263;=\246\026\264=$?-\276\360\270\276<\310\0143=*\303\230=\231\242/\276\217\017C>\312\243\014>\014B\356\274w\301\323<\032\025\224\276\223\014\210\276\270\306\332\276o\215\213<x\232\256\2765\337\317\275\243\270G>\362:-\276\332\003\325\276,*\026\276\016v\023>:\222\301\275\376\237^<(jK\276\200c\010\276W\354\224\276H\337\266=(\0009>\214\032\275=\340\303,<\370a4>\260^\257\275\nb\265\276\244_?<\250/\261=2\324\216>\036\335\325\276\004\234M=\t(\202\276l\031\305\276:%$>\246`(\275\366\0172>\227\243\330\275\214\244\034\276P\010,<\036\306\377\275\006\205\006\276\260NX\276T}m>}\316\\\276\305@\247\276\224\320n\275x\344\300;\226\231\276\276\203 \200\276\270M\226=B\371\247\275O\030\250>\220\371S\276\264V\226=\3544\361=o2\215<Z\340(\276\265\210\312\275\304[$\276\020}\317\276\232\200\300>\270/\216\275~\2259\276p\025\224;\320\026\345<\300[\235>]\343\356\276\341\003\244\276F\335\326\276vYf\276\300\300\331=\t\337\304\276\2319\226=k#x\276\330n\207;L\371\361=\336+\347\275<\333\253\276\250\222\020>@\362)=\002a\004\276\352\342\343\275K\243\022\276^\243\267=h\234\341\274Z\312v\275\224\230C\275\\\026G\275a\n)>;\357%\276\006x\262=\330\270\256\274\354\246+\275\374\263\n\276\244\\\341\275ZR\311\2756\r\203>6\227\333\275\254\317\257\276/\017\244\276\373\3775\276{\035\240\275vU\234\276(\346x=\274a\316=~\026\213>\246Ep>Pw\302=\344\245\346=@\276\270\276\262?\'>\345\357\r>\236d\311=\261\343\010>\261z\034>pN\026<\362\335\357\275.\004\230=1\023\026>\300|\027<B\233\236=.=\324=0)\357\274\037\276\000> \303\375<h\016\342<\3009\342;\025\370`\276$X\241<\233Qe>\250\262\306\273ok\206\276\034#\354\276\261%5>p\335\332\275\363\r\330\276\016J\260>/E\367\275F\r_\276N\304+\276\232\330\313\276Q\030\262>i\206<\276j\024q\276\314\256.=,7g\276\002x\277\276\036\372\372\275xo\341=25\205\276n\034\030>^D[\275n\264\337<u\327\031\276\255\214&\276\261*>\276\364\372\267=\026\204s\276SEL\276\244\267\356=\342\234[\276\nv\246=G\235\205=\356\322\227>\325\215\277=\302=\244\276\264u\204=\010C2\276D\2708\276\270\364\232\276n\035\204\276\367T~>\373\000v\276\004\020\273=\374\364\217\275R\321\202\276\317D\214\276\243^\024\276\211I\177>\200Lu=s\347\207\276\253N\006>\330.I\276H0\273\275\222\266t\276\344\244C>J\244\025\276x\271Z\276\260\007K>\2457\225>\022D\263\276\3444P>\300\222+;PA\\\275`\242\360\276\306\030\n\276\342g\020\276\205\031\264\276D\257Y\275_\265\237\276\272\366\221\275$L7\276\266\362\242<s\310\231\276\t}\013\276\024\231V\276\014{3>UG\023\276\2743\332\275\206b\313=p\213\002<\342|\344=\373\352\006>(\276\232<f\371\313=t\316\017=\370\017\307\275\260\315b=\307\3424\276w\322\n>\355\271\025\276\030\003\331<\342\312\273=\371\036W\273\361\312\256\2754\340g>\352\306k\276y\316\236\276\254\274\r\275\323\357\217\276\322v\024\275\036\031\241>`\r\"\276\001\022\\\276\335\256\230\275\306N\371\275\014GL\276\025$\274\275\273\345{\276\264>L\275\243A\037>\345\221\t>\201\014+\276\222`\357=\000l\010<\320z\020\276\271\330\027>*\031\263=\n\216\023\276p\356\203<\360j<\275P\222)\276\365m\006\276\323\233\365\275\017\202\003>{:L\276H\256\226>\267\000*=1`\224>\256\346b\276\r\256\357\275\242Q2\276\262\243\272\275\357\000\215\276B\302\230\276\"\020\022>\35216\276\250S\312\276\266\232\240\276\0205\373\275;t\357\274\364\266\225=\217\220{\275\256\3429\276\216t\255\276\253\0333\276a\363\177\276#<(>n\341G>\363\323\256>j\203e\275\036\\\302\276\202lb\276\224ZP\276\306\324\355\275\034\037\342\276.\372+>\016\210 <J\016\026\2766>H\276\327\251W=0\r\016\276\305\234?\276B\233\314\276\274:\202=\230\331s>\030n\216;\235\220\205\276\036\336\322=\255\022\336\275\016\000[\276\363\327t>\334\331 \276n\t\273\276\270}E\276<\003V\274Lv\221>\376R|<y\005\344\276\201\300\320\275\327\025x=\037\3346>\035\303\202\276\376\302\201\272\037\302\356\276<\323\214\276\352\325\023\274%\177I\276\357\216\303\276\247&\254\274H\354\356\274\203l\277<f\333\310\276\252\253F\276\3213[\276vr_\2762:\351\274^\372M\2768\256\313\275\210\310\320\276\275\362\031><\203~<<\307\256=\203\014\231\276\341\004Q=8\267y=\210\325\343<\255X\271\275\217\222\r\276\241\007\n>N\273\246=z\016\010\2769\027\034>\340z]=\303\254\020\276\234 \\=\220\214\022\275*8\267=N\277\260=L\254\222\275\201N\031>\230\341c<\013\254\223>L\r+\275h\203\231\2762\257P\276\316!X>3\374\274=~ \240\276\356OD\275\360\'\332\276\n\267\350\275$\352\305\275\t6\362\275\024\217\246>\201,\257\276\264\312#\276\034\232\t=9\326\025\276\366X\207= 