node {
  name: "x"
  op: "Placeholder"
  attr {
    key: "dtype"
    value {
      type: DT_FLOAT
    }
  }
  attr {
    key: "shape"
    value {
      shape {
        dim {
          size: 1
        }
        dim {
          size: 24
        }
      }
    }
  }
}
node {
  name: "decoder/conv2d_transpose_1/Shape"
  op: "Const"
  attr {
    key: "dtype"
    value {
      type: DT_INT32
    }
  }
  attr {
    key: "value"
    value {
      tensor {
        dtype: DT_INT32
        tensor_shape {
          dim {
            size: 4
          }
        }
        tensor_content: "\001\000\000\000\004\000\000\000\004\000\000\000\010\000\000\000"
      }
    }
  }
}
node {
  name: "decoder/conv2d_transpose_1/strided_slice/stack"
  op: "Const"
  attr {
    key: "dtype"
    value {
      type: DT_INT32
    }
  }
  attr {
    key: "value"
    value {
      tensor {
        dtype: DT_INT32
        tensor_shape {
          dim {
            size: 1
          }
        }
      }
    }
  }
}
node {
  name: "decoder/conv2d_transpose_1/strided_slice/stack_1"
  op: "Const"
  attr {
    key: "dtype"
    value {
      type: DT_INT32
    }
  }
  attr {
    key: "value"
    value {
      tensor {
        dtype: DT_INT32
        tensor_shape {
          dim {
            size: 1
          }
        }
        int_val: 1
      }
    }
  }
}
node {
  name: "decoder/conv2d_transpose_1/strided_slice/stack_2"
  op: "Const"
  attr {
    key: "dtype"
    value {
      type: DT_INT32
    }
  }
  attr {
    key: "value"
    value {
      tensor {
        dtype: DT_INT32
        tensor_shape {
          dim {
            size: 1
          }
        }
        int_val: 1
      }
    }
  }
}
node {
  name: "decoder/conv2d_transpose_1/stack/1"
  op: "Const"
  attr {
    key: "dtype"
    value {
      type: DT_INT32
    }
  }
  attr {
    key: "value"
    value {
      tensor {
        dtype: DT_INT32
        tensor_shape {
        }
        int_val: 9
      }
    }
  }
}
node {
  name: "decoder/conv2d_transpose_1/stack/2"
  op: "Const"
  attr {
    key: "dtype"
    value {
      type: DT_INT32
    }
  }
  attr {
    key: "value"
    value {
      tensor {
        dtype: DT_INT32
        tensor_shape {
        }
        int_val: 9
      }
    }
  }
}
node {
  name: "decoder/conv2d_transpose_1/stack/3"
  op: "Const"
  attr {
    key: "dtype"
    value {
      type: DT_INT32
    }
  }
  attr {
    key: "value"
    value {
      tensor {
        dtype: DT_INT32
        tensor_shape {
        }
        int_val: 1
      }
    }
  }
}
node {
  name: "decoder/conv2d_transpose_1/conv2d_transpose/ReadVariableOp/resource"
  op: "Const"
  attr {
    key: "dtype"
    value {
      type: DT_FLOAT
    }
  }
  attr {
    key: "value"
    value {
      tensor {
        dtype: DT_FLOAT
        tensor_shape {
          dim {
            size: 3
          }
          dim {
            size: 3
          }
          dim {
            size: 1
          }
          dim {
            size: 8
          }
        }
        tensor_content: "\263\3500>k\327j>\203\360\r\276\233;&>\275n@\2767Cz\275\340^\027\276\257\254\253\276%\324k>\004~\260\275^\023g>i\242\204\276m\316\">\366\217\205\276\256p\205\276\324\254\213\276\223\210\001>\311\325(\276\302q\213\275\350\200d\276.\r\315=\236\261\223=r\006\301=\357\005\'\276YE\346<=\0269\276\223\243\213>\234E[\276q\013|>+\204T>\307\017Z>\2306.\276-\254{\276\311\327\201\276\364`m\275\307\220\'>\3067\212=\237\3136\276\036r\324=@\025H\276\244<\237\276m/\267\2764\262C\276\3579\035>\312\250 \274\t?p>j\323\016\276[\352\360\275\302\220\036>\\\337!=%F\026\276?|\306<{\3456\276\021\"_>\036\217Y>\345\321\221\276^K\005\276\203\311Z>\253\177i\276_\347\241\275\254\221]\276\003\331r>\217s6>o\357\271\275\t\3761\276\265\330\'>3\360\255\276.\262\211=\347\022|\276\270\261\207\273\274*&=\367>\025>"
      }
    }
  }
}
node {
  name: "decoder/dense_3/MatMul/ReadVariableOp/resource"
  op: "Const"
  attr {
    key: "dtype"
    value {
      type: DT_FLOAT
    }
  }
  attr {
    key: "value"
    value {
      tensor {
        dtype: DT_FLOAT
        tensor_shape {
          dim {
            size: 24
          }
          dim {
            size: 24
          }
        }
        tensor_content: "\322\351\255=kL2>V+\250>t!b=]\313\037\276\347*i>e\350\016>\211\337\313\276\323%\202>\311\351\005\276\272\363?\276\254\363\377\2752\2727>\325(\333\274\224 \201\275\265\263 >\355N\301\274\022\233a>\013\021\037\276\336\354\210=j\004\204\275\257\221\257>\034!\301\276zz\246>\254\037\253>\211\006\013>\227t\251=\260\222\264>D/\326>\324\307\245>\214=\277>\005#>>V^\204\276k*C>\216\340\263\275;{\\>\220Z\214<\321vP\276\207\376\336\276\376\246\\>\252\220\333\275\2521\'>\204\304\263>\217&>\276\244\312\310\275h\022\247\276o\243t>\3209_\275;\020:\276/`n>\204\275r=\2046\242>$\266\231>\0065~>\226\010\360=.\343\221=\324\nA=@\371\211>\0217\024>n\373\252>\247D\034\276\240O&\276AQ\032>\311RK>\247\233-=\200\211|\273S!f\276-\001\205\276\346\256\340=\310\364Z\276/Gm\276\261wS>\024u\257\275\356,\234>\212JO>\342\327\326>\233G|\276\364`C\276D\014j<\024\027~\276\242f\340=\250\244\"\276&;\320=\371\243\251\276\206\374e>\010vw>\251_y\276pA\026\275\302)B\276Yd\260\276\306\203*\274\002\\i>\027\3438\276[B\311<?\362\221<\030\024\035\275\357\252\003\276=\351\232=i\003\247>\214\350\337>VT\207\276Vo\277>\2273\271\276\352\277\370=>h\211\275Q\371e>\t\211 \276z\312\365=\313l\213\276W\367c\276C+\322=\364\235)\276i\017\037>\260^\247=\240\330\354<|\217\307\276ID\035;w\000\347<\024+:=0\212\223>\224\310\256>\033\2113\276\2242:\276\343\372<\276\376\304u\276\ns\250=P(\273>\343B\n\276\215\277_\2764\314Z\27663]\276lz\232>Ke\223>6\033p=\262\310\333\275\266h\304=\t\252\230>$\220\232\275W\2431\276\3024\224>/\234]=Z\264\224\275j\271\202\276h\352\033\275j\370\317>\336\270\214\276\365\274U>~\032\341\275\0132\232<?0\330\276\321\rs>\312{g\276\337\371\321\276\212\360:<\367\220\302\276_\027\233\276\223|\254\276nFR=\003\257H>f\327M<\352\n\211\276}\356u\276\\\301\322>\264.=\275RK\265>L\326u\276\032\255\356=\271\331\020>\241|\306\275c\355\001>\212\241;\276\317\0327>\226\017\256>\275h\250>\013A\211>\206\374\336=\366\343\177>,Q[\275\326\257\364\274\217\030\021=\"\005\037\276\"\177\247>Mx\003>\t\004\242\276\300\336\320\275\300WP=\004;\261>\363\254\213>\372\316\344>~\030j\2763\210\275\275\240\365M\275Y;{\276WI\237\2764t\215\276\0244\324<{\263\032\276\2350\274\276\"R\311\276\3358\243\276\024( \276\372\r\210>\362\354a\276\024Y*=U(s\276@y\254\276[\237|>\\^\344>$\206+\275u\204\214>F\375\224\276\206L\255>P\236[>1\324H\2766!\253\276\"\272\027\270o\225\037=\266u\205\275x\177\027\276\027\237\214=\302I\206\276h\307\321> >\223\276(\265\211>>}\342>\232\217|\276\260\206\324>\252w\213=\356;\252\276Z\201\235=67\205=\356\346\270>G\000\036\276\320\352\255\2760X\270<\366\221w\276\274\246\300\275\225\364J\276\251\361\222\276I\336H\276\255K:>\202r\200\276\302\272\236\275\014{e\275;8b\276\rh\220\275)\031\203>2\007\334=\366\213\240\276\004\260\216>\23689\275\003\376\230\275@\263\230\275\020\261U>\016\222\235\276\"\t\261>\234w\346>\231\340\n\276:,\034\276\033\003a>\003\230b>\001Y\304<\343\355\036>cZ\t=X!\274>?\374\206\275\205\215T\276\222\024\250=\3418\006\276D\304z\276:I\222>\335Z5>\366\255\214>\220\344\221\273\313\241\213\276I23>i/\242>\216\312\347\274\344\260\003=\303\230r>\371Jy\2766,\014\276\312\261\273>\322\t\330\275\3349&\275p\261\211>[\001\216>\362\"\364=H\334\302>,\276\266>\375\007\201>\360\325\375=\034\330\371\273\313LK\276]\210o;B\257`\276q-\222>\223\322L>e\234A>\247\303(\276`\331O<4Y\203>\237\336\215\276\316i\236\275\233\356\036\276G\245;\276\333\313\034>\316>m\2764\377a\275\272T\233=*t\225\276\314\241\256>\177\t@\275\264\014\256=\211\266d>\314U\372\275j\252<>\215\254.\276F~\222\2760\240\243\276\033\234\">|#\377\275\272\376\360=\204\364e\275\322\253F>\245V\325\276\255Q\253>_\027\023\276\352W\371=l\265\255=\014>\212>\371\365\016\276\362\214h\274\214\026\224>\n\342\215>1\225Q;\177\236s>\204\372\203\276\302\214\260\275\304\257x=\302\3216\274\264\376\262>\017]\037>\261\264\213\276j\353\252=\244f\204;R\370\257\2754\206\214>\344]5\276\320\236:>\330\010\250>`\325\027\275\302\333v\276S\202\264>m;{>\001\020a\276\205r\016\276\213\240\263\275Xk\322>\312\306\256=\213v\277\276J\237\245=D\303@=\300\275w\276\256\302\333>\372u\266=\243\001\n\276\370\rN>(\215\232>\305Zz\276\266~}\276\t\r\312=\350j\315=\230v\232\275\022Xj\276\202\244U\276t&o=\220uo\276\027D\210>|C\234>\004 \002\273z\346\373\275r\330\r\276\017\204\214\2740Ki\276\020n)\276\366f-\276\357\367!\276~\322\224=\253\307\210\276k6.>h\307k\276\346q]>C}=>k\013\027>\310S\337\274\020@\016>@M\303>\036\367\242\275\'\271\254\276r\313\222=\305x\032\276\022\r\373=A\031\214\276\002\335?=H\366\262\276\207]\016>r\037\351=\220\232\263>N\014\226>L]r\276@\340f\276\006v\262=J\376\247\274\312\344p>\346\231\t\274\336\326)\276|\273\'\275\216N\262>\026!\326\275\340\3743\274\006n\322\275\\\177\007\274\222\324\236>\261\033M>8\320\350\275\361w\212\276\347\267R\276\205[\217\276\342\025\207\274\313\200{\275x\313}\276\374\033\304\275E7\024>\373**>t\2613=\304\217H\275\000\353a\276\2661\206\275\220uM<\333\306\242\276\311\300\022>M\347\255<\013A3>\314F\322\275N\264\205\274\227\3207>+\255[>\227%U=\341\335g\276\360M+\276\327|\027=\035\031\237\276\211p\"\276\302\016\315=BU\236\275W\334\205\276\334\261\231>\276\251\222</\275E\275\335\033\026>x2)\275\001\302\246\274B\177\302=\310N\311\273\206\363\245=\243\2645>i\204A>0\340\214\274&\r\263=a\"[>Y\272\246>\014\024\207<c%\257\276t|\344\2757]\245<\213\237\006\276\003MD>\314\\\334>\312H\314=H\326D\275u\2049\276\364.\326\276\235\260\215\275\227\275\005>+\335\002\276p-\223\275\204\370(\276be\305=\275\242\233=\n\306\314>\037zK=I\311\240>\"\347\214>\244\2206\276H\374\244\276\230\303\033\276\220\034\021>ycf>lRG\276t\2220\275a\263\211>\321\301P\276\374\375\232>;b\214>\030\234L\275\271y\005\276\327s\222\276\017\323_\276m6\032\276#\371m\275F\037H>\200\"\254>y\315\">\211Dt>\210\354\210>\030\252\203\275\341\037\323\276A\257?\276\372\210\036=VJ\314\276V\206s\276l\372A=\201*2>\266\323u\276\370[\204>\231\223v>\216\222@\274\220q\204\276\274\300z=\025B\016>S&%>ktR>\214\2732\275\307*\033>\016/\277=<\322\222>\206\346\365=\331d\000>\266\'\312\2753\340\202\276\003\352\204\275t\370\237>\2237d\276\004\262D=\006\221|\276\256\267\247=\243!K>lw\006=U\r\310:\330]\234\275}\017\004>\307]y\276QU\227\276\004\262i=xy\211>\317v\247\276U\366u\276(D\321\275#\366\236\276\334\034\262\276SJ\301:\251\342[\276\007\034b\276\322_b\276\323W^>\r\021!>\210\211c\276\344u\301\275\330\'F=\310\262\240\273\022F\306=o&\021>29*\274\227H\037>\226\270\300="
      }
    }
  }
}
node {
  name: "decoder/dense_3/BiasAdd/ReadVariableOp/resource"
  op: "Const"
  attr {
    key: "dtype"
    value {
      type: DT_FLOAT
    }
  }
  attr {
    key: "value"
    value {
      tensor {
        dtype: DT_FLOAT
        tensor_shape {
          dim {
            size: 24
          }
        }
        tensor_content: "M\321\242=\360\375\324;\005l\211\275\331\030\204\275\201\251\223\275\365\230\314=%<\275<v\006\360<X\031\342\273\224W\312<2\026{=\332\245\033\274\000\000\000\000*Zu\275\365\230\314=\212\251\002=\365\230\314\275\000\000\000\000\001\327#;X\031\342;\264 \260<mS\205=I*\272=\002\345r\275"
      }
    }
  }
}
node {
  name: "decoder/dense_4/MatMul/ReadVariableOp/resource"
  op: "Const"
  attr {
    key: "dtype"
    value {
      type: DT_FLOAT
    }
  }
  attr {
    key: "value"
    value {
      tensor {
        dtype: DT_FLOAT
        tensor_shape {
          dim {
            size: 24
          }
          dim {
            size: 64
          }
        }
        tensor_content: "|\327\002\2756\226\254\275R\371\236\2768m\305\274\351\340>\276^\037\226\274\022\261\206>\320\016v=@.\203=\224\307\'\2762\265\243\275\345K\t>\334\214\263<\203\303\250<\224;_\276\306\241{>\037.\204>\255~F\276\014\320m<:\001\323\275$\213\210\275\224\213\267\275i;h>\237FR>tz#>u[\n>kc\213>\243>\177>B\356\255=1p\013>1\021!\273\270\363\367\275E.Y>\254I+\275\340\013\210=\377J\"\275-\310\030>\360l6\274\315kc\276?-K>\025GO>\356\240\311=\252\206\374=k\377\211>\037L.\276\354\356\260>iNv>\002\022\333<\362\"\251\275{G\024>h\347{\276@\366\007<\233\332)>\336\307m>\333\361\014\276\217\217w\275\252\023A>\212\027Q\276C\244p>\244\366\240\275@#\000<+\0215\2764\331_\276G\300S>\376\216\360=\214F\001=\372s\247=NU\033\276j\352\362\275\372\341\260=\232\345j\276\303>\333<\227\332\220\276\004\212<\276\243Q\024>\247\314\023\2769\3605>\'\376q\276\346\214\023>\003C\213=\307W\033>7\224\262<\2264\256=3\355l>\225\372k\273\261\340\006\276\"%s\276\213\224t\276Bw\367\275\3248\371\275\177\232i>\345t\207>B\376\203>s\276T>\r\307L\276\300\366\376;\"H\265=Ar}\276\371\325\344\275*\210K<\374\177\024\276!D\252\2760{\206\275\022\001\376\275x\361\376;\243\001\200<\322\276\211\276]&->r\345*>\317 \250>R\215\200\275\007\351k>|\250)=C\266b\276\207\312\001>t\254^><\362\036\275$oY=\345R;\276dS\227\273\013p4>\266W\273\275\2312\330\275\304y?=\350\326\030<\377hP\275\244\331\316\275\370\341z\276\315\372\203\276\254\327\201\273\367\356\022\276\226r\317\275\276\375#\276n\366\360=\326\207`>\243\351A>\026z\235\275/z\020\2767\335\034>\211d<>\267\266\230=6b_\276\312\326\242<=\240\220\276\320-\375\275\254\213g\273\020\277\n=9\"\261<\230\021\242\276\r\236\023>\014\372/=\324W2\273\250\225\303\275\025I\005>Z\222\365=\255e\231>\275\233s>\304_g=\267\237.>\212\276\267\275\022|\r\276[#\260\275\346m\222\2764Y]<\245ph\276\016_t\273\265\216\031>\0005\374;,nK\275\270\301\265\275\"\337\321=\016x\260\275n\2030>\033\002\001>>_\205<\313:\235\276H\354\317;C\314\204\276\206\"]\275\244\032\335\275h\032\212\2768\n\220\275\304-s=\375x\241\276-l.>d<\345\275c\237W\276\314\365\337\273\202\247\265=\367\200\036\275\251\260\206\276uw\010>IJ\200>\t\303\302\274Etc\276\026\031\244\275\372\246_>\261\230\275\275P\226p\2762I\346=%}Z>l\356]=\343gC\276\344\253\240>\223\006\232>\226\227#\276o\226\004>$\210\002=A\245!\276\200\357\201\274o!g>L\333R\276\227be\275\314\000\037>\014G\336;\036\324\317=5\262\002>\001\013\200\276{\277\035>\362\034\241=\270\213\210\275\313`\221\276\002\263\335=#\203-\276\367\251\201\275|\222~=\367QW\275\216\326\247=\346\305\305\275\224\210\263\276\255\010\342<}\025\217>\375\200*>h\243\230\273B>\303=\365\322\030>\r&\203\276\"D\202\274&\275\225\276\223\230F\276<\305@=\275\352\025>&\214\300<xnl=\204\332\270\275\331\003\224\276\004\232]\276>4\254=\366\322\310\275p&\221>RJ\230=Qy\224\275e\252\324\275\327\234$\276;\256\216\276\375\276+\276\241\254a\276Lr$\275\315\023\005\276\010\016\354\275\344\313\240\275\310\204\247\2765!@\276\000\307\352<\023\366\240>\340]~\275\022\212\361=\014\365u\2763\234\216\276Y\362w>\014\361\202\276\005\326\236\276\343\007\225\274\210R\317\275^\311\344\275\325\246D\276\357\373\013\275G\267\370\274\202eb\276\354\220\237\275\237\030\221>k\201\033\276\033u\243=\237x\267<\252\234a<D\236e=)\215_\276\0174&\276\265\356\215\275j\234 \274\327A \275OW};!\252\200\276\327\235\010>*\"\316=\275\351\022\276w\227>\276\313MA\276e\376\035>Ec\210\276E\261\034\276\212G\222\275fq\304=O\237\217>-\240\232\275k\307\371\275R.\252\275\304\265\271=\344g\317\274\233\3306>t\327\007\276\351[R\276\317)\014>\245\240j\275\324\301*=.\033\276=!\001\227:\023Ns\276E\204{>\325^\000>w\254M\276\331*R=R\303\376\275XI<\275\n9\313\275\250\245\255\276\322\245\213=\031C=>\351\t\003\276HX3\275A\361\236=\313\014\223>6?o>\370[\361\274\310\2509\276tr\324=\253HR\276\202_\244\276\343K\036>\322\246:>sw\'>I\213\363\275\270\216s\276\366-\377=\211\315\001\275\232\375\273=m\004I>\344\2715\275f&\377=\026\220\244\275\302\037\304=\342C\215\276\026\004\'<I\320\006>\372\316\227\276\245\321\261\276Iz\030>\310\n\202\275\t#F>\320\223\306;[\214K>\306Q\227\274\026\311\001\275<\361u\275\230\311F\276\365\224A>\344E^\275|B\241\274\234+\026\276Y&a\276\346\260\021>\006\315)\276\265\0046>4\r\367\275\037\023\272=:.\225\276\034^e\275\017\322\241\276\263Xy>8\270\177\276\335L\222\275\202\271\273<0\255\270=m?p>\313\353\215\276f\002\371\275L{m=\236\255&\276\353\\+>\334\231\206\275\300`v>=\307;>`\354\r\275nU\350=\305>\207\2765\322\007\276\250\003\262<*\227\213>\n\211\206\276;\221\262\276\006I\220\276\313\2478>\211\273\t>\021. >\344\265%=Lt\026=T\270>\275\026\312\356=\203\0261\276\003\243.>\215|\033>g\323\250=o\334{>.\300\317=o6\037\276i\263\000>\213D\206\275P\253\032\276{\275\211\276\207s\241\276\250\322\313<\321\025P\276\347\206O>\301@->\177\337\213\275\374z\201\276,\225\267\275\347\335\262<\314*\001\276\300\022\007\275\030\241\301\275(\032j>\304J2=\310\317\232;\234\376I\276\022\330\204\2754\311\241\274\020\373\215\276ey\206=w\375\331<\327\365\263\2765mQ\2753\270\033>3E\313\275\322\0144\276\362\302\316=\260T\215;\210\353\270\275\275G\"\276h&\264\275p\261\264\275\356\351 \276T\0042\275\242\221\220\276\211\026S>\260\304\024\275]\\\000\276!\0068>\351\375=\276\340\315\377\275\344\275\273:B\022\253=\300j\243\276\002\275\320<\360\311\220\276\3144f\2761\261\005>\025\355\216\276q\224w\276\322\007\277=\236T\243=m\\\035\276$\360\267\275$\275T=\266\016\207>\272\241S\276*t\200\276=\201&\2765OL>\224\276\204>0\370\220\276{X\343\275\220\r\223\276\370\025\274\273\210\206\233\275\010@\013\276O\017c>/Ug\276\221\220`>Q\\+\276};\n>q\301\332\275\240\215\240;\352\352\257=\312\321\366=}\032;>`\223\272\275~\375\225\276\016\362\212=h\350\257\275\307\310I\273>\360\210\275)\346n>V9\301=\022\313\267=\031\010\017>z@\245\276EO\236\275\253\005,\276\307Y \275\323I\000=\023\207\201\276\341\007\t>7\2522\276\243\002\177\276\304\330\030=h\345\002\275\0222\342=\242)y\276\007\213)\276e\036E>O`L>\371\307o>Jg\353=~\321^<\327H\341:\247\223s\276\315\017Z\276\020\263\270\274\2742}>7\234S\276\353\203E>\\\200\005\276\025\245\332\275v\031\352\275\312\005\242=m\207\r>s]\343\274\201Ob>i.B>\245h\031\276.[\346\275\217\320\346\274\247\010\222>\362\224\376=B\241C\276?S\264\275C.>\276\363\270\213>\215\270\027>\312uG\276~\357\202\275\302\031\202=\364\201\007\275RU\220\275\253c\003>\031\354\257\276K\211:>?\337o\275m\2576\276*>\236\276\243}r\276\006`\244\276\300B\001>\2076\025>7c}>4\346%:\'\017[>\201;\247\276\372\367\232=\211\237v\276|\273\026\276\003j\307\275\323\356\255\274.\2061\276\233{c\273\006\210\206=\226\363\224>\217Ex\276:\227\336\275\366\n\264=\323z4:\354pj=\256\253\360\275M\001N\276V\\\205\276J\315\253\275\221b\033>\244\363\311\275i\340\\\276#\301$\276F\330\230\276%C\215>\234v\246\275A\341\002>#\326.\276\313\372x\276\007o\036\276\240\020Q\276&\224\333=(\233\213\275:\334\366=M\017\247>\341H\024>cD@\276\240\371\254\276\274n7\275\n\230K\276zd\340=G\033\t\276\177\0308\275\316\225\235=\333\250\021>\334\204/\276_21>\254\272\252>PX\227\275\316\371[>\312FT\274\272\036\357=P\241\206\276\027!\271<l\0002=\006\007\326=\t\004\030\276\014B\200\276\345(\006>\373\"S\276L\317u\275\'nr>g\2420>\005#\027>\320\332O\274\304\335\255\275\277\320s\276G\262\030\275\250@m\276\260\336\252\275\'\323Y>_\324\034>bG\331=\363Gg\276\336v\276\274j\335\205>\263\301\326\274\257\r\240<\330~d\275\017\nN>\'\017B>\354x@\275\311\007\035>\216\345\210=\240\261\241>L\250\007\276F<=\276d\031O\276\374|\022\275\303\020\021>\312\246\025\274\352\330\220>?A\220\276\321\223\200\276u\263\301\274\320M\030\276\303\347\245\274;\177\271\274buY=\036\017\344=\210\334\307\275\210\311\212<t\335^\276\257\260\227=\326I\243\276q\351G\276\273\202\037\276)\366U\276\225\241\223>\nj\367\275\272\206\301\275/\002e>\337_\010>\200$\242>\204\200)=\005$\213\276\274\003\324=,@\222>Z)\222\275\022\035\363=\342\037\253\276\0063\250=W\277v\276 \010o\274qsD\276\273\001&\2768\272\201>l\373==\233k[\276.\214\313=\225Wl\273\272\326\252=\341\021z\2768\355\206\276.r\217=\335\367_\276\324#{<\2002\314=hA\261\276r\000\246\275&)\207\275\370\273q>\222c\214\275\003#L>gVQ>PVB<\036\223\347\274@\030i>\256\222\320\275*\376\343=v\332\341\275AM%\276\361Y^\276\357\334\202>G\231\221\274]5`\276\225\333w>L\254\005={\271I>\346l\000<6N\232=\363\231\007>\305\250\365<\232\371\243=\0240t<B;\327=\327\326\227>\233\207\002>\352\300\206=\205\034\306<{{\200>\260h)\276!\326\022\276\225\\\202>\2716\036\276\245\207W>D\001\322\275@~{\275<\276\005=\006\256\217>\373\302\317\2755\037}>\251$U>\361\3572\276\365\232b>\237\356\255\276k7\300\275\224\026;\275!\364\234>\200\351\207=\3043\233>p\366(\275\270\353\260\275PB\234\275\332K\224=\032\320\243\276\026p\231\276\254\217U\276,\220w\275\201r\025>H\304M>\366\200\036\276TX\202\276\010\231I=#\024R\276\256b\355\275hs\201=\210e7\275\3007\355;H\262D\275\352\221s>\000Q\377<\312Vy\276Y\177\200>]d\204>\220.\'=\372a]\276\020f\373=09\001\276L/K>\\\305\371=f\233\001>]\007\003\276^\3010>P( =l$R\276\013\345!\276\242\200\322\275\021V\205> \020\353\274\000\213`<\3005r\274:\n\027\276\200\2478;\000\204\370;\002\315Z\276\010\220\322=Z\342\312\275\240\3600<\220D.>\312\276\n>H\206$=,fQ\275\370A\365\274\275v\000\276\206j*\276f0i>\032\217\264\275\340\334\024<K\300k\276f;B>p\255X=\274\024_\276\223\203K\276|\265\237\275P\243\\>\020\350\313=\274\033\347=P7\n=\252\373/\276\002E!>@\2638\276\374=;\276P\335\334=>\022\220\275\375\nH\276K\202\232\276X\321k\275\240\360\026\275\236\002\203\276\r\326T>\326\266\215>\005\273\032>\325\373$>(/\201\276x#2\275\337\010;\276\014<#=\341\266\252\274VA\003>f\330\205\276\3603L\275\231\0302\276\254aJ\275\205\235\021>wZ\005>8\027\205>\023\305:\276\023\216\255\272C\332\004\276\224mH=T\264\177=o5\222\275Oj\003\276\240a:>oQ\362<r\\\266<\312\036\247=\317\375\372<N\215\372=v\304\232=\216\202\256\2767J\025\275Js\013\276e\377Q\276?\227<\276G\234\267\274\221#M\276\324\232$>\303\374\036\276k\361\312\275Pq\354\274W\265\'\275+.-\276]\345p>\320\363\220=\324u\201\276\311\357\256\2769k\025>\254\035>\276\002#\324\275\030\024L\275\330\260\261<.\370\313=_\206H\275\303+\253\276\204\305b\276B\322\245=gY,>\323\rQ>\035z\254\276|$ \275\213\341\024>\321\031\026>\337\357\240<\370\317W\275\310\371z>n\036\343=\005PQ>\372\235\370=-\rZ>\352i\365=\276\024\314=\347d\252\276\367\250C>T\310\200>\\\031.\276\353\355\n>\014\272A=\2367L\276\021\224\024>wZ\217\276rK\320=\356:\224\274\225\321\222>ZE\272=\230\340B=\251\024\037>#\274\034\276\037\330.>\322\277\274\275\246JZ\276\333\232v\276\3573\231\276\227a\017\276\256\263\276=\321\3305\276\370ls<P0,<\355pK=,\201\307\275v_\265\276\350\263}\274\022\347D\2747\013\261\276JA\344\274$\014\204;\240%\221\276)\263+\276\202\303w\276F\374\205\276\224\220\251;\264\304\367\275d\224\275\275\252\017\261\276\340\377(<4\324m=8j~\276<\027\235\275\324/#\276\264\037\231>\337\003/>\037\374\270\2744\277\242\276\004\353\250\275\253,I>\260\2258\274\356\265<>\024Z\'\275l\212\350\275\224\031\240\276\010#\023\275\377\005\030>P\355\210>\211U\021\276\027\267\024>\200\366\325=t\234\227\275w\343Y>\266\353I\276\315Ww\276\265\324_>B\344\027>\t\241\020>C\020Z\276o\345F=\243b\004>\324\216\322\27516\003\276\261\330\273=\006\221i>\030\314\376=\237X\340\274\321\320\362<\363\243\004\276@\324\360\273S<x\276\372\320=<\306\243\201\275\331^\010>\271\353g\276\332i\341<,\360\250>VK1\274\\\255\226\276\266K9\275\234\214\264\275\231m\374:\234\336n\275\030\314\242\275\335\347\333\274F\250}\276\307\253\253>p7L\275^6\300\275\002K\314\275\275\032k>\024\234\237>\320\013\333\273y\216\244\275\r\014\246\276a\014\020>\303\276\217=\034\2561=\244\031{\276\014\241\366\275\331\212 \276\313\272S>Nq\202\276^\305\014\274\224\236}\2757v\003>\3356,>\305\205o>\035\3750>Q\350X\276\332k\360={D\376<\302\247\300\275\313\2041\276B\2318\276o*w\276\375\222\205\276\335.\244>b\203\315\275\202\033\030\276\266\211\035>\006L\233\276&@\202>\334z\363\275\336S\377=\305O^\276L?\266\275\207\256\212\276G\300V>>\217\271=f<\240\275\270\325\013\274\343%\225\276G\261H\276\304\301V\276\376< \276-w\245\274\220\326\"\276\037`\001>\347\237q>\376\232\363\274e\307\204<\374\2470=\326\246\230\275\316\375R\276\237\246>>w\225\211\276\270\254\231\273D\250\t=\253\026\223\276\275\262\007>\357+^\276\234\377\360;O\263Z\276N\326\006\274\214\033\224<\227\340\330\275\216\001d>\201\310\006\276B\033\260=\003.\007>$\215\220\276\004z<\276~H\345=\310vv\276\\dm>\340\240\326=\002Qe>\260\021^\275\016-H\276\3170\204\276l\006\316=x\304\253=BG\177>\234\020=\275\"\351v>\347c6\276\326\023\t\276\004Z:>\210\013\000=^\001\025>R`\\>\220\355\210<0\252\213<\322\232@\276l\342$><^\304=^WQ>O\342\036\276\351T\006\276:\334&\276>S\004>-\036b\276\304O\241=XEZ>\340:\210<x\036M=\360\323p\274\334\240q>\200/-=p\336o>\262\260X\27687\266=\250\244S>+b\201\276L7\265=\273~\017\276\200q\233=@\325\260\274\256:<\276\020\300f=L9\\\276\200O\030\274\334\327\'>;\006\200>\350\034Q\276\206\244K\276\000I\375\273\030\320\343\274\226\000i>R.\321\275\266\346F\276z\364M>\300\217\003\276\330\232\356\275\324\221\255=\214\336\010>v\356\016\276,*q\275s\257\"\276\201\202\004>\316\335\240=\336c\232>\022\tk\276\026w\'\276J\366\266>|p\235\275\230\031\030\274\303\266[\276fm\364=\260T\014\276\023\373\026>\005;\233>|\243M=\2129\352\275<\310\365\275{\205\203>\023\t\226\276d\326o=\252\361\022\276\276N\205<\345\247/\276L\3618=E8)>l\316\037\276\010\377!<\321s\203<\014\274\025\276>\252\370=\264J]\276\360\221\213\276\202\031\252=:O&>l\300H\276\254#\037\274\036\377\267\276a\013=>\024\334\233\275\034X_\275\013I3>\034N\017=\314L\217\276\300e\270=\\\270\263<\234\315(=\353Yn>\204\243^=b\025\360\274\3261\326=rB\221\275WDu>\3679\004>\230xY\275\334GX=\006\210\231<\307~V\276\312\247\314=\212)\214=\031\006\224\276o\204\210\276:\010\353\274^a\202=\252O\322\275I\262&>\304\007\235\276\037%q>H)O\275\037\245;>U\0301>6\221(\276\210\r\303\275b\007\357\275,\245l\276]\346I\276\n\375\321\275\346\206\271=\305a^\276\304\243\">Y\242\272<\316 s>\272G\251\274_\2028\276L3\215\276\220m\205\276\353OE>R\377\004\276<k\276\274z\342\332=\2206\t\275K7w\276\240BJ\27539\034>\315\2059>\'d>>\347{\203\276\035.\017>J\326\242\275\256\342\302=A\372\307<\257\337\237\276E~K>\242\024%;\312v\300=\266\024\356=\354a\037\276\202<\216\276f#R\276\271\2224\276Z\3630\276V\202\276=pY\030\273Lzl=\n|\203=\266\302\330\275\365~\203>~\003q\275\021\240>>\002X\262=\235c\342<\240.O\275\217OZ\276\324@\244\275\033\022,\276 \232\232\273\201(\'>\212\t\026<&\352\035\276\222\242\311=\240\035\001\275|\372{\275.U\331\275Nm\371=\224\355e=\262O\270=\301)n>\335\010W>\216\312 \276\rS?>~9\211>\036\347E\276X\345\314=\315F\r>\036\321\306=\234\314\214=p#l>#\277\230>b\344\314=\326*\253\274I\001\004>l\177,<nU\373=\001\0063>\310\357Z\276\'\211\205\276\026\215\264><\366>\275\342\n\037=3\250\245>\322N\220=\352+\314=\353\021\272=N_\332=\361\352\250\276\342\311\221\275\023\332\212\274\230Y\010\275\260\266\377\275\240\306{>\232\3209\276\277\305\207\275B\017d>o\021\035>k\323\223\276L5\'\275lb0=\273]&\276\371*\200\276\014#\323=\301:\211\274o&\"\276\273cM>\013\306\232\276M\272\017\276\256\277\323\275\272\220\274\275.D\326=\331\301\256\276\257{t\275\022\214z>]\253.>`n\226>\340\375\201>\323\001;\275\277\276\037>m1\t>\207f\002>\313Cs>\300\r\334\273\010\027\232;H\013\033=\351\212\353\274\3541\243>\267\020\000\276D\000\260\273-&\223<|4\007=\022\305\355\2756\231\256=7[k>\227+\002>d|\270\276/0\212\276jV\013=NK\n;w\0245\276BB\221\275\022\256\274=/\355\206>J\240\220>\177\365\247=\033\333\037\276\321\375]>1\034U\276\221eU>t9~=\216\351\005\276i\376!\276uG\021\276\t\304J>4a%\275\\(t\276\257\334\003\276\3331\234\276J\360\362=\344U\266=\276p\224=6\370\221=\202\330\222=\267\350\245\276\r\3500>4\nj=Hb==\263\024Y>h\246\035\275\316F\232>\177\3564\276I\2768>\373bK\276\007\025\326\275\020T\220\276\013\212 >\004\351\226\276SbM>X\344k=f\014.=\330\304\316\275\242\334\253\275\361\350\032>\301\0376>\203\021\223\2763\351|\276\016\000\375=\257\324\033\276\224\n\255>\224\234q\275\"\375\214=\2518\303\275|Q\205<J\264\211\2756\324x>}\265*\276\324\340\235\275\252\255\020\276\206\364\210\274\225\200w\276~e\267\276\327nr\276\310\376\006\276\0009\266=P\r\355\275#r?\276R\355o\275\221\226\004\276\252\001J\276\233\312\212=\027\254\037>\344g\314\275\300B\220\276\037R\024\276K5h\276F\300\223\276\352\336\226=qa#>\340\317\263\275\202\210\253=\232\005\254=\005vH>0\254!\275</\220\275\022|g\276\016\334D\276\333s\233>!\"\215=\363\030\251\274\226[\330\275\360\035}=\204Y\233>(\250\306\275\377\233\205>\370\037\233>a\327\251\276\210\002\255\275\014)\244\275GX\"\276)\360V\273\007>w\275\260\274\246>\222\340\222<r\260\306=n1\230\275\205/\023>\344\366+=d\247Z\275\335\340\035>\244\260\212\276$l\303;\324\253T\275u\210\206\276\010q\022\276}\010:>\010\023\005\275\263aR\276}\357<>\345\216\244\275J\r\376=\007\347B>\020\306\254=-\374\331\274\255\223-\276\210B\200\276\304C\214\275\264X==\033^|\276\242\306\301\275`\247\214=\001\247\233=\200\306E=)q\036>\365\226\244=q\236\264=\331\232|\276\362\203\206=\"\260\003\276\252.\342\2755\354\224\276\214m\273<\344\221\001=;\312\331\274}>\'>\212p\313\275\232_b\274\216\323\263=\241\327q\276\033\r\007>\261\244\360\274H\247{\275\3415\236\276Fl\330=\213R\204\2762{-\276:\303\213\276\330n\251\275C\256;>\0174}\275\236\376<\276\344A\025\275\202\202\211=\221\263\016\276$I\030=\372S\243<\263<-\276Q\345Z\276"
      }
    }
  }
}
node {
  name: "decoder/dense_4/BiasAdd/ReadVariableOp/resource"
  op: "Const"
  attr {
    key: "dtype"
    value {
      type: DT_FLOAT
    }
  }
  attr {
    key: "value"
    value {
      tensor {
        dtype: DT_FLOAT
        tensor_shape {
          dim {
            size: 64
          }
        }
        tensor_content: "):\243=0\350Y<\375\035\270\275nz%<\221\352\204=\312\367d\275TM\363<\332\223\007=<P\374;)\003\211=)\003\211=\242\335\023=0\224\366\274\230\317\325\274\352\347{\275\315#\312\275\371\321\200=\365\230\314=(\264\310<\004\373\313<\365\230\314\275\365\230\314\275J\245==J\245=\275\326\265\004<b\2424=\n/]\274\242KH\275ZTc=g)K\273\201\340\255=E\025\235=\365\230\314\275\365\230\314\275\021=\254\275\365\230\314\275hF\224<\365\230\314\275)\266\3218E\025\235=*,\324<\331O\236=\351\220\217\275a\360\226\275s\016\276\275\372\361R=\245\256\307\275Y4\221=\365\230\314\275\365\230\314\275E\336\202\275\000\000\000\000\315\265\225=\016\037t<\315\354\257=\272\266s\275\365\230\314\275\004?F<\365\230\314\275\365\230\314\275\365\230\314\275\365\230\314\275\365\230\314=\240\253\255\273"
      }
    }
  }
}
node {
  name: "decoder/dense_5/MatMul/ReadVariableOp/resource"
  op: "Const"
  attr {
    key: "dtype"
    value {
      type: DT_FLOAT
    }
  }
  attr {
    key: "value"
    value {
      tensor {
        dtype: DT_FLOAT
        tensor_shape {
          dim {
            size: 64
          }
          dim {
            size: 128
          }
        }
        tensor_content: "\337\206N\275\217\231i\275\263o\254\274\317\315\020>\026nY\275}\231S\276\344\316Q>\244|3=\004\315\347=pt\376\274\372\321\256=\370\010\230=\244C*=c\023\250=$\232\220=\365\263%>\200\230u>\"\232_<\324\207\264=\236\215\031\276\020g%=\260Bo\275\235X\204<\377\020\204\2761\242\206\2755\254\331:R\362J\276\220y\240<\270\263\033\273\234\353\240=\260C5<4\252\342=\242\223\021\276\021\252\312=\ne\214\275\257\003f=\230\355\230=\367\312\211\274\304\006R\275\341\374)\276\340:B=\030\254\3609\266\375\277\275\270$s\275\364\374O>\250\003\322=\212\014n\276\333?\001\276K\343V>\334\310\205=\355\3708;->\307\275\252\370)\274\340\240\366=R\244\325=\302\025\202\276X\341\225=\363\350\373\274\350\231\204=|$]=\340\021J>@\220\001\273C`\016\276\032\004;<`\314|\274W\030$\275$7\031=H\252R>\315\311)=!~/>4;\002\275&\336\255=Rea>\360v\034=\315y,\276\002\321\321=d\306\374\275\340p\232;\262!\277<\345@\t\275h\373\241<-\211\'\276\343\241\336\275\330.0==\332)>\221\1773\276\010\233\255\275\300\261\262\274\000+r\273\210\020\201<\373R\311\275\243\341\017>\260C\372\274]\276->Rx^\275Z\360,\276\2278\r\276J\203\273=\320\3634>\213Qh\276_\310-\275`l\256\275\242\003\030\276\277z%\2767U\203<\323\337$=\no6> \002 \276\237]^\276\224z1>\262\351c>2\327\t\276Sy\032>\371\303\n>\252\034\332=\000\200f\270\316t\256=\nJ\324\275|\360s= \343\375;\020\031\264\2758\213\030\276\024\366M=\334\352(\276\336e\306\275p{:\274\270VH=A\354(\276\270w7=\360\007\\\276\"F\"\275&\306\227=\306n/\276[Vm\2758Y\327\275\370\273\327\275\333m\220\275,O\204\276\2307\007\276\362\205\000>\374.\367=\033\372\204\276\235\351\202\275h\032\323\275\363\207\203\276m\361V\276\002E|<\274\026\220\275\304\270\356=wQ\325=\016`%>\304,\n>7h\201\275\3720r\274K\311\203=\270\234\033=\014\240e\276\273k\037\276\230>\261\275\332:\243\274\261\340\337\275\306\373~\274\240\252B>\026\320u;\177\335\311\275_\003\252\274*\360\371<XN\352\275\364\021\342=\n\001\235=e.\002\276\006\036\031\275\212{\031<\036\215\017>0\321\036\276\352\342\006><yN\275\240;q\271\307a`\276[!Z\275K{\026\276\334\233\244=\322\025\234\274 \323\206\272\366g\260\275\273\300*;l\376\373\275\202\016+<*\222\204\27509\232=\340\344\365\275\203\323\210\275p\n\301\275\314rg>\314\304\261\275\330\254o=\270@\362\275\2008\355=\212EB\276X\217\030<\327S?\276\270\346\357\275#V\227\275\335\247\270\275\317\334K\2754yQ>\366\241\t\276\363E!\276\355\236\260\275\022[\032\276H,\253\274\031\334+>\255\343\341\275\346s\326=\214x\016\276\037\306\203\275\340\n\256\274\201\251\350\275\276\237\310=\255\317\007>\270\331\261<\223 \014>0\001W<XO\256\275\302\006\210=.\251\n\276\344\244\232=\220\261\205=\365\026\201\276e\003$\276o!\t>\202|\023>\346\216#\276\027o\220\275\235\014\212\276X\017\241=P\306g>\344n\363=\214\023)>C3\350=\343)\256\275\224\324\030\275<77\275\300C\223<7T.\276 \034\014\276\177\341\037>,ID\275qu\230\275(J\322<\272\353\316=\212_$\276\366M\237=X\253\006\276\232[\351=\036 \267=\024\024\203=\264\245S\276\265U\376<\031\025)\2762\362\252\275\0045x\275\\\333\r\276K\'\277=\216\204\322\274\232\223\335=`\265\007\276\363\274m=\004\236\334\274\224\3723\275<\035c<6d\'\2768\371\003>;\264\204\276\000\301\t=\236\316]>N\316\020\276\006\201\260=\376\204\032>\003\240\014\276H6u>?x\002>\336y\240\275r!\336=\313}\344\275\031\257\364=\240\310\357;\000\'x<4b\201\276I\306\313=\212\306\375\275\230\200\017\276\266\232\222<\200\232\320\274\035\362\\\2761h\347\275\271w2>\230\014\361<<b\"\276\356\346\014>\270\"\037>\036\377\366=\260j\242\274\365?\024=\346\202\344=\300\236]=.m=>\320\0323\276_\r\205:\210\312_\275\023\333\201> \362\301\274X\365\311\274u\250:=\200\367\251<TqF\275@\355\214\275Qc\007>W\212\002>@|]=G\264&>X\202\360<D\013?\275\213\000=\276\303\023\211=\270\3722\276\300\\\327;\\\3770=)\004\022\276xSu\276\340\342\032\275\344\366\222=\326\r\357=eo\202\276\336\365~\276\200\221W>^\"\263=\210\315\353\274\026\030\013\276\177+\034>\233Y\037>\355\256\033>\370l\'\276\331{\002>\355@\260\275\200\223\347\275\230\321n=\322\252\326=\310\301\037=bt\007\276\230O\304\274\035\231\322\275\266j\311=\360\276A>\224g\006\275 \255\230=\027#j\276F\013B<\206B\236\275\000\214\252\271\'\341\236<\n\225\266\275\203\314\"\275\277\241\200>0\350\332\273\2500\367\275\350\252\266\274\222v\214>\260[l<\204\032\020=he\304<\316\321\314=\240\003\265<Q\213\307\275\r8\277\275\251\357\313\275R\352\031\276\370!\203<i]\305\275\020\355(\274\3608\361\275%\240\'\276:\t\313= \0328\275t\226\210\275\251\023^\276\312\367\346\275\236\310\224=\341$\023\276wm\207\275 [\317=(>\003>H\301\273\275JL\n<\337\256o\275l\026+>,\3540>\276\327\024\276\330A\301=\022\266Y>\275c7\276\204\333c\276^\300t\273\n}\224\274\250X\222\275\232\'Y\275\333]\306=\231U\007\276\373\256F\275D\353|=\265S\007\276\370\246{=\266\307\335\274y\007\023\276\376E\340\275K\244\354=\306\262u<v\277\231\275\326%8>\360W9<\307\254\021\276\205\333\010\276\305bK\276\210\367\246\275\262^\014\274\251\355\211\275F\014\263=csO\275o\217#=\364\366\332<0\234;\276\024\243\361=\016.\210>$\257\375=\022~N<\3610[\276\212\274\242=\343\274e\275M|\270\275\010=\003=\273*\207\275\240\325\206>\274V\024<6\036!>x\020\027=\225\273\361\275\344u/=\231\233\013>\233\265\004\275T\306\350\275\036\345&\276,\342\343\275>\177\013\273\242\255\\>*\006\023\274*\025\237=r\020\235\275\327\267:\276s\210H\276\036\305\226\275Jn\362\275\241\202k\276\361%\335\274\3607`>UE\231\275\235\340\276\275GJ\036>\321\335\010>\327\327)\276\320\351\"=\250{\277<\246i.\276\226f\345=2\004+\276\200\253\344<\010\0269=dy\035\275\236-\373=H/\003=\016/\201=\374Vu=\250D\322<\2324\207<t2o\276\027\243$\275\\\325\222=\207^\032><o\016\275!\013\262\275$\374\207=\323p\n\276\340\377I>\237d\220\274\260\014\225\275v\256q<v\233\241\275\313\375/>\365l\030\276\240\016\361<K\212/>D#5\275\272}\341=,\306E\275\234\n-=\316O\200=\010\267\217=B\220\361=\226C\277=\266\036\272\275\210VG\275\000\213\005<\000J\271:L\242\304=\360?P\273{\247\232\274\204\024\314\273\n~#>d\005\315:VK\273=\370t\322<\240++>\240\331\231=\307FY\275\323\335\2759\2461\270\275\"\021\222\275\325\221i\276\254j\201\275\006\340+>\234[\001\276W\376w\275\272\356\206=Pk\177=d\267\262=\354u\355=8\376\340=\253\323\317<6\326a\275\346\213\334\275\237P\024\275\342\030\224\274\327N\021>\202\365W\276\275\321\032\276\360\023\017\276m\2147\276Z\033\304\274\326N\367:\206\274\272=\310\344\213\276\255\224o\276\024\261]\275>S\246=\360\205]=\211\367\322\275\260\3567>M?d\275\357\313\033\276\352\310-\274\356\007\t>XgA=\252\330+\275\350\340r=`\003\341\2754\212\345=\360<\210=}B\252\275q\261\345<\321\232\333\275~\rb\275\260~\260=\324\030\261\275\014\317\232=\267\325q\275\260LJ<\034\322W\275\277\024\203\275~=\337\274\236l\247\275zP\312\275Vyt>(\273\221=,}P\276\352$\261=|Z{\276b\207S\276W\032E=\013\233\021\275\210\"\343\275B\275\361\274cUt\276\220c\353=f\237\373=M\340\031\276V+\353\275\272\227\357=\200\332\351\272ig%\276\337x&>\206\225\312=\300\335\316;\242\323)\276txI\275\324\330C\275\260_.=\266\316\240=\311\354\334\275\334\263\352\275\22622\276\014\010E>\355J\004\275H\207C\276\032V\366\274\264\003\271=\004\320\003=\242\352T\276X\324\217=\234\316\213\276\2417\216\275\031s\375\272x>9=\232\234\212\275\220s\222\275(\242S\275 \210\302\274Y,\261\275\236\210\365=\313\320\036>\367\356\024\276\252\344\352=\000\327\305:\370\211\213<\310\331\000=\323\224\030>\000\253\273\273Z3\275=\030\032\364\275\210tL=H\344\205\274\000kl:\205\037\377\275\273/3\276:E\273\275,\022+\275\301cV\276\347\274\010\276\2649\200=h\007;>\300\301\214=9\325\014\276\323\010\272\275kW:\276-\3067\276\036U\207\276\341\027\203\276\242\2223=[\331\222\275\360\365+=\244)\356=\223\216<\276\277)Z\276P\217\007\276\346\353\177=D\224\366=\313\315=\2768b\233=\004\273->p\310\204\276x>\345\275\034\037@\276+\224\214\276>fw>\r\027\205\275\324w%\274y\324\221\2752`\206\276\246c\014>\373\251\333\274\3502\251\275\223\260&\276n\373\207=\303FY\276p=\177<\215\020\355\275q\240)=>@\033<\nB$<@\354.=\222\014e>r\023\006>\002#_<\232\241\t<\000?a<\340U:=f\325\022\276%&\332\275bx\357\275m\024!\276p#\037<\360\355\356\275*\273\327\275T=\026\276C\313\n>\004\006z=\316\366\233\275r\350#\276\374\371\023=\272\350\246\2750\255\207=VC}>\374\202\321\273I\260;\276\321\224\r\272\250K\241=;\261\202\276\221\265\203\275\227\204P\275j\222\013\276\220\233\034=4W\370=#\225\n\276\264W\364\275v\204\177\2756\207\344=_\215\023>\236x\253=Pp\002\276n\257\254=\212\372.\276\262\313\311=@Q\036\273\272\t*\276)\023\027\276\314\2527\275 76<\365@\324\275\276\354\365\275\177\'c\276\006\366\034=\234\224\003\276\202\302<\276\374\377\226\275\266\024\326=8\301B=\272\014\326\274\350h\275\274>x\330\275\330\201C=W\333.\276\301{\033=\312\303\216=b\'^>\240\252:\275\253\227\303\275\000\032.<\273\037\036\276\236\372\377=\340\256\222; \022y\274\302s\263=\221\320(\276f2\020\276\357\315->\3522\243=\325\001\203\275\240\214W\275\314\213P\275\004\0272=\261\243\001\276\3602\245\275\n\233\255\275\356\\n>\236\226\231\274~\374J\276\216\366\320\275\265N5\276\254\014f\275\\8\034\276z\034g\276\253\311\207\275\026q =\262\207\200\276N^\203\275\001w\233\2742\254z\276\016E\237\275hL\313=G\311\001=\310\361\306\275\256H\220=Hq3=6P\242=\200\007C><~_>\351\260\035;*<\033\276\340\232\033\276\351_\n>,\363D\275|\n,\276\234YC=\250HM=x\352c\275fZ\223\275V\3339>\220o\227=dz\264\275S\317\'>\312^)=.B\272\275\253{*\276\310D1>\216\326\354\275\250\342m=~%\241\275dn@=2Y3>\271\333\t\276R\350\257\275\232\020\201\276\326_\357=T\2519>\177\350\222=\352\350\371\275\360\255d\275b\007v\276\203y\311\274\363\373\203\274\214k\262\275\307\214\260\274h\000\246<\200\276\274\275\232\336\266<\024\360\016\274-\201\223\275B)\312=V\262\226\275\360rQ>s\211\004\276n\273\241=\224\256\221=\365\332\024\276c:F=h\272d=d\'\235\2758\2505>#\3175\276\231\262\037\276\263\336\260\275\317\213->\212\007\270=\260\245+\275\346\265\317=\001\336\224\275H\362\305<\347\016\331\275R\233\354\275\021t\025\2764\231S\275HLl=\007.\034\2768\004\024=f\036\341=\030\217W=\340-\310<\237T\\=2K\032>\177N\226\275\323`\311<\240\246v\275\350\237\242\275\304\272\226=\236\224\321\275\255\025.\276\221\306\356\275\037<X\275%\2240\276 \272T=\264\316\023>U9\204>bX\333=\330\226\206<\276\340\375=x\227\340\274w5\341\275\234\007\t\275\316 \010\276\270\236>=&\233\014\276ZT\244=9\013$>~,\304=\220(\233<+\271\035>Z\306\373\275V\200\350=\200l\277\275\354\207\321\275\204\266\272\272Jg\">\0242L>\325f\273\275\344\246\376\273H\374#\276\347\313\014\276\306(X\276\230~[=\364\274\033>\254S\321=2\367\271\274c\207_\273y\221\t\275\3316\304<\314\333!<tY\341=^u\253\275\260l\t=\346\277\366=D\312t>H-\274=\322\000N>9\325\036>W(k\276\365\016\001>~\0312\276\020\235n>m\305\302<\017\021 \276\207$5\276\305\314Q\276\326\231\365=+\207@\275x\203\215;s\2531\275\273\222\010\276\237j\222\274\036g\361\274X\0133\276v\357\204=t{\240=\304\325\256=\276\263\311\275*i\326\275\215|\003\276\373\034.\276)\007>\276\320T\004:\207\000]\276}^\007><7\361=\344H\220=\031]\027\276\240\361\246\275\t\354\207\274V\343\264\275\363\223\035\276\370\374\200=Q\304\027\276qk\315\275Re\211\276\030\266@\275.\304\240\275\037\227\007\276prs=\246\355\245\274\362\002\226<+\315\266\275nl\374\275\321\376\r\272Z\343\240\275`\323\317=\177L\243\275o\242|\276\350\242}\275\'B^\276Rb0>\321:(>\036.\264=\326|\201=H\221\343\274\020\264e<\322H\362=\210,1\275\030h\224\275\370\344(=\244\267\n\276\200\212\323\275\036\000\246=\336C#\276$Y-\275\240^b\275@\235\310\274&\276\305\275\314M_>\214s>=\233\002J\275\346\225E\276\246\216\234\275\035!\320\275\324w\273<\232P\310\274~y\331\275\317\377\335\275\261\207\223\275\0145\200<\021y\201\276\210\364\026=\357L\207=2\217\005\276@\207D\273\232X\200\275\316d\001\276~7\343=\3161\332=\022\000\366=:\035\317=pjZ\274$\365B=\272\333\314=4g\031=\234&\'=\354\216?=\211\024->\001}\337\275\002H\003>\277\326\352\275\305\366\217=\300\365O=\322?\350=y\024\367\275\305uI\275z\324d\275^]\344=\350\311G\276\332]\353\275\266*5>\234B\337=K\014\t\275\247\304f\276\234V\213=+\257\004\275&\204\330\275\256\001\006>\353\034\266\275\037\232E\276t^\321;\272\335[\275\020Q\344=\206\241\215\276z\316]\276D\263\364\274s\023\300:d\353\272=\357n]\276\315\373\214<B\'T=\377b \276\223 @\275\272\364r\274K\357n\276\356\324\205\275C\337i\276F\343\324:\007,\201\273hWI=\310*\306\275\370K\030\275P\210s\276~\031\001\276\256\230\000\276b6`\276\\\264\235\275\315\362\314<\366\247\233=\210\010@=!9\311\275XT\327\275C\222v\275\033\313,\276\371a\321<\244>\230=\000\021\366=\340\'L\276 \'4>\000\010X\275_2\034\276\276\034\250=\366%\211\274\212\027\003\276\243t>\275\256_\274=d\350!\2762\t\305\275\370\304\373<\036\3159\276\016\367\265\275\330$0=\377!$\276v)]\276~\006\016\276\033yI\275D\013\306\275\3171a\276\242\334\270=\240\3547\274\320`4\275\236\206\311=P\324\201=)\277\337\275\242\364/\276\n\306\362=\034Q)=\204\251\t\276f\t\304\275\320\357&\275\320\373R\275\000\022\3279 \236\347\273\0313\022>\303\225\030>+\025\244\275\200\247D=,s\321\275N\322\231\275\342\334\257<\236\'\016\276\233\276/\276\261\226k\276r\344\242<\213\374G\276@\010\363<\277@C\276\024\236w\276\224>\t\275\271x\236=\305_\201=\004\315t=\3376\022>\2305\370\274\300\360\326<\326D\364=\265y\030>\214\263\024\276\300\321E\275=\267\030\276\362\306\252=\000Js\272\316\006\303=\246N\306=[\216#\276\\\322-=\"\237\246\275h\016\\>\033\342%\276\260\004j<\3543y=\276\374W=SS<\275\025\232\313\275\270w\372\275r$+>2,\275\274\222\001\254=\224xD>l\326(\276\006B\370<\202\235\013\275\353\0303\276v\276\256\275\341<=\276\000\231\t\275\340\271\207=.\2434\276\270`\266=\340(\023>\000?\301;\370\\\006=\211_I\276ww>\276\266z\353=B\233\350\275\204V\371=QPI\276J\344Z;\234\215\242;F<\010\276\3367\227\275B\234&\276\274\234*>/\353\205\2769_!>\234c\242=\257d|\275\216\314\217=Vy\274=VR;\276(\204e=E4\215\275\240\227\336\274\2042H>pC\270=nr\373\275\000\324m=\305\240\351\275x\276\263;\301X\013\276X=S=\210\205\267=M\244E\276\337\335A\276\0360.\276\274 \375<\274\310\354\273H\354^=&\244\342=\324\335k>\2571\335\275v\333\232\275\324-\303;\222C:\276\243\235\370=\257\340\370<\027\317\201\276\257\'\027\276\254a\351<SA\205=wk\211\275\007\226\000\276\260jg=\372\377\273\275b1_<\026Z\2659\000g\241\272`\323q=k\201\026>\332\310\362=^4)\276!H,\276\214x\001\276\250\331\335<\201\333\000>\242\265\364=\036T\300=\212E\363=\330\250\321\274\200\307\032;\034\212]=\306E\351\275\346f\351\275\207\021\271<\254\027J>\332P>\276\222e\325\275\020\334\245\273\364-\204\275\023x(\275\271\331D\276C-\221\275\242\331\246=\356B\343\275lx2\276\244\013\371=\336\024->*\r\220\275\367\220\032>\020\363}<\014\323\007=\202\321\233\275\204Y(\276\\\264\003\275\300\270C=\306u\360=r\366\261\275\376\306\231= \316\256<PaL\275T`I\275\241\2470>p\253\025\274\335I\027\276Ng\034\275,\253\251<\206\223\030>\227\007\366:\253\323\215=s\334\177=X\024;>,T\345=\177\244U\276%#3\276p$\221<2^l>0\216\010\275\211R\255=Q\327\363\274\330\t\334\273N\267\354\274\244\030v\276\252\245\262=\270\334\254=\010\013\305\275d\2629>\246Z_>\351\337\206\275dW\022\276rY+>\222CD<\000\226\306:\036d\325=\230\321\036\275\362\232&\276\234_\325=8\312\215;\013\001\037\276\204l2\276\300\273W;F\357\323<\247\342A\275\341\003\314\275L\355\030>&Q\327\275\274H\271\275p\303E<\014\265G\276\364oi>\240\234o>\340 1=\343u/;\236\030l\275\014\000@<^\217s=L\266\020=\360\347\032>\030\216d\272\350\026G\275Qx\023>$\272\244\273\3648k\276e\262+\276\021J\027\276fJ`>%:\020\276@\317/;\366\325%>\352\353\247=\354\035\221\275\206\375\217=+r\000\276j\373^\276g);>\221\004P\276\025\311\335:I\357\317<Xq\020=#A/>i\267\210\276\030\2363=\220\347\342\273\350@6\276\366O\231\275\246F\352=\347<\035>\204u\250\275\206%\364= 2%\274`\007W<\350\334\032\275\315\256\273\275\256E\'\276*\027o\275\240\002\320<\244\362\372\275r_\235=\204<]=\334\350-=\020\270\010\276\264\210;\275\365|\244=\211X\320<\n8\005\276\223\242\224\275\331\023\362<3\026\246\275R\363Z<8l^=\273+s\275\235s>=\360c\022\276\361\202#;}.\020\276\323\271\306=p\326A>>q\344\275\0130$>\242l\230=\003\\\213\275X\006\244\275\244L\007\276\322{i\275Sj\220\275\276~\214=<\277\004=\310E\003\275\251\350*>Nj\312=\321s.>\360\016\270<\370\303M=\323Q\'\276\032\361\263\275P\023H=\347L\210\275\020\331\014\276\214\224@\276\342z\033> W\031>\311G\260\275\204\220\212\276\260\271\223\275\304\301\013\275\004\240\243=\277h\204\276\"\344#\273\350O\177=u\231\323\274\327\211\202\275P\277\345=\374B\336=\237w\341\2750\344U\275\276>\241=U\237!\276\232o1<R\255/>\350Z\255=\017\335\204\276P\343\242\274RP\341\275\346Ws\276\254\254\302\275\001L\211<t\337\226\275\010\252\023>P\354v=\032\345E\275\343\347(\275\232\310\'\273w\274\035\276\024\304\222=4a\001\276\027\270\t>\255\2408\275\314\\A>y\260\247=\"O\223\275m\366\002\275\342p#\276M\356\000>\032\'A>\254\2130=\260\003\030> i\203\275\360R\244\274\332]\273\274T9\331=*\001p\274\336\265\177<\253t\013=\354\241\362=\374\373P\276\340\313#\276\216\266\361\274HD\347\275l\232\200=\355[B\276\304\243\300\274\335r,\276\000V\237<\000\272@\276\220*\257\273\235|q\276L\3251\2767\230A\275y}2\276\251U\324\275\240n8>W\234z\276~\233\276=\025\274\010\276\352\225+\276X\3522\276T\375\001\276]y+\276\375K2>:)\022\276\205Y\031\276\020\232\366<\373\233\">v\023z\275\350\200\235<7\201&\276^\246\244=\330\262\035\275\356\023l\275\264k\305\275\272\037\204\276\354c\235\273\027w\214\275\266\202\232\275\317\346\336\275\305\260\241\275\264-\034<\331\023\211\276l4\233=C\'\225<\364\314\350=~F\345\275d\335=>\352v^=\267\206\240= \243\376;*h\330=*f\274=\023t\354\275qC\217\275w\346\">\360q\213\274\373\344\034>8\215\372\274P\3762<J\276\251=\264\375\005=TBY==w\004\276\000\214\230<\376\270\330=UQS\276\354D\223\275\232>)\276?6\323\274)\375r\276F\324:>\010\353\305=b\215\\>\254\030Z\275B\253|\276)\364\3678a\277\004\276\334\205\260=\270\235\224;P\2120\276XN?=\214\365\340\275\215W\211\275BI\263\275\234\226h\275^^ <\200F\006=y\271T\272\n6\205\274\257s\213<Z7\254\275#\023\232\275:J\236=\022\007\374\275\265\"\333:\303\276\360<8\353\366=\231\0006\275)ox\276@\334\037=\300\021\270<\020@\301\273\301\\\212\276\252\244\242<tFA=\370\222\\=vE\210\275\365\353\212\275\344\371\256\275\020\205\373=HH\326= \257d=f\210J>\2320D\275\356\340A\2760f\221=\216B\226=\n1\240\275x1\251\274xS\251=\036\331f\275\022\365!>pG\261\275\200\314\254=\370\264m=\310\201\310=`\211\253\2748j\335<XtP=~f\373=\204t\242=)\274,\276\313\377s\276\025\357\346\274\034\037\027>\244!\032\276L\323\010\276\273\2258\276_.P\276@\035~=\267\312\201\276p\325\347=/R\030=\225Ol\276\236\006I\275\000\271>\273\300\026(\276X\320\241\274:\267\376=\326\026\366=z\345\376=m\337\023>\320\324\"<\226$\200=d\"\352\275*kv\275 \000\336<`\253\270\273\346\341\373=\365d\030>~\220x\275j\r\317=+\017 \276\0148\007\274\020\224\033=W\354Y\276\300\027\211\275\000R\216\273\310\256\366\2750\254\016\276o\033z\276`\035m\275\030h\275=\023\3138\276\265>\221=\214\004(\275\336~\305\275,\014\031=\340,)\276\200\365==\200z;\274\000\332e; \371\006\274,\307*\2755S&\276\002\336p\275\322\246\373=\350C\256\274\225\304\037>\025\332\311\275\357\250,\276\305\240\231\275vj\034\276\364\360\'\274\350\234{=`\201\252=\016\221\003\276\"\276/>\225]\206\275NaR\275\265!U\276\250}9=_\341Y\275`b\246;\325e\007\276U\225\013\276\360\266\352\274\204\2630\276k\\\374\274\250L\316;h{g\276\257\245\035=\203\242\360<\326X\001\276\320u\311;\330\033k\275s<l=(\"&=\020)%=\333\364x\276\323\267\177\276\312U\356\275\263\264\204\276\253z\200\275K\202x=E\035\340\274g>\351\275\314|\325=\210\334^=(\004L>\035X\005\276\375ci\276\233\241\226\275\330{q\274h\3178\276\240\370\202\274\324\345\310=%P^\276p\347\302\2736-\205\276&pg>:\016\025=\027\254\207>\033\2738\276e\226I\276\252\266\217<Z}\202<\315\354\341<\277\014\241\275\240\317\313\275\034=/\275\337F\n\276\032\232\334<o\362\022\275\373\320\001\276 \036\007\276(W#>\230\241\220=\000\024\211\276\337\353\202\276\352\255@\2762\367\211\276\250\244\024\276\013\340\357\275D\253&=0X\031=\001\271\302\274\353\227\032>0\301\035\276\322\352\016\276\033\354\301\275\3547\334<\362rG=\360\270\027\275\371\307\'\276\010+\000=t\326\032=\242\275\230=\370\267\252<\010d\243<V\256*\276eK3\276\016\257\247=(dC=v|\317=\304\367\200=\270\313\262<\320\007\'<\244\370\031\2767\211\">\376\266U\276\210\204\200=\230\032\275\274\025t\033\276d\227m\274\026\273\310\275\327h\017=H\002\032=|\263\036\276J\250j\276\000\273R>+\177N\275d\245\217=\005\004\216=&\312\006>\2003\337;\346f\335=\353\313!\276P\177\006\274\025\0222>\247\253\031>PYa<\023\246\266\275\n\270\312=\315;\226\275\nT\227= Z\t\274\362Y\311=\217\236\006>\211O!>|^\020=\022\025-:\271E\005>\265\306_>\rUd\276\314\353l\275\206\353\243\275T\361u=\245\377:\276\245\224A\276k\216\010>p\203\326\275&\374\233\275\240Yf\271\005\256\035>\203\341$>\367\211\271\275<F\374\275!\312\260\274Xhe>\240\361W>F\310n\275P\255j\275\244_\243=]\006R\276\220\262\001\274\371\375\211\274\0209\023\275\300\347\213<r\334\364=\360X\276=\355L\002>\340 \017\274\314\030t>\330\036\000\276\002T\227<.\214\014\2768\270(\275\202\303\256\275\370\234\254<\2251\020\276TXP\276\260=\035\276n\032\004\2767\341\022=\243/\036>~\205\223\2750\336\355<%\022)\276!E\r\2764Js\276lD\330=\000%\314\275G\257\355\274\214\3413\275\234\005\033\275\322\343\374\274@\252\340=\277\327:\275\366+4\275\3144e\276lT\007\274\277s\025\276X\202\323\274\366R\365=\007!,\276\372\316\266<\334\026\021=\342^g>\360\375N>j\235\271\2758\014\267\274\206\340\271=\013\007\266\275\342>\340\275\\R\227\275f\202\206>\215\313\006=<\026\365<v\005\243\275\236\304\204\276\3645\'=\261G)\2760\227\243\274MJ\"\276xd\335<\000z\353\275\371\302-\2765\206\032>\266\244\234\275O\314\360\275\260]t=\032\027\356=5\371->\215\2502\276\302\317\360=\343\026\340\275\310M\257\274X\014\372\274\022\325\303\275\376\314\312\275\376\nG\2768w\246\273nv\253=\256\242]\276$o\300\274`\306\214\2731)O\276\024\004\346=\242\227\240=\034v\310=\177\0050>l&f\276\024\2153\275@\t\t\275\356r\362=\337\256\340\275\257\3614>\257\352\035>\211\216$>#\306(>\235\317\007>\300\020w<O],\276\235v\010>\003C\037>\370?\375\275\335\326$>=\312\022>\026\031\324<(\225\004=*/l\2748\355\027=\236k\334\2751B/\276\324\330\210\273\233O\277=S|q\276\237\343\346<\326\332\237=\001\331\025>\017o$=\210\377(=\270\301\267\275\275\374,>X\267-\275\016\031+>n\226\326=\370-\014\276G\317\003\276\247\213\216\274tN^>\273\212q\276\243\0274\276\244\365\r\275\270\223\255=\200\033:\273\3148(=@$\000\275\211b0\276s\273\307=\240\000#\276\345j\277<\263r!\2758\373\216\274\325\036\205\275\002\"e>8I\321<\204f/\276\277\034\n\275P\367[<\262\010\021\276\332h\354\275\256\302\204>\216V\354=\237\022\010>kE\203>\220b\001=\314f\347=H},=\360c\023\274\214\311O\275\254\206o>;a\014\276p\335\217=\024\342E>\212u\270=\3445L<f\357\217\275\226\215\301=\204\251\373\275\240k\303\274\034\225E\275\014\266 \276\210\315k>\2000\261\2732\333\244=\302X&;81n=Z\310M\276\340\'\217\273xbU\275u\'\361\275`\032\210\273\274\302{\276\340x\202>\033\341\022=a\343\312=\000\356\177=\027\360\026>\210\317\037\276`\305\244\273\331-/\276\372`\236=[~\206\275\003\376\016>X\266\222\274N\235\230\275:b\261=\2708S=]Z\036>\370\317Y\275\226\'\361=\251~.>\340\273\323\274\030\276X\275E\026\001\276b\226;>F\253@\276\220\247b<X\312\306;\254,\000\276\311\n\322=\304D>>\305S\032>h~J\275\236\276\030\276prN=\325Z\352<\262\306\207\275\017\367\346<Nh\253=\322\373\350=\000\3157=\314F\276\275z\370X\275*\021\327=\300\356\031\276\274G]=\370\210\263\274\2759\t\276\022+\327=\nWc\275\271}\034>p\207\000<\250_ \276\n\362\352=X\377*=}X\234\275)A\n\276\032\nC>\364\363B=h\324$<\261\321<\276\"\312D\270\231\"J\276\330\372\025=m\005\010>h\250\355=\314\222\225\275K\306\203=\274\020\236;\376\214>>\345\212.\276\216\233\t>1J\204=N\305\200\275\027\220\346\274\371\r \273\033w(>\377\307$\275\360\251h\276P\341Q>\230\302z=\304\017\223=\305\273\001\276D\234\036><0\361\275r9h\274\370n\020=\306\t8>\323/B\276\301\240\005>h4S=\236\267\243\275 \272\001\274\3118\017\276\032\205\243\275\304\347\301\274\t\020\355\275\"\231u<xg\353=2AL>\270\250|=\266\355\371\274\361\335 >\230()>X\213=>\301\201\232\275\204\360`>\345=n\273\014\311P=\000TS\276\213\204\360\274..\206\276+l\211<\t\307z\276\346}|>(\271\010=\r\267\312\275\241`\000\275\036a\373=v\350\354\274\2056\014\276\007RS=}\366q\273\341\200\264=\027\\\275\275\206\302\232=^\306q>\274\347\232=\231\205\306\275Q\270\250\274%\271\002>\034\275;>Z\372\277=\223\2438\276\256\025\021\276\3266\006\276\334j \275\032c\213=\306\377(\276\240\003\257\274\036}\332=\346\030\371=\322\231\343\275\267?\022>\340\215\004\275\260\371\346\274.\245\027\276\001*\t\276\033=\022>\032\314\327=\376\377\303=\366\030\354=gcC=\264\371\256=g\356d\276\000\302~=LT\031\275\377Q\246\275#\304U\275\274jI\275^\353\253\275)\346U\273J\210\220\275\n\271\002=\210\247!>Jw;\275\000\356\372\272\306\236\352\2759Q\n>\212\357\374=\203v->\250L\276<\230\202J\275\317\272\t>\315\304#\276\330j\237\275\312\332\332\275\320\242N\274\000my\274\270\315\332\274\177\007\001>\222\200\257\275u\0334\275\014\256\034\276\270\021\r>\030X\207\275@G\244=)\232\177\276X\275\027=\200#x\275vp/=\'\365\211\276\250\300\202\276x\361\261\275\364\272\250=XwD\276\244\306\330\275\334c4;BcF\276,\201\251\273X\272\020>0\010\356=\254\354\216\273\2002\377=p\200j\275\202F\032>k\305\351\275\350\233\204=\360\367\315=x\034\037\276\210\307\016\276\030\201\226=\320\301\204\276^\304<>\332d\255\275\202\303Z\276@\031\343=O\034\014\2750\330\032>c\017<\276\371\033\246\275r\007&<XY\300=?z\034\275\270\251&\276d\344v\275_\333\350<\027%\001\276\214Y\211\276V\r\247\275\350\177K>\241X\333\274\t\375\034\276\204;\013\276\t{\232=\243T]\275\200\254\234\275l;\251\275p_X=\372#`\276\272\230O\276\304 \001\275L\345\320\273w\347\004\276D\350\332\275P\352\005>\207\320b\276\214\274\211\276\n$\260\275\334v]\276#\023_\276`\266\216=`.\000=(z4\274\212\257&\276#\355.\276\360Ak=\021?=\276\350Y6=\344a\307=&\2026\276`\366\300=\210\307\301<\355t\026>\244\367\017\275\353{\240\275r\304|\275\\f\014\276\350\263\304<@\220\273<\334\301N=\366\320\376=@\316\341<B{\355=\034\320\030\275K\353\031\2760\177\354\274\016\177\224\275\030\357-=\325\360}\276\350\177\211=\037\264d\275nW\202\276\374\305\036>\303\010\017\276Tu\342=\225%\027\276\223\271C\275(\035i=\350\023r=\367\255%\276\002o&>\037_\213\274\030\'\210=\200\337~\2733\032(\276\350\256\251\274\250v\022\276\322\211\226=\350I)=\274\2328=@P\r;N\363\224=\372\001\205\275R\234\270=\270\350\216\274k\276\026>\272r\255\275\022g\362\275B\263\346\275|C\234=\335f\333<\364\001\276=\242>\361\275$mj<X[Y=-x\374<\364\201\t\276HO\210\276\210\263\236<\265\035#\276I\335\257\275\254\005R=\034o\205> \302\304=\007\346\016\276I\256\204>\361\035}\276j\233\037>\352O\026>{\206\251\275\214\346#>\365\007\256\274!E\000\276E\321\303=A\267\277<\335d\236\275\032}\034\276\244\r,\275\002M\361=|\325\206\274\365\234G\276\221\324\377<b\261\333\275\013C\032\276}\0222\276d\021\217=;\3265\276D\260S\276\000T\032\274\344\360\275=N\030\352=\010\304\"\275\230dH>+\340\237<\345J\036=\266\220u\275W\322\211<\033\205\256\275\314`I\276dn-\276\000D\003\276lU=\275|\267\224\2754\273y>I\260\205=.\3547<\346\021\226\275\320\301\022>\024\324\027\276U\036\355\275\274\205+\275\314\320\017\276~H\300\275\363\336\351\275\366L\306\275R6\035\276s\2329\276]:\233\275>T.\2762\215\217=\344\317\372\2750\260T=\014\230\321\275\245h\260=\213\3076\276\310\252\027<\247\376\202\276\005\325\037\276<j\234\275\214h\000\275~\234\272=\360<?=\004Q\216=\030\006T=\260_\340<\204!\361\275\323Y\213\275\2269g\275\252\207\377=\207\".>p\234\246\275@\2323=\023k\033\276EG\t>Z\371\331=\"\276w\275\205\264\334=\375%\007\273\005\332\352\275\263g[\275q\003\317\275\220n\n=\000:C\276O!O\276\366\'E<\3427N\2742\243\217\275\\\030\334<\004\317#\276\3663r\274\200\3613>\366\312\217=\276{\256=_\007\345\275=\2531>7&\032>\341v\371\275\010n+\276\236_\023\276\264\214i\275)O\022>[\031\036>\212p\r\276@\351k\273\343u\327\275\274/\205=\333\023\200\275\001\177\004\276H\341\r=\240P\264=\021\2437>\212\360\316\274b\320\351=>\307(\275\255\245\264=\004\235\003>B\257\026\276<R9\274\3444\233=,\213\031=\212O\203>\262iQ<\006\337f>w\321\213\276^\307\314\275Z\367\006\276Ta\305= ZV\276X\343\235=#\354#\276\224\267)\276\030O\227=\004{\377;<\232\002\276\220y\224<Nh,\276\324:\273\275\037\007v=\233~\022\276s1\302::\3255>X\324g\272-\304\034>\356\377j\275\263Q`;\316zx\274\2445\020>/\206J\276\350\373\342=\002S\266=F\347\254<\260\300\355=\356\356\031\274$\267\325\275\323\002\n\276\241/\035>\200+ >\246\314S=/N\006\276\253{\233\275\244\t\251\275\371\007\367<\365\207\256\275H9~=\214\253R\274\252%\032\274\366\231\340=,*\245=-\377/>V\271\357=\224z|=\200\022\273<\000\310\241=\204][=Cf\016>\177\277\"=\215\360U=`\246T>\362)&\276\240\016\036=n\345G>X\007\207\273\257\225\350=n\351K\276\376\307C>\347\3353=\214\017A\276\017\303\321\2758c\251<\200g\360:\250\235\024\275\200\322\202=}&+\276\200\372\360;\376I\007\276on\016>\252\347\353=\\\355D\275\200\227\023\276\376\265\316=\217\231\201\2750gW=m\252\351\275\n\262x\275\336z\333\275\260/N>\351\224\\\275\205r\263=Hj\035>\222\205\002\276Zx\205\275^K=>\373\315\204\276 \364\315=\231e\362\271!\336\220\275\370p\220\275bi0\274\232\177\371\275A\306\017>\255\320!>\246\267 \276P;\325<\036$\331=#-\262\275\262\335\362=\364%/\275\244\252M=\331\321$>0\357G<\036M\207\275`!\320\274\304\357*\276:\277\344=\204\320Z=\236\204\213=\361\220m\276L\352]\275(\342\t\276)\306\345\274\242\013\217\275\t\371\354\275\222^\364\275P\371\364;\271\210\205>\031\343\010>\262\034\331\275\234\327=>\302\234\023\276\200w\317;Y\266F\276\005\016>\276n\241\203\275a\007\213\276\037t^\275o\215!>E8\316\274\354s/>\202BB>\214[\257;D\3571\276,t5>\3760\240=y\270\204>\252\331\204\275\nbH\274\203I\003>\230h\200=\2603P\276\323\211\244=p\255\\<\361\254\362\274\000,\020=\000\032\365\271\207\300\036>\302H\317\275\256\267\232\275R\377\201=@\177C=\242_\315=\032\315\217\275\202]\266\275\252\226\220=6\230K\272x\321u\276`\267\200\276*Rj\275kI\342\274\272\t(\276\216T\252=$\236c>\026\\\211\276\335j\357\274\226k\003\276\342\241\263:\304H\217=\241\375h\276\340\r\216<H\244\214=\310\235\352\2757\255!\276\'U\r>C\224q\275\023v\202=L\357m><\236Q\276\274\262b=\207=\034\276\220!w>\257g#\276\243Z4\276\t\0348\276\216{\203\274hs\203=\030\035z>\202\000\354=\350\262P=\006\'\021\276\030\256\362\275YZ4\276\000u\214=\366\303\305\275\031\326\r\276\272\335\342\275\367\347\221\275@\003\234<\363S\202\275\020\233\353<\321p*>3\342\033>\217\223#\276{\221#\276\222B\025\276\305\2758=\260\237\333\275\363\3412\276\224\\(\276\312\030\375\275\240\333\301;\351w\252<\231\233\235<\273\3321\275\236=:>\243\357\033\276{\3139\276\\K2<<\277\202>D\335n\275\260\234&\275rE\360=:\002\365\275\360\236\342<\236\'\375=\314\257\010\276|[H\275\000`\234\272?d\225\275<\331z=hQ\244\275s\327\322\275]\325\003>\255|0>\215\2251> \262a\276x\3245=.\241@\274J\3730\274\260\301\240\275\000\354(\276\304k\224=\303\345\005>`\033\202\274\005j\206\275\346\004\266\275xa\211\275V\257\204>r-T<\275\347\211=\251R\031>\004=\345=\033>\335\274\306:\247=t29>\351\240 \276\223#H=\230q\024\275W\307S\275\277Hc=z\034\224\275\344\036\031\274V\213\031\276\214r\260<&\372\270=\034\230\031\276\035\016\375=\301\250\206\275\373\376\254\275\177\210\203\276b\274\250=\344j)<\321\301t\276\202;\235\2750\027\304<\2116\352\274\371g\010>\300\372\357<\342\004\203\276\201\277\236:K\022g=\010\373b=\247\204/=\370\2404>\225\022F\276\324if\275&\243\260=\256\255\224<\354\365.\275\010\005(>\321\010t\276\336E\373\274^o|<\256\275|>\223\260!\276\223\3240=\272\323a\275\010c-=\310\256\233=&{\343=\325\314n\273\020+J\274\030BI=\306a\307<&\001\253\275\204\332\227\273\220q!\276\356x\330\275<\006\207>\002C\t>\262\365\253\275Mt\356\275\20412\2743QR\276}\232\237=\330,\221=\270\3343=\0005U\275\340\032\334<\r\025\024>\200c\365\272\000\263\210=\004]n=jS\324=QZ%\276Z\317\334=$\320<=\004\332\035\276\030\265\351<\240<\360<\006H\233=z\031\272=8F\025=\352\211\201\275\347\317\014\275\014\272!<\375\270\325\275(\2005\275gf\031>x{\237\273\245a\021\276R\020c\276\340G9\275F\246.\276t\211\330\273]\306\203>`\333y>\364]R\275|\204\000\276\300\230\364;\357\0341>\240T\257;QB\237\275\223\310\022>\272\310\032\2764~\352\275\020\216<=(\320\310\274\010\020\341\2756\257\023\276\234\312\343\275@\244>=\235e1\276\350\350\372;\364\027\000\273\310.*\276\213ga>v\036:>gM\032>\236\005O\275\240\250T>\230Y\252=H6[=Y)\006\276\344\001\006>\260\220\320\275\254\020n=\263k\326<&\240\270<Of\256\275\2739o\276\224\352Q>\020%\014=\334\r\322=\\p$>h\326\022>lT\033<,\216{\275D\215~\274D\023e\275@\342\340\274\264Q\002\27649\200=\3400\351\274\216\247|\275\027k\n\276\272`\215<\210bB\275\001\326\235\272\264\241\353\275\014\277\303=S\300.>{\260\034>\217t|\273z\253\233=\013s\270\275\323n\276=36\310<+\026\266=&\360\245=H\345\307\273E\307\355=\214\325\241=n(h>\233m\255\275\307i)>^\'\232\275\210\370*>\354b\203= \243R=<\356p<\340U\342\275\315\376r\276\036N\315\274X\304\247\274\261\007\374\275\266\370\266\275\251T\014\276\235C\323<\3072-\276<\236\251<)\250\202>\3052\222=aw\010=ib@\275\346\032\235=S f\276\013\370\227\2752i_>\253\001]=r\201\311=B\245\372=2\264*\275\0004\240\272\273\252->\210\326S=\344\216\236\275b\374\215=\262y\n\276\375\316,>2\250\360=\200\363\341\275u[\030>\262\"\342=(\323\261\275\260\226f=\234\337Q=\330Q\020\275-y\013>\021\354(\276(\365S=Z\233\n>\311\004\235<\216\037\344\275(\242\304\275\005u\033>\203\372f\276c0i=0\362\023\2764\306(>\315\0363\276p\345A=\004\315\331=\022\3060\275\324\250\324\275\022\261\342=\247*\311\275C\032\'>\267\344\356\275\362v\334=\311\327\014>\026\331\305\275\221\247\357\275\020\252\337<\027U#\276\036\027\301=$\376\023\276\242M\261=r5\333=\317\250\253\275\004B\022\275Tu\373=\356~\315<:\315\277=K\350\325=\276\301Y>\322K\361<P]\377\275S\345\025\276\024\"\256<\377|\034\275\330\263L=\200j\r=\266UU\275\275H\206\275\364J\217=5\353S\276P\276L=\222\236t\276\370\267z=^P\300\275\354l$=\215 /=}\305\234=\324\317\014\276}\364%\276p\244\205=\216\330\347=\024\350$\274\217\035\235\274\"\034d>\355.p\2767%\024>\243\036\201\276\003J\034\276k\027\213\2747\260\256\275=\204\364<\2336\010\276_\317&\275vL\247=b\276=\276\270\017p>\352\320%\276\220\002\016=\000\206\233:\263\336e=\277\326c\276(\252\344<\014\230\214=\272%\024>\376\023\321=\265\003~\275b\311g> \251\272;\n:\205>\314\247y\276SQ\210\276J\032\211>\3602d=7\225\371\275m\362n\276\347t\222\275\3654\">\330Bs=5\274s\276\226\300\t\276\217\301C=\320\2236\276\277\233%\276t\344\263\275Xh,\276\360\022S\275\022\'\344\275\361\212\216\274?\356\330\275\240O-=O\272{\276\037\031\206\275\014\020\300\275\t\240\332\270\036\263\255\275\222\300\317\275\210\037\254\274\273\007\005>)\317\r>\274\247-\276\217c\036>\000\\<=r\004\276=\211j\014\276\360\211Z\274\021\321\003>\355\317\023>\rN\037\276\346D\303=Nf\016\276\330-\211\274\357\200\316\275&\306\233\275\362\227\200\274<\006=\276\222\303R>Z\262\237=^\216\253\274\214\250\205=(\2612\276\335\260d\276}\242%=*\323.\276]\340l\276\371S\354\274\006\372\270=\005\030\312\275\204\313:\275\354\r5\275\013\301\322\275\r\250,\276\202|\226=\254\352l\275\370\020\000\275LMb=2\315\216=Y\302\357\275\370\311@=6})\276\212\220\313=\365&\006>\016_\262=+B7=\201\231\260<r\3411>kE\030\275\300\345\374= =V=\271rQ\276\021u\243<\366\220\261=\272\327*\276Q\272\262\2753\031O=\207\2767\276\342\327E\276\343\206B\275\025qJ\276\350\017e=mc\017\276w\3029\272\007\224\n\276\220\241!=\206?\202=$\260\351=`\366V>\036\266\204\276\214Y+\276\300\001\357\275\356\324\375\275\\\022\3449\374\363>\276;\267\177\275\222y\322<P\231m=i\217v\276b)4\275h\311Z=R30\276\004%\341\274\374L8\275\354\321A=B`d\276\245\224\t\276\0330\t>\336+?\276\344\224\374\275\3249\322=\0004x=\000\220\021=\300r\213\275\334B]>\324\247i\275\237\274\224\275\t\225\035\276\324T\235=\224\030G=/\364D\276l\t\251=D\022\250=\254\330\213\276\306\361\006>C<\257<\217\020\332<`u\t\274)\322\035>G\034\006\276\353\321\333\274\366?z\276\206=\025\276[\310x\275\2754\320<\270\260\340\275\232\312\n\276\267\326\353\274K\005y\276L\213u\276\364\235P\276\357\253\\\276\324s!\276\204h\353;\320\227\t>`\244)=@\272\\\273v\311\340=`\204\034\275\000\030w\271(\367\343\275\253\302$>4\330J\275dl\n\275#\213\000>}\371\005>he\254\275\242V\346=\211\016\203\275p\251q=\003\330\225\275\376\240\320=\204Fp\276\002P\023\274 )S=\270\346>=P\326e\275fZ\017\276$q\273=U=\377\2752\014\206\276\326\017\213\276\340\327\212\275\316\274\210\276\360\301\003>\364\245\362;\216-g>\3147F\275\016^\355=\236\002\331\275\372T\243=(\236L=V:\361=\226i\373\275\346-\202=`c[<\226\367\356\275\3026\343=\236\027\341=\200\031\311:B\034u\275&\306\242=\300%\374\274\"B<\275\001\315\305\275jT\034>\247+\207=\201|\233\275#\014{\275\226SD>}\226\033\276\212\265\'\276\005\002\2668cg\021\276\274l\270=\277K\001\276\364\300U\275JJ\241\275\354\316\276\275t\002\217<\236DZ\2768\303\323=\333\362\202<*\270\034\276\\\337\330\271y>\201>SZ\031\276\032\357\270\275\352k\205>\240\311\204\275\\\270\254=8\233\326\273\300\311r\275\325E\t>\323\237\n\275\244(\357=\243\204 \276\232\211(>\277O\236\275\340=\243=\316\274\201\275\273H\210\275}\'0>2\024\034>\272\\\037\276`\226x<\227Q\310=\334;0>\205\321q=LK\366<\346\317g\276\3315\354<\025w)\275\"\222\312\275\367\255\035\275\253\202\330<:W+>\264^\t\275S\360\"\276\371\303\205=\025\367\325\275PH=>7\356\034\275\312\315\233=\253L\372\2756b\246=\234?E\276E|<\276\272o\024\275\242\003H\276Rd\037>\370P\227=\320\264\010\276\035h\375\275\360d\014=e!\331\275\026\000\223<\254\352\313=\322k1\276\342\310\032<\250\0200>\177\344\332\275E\037G\276\220\315\237<\320,\207=\021g+>`\004\374\275\204\242\303\275\300\356\302<\357q$>.|\200=\002\271\331=\234\304<=\336o\274=\330?\267<\226\221\336=ad\020>0\304\332\274\312o\270=\031O\035>\266\325t>}\364\307\274\267\346\221<\265\207n\276)n)\276)2\360\275\360\3458=A\357l\276\200\272\231=\310\246\'=;\204\016=\221\261\260<\301\340S\276\322\274\273=\262\361\r>wm2>\360T\325\274\026\305\247=\260u\235<\2442D\275K\374,>\013\225 >\253\360\016>\025\206%>\310\273\026=h\306\360<\317\031\'>p\255\016\274\265\035#>\260::\275o\305->\224\214}\275M\240\273\275\354\315\366=$L\312=d\036\325\275c\362X\276D\000/\276\340\007T<\350\260\326=\213\022\223\275\326\323\314\275\312\263_>\206\n\344\275\230\2305=\230\254\330=\200\024\221=+\232d\275\233\257H\276\267\014\211\275z\023\004>A\262o\275\203\243\213<\212\302\004>\234\004\265=\241\226\325\2755g\236\275\254\023_\276\373\257R\275D\271\300\274\014d\026>\022+\232\275QL\345<\0326s\276\020u\023\276s\215\326\274\337+h\275\006\207\316\275\364\207\204\276G\371\364\275\322\026t<\020\372\023\275f\225\373<\237e\261\275@mU=P\210\326=d\257\256=\035\037\301<~\2167>L\311\273\274\236\363Z\275Zd9\276{e\372\275\374\244#\275Xy\017=4]\230=\215)\007\2764 \026=6\275\020\276$mM\274\272\226\243=\240oD=#}\177\276\032\315\313=\324\320\232<S\345\257\275\003hc\275\311\001I\276\272\214\241\274M5z\276K\322\000\276\237hC\276\254\222\326\275\344D)<;\254\020\275\004\026m\276\264=\332\275\200$R=D,2<S\331$\276\336\031\370<\210 \003\275\260\034g\274\206\034\271=\025=2\276\214\271p=iQ\021>\312\365\357=\000j\026\272@\362u;\323K\304\275pQY\275\274\342\276\2756\313\324=\203\273\313\275\240\353\237\274\376g\332\275\336\222\t\276\025y\211\275(\031\376\275l\3646\276\243\325_\276\200 \201\275\004T%=\023\335,\2760\274\236\275D\213\212\276\007\253\006\275\230I@<_G0\275\226\032 <\300\311<\275\346\270c=\262\000\301=\210\276\246<\030-\235\275\270H\242\274(\341\376<\335\\\345\275@\036N<A\017-\276:\326p\275\236\326\331=z\201\215=\210K#=\365\305\013>\266\260\223=fr\006\276\367\'(>\204v\202=[b\360\275}\247B\276x\364\364=,\371\252=\3575\023:$\230\374\275\372Z>>\342\361\033\276G\277\010\276+\310\315\275\336(\272<\374\025\374\275ps\024>\r\274\231<\224z\261=Lp\026\276\337\331K\276\260M\027>\004\265+>$\203-\276\326}\256\275\256V^=\225\305<\276\301\351l\2760\036\252={X\251\275\010\3633\275d\000\226\275\030\347\264=\241D<\276\022\220\304\275O\377[\276\362\264\257\275*R\336\275\330\275\201\275\315\344\2279\324\377\207=\301F\030\276\240>\330\275\260\326\313=d\177w<\\\236\210=\253\262\374\275\356<R\275 0;>\270\322g<\034\231\303=F\307\005\276o\263\220\275\310u:>\303ht\276\370\025W>P\036\020>`U\221\275\232\036\374\275\350>\377\275\304`\235=\\3\350=\030O\223\275|\244\207=2\365q\276\320\206\350\274\260\207\r\276?\2710>a\316\260<\240\177S\276P8\016=7Q \275 N\t\276s[6\275\216d/\276\224\244@\276\210\206\207\276\243\314\211\275\250\265%\276,\342\313\275T\205*\275\003\216!\276N\364$\275\016\362,\276\026\325\327=,\212\003\276\035R\">@\016\345\274\316O\263=\000\200w7N\306\357\275\304\326\260\275/\362\013>\006o\335=\234\332A\275\276\231\371=.X\367=\027.\224\275M\207,>@y\251<\334k\334<0\001\007\276NE\204\276\353H&\275\240\003\301=\036\034+\276\211\351$\276\200Q\000\276\352mG\276J\251\213\276\271rU\276\2335\'\276n\223\253\275\351S\023>jWk>1R\032>\270\373$\276^\226\252=iG\016>\370I\271<p\022f\274X\367\223<g\342\220\275\265\236\'>\260\354\343\274$\370\021\276\000^\335\271\350\276\254<\224#+=V\216\266=\376\376\366\275\244\374\265\275\234OD>\224\313\247=\226a<>>\351)>a.\035>\210\264\375=\340\233P\275\242\252\241=n\204\201\275\303:!>\006/\007\276\210\236\313\274\274\204t=\337\256\302\275cY\014\276\313SY\276:\364|\274~\241\002>\346\312\310=\004[\360\275\314\023K=\306 \'\276{\244\'\276j\2511\274\216\247)\275\365\240\010\276\2526\007\276\221\226\240\274Q+\010\276\370\231\217=jV\023=+\211\020\276\223HH\275~\010\002\275.FY>\200\222R>3\224c\275\222\327\210<f\304\005\276\316h\\>\336E1<L\367v\275L{\r=*\274\247\275\026>\005\271\267\364 \276CW\207<\362\362\017>n\346\343\275\301;\324\275F\377\244=Pc\022>\320i\224=W\231\312\275\344\t\214\275\2347\010\276\254J-\276Br\201=\304\034\325=\327\257\375\2758Ye\276n\353\026\276\354\347\267=\007(\232\275\027\211\205=k\356\240\274u\202\205=\022\351@>\306\325c>ER?\276\362K\014\276\330\035\252=\250{+=\237\317*>\006x\271\275\314\306\221\2733(S=\256\243.>\304\217\002\276(\341\225=\002*\244=r\177*\276\211\232\"\276\331l\024>\177\254\363\275\362\237\267=\314\277O\275b\317\316=\001\006->0NC\275\354ZX=<}\n=\007k\032>6\022\370\275Q*$\276\017\005)>v7\245=P\236\305=bCs\276\232K\266\275l9\336=\023\032\003>\021\365\256\274\210\377\026=N8\210\276\010\245\230\275 \031\022<!\257B\276\314\326u\275\374\267\366=6K[>\226i\367\275\300\030\303\273p7`=N2\215=\202\016\345\275\000\310s\271\3057\022\276\346\355\336=\360\276\365\275\360\031P<$\244\030=\r\373\037\276Qs\037>\000\375L=\274\375!\275\326\033\345=\224n\366=\234\275\202=\216\352^>\334m\037\275`\007\365=\353\007.\275\353\037;\276x\344\027<\370?Y\275\030\030\266\275\313\242,\276z\262\227\275\370\3060>9;\212\275\333\252=\276\210\000\321=\242\021\305\275n\340\013\276\236\316K=\002\255\014\275M\346\270\274\244\345\216=\204\325\000\273(,u\275\251&\311\274|\223\353\274\214\340\034\2760\222T=\344\006\230=_\245p\276\246\302[<\277\267\332=\371\323\016\276\315\\G\276D\324\353=\244{e\276xf\\\275\370\211*=\020\nf\276\314-\367=\314\227r\275\324\373[\275\000\300\2659L\253\213=\004@q=\244\037\216=\017|\262<\324\030\216=\220F\035>\nU5>s\311L\275\200:\347\273\"\243\247\275&#\205<\230\357\017\276\0041\312\273d\2542\274\251\362\266=\307\272k\275T\276E=\014\2456=X<\247;\200\241x\274f\245\202\275zX$\276\304\3642\274>\325]\276\226\341\262\275r\324\342\274Y\346\216<F\365^\276MJ\r>\333|\215\276D\2618\276V\3044>\004#\223=\260\273]=\254\237i\275\260\3651=\206z\314\275\302\177\325=\233\3521>.\240\207\275f\274\241=\244a\330\275\367\201\324\275\350\202w\275\261\332\230\275\265\036*>2\217\274\275^\027\231=\270\206\365\274`r@\275t\021\360\275\024\t\313\2750\362t\275\2100\014\276 l`=\322\265\032>[Ek\275\230\204\017=\020w\323=*\036\313=,\000\303\275\232\3313\276IP\300\275{\t\002\275\342\365\305\275\017\234{\276I+\203<\333\235\320=z\000h>\3204]\274H\273\323<\216\215$\276\3635\r>\341N\023>J\364n\275\007\030\022>\230s\027\276\200\252\250\274\200\037?\275\374\3052\276\235\257$>\3579\035>d\360\224=\302J\302=\260\024\311\275l-\007\274\313\325\201\276@d\231:H1q=\3044*>\213\271\014\276\272\016,>\336C\026\276&\031A\275>\004-<\300\234\353<\201q\337=\354\276+>p\273>\276\273y\001>\310@\346\275v\003\211>\312\311\325\274\314m~=Z\030\376\275\333+\335\271z{\027<=\316\366\274nk\247=\343\352\265\275X\230r=\360\340 =1\0273\276\025\254\037>\033jy\2752j\376<\330\367\351;\234y\326=7*1\276v@\t>~\321\227=\227;W=\023\222\242=\2229u\276\264+\000=\\\345\263=.\016\273=[e-\276P6\"\275\271\364\235\275\262\014\244\275Q\n\024>\006#$>Ui\245\274 p\334=\360\367\365=@\331?=\200\225\025\275h\326\325=\236p\321\275&<\373<\234\202\310<\223\3631\276\206\025\000>\024^5>\230?\353=\340&<\275\377\r\013>\3568\207\275>\315\037\276bR\"> ]\033\275\261\325\177=\232\201T\274\310\303\'=V\306\305\274nT\246=8>\251\275;\346D\275\361>\034\2768\025O\276\022X]>NY,\274\236dD>\201O\313<\311(\334\275\217B\260\275S,\213\275\316\301e\275\254*s=^\341\237=\240\231\210<DM\036\275.\027\207\275n\251\336=\267\201\014\276\200B\362\275\242\215\375=\007\276&>h\231P\275C\376\023\276>\032\310=\252\206\305\275\324n\276;\252\365l\276\272\265T\274\214\007\317=\367x\'\2767{v\2758\314\203\276vke<\"\334:<\226*\231\274bb\253=\240\310\245=J\033\241<\020\004\362=\005\232\027>\240\2242\275/\2673>(\343\314\274\276Pg\275 =\320\274!\2003>\257P\274\275\034\003\224=\270\021_=\2206\220<v\373\340\275\320\344\031<\\d-\275\020h\331\275\260\242\327\274\006\3371>ig\202\276y\351\016\276\232\304B=\222\370\035>\311\303\002\276\254\r\'>\244\226\221;Ja\014\275J\222\200>\240M\375;n\365\276=\316m\263<\376\021\220\275\244B\372=\270UM<\370\027\t\275\210\220A=\272\335\251\2740\271}=\326\036&\275\246\313\335=}\320\017\276$\311\304\275U\372\261\275\224\003\037>\010\340\373\273\346\351*\276\355b|\276$\037\010>\024V\200\276N\233\001>03\363=pg9\276\342:\016\275.\027s\276BO\023\275\036\313\201>\357.S\276\274\2416;;\356*\275\357x\037\275\220\213l<\326\003\037>\250\035G=V\234\312\274Fg3\276HR\247\273\300\255\364=\360az=1w\264\275\3766\241=X\0204>\026\'r\275\230(\226<\204\030\016<<A\003=i\016\243\275\177\244\t\276\010\205\017\275\214\326,<\210\275\\\276:N\322\275\274,\021>\354\343H\276,w{>\342~\243= \rd\275\304\022.>\344\"\236;\210\274j\276B\264\227=\024\331\251;@  =\237\310t\275\376\306\204\276b\2657\276\n\372k>}\250\202\276\244\360\347=@.B;\232]\343=\233e4>\354\304\r\275\352\342\272=\350\376\311\274@\3216<+4%>\204c*=\21712>\373e\035>^\003\232\275\320\325l=\356\253\014\276a9\241\275\\\262G\275\347\274\251\275\360\305{=pE\262=\362\307\207\276\020{\202\276\374\275\023>\030A\213=\2138X\276\342\002\256\275\021&\t:\236\323\031>\017^\n\276\025\\\356\275\232B\032>\243\322\013=\314\216\274=\234W\037\276\222\201\313\275\340\274O\275350>M\3773>p\252\363\275\240\021\017\276\020\306\257\274\326\340\240\275`\266\"\275\230>\001=\000\212\374\275,\223#\276\237m\230\275\276\366\325=&\022\030\276\334e\023>\r\335\255\274\367w\245\275+\201\312=T\264\226\275\244\004\343<LV\211=\262\270\221\275\357\376U=r5\217\274\304J\035\275\376m\205>A\363\347\275\217y\354\2757\264\025\276\345]\325<\2005\231=Y\246*\276\366pr\274\263\007\017=^\234\236\275%\313\006>p\243z\275$\262\211=\313r\356\275\276\205\"\276Z />=V\010>\027\313i\275}^\205>\022 \'>z\210\\>\331_\337\275\267\026\343\272\212\034G<W=\036\276(NM>\311\360\266\275\035\274\035\276\336\331~\275W\246\215\275\231=\333\275\222  \276\216 \355=\022\3337>\330\033\305\274\253\324\315\275\313\021\024\276O\337\250=b\364\216=hF\257\275\3022\302=\376\377\213<a\256\204\275f/3>\272\220$>\"!\334\2740cA>;\337\'\276dI#\276u\307f\276\\v!\2761\335\240\275\262\305\307=\2060\303=\026\270\374\275\030\270\364\275Gs%\276\t\211\260=P(\356=\227C>\275I\204\267\275V\034\373<`\375\021\274\036\250\206\275\327\230\370\275\000\'\353\274\020?\254\275sVj\275\225D\357\274\273\t#>\354\245}\275\255\366\336\275\214B\025\275,\305\024\2751\257\020>m\373,>\302\177,\276\336\240\271=\310v\210\274\004\212\365\275\200\215\320:X!p=V\027\353=\344\251\356\275\\6+\275\034\n\345\2751\3332=n\257\">\354\337\206\276d]\220=o\361v\276\366u\322=\354\275\210>n\203\020\276\366\021\016>\030\250\024=\304\240\361;\353\374\026\275A\266%\276\004qW>\355\351.=\312h\332=\373\347\014>\334\006\304\275\354}\267\275\000\256]::\234\244=\216\006\312=\013\200,\276F&\233=\220\310X=\330e\316\274J\236\222=N<\322=\276\345\203=z\252\234\275)T\035\276q;\264=#\242\215\276B\376\224=\r\000\027\276a\272\260\274\226\215\022\276\237\263\031\276&Y\211\275\366\353O\276\272\001\242\275f\3012\276|4\374=\220\243\202<7\2347\276\364\341[=\225\023.=\004p\377\273u\217\023\276\354\367\327=\033\010\037\275\232\'\010\276x\201\260<\223n\360=\236\237\301=f\007:\276+A\031=\233\307\233\274z\205\026\276`\346z\275\210r\032=z\335\032\276L\223\242=\374\262b\276 \310\211\276\375\224\240\274\310\375\321=\260\2457>\177VS\2765\220\236\275\262\210&\276H\363e=\366\364Q\275\307\3550>vm\330\2757\230\016>\326/\014>D\231]<w\255\341=yS\371<\303\321\207=H;g=.\330#\276\364\030*>\263\346!\276A\364+\276x\344\300=(\372~=\024eo\275\024&Y\274\272\233b>\217\004\177\275\231H\026\276\227\235\330\275h%\257;\211\375\256\274\2661\271\275HaK\275\203\317\311\275\3430\014\276\326(\367:/\353I\275\177X1>f\177\356<\321\000q\276\350%g\275S\336%\275\240Q\266\274\303\202R\276X\371p=\250\211\025>h\305\316<\304>+=\210\3769=\025n!>\030x\206\274Y\2640>p\242\211<e\344\244\275\022\255\216=\260H\362\275\221m/>A\211\r>\303\003\003>\206.\226=`\375-\276\300\262\242\273\240l%=6\\2\276hu2>%\301\376\275?{\277<\266vk<\000\006\3309\024wn\2758N\030=\307G\022\275\223{\227\275\026lu>qF:\2764\360`\276\334K\361=\213\030c=O\207\r>\311\320\023>\032]\373=\227\370\213\275\237X\005>Z\351\227=\273\024.\276\341$\t>\360\270(<\361\"2\276\005\276\006>>\303\037\276\022\245\352=*\252\271=\r\035\262\2758\006\010=1\332\331=-\226\207>\322\350A\276@P\002\276\340`<\275\316\245\367=.he>I8\231\275\360g\362\275p\310}=O/\007>\254(n=\226\312\367\272\242\327_>\357\270\353\274\217R\025\276`HF<7a\372\275\204\263\226\273\221\330\323=w\252\321\275\t\270\315=\237\345i=\243v\320\275\235_\030>\023\314\035>\213\245\016\276\362\373\232=\304\210C<\362\317:>V\244\327=gIl=F(\001>0\255Q=\362{c>\301\027\017\276\216\206\203<Z\376(>\\\316\004\275\346\237\232=\006j\211\275\006T\356\275\236|\376=t\347\207>\231\326^>jX[;>\205\364=\354K\233=\320\2457=Ct\n\276\022\241u<\232\235\341=\360\332N\273\034\202\222\275\342?\360\274\330\216\220\275rq\202\274\327\021W=\204\004h>10\232\274\312\266\335<p\245(\274l\010\033\276\376T\365\274j\376{\275\330\214+=\245(\236\275\303K\"\276\277\371]=\224\334\216\273Q\304{>r\205\261=\262c\033\276\000j\261\274\016%\013\276v\325\265=\2656\344\275V\307\344=^c`\2767\302*>@\272\031\275\271 \013><\2134\275W\270\004>-q4>\032~\214=8p\377\275\300\244G\275\242\177\274=h\330\024\276\310Ow=h\235\007\276\000t4;$\000\221=\354\242[\275\000N\024<\301\031\005>\271*\356\275\\R\013\2753\342\276\275\367\322d\275\205\362\203>`\323\313\275\r%^\276\035\307s\276\201\336\005\276ceC\276\r5\006=\3303\177=\006 \253\274z#\200=\223\034\017>T\303\200\275\030\311\224\274\000<\341\271\312\217\342=i\350\262\275\342\353/\276\371\354\016>/\311\007>`\017\372\273D\201\035\275\262\230\332\275\n\357\025\276\004\255\371\275+\\\265\275\244\303/\275:\254\217\275S\027\372\275O\340f\275\004gI>\211\315a=\324\256\363\274\203\004>\275\316cA\276\207P\233=\221\335\366\275\020/j=cw\'>\0234E==\340\344=\250\214\301\2751]+\276\"/f>\331I_\276\250\027\203=\0333\031=,C\245\275\300?|\273\320\233\205\275P\025\220=\3165Y>\025W\256\275,\r\234\275\"\2308>\350\3322=\032\261v>0\260\226=`\213O=:\315\267=\327;\307\275\237\313\373\275\326\214\373\2747\312\027>\310Nm>\226@>\276\227c<\275@\031N\275[\177\010\275:\004\220\275h\264\336\275\037\352,\275\234+\201>s\214\337=\007\234\200\276}\201\257<l\214\021<\212}>\274\214\254\2159\365\225\010>}\206\367< \234\230=V\t\231\275\364\365\335\273!\234=\276\016\375:>_\201\027\276\025V\217=\315\t\006\276*\317\207\276tnK\275\312\213B>c\316\241<\274F\320=`\262\024\274\254*\255\274\240\237C=\356\027\201\275\323\230P\275\000\352\263\272\372\324\256\274\256\273K\276\330\301\333=\300\322U=\245\036\213\2768\3008\2763\317\241<\200\312\232\275\200(i<\260\3103\274\304\320<=e\334\t\276\223; \276\235\251\005\276X?\367\274\250\342[=\276\237\227\275\r\253\032>\260?\030\275R\237\360=\271\010\n>\200d\010\2768\205\377\274\344\2222=\252w^\275\242p\203\276\266\260x<d\022\276\275e\302\337\275\032$\014>\345\022\027\276\224\202\000\273@\275\214\275.$\006<\231Ep\276A\304\220=\220\234\340\275(~\213\276\276\027\335=\356\214\247=X\203(\275H\n\207<\350O\322<c\373/>nv\372\275p\331\377\274\031M\227\275\0004\260\271\006\032\371\2757\031\004\276\340\2379<bM\336=h\340\"\275\300\034<\275\277>\366\275\212\367b\275z\321\311\275O\033/\276\264P\260=c\222\352\274@G\206=\376Aj\276Z\334Y\276\374?\327\273 \222!>^\335\337\274;\210L\276d\313\314\275Rr\224=\227\316G\2756C\016;~\256K>I\364\357\275(\033\367\275\016h&\276h\221\335\275U)\023>\000H\334\275\024\344\020\276\346\032^\275b\274\205\276DT,<x\370\316\273\255_\272\275}?\203\274.\002=>\253\001\266<\004\341\221=\357\016U\275h\314\001\276d\317\377\275\220\211\010=\374\263\302=\320\3464=tHf\276\300\226`=\257\3531\276\230\236$\275G%\217\275\016&\274\275P\267\332=\234\326\263=|\246\232<\213\022\226=\314\360g\273\330_?<\344\330\307\275\010\233\255\275\240$\n>\030*f\275\272\0271>;I\367<\n\242\325\274z\337j>\270/\020\276{\271\333<!\363\374\275Ed\005\273T\0109\275\333\346\256<\013e\016>\314\007\024\276\013\357W\275h\035v=\350\342;>%I\032>\301\201$\276\2603S<\374\314\202\276\301\"\204>6\302\256\275P\375\214\276\030\0344=DW\267\275\006\007\207\276\212\254\270\275\252\270\036\276$H}=\331\223\026\276\377\2402>\271\330\317\275\216\005\335=\236\000t\275\000hC\272\242-\250\275\253\346+>x\342!\276\\\2500\276\326\017\310=\240\"\320\274\220\320K=\037\331\307\275\373r\000>\231\n\203\275<\373o>\274?\020\276\320[\"=\271N\371\274\376\353\330=\246\211|\2764K\244\273\244Qu\275\\/\036\274\\\332\276\274\373\311\337\275\004\017\203\273\216\2437>\316\2020<\032\006\004\276\366\022\367=\277\033\031>b\324\316=\372\r\345=\256\233\236=\274\341\204\275\334;\364\275\261G\034\276 \355\363\274e\\\022\276\035A2\276\374\232\014\276\000\002\332<\366\267\027\276\315%\262\275\016K{>\3252-\276\020\347\033>\204\020\020\276\275d >\257\375}\276\203O\342\274ThM\274Q\033\343\275\327\002H\276O\' >\254D\221=\224\346i<(\363i=]\225\324\275\020\031\212\2748\371Z=\371C\213\276:\341\034\274\316\231\263\275\360\tW=\226\206]>\236\222\n;\241\263\311\274\352\352J\276\"\353\316=\004\237\014=\000\002\227=\262\251\312<\276\250{\274\272g:\274\323\320\312=\200k\030=lJ\336\273\354\0255\275\020\221\215<\332\264(\276\226=y;\2168\003<\360b\232\275;q\201<\034 \276=\2707\212\274\305\261\214\276\tF\273=\234\257P\274\273\265\020\275\000\357\324;\243s\002\276\216\224\265=\034\304\035>\210\322\202\276\262\022O>\207\360$\276\\O\002\275\000g(=\251\316\022\276\305\217\031>\203\024K\275\360\022\357=B7\275<\344L\006\276\222\340\365\275h\007K=\250\217\276<vB\257\275\262j\315=\360\334\225=?\253\370\274\006\307J>h\035\207=b\020\351=f\366\255\275:\260Z\276\0213\302\275\314%\323\275\010\336O=\3608\376\275[{}\275\334\024\213>\220v\370\274\356Ko\275\267V\363\275\000\275\263\272\3664\375\275\305\271 >\006|\241=\361\310\007>@\201\337\273H\252\344\274\304\227.\276 \335\277<\006\257,\276\000\177`:\310\343\204\274\366P\355=Q\323\031>~\016\370\275\303\336k=j_\024\276\226\332\031<D3m\275$H\020\2762\0229>\340<%=\010\260o=\'\350#\275\223\315s=\214\363\027\276\210\313:\276\353\032\021>\201\335\305<\2103\254\275\350^\343\275\261\304\n>c\252\005\276\322\226\342=z\277\234=v\277r\2758\235\n\275wN\276\275\215^\'>}\315\014>A\267\037>\345\233\337\275xHB=bx\032\276X\007\316<\324\275\027>\317\301h\275\360\177\306=.*\340\275\\U\177=[\307d\273\353\246\207\275_\202B\276<\371\262=\340\032R=\241\327\334\275\362\313\342<L\352]=p*\261\2752\001\t\274\220\245\022>\360\262+=C\341}\275\314+\332=4\250\256=\2507\327\275\356\306\314\275B\"^\274;i/=\350\2746=0\246a>F\370\373\275\004\036\353; L\367\275\206\247\025>\260+s=\276\023\005=\027\3519\275\360\022W=\354\376\326=9\255}\276x6\330=y\243\201\275\326\324^\276\237\212\014\276\010\3431\276$M\214\275\274\346%\275\007\304\010\275\234yy\275\331\004\327\275l\007;\276\353\212\002>\346(Z\276\013\244\230\274\020\022\252=,\340\210\276\005\314\"=c:\033\276\223iG=\313\323o\276\235&:;h9\321=\265\303\234\275\263\352\351=p7\212\276\234\217\237\274\232:g\275\314\235\211\275\237\034\\\275DxP\276\273sI\276\217\213\252\274g\314>\275\270\223?\275\244\001\273\275\036\306t;7\233\323<\345\254\314\274\022\311\234\274x\224\020=\372\226U\274\204y\373\275\323\217\024\275\365\256\314=\366>\353=\256\326\341=\300=\203\274\226\026\202=\342\207\331=\036Z\311=\2776\003>\000\260\017\275T\222o=\372U\262=@L\221=d\316\311\275\204)\034\275pT]\274\2162\224\275\252U\303\275\247\206\277\275H\205\021\276\234\323\033\276_\034\360\275\272f\374\275\030\307\216=`\343)\276P!~\275\360\360\221;\nPx\276\332\260\216\275\264[m\275)\\\202\276@\001;=\310\257>>\334X=>_c/>`\322\002\274 \255)\275\252\265s\275\313\005\305\275\363\347/>x\222\317<`\024\315\274\342\315\270=\217C2>\036\215%\276f\245\000\276$t\370\275V\205\254\275\210\351]\275G\034*>\376:\013\275\210\303|\276\312\262\251\275\"\207&>U\312;\276\373\253h\276\322*\031>\020\226\004\274\342\322\023>\356\204U<c\214\237\275`@\304=J\001\264=\306\0320\276\222\341\'\274\010\020\265=~\244\201\276\024\317\362\273\344\367\344\273\364\244\022>\2323\325\275\223\366\341\2742\352\262\275\330\245H>m\036\034\276\320C\370=\000\023N>\276\3513\276(hd=|\027\327=-+\250\275\302\275\364\275d+L\274\274\242\212;\350\264Y<2\311\272\275\335\247&\275v\323A\276\'3V\275`w\r>N\255\003<\310)\216\275\210W7=o\324\024;\256\037\031>\004\026\200\276\017\317\023\275G\016\004=\352\351\017\274F\227\367\275\3406\020\276l\226\t\276\374n\207=\200\013\r=x\206\227=\272^e<\017\022e\2764\206k\276\270\335\355=\260&3>\334\010\007\276\375\242\r\276\000\321\266\274\326\360\323\274,,\252\273W\270\211\276\241`P\275H\224\2137\210\304\255\275\210\344\">\224\273b\276p\356\357\273\316&\r\276L}\276\275\037wK=ek\210\2762\334 \276\010\234\350=\327\255\214\276 \321b\275\036\344\305=@d\003\273\000\204\300\272xo\261\274\031C(\276\310\334I\275\t\3152>v\341\206\275Z\354\306=\2742(\276,\r\254\275\020\1772\276@\225\331\273\200\225e\274\010\225r=\022\021\356\275[o-\276|J\311={\367\246\274\374\253\233=\3617~\276\324\311\016>,\200.=\266%[\276\247\320z\275\267\032:\275@\232\267\275\267(\023\276\212`^\276\232\266\237=\246{\210=\354\377\351=\267\2043>cN\003\276\220\262X\275_; >\205\n\250\275\245\331\335\275\360\334\356\275\263m\377\275^\341\337=\360Jk=\3404\306\273\334\370(\276\260E\312\274H\024-=\211$\310\275>z.\276\333!D\275\201\237\346\275O\273\207\275\034g#\275\030xd= \264\227<Z\350\212\275\360\002e\275\332#\267=\220\232m<\375a\266\275\204 \204\275\212ME>\240\371\260\275T\306P>\374\233\030>?_\215\276\3207\020=\231\332D\276RH\016\276\367&>\275\314\221\265=.\177\237<$]8<6\333\000\276\337\316\275<661\275\345\235\032\276*\267\023\276\210\254\300=;\030\255\275,\307\022>\260MB\274o\260\215\275\242\206\027>\306i\202\276\024\\\261=h\202J=\366\252\202\276\256\025\361\275\334\212A\276u\231K\276\314\003R\275b<+\275\252\335`\275\360\362\213=MK \276\244\220\364=\251\202-\276\206@\006>@\243 =a[\201\2754\374\273\275\303\375G\276J\226\026>\265\2247\276\210{\301\275l\300.<\010\363\257=T\3400\275\230?\237\273\005\020S\276\201\017\027\276$\030\321\275\3062\321\275\247\020\254<k\274\253\275\317\237a\276Pg\276\275\024\274\274\275\363\366\033\275^\262\214=\212\227d\2763\340\200\276i~\220<\027E\213\275k\310\016\276\021\244\222\275\355\035\331\275\004]\260=\251(\337\275\300i\016\276h\023\220\274\335\3174>3B\t>p\271\262<\200\016];6\360}\275\370\317i\275\240\"\t\276\337. >\241\255\310\275\234j\"\276\000_\233\275\332\371\017\276\330W\205=\300pz\273\200\341\225=H\214Z>\332e\232\275_\227\314<^\350\204\275\nJ\351=\330Y<=h\'\337\275\230\245\214=3 \n\275p\337\370=\260\215\031\273\336\177\003>p\241\211>\354\200\030\275\313-\222\275hZ\017=\331Q\213\275_\243\321\275\036/\216=\376y\312=\310\032\265\275\367z\030>\215^\'>,{\t=D\\\222=\022\252\025\276\350\253\000=J\001\367= \026@\274\252[\373=\212G\203=\342\217H\276&\361\365\275\207\214\004>\356h.\276\256)2\276t\035T>|\300\307=\360\277N>#\233!\276\362B&\276XK->\302\\\264=\032 \n\274\231\315M\276\356\200\353\275\"\'\203=\306\344\">Z\253b>\000m^=\362\252Q<\263\342\010\2753\273\323\2755\377\006\276\350\020\315=D\270\320\273\360\223\305=\241z(>8a\361=\364N\323\275\2506\215=F\310_>\337\326\235\274\020\266j\274\351w\336\275\261\304\222\275\364\272.<<\353\r\275dl\227=\326{\036\2760\235x=\275\323p\276\030\323\273<\243\367\373=\266\311\321=\304\227\342=\300U\211:\220\020\245<|[\212\275\014;\266;F.)>@\224\343\275JW\322<\216.\024<B\364\320\2741M\\\276#\004\341\275N\357\272\275\010\351\344\274\010\316&>\027-\n\276>\361)\276N8\004\276\376\252\363\275\236\332\311=\201\032w\276@\226;\276\265.\032\276\270\227\207>\310\372o><0)\2760\364-=Pz}=\322\235\331={q\277\275T\033\367\275\263\342h=:\200 >\270a(=\362\210k\276\014\n\177=\224D(\276>\262\003\276y<\307\275:\270\233\275\344\336\021\275Z\023\302=\316\017\316=2Z~\275\000\323\227:P\374\234\274P\301\022\276\200\232\213\274@\232\265\274\361x\035>8\210P\275U\326*\276T\355\246=\022\213m>\360\367\313<\274S\224=\361=\";\344\234\374\275s\376E\276\235\243\341\275\305{\207\276aE4\276XZ\332=*\242~\276P\305\337=\362\3370>\010P\205=\n\341\237=\216\311{\275\210Y\242\274\023\220\027>\013\267\017>V\027\254=\223d\007\276\006\365\366=H\327\335\274\362M \276\316\"\350=\210B\017=\220\266\336\274\200\225\017\274F\365\230=\200v\237<\010\367\330\274\300\317Y=\324 \350<\320t\333=\243[\311\274\001\311\237\272\225\306\372\274~*[\275\244I\213=\nS\245\275;2{\275h\334\235=\254|\003\276\010o\000=\010\247\003=\373(\025\276!F\324\275[_\352<\026\304\n>S\014=\275J\373\344=\206\2067\276Z\212D>8#\357;,\353\226;A\370\266\275\334c\324=\310\nI\274\220\202J\276\364\253\342\275\014\222\200\276f\360\216\275\300p\024=\013\214\352<y\356/>HWj\276YI\313\274\337\220\027\276\365\034\324\2754\363\033=\245d\033\276\376<S\276v%f\275\344\002\223=\257\306J\276\250\024\340=\276\211o\276\240n)>\370\357\n=.D\223=T\344\3059R\215\"\276\256\004\217<U\272\347\275\023\034\367<\322\2436\276\013\035^\276P\021\024=\207\005\343\275\032\002\312\274\240\204l=x3\035;\\\306\016\276E\314,>\276\001\314\275y\344\200\276\326\357\205=\177\235\225\275\370\237\330\275\246@\227\274L-B\276FF\233\275\036\230\313\275\333h\350\275\356\217\347<\353h\236\275?\330K\275\320\202~=\230\237\023=\300\0169>\236,\360=}s\034> E\333<\372!\\\275\300\372l\274\020\375\262\274\250\026*\275\223\r\014>\305%\022\276\274N\024=\3565\362=Q\025\334\275\320\247:<2\2520\2764\230#=\365C\t\276\230\332\370<\375lZ\276\276l.\274\264\215%\274\206\221\025\276\274\r)\275G\277\357\275h$O=\014\002W<\234\034\240\274b\226x<\246\335\211>@\202\036=\247S\203\276\234+\207\274E\362\003>\314\"u\275\356\255\227=\2763\241=6\216\313=\250\206\220=\260\026\t=`\026\226;\224\335\010=\367\355\025\276\251\276\243\275\256^\016\276\256\361\267=,$&\276\306\276\367=P\311R\275\352\317\331=`hw\276\363\021\003\276\366R\347\275S\216y=\373=\n\276B\265\372\275\006\200\257\275Vs\326=\320\252N=\252\361\024\276\220O\216\275T\370\222=\010Fa\275,\333\335\273Hl\201\276jk\352=\240\014G=\377fa\275\370\257i=\240\304Z=\'F\010\276\335G3=h^F>\374\237\251=Bgy\276\027\3678=,N\327\275P\031\021\276\300q\'\275\303y\251=\370\217_>\"\360\303\274\1774\245<\037\016n\275\240\005\233\275\205e2\276v|\">\020E\'=\272\263\177<(\037l\275\315\345*\276\3447:>\307\365*>\312\371>>\371\270\006\276\220\261(>\344\tE\276\024/o=\242a\273\275\310kL\273\242T0\276 \346\177\275\374\2076>t\270\326=$hj>B\274\325\274\035F\360\275\024\333\\>\356\337\245\275+S\262\275W\213d\275\244u\346\273PwA=\256\360\362=\356\010 <\316\262\004\276e\216\037>*\300\200\276\341h\337\275&T$>\252X\210\276\265g\003>\307I\014\276\261U:\276\264>\334\272\326\215W\2748\226\226=\301\357\250\2741\276\260<\320/\000>\036a\243=>\330\013\276 Uf<\2731\027\276B3i\275p\016i=h\337\200<\200\300V<<G\025=\216|#\276c\246\014>\220\243\001\275\326=\324=\3421\357=d\222\302\275\334{\264\275\002\367\343=\362KA\274\352\221F>\'k\205\275^\020\037\2760.\207=\244\227\177\275xJ2\274\246\251\'<\350\034\336\274\007\214\017\275p3d>\245\226\340\274B\346\242<\3007A>:q&<\006\325\005\276i.!>\027\023\213\275\226J\263\275I\322/\276\330\355q\275\264\331\030\275\216\001\246=\320\247\'\274\374\205\225=\300\246\231<@\242\035\276\360\204\310<\274\262\027\276\253\220\021>\200\\\207\273\234\2567\2752\217\243=\316F\257=\203\341\">\235\256#>\271\336\'>\324z\237\275E\2343>m6o\276\211\245)>\200\274t;\341\022\013>|L\200\276z)\255=\346\"\203=\025\016\214=\270\004\000\275o\005\227\274\225sl>\026n_\276$:{=s\233_;\2676Q\275\257\246\311\275N\003\035\2766\'A\276\306\336\263=\344{`=\252\365\215\275\355&u\276P\365{=\200\332%\275=\247\000=$\333\213\275e;p>A\3023\276q\307\210>\244\221\240=\322\341\332=\016\222\327=D6\344\275N\225m\275D\\\221\275\275>\026>T\361\000\273\302\272\016\276J\377\373=4\324\004=Pt<\274\r\020E>;\311M>\255j0>\235\322/\276s\253\353\275\273\264\004\276@2\233;\273p8\276\324\267\316\275,\244u=b\373\315=K\t\366\2752)\356=\253\357\322\275\234\2165=\243\334\037>\344\240,\276\356h\234=\230\321I=\250\350\304\274\244\026\324\274W\001\022>/\"\t\276X\r\022\276`\265(=\255D/>\337\212*>\266\367\217=\014w\'\275*\203\277=\002\337\202\275\200\351\217\275(\317\205<\313\225\t>\240\337\004\27619\332\275\256,\322=c \025\276\220q,=\302zn\275;\026\033>\032k`\275\250\272\017=\220\321t=\205\323\247\2758*\237<\271%\004>\342(\243=\030\2631\276r>\210=\273$S>D\271\177=\023bi\275\026A\300=\350\254\304\274x\331G\275S\223\274=\224\244\021\276\020H\014\275\316\310\r\276\232\225J\276\260J\265\275Z\327\242\275\333\211\324\275=L\260\275N[\266=\252X\215\275\330 H\275\307\330\023>\314\222#\276t?\005=\320\230f\275S{$>^\265\204=\352\221\007\276v\205\265=;^/>\033r-\276\315\211\332\275x\350,=#Aq\276\354\2338=\266\217\314=\233\242\\\276\025\311\005\276\306\301\232=\274\255\236=\361n.\2755\220?\276\017\375\023\275\372KC>A\003\301\275v\036\342=\210q\335\275\025\347\031\276\370\024s>\230\203\005=\365]F\276\210\320)>\253\326\002\275\241\237\217\275\020\342B>\251\254\033\276D\2405>>\363x>BX\217\275\313a\002\276]\334\025\276\320\277\177>y\213:\276\234\242\017\276sU9\276uz\002\276\332\227\017>\215\361\025\276@\332\356\275\235\001\345\275\314\244\377\275\277\313\234\274\366m\017\273\030\325\304\275 \313\304\275\005N;\276\310\246=>N\3637>\367\355\273\275*QW<\250o\023\276&\320\036>0\221\267\275\345\003\313\275\330\0305<\273n\230\275\230Zg=\r\007\203\276\234\373\364=\000\215\255\275\022\316\'>T\030:\275\324@\006\275\003\361\211\276[O\243\275X\024\213=R\ru\274\210\311<\276\350\317\024\276UYX\276S\322\215=\324\230\351=\222\302Q<\014\'M=(\365&\276\267o0\275\313fn\276cyM\276\362\217\210\275\252\343\240=\323\031(\276J\366B>\342\316\332=\232T\210=\3706\305<D\310\207=@\0107\275Q= >2\227+\27690\253\275`\361s\274\320\346\241\274\214\2631\276\243\314\365\275\3046\221=,~|=@\326o=j1\275=a\002\n>\031\341!\276C\252\352<\021\372\266\275K\250]\276t\036*=\3608\256<\3179~\276\207\376!\2753*\340\275\264f\315=\004\351\302=]\371\026\276\276\366\033={\254P=\005\013\200\274V\247\360==\322/>\240\236\200\275\272\377\376=\311\031\230\275J\362\355\275\366\211\013\2760\224N\274*\231s\275\200Ku\274^<\361=\240\335\035\274DF_=\345\307\001>\350\253\"=\3705\036\276l\332\214\275\203Lt\276*\035d>~\031Q>P?\020>\204\317\245\275\335\032\270\275\330\305\020>w\'H\2757bC\2764\027\232=\300k\376<UV\024\276,P\021\274{Y+\276\320E\206>\374\207\024<\302\315\221\275\320\023\317=\322\245K>U0\264\275Lm5>jxu<\316\341\277\275\333e\211\276\274\335$\275\024t\030\275.\001\200\276\037pl=vn8>w\033\200\276]\267\">\202\267.\276\223Q\372\275\264\243G>7\310\204\275:=k>k\3374\275[/l\276\261\330\017>\355\263\234\275\204\373\037>\346b\210\275\\\207~<W\n\013=\r\350\310=H|\201\275\002\260\222\275\205t\010\276\257\310\204>^k=>\227\177\"\276\004*\027>\000\032\256=\207\344\240<\221\025g\275.\233_\276\244\260z<q*\330\274\210\0055= \232y=y\243J\276\0200\335<1\241\322=\037jp\276\020\007\366\275\321\353/>0\270\016\274\004\212\225<\354\250P\274\366:N<>\273\221\275E\021\013\276\025\352\204>\220\232R=*\304\241\274\320\354\204\276\203\214\027\275\200\245v=.\024E>\240\245\010=\346t\367=\200\275\376\272\222\230\344=\370\250\021\275\266w~\275f\315\363\275\000W\033\273\334\255\240\275\2408l\274\240^3=\316\235\325=\243;\">\200%,\275\320\014i=\314\016O=4-4\276R\376\357\274v\241\265=\'\367\321\275w\2220\276\026\212_>\311\371\271\275\376\372v>@I\215\276\323-W=]\006\177\276\033\332\003>HT\2107\331\226N\276\227\377K=|\217\030\275\270r,\276\375\027\267\275\303\376\301\275\220\325h<\332iw\275\306\007\001\276^\302\375=\356\270\234\275\034\201;=\200$-\275\342\251\367=\313\276\003>$\322 =UW\022>\200\235\304:\\\035\036=>\271w>\244\025\266\275\321B!>~\033\335\275\246\210M>\024\244B\276<= \276\244\263\305=\310\375\224=\273\331\207\276\0371\020\276\224\353@>\254\232\347=\207\352\013\275\342d\235\275a\201\254\275w\005\246\275\230b\202\276\266\324#\274\324c\324=Q\034&\276\240\250\320\275\010\377\350=\\\212]>!\200\302\275\212=i>x\356<=j 4\276\014\201V<2\002=>a\023\034\276\365\205&\276\204\377\343\275\253`\017\275\3628\310=\005U\'\276\376\365F=\277\'\027\275h\024B=\nH \276\214\206{\276#z\021\276\270X\364\275=p\247<\316\372I\276`%\207\275\370\tH\276b^Z>\333),\276\231e\274<\031\300\370<Q\363\314\275T?q\275\030\024\212=\262#\005\275J\006\215\2752:\312<\246a\246<LV\241=fSD><H\361\275+\275\373\275\367\305\230\275\230\017r=\225\252G\276hQJ=\3408\233\273\334W\215=\235z\n\276\230\306\261=e\035\014\276\257L.\276\223\212(\276\367R!\275\326Y\235=d[\357\275!?q\276\210\251\354\274\306\333\203\276L\201\\\275\241\300\335\275\310^)\276\310\260\216<Q$$>3\326\023>\306~\315=\310\377\254\2740Pp=\342\326\260=\200~\307\275\252\227\300=\233\303.>\344\377+=\r\234\002\276\356X\320=\302\022\246=\262\274\205=\363\007@\275\007p\230<\220L\367\275G\016\230\275\250*H\275\250u\023\276-^[\276l\007\242\275\223Ez\275_\252b\275#\331\356\275\016s\364\275\327\'\254<lw\253\274\246\234P>\360\363\222\275\330\211\327\274\203\277\014>\t\275\007>`2\371<\321\006\027>\310~\362\275\347\010\251\275\241\025\020>Tp-\276\310g\010\276\246\001\375=j,\306\275\204By=\"Y\335=:\265\321\275=\336u\276\306\327\260\275\247\016\002>y\361\256=w\251\233\274\230\032I=\340\215E=\2468~>U\021-\276\247\273u\275$\376^=\216\023\027\276\035]\325\274\334+\206\276L2u>LS\254=\276l\027\276\277\322Y\275\372\3579\276\372\320\206\276\326W\363=\334 O>!\240\r>7\003\373\274\202\271\264:\342\224\367\275\352\023r\274H\314N=\350\006\030=#d\324\275\250\363i=\355|\000>\000\322q=\250I\222=\244\316B\275E\t\326=h\\%\274\317\256\370\275\016I\001\276p\220\005\276\332t\215>v9\316=p\026\366\274C\237\311<@r{<\374\311$<\346\004\324\275\314^H\275P\372\376\274\224\212\035>\343\346\032\275\3547B\276\t\276\003\276\035\212u\276[2%>\322\236K>\370\372\371<\243\334^=p\206\206=\210k\306=\301y[\276?\263\245<\370\250e\275\224\343\222\275P\036q=\225\357\014>\220\241\362\275\304y\335\275\210\253\217=\324\315i>(*r=\340#c</\354\"\276\0249&\274\370L\005\275[_l\275\374n\267\275B&d\276\037\234\236\275\347\310\376=\350\365\261\274\345,