node {
  name: "x"
  op: "Placeholder"
  attr {
    key: "dtype"
    value {
      type: DT_FLOAT
    }
  }
  attr {
    key: "shape"
    value {
      shape {
        dim {
          size: 1
        }
        dim {
          size: 24
        }
      }
    }
  }
}
node {
  name: "decoder/conv2d_transpose/Shape"
  op: "Const"
  attr {
    key: "dtype"
    value {
      type: DT_INT32
    }
  }
  attr {
    key: "value"
    value {
      tensor {
        dtype: DT_INT32
        tensor_shape {
          dim {
            size: 4
          }
        }
        tensor_content: "\001\000\000\000\004\000\000\000\004\000\000\000\010\000\000\000"
      }
    }
  }
}
node {
  name: "decoder/conv2d_transpose/strided_slice/stack"
  op: "Const"
  attr {
    key: "dtype"
    value {
      type: DT_INT32
    }
  }
  attr {
    key: "value"
    value {
      tensor {
        dtype: DT_INT32
        tensor_shape {
          dim {
            size: 1
          }
        }
      }
    }
  }
}
node {
  name: "decoder/conv2d_transpose/strided_slice/stack_1"
  op: "Const"
  attr {
    key: "dtype"
    value {
      type: DT_INT32
    }
  }
  attr {
    key: "value"
    value {
      tensor {
        dtype: DT_INT32
        tensor_shape {
          dim {
            size: 1
          }
        }
        int_val: 1
      }
    }
  }
}
node {
  name: "decoder/conv2d_transpose/strided_slice/stack_2"
  op: "Const"
  attr {
    key: "dtype"
    value {
      type: DT_INT32
    }
  }
  attr {
    key: "value"
    value {
      tensor {
        dtype: DT_INT32
        tensor_shape {
          dim {
            size: 1
          }
        }
        int_val: 1
      }
    }
  }
}
node {
  name: "decoder/conv2d_transpose/stack/1"
  op: "Const"
  attr {
    key: "dtype"
    value {
      type: DT_INT32
    }
  }
  attr {
    key: "value"
    value {
      tensor {
        dtype: DT_INT32
        tensor_shape {
        }
        int_val: 9
      }
    }
  }
}
node {
  name: "decoder/conv2d_transpose/stack/2"
  op: "Const"
  attr {
    key: "dtype"
    value {
      type: DT_INT32
    }
  }
  attr {
    key: "value"
    value {
      tensor {
        dtype: DT_INT32
        tensor_shape {
        }
        int_val: 9
      }
    }
  }
}
node {
  name: "decoder/conv2d_transpose/stack/3"
  op: "Const"
  attr {
    key: "dtype"
    value {
      type: DT_INT32
    }
  }
  attr {
    key: "value"
    value {
      tensor {
        dtype: DT_INT32
        tensor_shape {
        }
        int_val: 1
      }
    }
  }
}
node {
  name: "decoder/conv2d_transpose/conv2d_transpose/ReadVariableOp/resource"
  op: "Const"
  attr {
    key: "dtype"
    value {
      type: DT_FLOAT
    }
  }
  attr {
    key: "value"
    value {
      tensor {
        dtype: DT_FLOAT
        tensor_shape {
          dim {
            size: 3
          }
          dim {
            size: 3
          }
          dim {
            size: 1
          }
          dim {
            size: 8
          }
        }
        tensor_content: "!\000\005?@\350\004\277\016$6\276F\371\267\276\343\244\216\276\355`\210;\242^\334\276-\336\222\276u\006C\276\021\260\035\276\030\335\231\276\274\343\375\276\277  ?\227*\241=\341\264\212>db\353\276\302^0>\276\274\230>\0306\235\274\371\222N\276q\275M\276\001<\217\276\035\352\035\276t\254\r>]\022\343\275\222\303\363>\022Y\021\277\220\016\365\275P\303\267>\327\262\307\276\037\252/=\233\232s=V\264\372>\276{\022>\224N\032\2772/\366\274kS\n\276iZ\310>Y\034\025\277\342\376+\277|\314\267\276\250\265\225>\367\253\001>\336\357\200\276\350Z`\276\262\271\214>]G\306\276\005\201\201\276T/\343>H\177\032\276W\237\226>(\233\366\2764\340\226>\316F\215>\343\340\307=yn\326\275\233\334Z>g\245\275>\335l\227=Z{\004\276\377L\316\271\273\247\010\274M\t\232\276\323\200\205\276}[A=\300N\337<aJ\372\275\214m\027>@+f>\352l\004\276?\032\221\276g\250}>"
      }
    }
  }
}
node {
  name: "decoder/dense/MatMul/ReadVariableOp/resource"
  op: "Const"
  attr {
    key: "dtype"
    value {
      type: DT_FLOAT
    }
  }
  attr {
    key: "value"
    value {
      tensor {
        dtype: DT_FLOAT
        tensor_shape {
          dim {
            size: 24
          }
          dim {
            size: 24
          }
        }
        tensor_content: "\254\213\365>\327g\217>v\356\212>\026ZB\276\210\343\252\276\322\232\364\275\335\326\360=\366H\263\276\263=\002>\376C\227<\217l\267\276\313.\242\274\365\356m\277q\271\211>\273\031\353\276\277\244\313\275?\226\211?\355\002\211\276\244\273Z>\203\243?\276>\371\334>\221\215u>\tV>\276.\240\301>\\\261D?\024\352\030\276R\207\230\274\316\266\002?\021\211\301>v\306\266>\221\201\247>\255\224\036>\0354T\276\020\354\033?\365\356\300\275FK\370>A\217X\277\330|\260>\321\246\214\276\214\200\256\276\310\001<\277\375\307\235>\247\237[\277\230\326\'\277D\033\024\277j\026X\276\336\031\257=\252x\324\275\177V\201>r^j?\373\373\333\276u<\346=C\246\335>\354\201\220>j\257\024\276\024\364\324\275\203\344\212>\351\310\024\276Y\274\363<hr7=\377\350\007\277\2778\374\276\345\201\260\276\036\267#>\034\364\022\277\246\333\310\276g\366\002?|\240x>\316\247Q?\014(q>\007\003\262\276X\341\377\276\242!\336>\350|\341=#\326\257\276\303\373\033?X\2044\277{{\250=\317v\016\276c\032g>\254\324\376\276E\224\207>i\326\223\275\370Q\002\276T\254\247\275\014\222\222\275G\344\257\276\003\224\277>\340\253]>\241\202n>z\240\255\273\327\356\251>\250\271\266=\220\227\302\276e\335\027?\273\354\213\274\270k\025\277;\311\300\276\336D\324>9\314\030\276\022\272\245\276\234\255:>F\270T\277\305L\362=\003\327\321>\377\\\205\276o1\221<=F\254>)t\266\276O\230N>\201\032$\276b\300p=>\361\006>\277+\236<\374M3?\240H$\277j\276\347\276\204\305\020>\244\257\'?y\"\345\2767\023\000\276\017\002\034\276\200\311\224>\225\335?\277\362\013\245\276S4\333>\031\224\240=\326\024\006?\\\237#\277\236[\000?\374\177\272>1\007\206>w$B\276\037y,\277\203E\302\276\'\010\241>\032Z\231>6\330\247\276y\216?\276\213G\255>O\r\n?\354t\276>{\033\307\276\333V\'\277\263\321\222\276>\343G>\017\332\314>\22101> \341\322\276\336\270\r?\023~{>\242\317\305\275\335o >\216\314\006\276\244\274\253\275>\323\004\277\210P%\275\305\"4=\236\260\020?U\025\340\274\2763\235\276\362\265\025?\262\023@\276\233\356D\277\204\242\022?{\204%\277%\240\324\276\221\225\306\276*\203\257\276\363\371\227\276\'X\252\2763\260\003\276%\352\014\277\200\024W>\256\347d\275\225Ra>\013\033\023\276\376\"\243\276r\344\245>D\333$\277($\235\275\022\302\006?\306\227\202\277U\226!\277\256\0279\277w\260\264<\227e>>\3764R=)\227C?\227]\t?\001\243\235\275\355~\324> b\335>\223\032\020\277\326k\r\276\3571\000\277\221\321>>H\300\265\274\207\233\341\276|\272\005\277\357\006\227=\202\000\224\276[W\006?\373\205\017\277\225\357\324\276\343G\204>:WF\277\267\316\300>\316\270\243\276\233D\372\276\271\027K>\276\256\007>\004\317K>$\273\021\277\266\207{\272~\207n\276\277\2376>h3J>\210\346\253>\263\334\214\276\000\0173\277\2625\237\276\303\355\340\275rY4\276\327\214e>\336x)?ca\361=szU\274@\034)?\244\004\210<\'\365\033\276\005\327\027>\316\212\345\276\027\352\270\276\037j3\275W:\356\276\004\371U\276\271\247F\276~\312\017\277\216\027 ?\234\346#\275\207\004\246\275\353w\211\276\263\007\344\275w\206\243\276\356\307\332>\260\312b>\200\016\002\277^|4>\002\271\233\276\262\034\013?Y\333\014?GU\003>K\235\316=\005\211s\276X|\377\276^\247\324\275\214\331\207\276\371\200\365\276+m\037?\317\016\321>\263\305N\277\031v\327=6\301\013\277\377\n\037\277!\365\237\2767S\376\274\267\375\226\276w\351\321>\236\336\245>e\023\023?\002^\372\276@\315\322>\344\006A?\333\233\344\276\003uE\2753\302\313=\310\023\027\277\263\032G\277\007>\000?+\220\000\277\224K\376>\342\313\302\274\351\225\006\275\261E]?\371\367/=b\273\276=\346\207\001\276\034\237!=\036[\275\276\006\321o\274\206o\315\276\201\003\362<\263^\023\277*\265\362\276\373;<\277\373\004\234\276\263Y\201>\322\210\216\274l>8\273R\260+\2776\206\242>\345\303x:\244\316$\276\021q5\277\316O\313>\234\321;=\353\333\003?G\025\203>\311I\203>G\262\036\277\374\246\244>\000\365\014\277\301q\264\276\026\370}\277\372\036w?O\323h>\252s!<\363{w\276,\215O>\372L\330\275\355MQ>\036,*<{-\357>\325 \257>[\227\341>%\374=\277\233\005>\276\231\221e>\'\207\373=\r\255\216>\226\0376\277.\363\033\276\312\356\264\276\014x\236\276&\374\316\276\311[\036?r\302\222\274\022\266\025\276\220D\235=\004_\010\277\367\222{\272[\")>\267\366\313\276b,W>\234\326\352\275\032(*\275\234\305\252<\277C\205>H~\266>\026\026\003\274\\\377\235>\352\277<\276\220\243\335\275\207\342W\277\214w\n\277\321u\357\275,X(?\334\231M\276\277HV\277.\342\023?\016\337\203\276}w\010?\342=\023\277\206\273\340;kE,\277\300\013\t\276\350\3506?\250.\301>k\377\305\276\362\247\014\277#\216#>\247\223\276=8\330\000>q\220\010\277C\250K>{kK\276d\242i>\034\305\301\276<\277\273=\025\347$\277\261~\367\276\341m\301\2765\rl\276\324\343\346:\255\254o\273\346\276\203\272\212\014\347\272\021\310\337\272\\\010\3039{\2007\272\315\225E;kTo\273\375G\027\273]\2215\273\253\006\267\272\346\304s\273\313s>;JT\t;I\317\000\273\201\341\252\272T\026\224\272\033\263\235\272\2737\261\273\3420\316\272/k\243:(\027\242\273p\316\254;\"\323\323;\366\233\026\275l\352L\274\2158\r\274\t\216v\274\247\302\037\275D\310\020\275\014sQ<\321\375\351<k\025);\236\364b=\322s-\275$\304\021\275]\205\237\275\351\356`\274\274\351e\275\203\364\031<LI\312<\204\312\366\274r\333\354\272\326\026\212:\376\227\353;\354\205\000=\017\356\217;I\277g<[\201\035=\232j\374<E/\244;\312T\375;S3\260\274\305QS=Z\377,\274\002z@<\024\246B<\214\326\310<wvb=JN$=\333\203\231<\253\214\342\2737\023;\273r\313\250<\355\003T=\373|U<\300{\253\274\365\2321\274\305\243h\273M\372\341<\031\241\032\274\3174 >\353O=>\002\221\223>\334\010\256\272[,\347<)l\004>P\365 >\203\030I\274m@<>\340ZR>x\264\376=o\242\245>g\307k=M;\210>%q\022=\314 \203>\334\321>>\007\372\022>\237X(>\237\000\335=Ty\010>B\225D=Blh\274\315\340\203\275=\374.>\030\333\007>\302\270\207>\312\323(=\244\311Q=\326Qz>\354F\260=2\244\246=\035Sg>n^~>;\225\312=\324\003\210>\022\366\301\273\363\020\177>x\333\025>\215Rg>j\032_>*:\017>\364*!>\256\301`>\234\277\016>\350\252\016>\201A\n\274\232\237;\275~\274J>\350q\335=]\372\200>\243\366\003>&_\212=\326x\262>z\340\016=\n0 >\237\212\216>\246i\216>\'\312\353=\330|u>\352\025\227\275\013\201i>\005\367\213>\034\352I>\220\215\213>\237\363.>\261\026\022>\314\257\250>\347X\371=\362\032x>d\273\240\274\036i\275\274F\016\325\274\2742\034>f}*>\241\325p\275\216\324\323=N3\313;\321<\203>Y\215@=\031\350\020=\222v\217<\305\207b>\352\336T>\327fO>\200\031\225>\276\n#\275ZNL>\203\312\000=\374\331+>o\016\215\273r\2232\275\351\354\234\273R\034\242=\232\276\303=&\276/=fh\032=\246\2019\275\251\205m;\no&=.\267\274=u)m>(\035y\275\2222\203>\363\021\032>\027\020\276=+S\246=\346C%\274/N\317\275\210\244c=[\203\216>\322-\022=\230\232\321=\336B\343=tg\375:[H\216>E\200\036<Ea\224>\223O\000=\353!o="
      }
    }
  }
}
node {
  name: "decoder/dense/BiasAdd/ReadVariableOp/resource"
  op: "Const"
  attr {
    key: "dtype"
    value {
      type: DT_FLOAT
    }
  }
  attr {
    key: "value"
    value {
      tensor {
        dtype: DT_FLOAT
        tensor_shape {
          dim {
            size: 24
          }
        }
        tensor_content: "n\227Q>d\253\032>=\r\245=M\"_\276\357\201\376=\245\210\221>\352d\334=X\364\036>;\"C>(\220\263>\267\336\344=\364\030\237=\014t@>bGe>\207*1=q\230\261=J\2636=\204\2657>\266\207\306=\232s\023>\340\246p>\014\276e>\242%!>\213rF>"
      }
    }
  }
}
node {
  name: "decoder/dense_1/MatMul/ReadVariableOp/resource"
  op: "Const"
  attr {
    key: "dtype"
    value {
      type: DT_FLOAT
    }
  }
  attr {
    key: "value"
    value {
      tensor {
        dtype: DT_FLOAT
        tensor_shape {
          dim {
            size: 24
          }
          dim {
            size: 64
          }
        }
        tensor_content: "M\212\035\276i\022b>\274\347\002\275\367\315\r\276\267lQ\275\371\214\341>O\347\034\276+\304Q>\272\023\270\275<4;>\255_ \274\217\271 \276)\371\255=$\253\231>u\022\303\275\217zS\275\307\022f>g]\235\275\213\010\357<\003e0>\025\305\031?\370\304@>\306\225\'\275\221\226\372<hg{\275\213j\013>DA\207\276\3035|\275as\036=\335\244`>0|\022=$c@=?\375\237<\3168\267>\345\"\242=\034\312\275>\375\027\374\276\374\007\310>l}->\202\371\010>\202\200\262;\370\342\025>@.\222>\205t\332\274\322=\010?\313Z\230>\363\253(\275j/\231\275\303^\216>w\001\210\275\303d\013=i\324\357\275\2314\262=\001\375\264=\216c\036?\033\347\300\275D_\315>\031\234\265\275\002G\034\276\314\tw\276\272+\223;\036\021C>\266\372\014>5k\221\276eS\024>[\244\274>\333\032G<\257\021b=\\0\031>\343\231\313\274\242\375C\276\005\026\231\274z\3372\273\2105T=e\363\277\275\215\356T>r\233\270>\360,j\276X\004\006=&\305\010=\253\035?=\326^^>\026\254\\\275yJ\227=h\013\032>yv\353>BM\240>\205\357Z>\354\265\371=]\333\n>&\035\007\276W\266C>\027.\266\273\232z\214\276\277\311\010>\212e6\275\010T\214>rq\224=\370\337\320\276\366\233\254\276A,\344=V\035\201>\346;2>\223\265A>\007\342\321\275\360&~\276\202\323[>Bs\365=\327\272\205\276akM\276\330g >\202\200~>\306(T\276\204\304X\276\373\001\252>\324\360\307\275\3462\027>6\264R\276\013&9>\035\007w\276\'\360\317=\241\n\033\276\027\014\254\275\233\031\203>\035\302\276>\364\312z\276BJ\006>\304\354=\276\242\304\030\276\334\263D\276\304\212.>^\233\210\276\214\363\224\276\230\217\237\276\017\261\202\276\201\346\263\275\277Y\337\275\341\317\206\275\364\213\234\275\356\030\323\275D\335\233>*\353\014\2765r\343=\342\242\002=r\200\247\275|~\372\2745g\241\276\022\213\255=\007\225\232=\367\247K\276OY\304<\337\177\241\276f\256\254>p\331Q\273S\262;\276|\303\027\276\027\215\025\276\226\365$\276\336e\236\276p\337x\275y\366\371=\266/\226\2761\254\243>\327N\261\276|\255\201>\231\0146>\347q\216=\033\010m\276\352mJ\276\017\267\224>u\306\250>p\273\200\276P\004~>7\005\006\276:e\212>z\304<\276\205\024\327=\334jV>K-\027>\274\276\003\276\363S\232\276\347\231\222>;\3621\276\216\325~>e\226\003>\363\2178=\270\230\"\275\271C\236\276\347m\036\275\226\014\260>@\206\257=)*\222=%\265\020>f\314<=o\230I\276\306\004Z>\\T0=\236\036\r=I\304\263\275x\030\254\275\244\375\352\273\324\375o<oh\231>\352_\014>\307)^\276F\263\247\275\274 g>/U\333\275r(\220>\244)\266\276z\253\275=oYD>_L\372\275\n\\\257>\201\304\351\274\316O\374<e\330T\276\327P\225>\257\374\246>\341\355\022>\0225\305\2757R\357>\005~\313>\204\357 \276\206\361/\276:\241\267>\nlE\276\340L\006>;\"g>a\265\212>P\367?\276K?\232>\356\306\035>\3203o\275\206\244\023=\3605\234>\247\301\177>\237\t\332\275%\253\002\276\206\376\206\274p\227}\275\365\312Z>\275\213\251<\346\257!\274Y\360\364<O\361\345\274|5\252\275\236\262\225>\257\352\037>\353\333\325\273\224\2423\276\347\031,>|\263\375\275\201\340\233\276\3631E=]\\\020>W\034\237=|\235\317\273=\241\252=@\204\030\275\333\355C\275\245\361\331=9\352*>\025\306\215<\177`x>b\355P>\017\270[>aS\306<\253E\250\276\227i\244\276|0D>\301;\210>V\031\326<HZ\253\276w\376\007>>\006\251>i\014\030\276\356\264\202>\221\017\315\275%\005l>SN\200=\347\327\312>S\022;\276*Y\240>\2527\327\276q\340\257>\263q\343\275\032\377\353=\203z\">\3750|>\252\000\330\275\304W\373>N)\031\276EF\240>\363\365\240=\346\204\212\275\350Z\210\276\320\334\030\274\026c\235\276\010\365g=\360\030\226\275K@\363\274\266\363\251>]\373\200=\3761\033>\253\220o\276l\310\226<\265d\356\275i\002\027=Ve\354=y\345\233>\335I\336=r\304\260=\021\224P=\332$(\274\327\220\025\276\320\223}\275J)p\276B\035>>\223\323\010>\201{\334\2763\314\317=g=\225>\307\261\237\274\\\214T>\235l[\276\n\254\202>\332z >f\340/\276\210\216\232>\327\206\027\276\247\035i>4v\274\275\\\037\342=\214\263\231>V\342*\276k`n=pFf>\216\377\252\275d\023K>\273\212\037>/\303~>I_\260\276\"9\013>+^f=\221\213`\276\340\263a\276\332b+>\312\357\026>\331\214\215>\332\245,\276\332d\212>\302\037\203>\347\346\266>\032\365\206>\265\364\345\275\243\003#>\022\\\366\275Z}\233\275F\023\222>\005X\027\275\320\322u\2753\t\026\276+\212\260\276O\361;\276\204\020\212<Jvv\275\035\310#>1t\007\274^\214\213>p\273\256;\017.N\2769K\312>\006\350\201>\375\376\331<\334\342\300\275:-5>\023P\347\275\340*\203=J\300@>\372\337\014=d\301\210\276\247\372\234\276\303p\226=@W\227\276-\225s\275a\001E\276\264\2265\276PCL>\306\216\313=\343\005\003\276\332\207u;U/?\276\275q\266=\270\303\272=<\034\021\276E\363\177>\243f3>\277c\200>~\200\304>\277\365|>\035\246\234=\374\324\210>[\377|>\025.d\276\303\271P=nY\n>D-\204>?o\034\276\325\322\325\275\2403\202>\371\236\023>,\340\205\276\205{\242>,\300k\274\266\315\">?\000\210>\303\232\003\275J\010\330=\262A?\275\035\245\305=\225]\013\274\354p\332=\377oF>3\r\226>\253\033\340=\024\032\252=\233\0363\276n1\330=\250x\033>\354\353\374\275\024{\225>\264\326\252>O;^=BYv\276\306bl\276Z\337\306\275\224$g\276\206\375\">\306\321\'\276\221\017C>\211\271=\276\3701\306\275\007\305\202>\264\340\034=\026i\214\276\306\361\342=\255\027\031>\214\205\303\2746[\276\276\321\t\240\276\347c\203\276\374\332\006\274\344\224\342=\306F\206>\235|(\276\243\202P>\270\231\303\273\377\340f>x\204I=\nJV>\256\000\246=A\177\362<-\215\265=\200N^>\372\301\223>\322p\001=\373z\276>9\003\016\276E\265\330\275\032\331#\2766<4>_\274\021>\344;\310\274\2761\205\276\371\034\354=nD\026\276\246\037\206\276Mc\221>n\323#\276\021\350O\276\244\0203\276\006\007>=T3N>_\031\262>&\336\214>\336\216\037\276<\315\241>\204\353l>5\313\356=-\210\032\276\nf\027\276Fb%\276\r\022\007>\032[E\275\025!\365=\025H\034\276Z\230\027\276\033\221\241>\\\t\264>\035\003:\276\376r\010>\017*-\274m\323\r\276M\036\204>\004\027 >r\243\275\275jN\203\275\037i]\276qF\017=\220\310\334=\345\345\217>`c\210\275\016\263\243\275\032\302\252\27553Y=\202y\003=\247f\265>\320Ks\276\337\243\351>P)\343<L\202\037>\304]\223=\355\250x\276\211\211\234\2768\255\264=a04>\344f\313\276:\223.>l2\235<#\364\212\275\213\255\\>\032W=>^\216\216=cg\337\275r\035\325=\022$\212\275\004D\024\276\370@\271>\352Aw\274\206\306`\276k$\335>5\321\231>\026CX<\212X\252\276/\252\234\276\346\0378\275\032h\243\276_\327\037\275t^\250=\243v\324>|3\232\276\322:\272\275\033\n\341>\335w\314\275\005\177F>\330\240\306>\324o\217\276I\216N>qU\t>\332\252f\275$\316\270>\307I\007>z\217\273\276\010\022\235\275M\240\262>\013\276D\276\226\027H\276\022\336N=\3209\310>\230\211\330=\316\264\340\274xx\216>y\020\212\276\230\357.<\035qi=\262id\275\333\323\312=K\3416\274=!\031\275(\256\271=\016e;\2761\237\244\276\266N\207>r \257\275V\302\261<\351\326\316\276\223R\374=\203\250(\274h\321W\275|\235\236>\037A\010\276+\035\030>o\341.\276\371\365\344\276H\251e>\211\320\245>\345\236,\276\002\373\302>\323\373\217\275\336\256\035>\025s(=;\364\303\275h\362\016>\026\214\256>\250\242\027\276\031yl>\244\003\236=\204t\352=R\230S=9\017\233\276\214S9>\2674i\276#\030\241\276A,\223>\000\2328=E\320\236>\221\255\314\276\210\377\307\275\232lU\275.\363C\276\375_*\2758>;\276`\221\320\275{\272\371\273Z\013]=\252\026!\277\340\264\007\274V\035\240>|\327\017\276M\225\247>\010U\273>\377\341\204\272\035si<\372Y\274=\005/f\275\037\2130\275C9\354\274\006^\273\276\365K+>h\206\370=\'i#>\235C\3029F\025\214>\022q\364=\307\002\201\2766&\350\275\232n\243<o\006a\275\203\370y>\273\273\036\276\320\353X=\276\273\212\276\357\225Y>\236\232\234\274\257sI\276\362Oe\276\227\305\326<C\'b=\260\030E\276x\343l=\024?\030>|\212 \275\324\220l>\2675\025\276\273\346\001\2768p_\275\275\325\241=\016\254\005\276U1\347\275N\030h\276\016\245\203>\"^\020\276:\326<\275\372[\032\2760\037\232;\206|\220>\335L\003=\031;\\\276\t8F\2761\227a\276\327i\270\276\277\n\002>\327\370x\275\031Tk\275\002\367x>\n\232Q>\334%\337\275\326e$\275\207\317\234\274\2145\264\274\260\'Z>Tx\251>\342\255\025<m\250\277\275\201n\353\275}O2<\330dC\275\316\037\017>\356\020{\274kp\341\275\262\313\347=\203\3113\276\210N\243\276\230\3642\276L*\025<\002H\030>\371\322Q>?vo\276\237jC>\306\357,\275\243\254\234\275\277\212\325\275\345\314\002>I\254J\276\316$\315=1\2214>\2367\225\276\353u\361=\035Nk>;\372 \276\343\263;>\232\014\236\275\331\216\203<(\320_>m\341\237\276d\020\004=\301?\'>\025\233\362=\207\335\022>\303\314\t\276\010\023\026\276JjE>\013\345\302\274\234\034\206>I\245-\276\270\004\274\274\225O\201=\337\337n=\204\255\326=&\222\\\276\226 \232>\017\n\375\275\323\336J>\317@j\276\227\323\261\272\2514\360\275Y\374K\276\001\307\024>\n =\276\362\206\345=\366\301\241\2761\035K\276AQ\317=\311\220\251\275\262\225o\275q\2354\275I@\201\274\322#\210>\271\233\200>FA\207>\227\250\242>\223\016\264>c\251s\276\005\273J\276\374\301$;H-\236\276)\321\247=[%r\276V\277\312\274<\337\t>Rq^<I\241?>\301\252(\276t~\220\276\223\334\337\273\320\206\216:`\345W>\240=\302=\3733\307=_X\250\2758\357b>E\014d\276\336\374\276\275\276)n\275_\260\206=\351\374]>\370\312N\276|q\222;s\224\225=C\233j\276?\034o>1m5\275v\252\004\274f1\347>\323\360P\276>\026\272<C\313,\276\020\202#>n\316\032\275$f<\272\2607b>\037\251\263\276[%H>p\004e>\377;V\276D=W>\215\350\322\274\276\336\276=^9$\276\202$;\274\3074K>\256\227\336\274\361\025B>\226\346\331<\241I\211>\336}\211<9.\320=\267Zb\275\363\036\271=\320\211\200\275sz\'>[\320\322\274\331\231\220=e\031(>\037\341!>\261\205b\276\253\003\004>~#\264\275\023\327U>\307\350\216=|\256\276>\300\254Y>\001\370\002=\302O\223>Y\264M>J\273\245\274\243L\016>y\335\271>D\255\374\274\357S\007\275\264\375f\276.Q%\276\032*P>7\3069\275k\216\207>\247\022\031\276\331\023)\275c&\000\275}-P=\370\305d=?\001\331\275 \320#>\227\305\237<p8u\273-\316\270\274fE@\276\321u\215\276\004T<\276\025j~=\\`Z\275\3552\207=\335\257Z>\030;\257=\356\311\023>cEU>l_O>m\037#\276f\032X\2767\314\361\275\273\352M\276\322\375\334<A\233\301:\361\363\205>AmQ>\317#F\275\024\213\274<`(/>\021\243\262\275\016\031\177<\344\"\035\274FP7\273\rL\234>1\273\031>\326\014\233=\036{\005\276Jk\314=\301\032\001>\262v\026>8\352\027\276\331\337+=\263Up>\236\312\217>\217~\224=;\361f=\311\036F\276\003(o\2757Vx>\247\351A>V0\260>)\276\331\275\275\267\305<\033\364\363\276@*\364\274\353N\027>$\305^=\221\363\027=\030\246u\276\360\351\244>A3\256\275\240}\003=\027\210(>\326\255\355\274\\\030\240=\0134\330=\246\376H\275\237\356\025\276\244\261\272\275 &\315>\3369h\275w\030:\276U\225\211>f\212\325=.\220\217\275w\240$\275\254`\026\276\222\375z\276\310\031\216\276\226[\242><\247\241>\033\307\374=$o\301\276\316\302\307=\'\205\016\276+l%\275\205S\'>\036/p\276\002\026K\276\315\321\240=q:k=\311%\207>\003\275\247>hS|\275\220\022\231=\347\355=>@\022\032=\227\332\325>\241o.\276f?\027\276g\332s>\264\241\304\275\356^)\276{t\200>;\216e\276\263\004\322=+\024\305=\n\340\n>\316\204\242>t:y>\"#\203>p\315b>\320r\235=z\213\220\274\202\357l\276Q\262\231=\337\334*>\n\212!\276oh\243>\177,\326>\234[s\275\006m\250>R\237m>\351&{\276\020\215t\275=u>\276=\024e\276\030\212\257<\263%O=2W\227\276~\206}>aJ\253\275\017\250\205\276^\222$\276\205\274\024\276\244\276T=.\361\224>j\246\212>l\227\t\275\010dz>*\235\211=^Ry\276\213\3627\276S&\373=B\264?<\342G\336\275\254\371\205>X\346\370\275\342\256]>9\027\302=\3050\347\275\024!\337=)\306z\276S\273Y\276\217\372\263>\003\"$\275\3250\002>\265\255D\274\272\334\361=U\177/>@S\257>\266\301G\276\006iX>u\021k\276\3538\233=\337J\267=l`\221\274>`\241=pl\214>C\310#\276_\314\007\276\260c\007>8\221\252\275\330\003\274=\225c\371\275\352\322\324>m\251d\275\231\263E=\274^\016\276\177\016\205>\240\017\222>\221\271\246>{\220\214\275\215&\245>@\217K\276\330\224G\275\354\217\216\275\377L\n\276^\374%>\304*\r>H\036o=\235\265\237<\337\206\320>j\260*\276\225!\217\276\027\001$\277\237\331]\274\356\230\217;\240\244p\275\210_\376<\337\021\312\274\036V\005?\006S\033\276\332L\351<\003\006v>\210y\223\276\037\2401\276\227T\371>\3139\";\333\274\304\274L\022\204<\324\\L=\n\031\307>@\333\257\275<\226\261>,\014\272=B\344\227>\224\023\254=\264\007#\276C\204\177\275\251\337\200>8:c=\222h\267>\202\027\367>\336\207\240=\262\254\334\275q7\306\275\272@\353\274\031\335\314\276\310\030k=\376\372\246\275\021\177\r>\2248\210>0/\025?9\020\217>\275\202/>\237`\251\276Z\342\'>\370\246\367\275\254\370,>~a(>Zs\312\275)<\036\2767\001\203\276cj\'=+\031c=\234\237\271\275U\371\342\274\223w\313\275e\330q>J\014\016\276\307\3257\274k\252\332;N\363\346=W`\027\276\223\004M>L\310e=\034k\t\275)s\212\275niC\276W=\027\276%\302%>\371\304m\276\341\333$>`\277K\275\032E\205\276\'F\036>A5J>\201\010a\272\251\223x=\320\273\274<\013\343\212>}\313w>\350\241j>\r\243 \276S@\216\276\177\275\037\276\025\312\274=\n\231\024\275\211-\267>\377\337\214>\200\216\267\276<\251\301>\030$\215\275\036w_>!\202\305=\206\013\263;\215\276\371=2\274\345\275\375\n\204\276\232\366\024=\"\346.\276\324\236G>.\303\217=\231\034*=\313LI\275.\234g\273\363LQ\276\017j\204>\311o\234>O\244g>\225\017\207\275o6\253>?\337\247=\n\312/\275Rg\274\275\0174\316>\343\002\370>\202\235\321=<\t\013>\341K\314\275p!R>\356\237\340\275\t\372\365\274\371\377\354=4\021\235>\346\241\264;\270\262^>\216\213\271\276L\2254=\211\264y>\335\3147\276\\\033Q>cv\314\276w\017\222>\257\010_>\356YT\275}\302\273>\300\200\305:\016\032\206;e\205\251\275]\254\250=\262gr>G\341#\276S\333\253=4\030\227>I\242\312=\033pf\275s\002\003\277]b\001\276\246n\027?T\001\205\275\221[\370\276e&\307\276\352,\243\275u/\334=\247>$\276\376R\006>\037S.\276\351\300\250>i\261g>\026fW\276\365\365\313<\301a\225<-:\301>!\013D\276`\373\266>;\007\013\276\352\223\334>N\257\017=\010\204\267\276\347\244\244\276\317\363\002?\200l\006=\245Ew>y\313^\2757\360}=\321\352,\275\337\035;>k\260+>>\336\026\276\013\223\354>$@\320\276v\321l;u\375M=q\342\243\275\370o\324\275X\365Z>\244R\036\275\201\362\262\275IV\242\273\272\272\207>\237\036\221>\314\330\302<\337\347\200\273\024G\224>\224\314+>p\306Z>\370\221\310\276\342\377\222\276\362G\036>V\r\200\275\213S\210\276M\323N>\004\001\320\275\335\200\337\275\nb-\2752n|\273(\020\270>\205&\017\276>\314\244>\355\013\372\272\235\203;=\r\222\204\274\215qV>\220\271\200\276\302[\020\276\026W\265>\214Gn>\001\322^>\244\350\204>p\'U\275UL\244\274\'\022\362=P\320\360\275Y\266e=\376\205\030>\210\3549\276\266\257\323>\261.\246\276]\316\214\276\347{\224<\357\363\024>\231\342\033\276vO\346>\266\367\246>\007\215\222>R$;\275\220w\316=\317\367k>+\246\013\276\014[\362\275\320\353:<|\361\201=\253sd\276\330\252\215=\233\rk\272\370\222\201=\003\323\013\276rM\246\274\365n\204>\337\224\270=g\262P<?$\\>\215Y\027>6\010\003\275\212\371\233>\352\037\217>Ub\231>\2478g\276\322\006X\276.D\002\276\'\300!>\347\376\276\275\302R\315<g\\\\\276y\310:=\nId=3\340<\275\360\375\236\275\024\001(=\020D\331\276\202X\224>\200`Z>\3613i;\240\032\025>\317\216\277\276?\2000;K\355E>\371Q2>0.\271\276\212\3536\276\030\364\347>U:\230=\271X[\275_oS>\244\226\235=z\232\006>\315\312e=\020\001\226>\325\332\014>{\315\215\276\277aE\276G\302\014=>^?\276\270~\000>\223\350s\275\255\266\253>\363X\034\275*!^\276\276gW>j\224\207\276\t\363\207=\215K.>\031r6\276p\233S\274\265\025\237\276\337_S\275\253=\230\275\377\037\242=\303\2241>0\032\'>\344\262\220\275J\007\024\276H\245G>9\201\217\276w2\031\2760\345\267=\366\252\276=\244b9;\030.\'>\201\004\254>\272\312\363\275z\301\001\276\206}\253;hSu\276\200\364\036=\225\262\213>A\032\354\275\354\240\032\276\002\345\005>M2\031<\326\037\n=y\212\353\275\345a6\276\233v >\320\370@\276\355S\205>d\272\204\2751N\232\276W\252\276>fD*\276\370E\231>\2238\014>\326\034&\276\307\334\346\275\203i \276\004\\=>\253\351\232>\320\304\325=K\222\250\273(\217j>\374_B>\317\022K>\371#*>\275M]\276\027\354\271\275\241\026m>i\205\213\276\362(\036\276Sm\267>\240!\'\276\247\225Y\276\2771\361=\014\242\023\275\337\276\030\276\311\356->\201\316o\276\363\247\232\275\252\210u\276\346\314a\276p\251.\276Z/\037>\232\366\177>\223\344\010>\r\217w>+\244F>r W\275f=^\276\'G&>5\272O>\307\357\024><\312\034>H\177%>\276\"`\276x\334V<1\032\213>\266\216o>\006\tf>\373\237[>\205a\360=\226J\304\276\227T\316<\313NL=\333\"[=\343+\r\276\274q\261\275\233)\355>\225_o=\030\344\016\276\261\332\366\275)(w;\201\037\215>h\326\217>\213h\212\275\216w\351\273s\302\234\276x\252\311\276{.\215\275I\340\017\276\375Y6\276q&B\276e\377\032\276\016=\265<\023\222\245\276E\367\254=\030\213>\276r}\035\276(\320\247>C\200\303>\201\303\366\275\374\220l\274\374\304{=\004^\211\276Q\324\320\275d\376r>G\203\201\276\342\027\340\273\tg\250=\231\004<<\253\213\310\276\r0\026>X]\213\276\010\316\300>\300)H\275AG\210=\230*\013>}\001>\275\250v\215=9=1>e\300\t\275(\340\355=\312\237->H\033\304\275\370\235\t?\367\201\377=\231\000\220>\236j\341\275Ww\020>k\357j>\335<\026\276h\205\300=0#\233>:\245\275>l\202S>\312\232\223=\025{\016>\376\215\224=\271Dd\272k\017\312=>\326\364\275}\013\225>n\003]\275\207\306\307\275J\221\000>\022p\263\276\324<_\276\276F#>\344\177\004\276\255\272\033\275\3528\237\276\273Na>b\260f\276\"\306\231>\254\240\343=\0276\002\275\232\320\271\276\226\374\222\276\n\212%\274z\031\322>\245I`\276(\212\251<\024\227\314\276;\271\367\275{\2002>\313\237\211\275\251% \276F-\203\274#Bp>\205b\242=\354\251\373\275\316\347\264<\025v\363\275\031\035\245>5\361\227>\340\020\235>*\233-\276"
      }
    }
  }
}
node {
  name: "decoder/dense_1/BiasAdd/ReadVariableOp/resource"
  op: "Const"
  attr {
    key: "dtype"
    value {
      type: DT_FLOAT
    }
  }
  attr {
    key: "value"
    value {
      tensor {
        dtype: DT_FLOAT
        tensor_shape {
          dim {
            size: 64
          }
        }
        tensor_content: "FN\307<\342\3310=<\306V=\253\220\357\274\316wG=\334$E=\t\302\311=\025\266\351=n\002\216=Y\314\230=Q7\254\274\300/\023=\036Bc\274\243\330+>3f\266;0\326X=\260\375 <Ii\354<B\266\177;\265V@\273\367{S=\030\265|\273\254v|\274\013\317\360<\340\270\215\273\202\3276\275\036e!\276\\\036 >\261_\336<\n\321e\274`\346\336=\230\364\323=+\3519\274\202\341\337=\273\211\313\274\361\t\031>)\231v\273y\275J8\311\214B\275oAJ:\277\305\010<z\317g\275fZ\252=9XL=\023\031y=\274\3710>\nw\306<c.\346=$T3\274M\003\253<\031Io=\036\366\274=#]\006\274c0\237\274X\257\273=\272\373\233=Ixr=4A\316=JE(\275 a\001=+4\230=W\370/=\2409\222\275\317\367\177="
      }
    }
  }
}
node {
  name: "decoder/dense_2/MatMul/ReadVariableOp/resource"
  op: "Const"
  attr {
    key: "dtype"
    value {
      type: DT_FLOAT
    }
  }
  attr {
    key: "value"
    value {
      tensor {
        dtype: DT_FLOAT
        tensor_shape {
          dim {
            size: 64
          }
          dim {
            size: 128
          }
        }
        tensor_content: "\362\235D>q\373N>M\340s=\306\177\024=\372#\202>\226\273\026\276i(\312\275\013J\240\276a\340+>\334\213\265>\300H\222>\010*&\276}YB>0\260|>\002\271K=!\022\260\273l{5>\275\366\036=\265<\312\275^\257\257=\206\204\000>\200R\201\276h\025\275\275\307\2741>\323kR\276\3241\242<\037\240\236=\345\262w=L\372x\276R\215]>G\367e>53<>C\027\235<\363\370R\276 N\324=\324[0>n\246\200>\2744\236\274q\333M\275o \375=3\303k\2753kC\276l\312K>\036\301\206\276<C\307=\025mN\276\322\307.=\374\247\204>d\377\002\276\301\347\324\2746\222\'>\345\021\037\276\205|\252\275\0026\021\276\245\0163\276\345e\346\275\277\022$>:\027\233=\366\352+=\035\367E=\351)l\276l\317?=\355\251\303>X3#>\301\232\324\275\225\031;>\023\376\'\276\274\235I>\213\205,\275q,\000\277\003sY=_\365\311>W\207\204>u\"\203\274\357\245v>e\031@>\353\250\251\275\337d\374\275\030\210\207=\306\212\262\275z%\262=@17<\020A\230\274nj\336=\362\347\210=\360\245\247<\320d\270\275\237\010\033>\277a)>\200\240R;\213/\324\275$q(\275a\353\023>\221\020\256\275(S\002\275*\317\364=[\324v\276\223\027\216\276:\265!>\020+\211>;\272k\273J\017\"\276\'\205\037>\344K\036\276\016kn>\214\367\323;\271\344\216\276h^\205\276F\371\304=\026R\352>\202\255*>\020\347\267\275\000K\266<\014c\274\275+\302\275\275^\206\235\275\233\364\000\276^\020\310=\215e\031\276\374\177\032\276V>*\276n?*\276@\303%=\310\274n=4n\237\275\317\n\027\276\234\360]=\346\"/\276\017\006#=\232>\242>7\314e=\"\034C>\022!\235\270\016\013\217<\377\264\374\2753\203\346=\373\306\311\275\005\031\t\275_Q\364=\031\177\213\276G3\366;\346}8>\245\364\262\275\272Eq;\007X^>\270\205\302=X\177\022\276\243\312j;\264\355\302>{4\210\276g\306\267>\r\004\330>\243\026\316=X\273\253<\3755\031>\373\312\216\275\230\275\272=8\3562\276Ef\274>\200\027`\275\254\026z>y(\275\276\271\205\252>\313\366\260\275\321f8\276J\362b\276|\344|\2758e\211\275vy\202\276\326*\230>\0164\233>\204.\366=*T\346\275\361_F>e\340\237\276\200EY=\361\207j;\266\207\217>`8J\276\014S\226\275\332\201\220>doI>\200H8>\252\227\375\275\211\020\274\276\326\247\303=Rh\247\276-\003@>\255\360\313>\231\316o\275l\\\241\274ZP/\276y\305@\276\200\255Q\274k\332==\327j\022>0Y\244\276a\344\377\276\255\334\215>O\360\210>\213\267Y\276mp\260\276\215\032\266>\261\317\000>UM\325\275\036\203\033\276z\020\024=.\353\270>=\232\005>\252\244\371\275\204\266i\275\200\216\263;\336\343\033\276\376J\\\275\0160\235\275\325\317\007>\212Q\271\275\251\306\024\276d\352\032\275\032\310\346=s\215\n\276\r\367\007>L\357\005\276\362\214\034\276\305\344\025\276\035\026}=\014?\355\275\360U\026>\177r\217>\370;\261>\311\330\301=\371\232\021>b\235\004\274\225\355\026\276\333d\325=t\"2>\336:\371\275Vj\222\276\256\267\212\275\370\261\351\273p\303\317\274\"\023\351=ob\027\276\025\021\r>\3445p=a\362\037>\235\024%\276\353\236\371\275\302\017s\275\204\016.\275 n\303\275[\313\340\275~\357|\275z\376\337=\203\361\031\276x\326\\=\262\262H\276\237\331&>\361\203\274<\307\"s\275\337\024\316\275\304\351\037\276\351\214\002\276\247N\366\275\325:\000\276\232\305\227>\276\201\353\275N6\221=nB\023>\032w\375=\022;\342\275\341\331\366\275m!\342\274\0102\037>e\254\326=Y\365\313=\372\021\356\273\r\363\003=\033H]\275\251\300A\275\212ZA>\2753X>\341\0261>\274w\322<Z\214\217>\363\202\302>\364f]>\346\326\264<\327\036\333\275\t\203B>\025U\007=\007\357\332=.\034S\2747\235A>\026\370\n>\367\277\t\276\374\233\';[d\230=\247\022\354\275iN.>+\202E>\341[\351\275\215\\B>e\275\374=VY\031\274y\321\313=\325\220:\276c\022\"\276\376\327\017=!T\354\275\033$\355=?\"\265=D\203\306\274\314C\016\273\211\256\344\275\200_\r>T\335\225=\214\014\332=\2136\232\274\'(\325<\365\277\247=\r\2632>t\262\223\275\027\225\022\273\255\205\330\274\224:U>\207\250\037>\356.\330=J\030\233\275\3229\203=a5l\276\264P\207>\034S\332<cq\331\275\277K\354=h\032\270\275y\226\016>@^b\274)\364\007>\024\366#\276%8%>V\266\256\275\323\2103\276\236e\365=\222\350\316=\350R5=O\375\341\275\035\223\033\276\306\244X\275\345\2544>\3256->\022\010\370=\021\315z\275\010\276\332\275\366\373\005>\'\352`>\213N\214\276\250o\021\276RU\201=\325\345\030\276\021$#\276dV!=\230V\030>\2430\020<\317\354\031\276\3755\262\274\242\224C>\177\013j=\326\236\274=\231m\034>\220;\021\276>\3740\276h\264\022\276\236@\247=St#\276\032(\251\275(98\275@T\313<\214fh\275\244\242\247\275\220G\343\274\250\023\002\276((\333\274`,\016=8\226|\275\373\211\244>\013\207\332<\350;\312>\221\244a\276\\S\034>Mf\000>\216C\310=\024\326\263\274;(\305\274,\344\276\274c?\227>O\366\016\275\rY\226=^)%\276\006\177\263=\2523\222\276\335\260N>r\036\000\276%\374M\276\022\325\300\274w\301\254>:\264\035=v\005\033\276\325l\233;7w8>\246\201\207\276X\237\021>\360\312\026=\244\021\246\275\362\314\237>\030\3612\276L\277\320\276!\310\201\2760\207\331>+y\201\275\004@\003\276Q)!\276\246\017a\276\335\331\240=,t\030=\006\360]\276Kp\232\276D\312\266>\266\2501\275\014\275\032>Q^\016>a[\261\275\310\306\r>\213\230\205=\267\376\376=\345\275\243>\300\260\364=\003$\t>\363\322\342\274\033\233w\274\366 \315\275\2721G\275L\022\306\276\214_\"<!\226\205\275\232\310\267=\351?i\276\007\227\203\276\211\365\000\275\010\357\232=\215\302\321>A\302g=\216\t\305<\222`f<_\2251>7\215h\276*\032J\276\021}\350\273l\006\215\275 u\\>~*P=;o\316\276a\003\355\276\021f\350\276nr\335=d\250o=D\334\213=8\363\366<\0338\254\275.\002\330=\242wy\275T\223\367\275\206\223\375=\007\357\237\275\324<\375\275D`\004\275g\000\031>\240\373\236;1\205\267\275\307\267\327\275\360Dk\276\016\246\263>G n>\200\273\364\274\226\014\310\2756\247\315\274\244\3214\276\000\"\227\274\325\354\037>\001\363\010<\262\222\356\275VF\356\274\240\021\363\275r\367\275\275#\323\304\275\241Lf\275h\316\216<r\035\352=\215\275\217\275\271T\020>\320p7\275\010\345\010\276\302&\227=8\227\254<\021\206\014>\240\231O<\030 \031\275\025\253\020>Xi\331<O\2362>j8\251=\315\024\304\275i\324\236>k\301N>\356R<\2763\347&=R\357\233>M\017\016\275\007%\034=JE\315\275\215 \311\275\360N\021>\347\020G\275\217\207\222\275\244\031\027=A\361!>\331\367\231=0C\036>B\320>=Bm\226=\354e\021>\037:$>\270\332\201\275\276:\216=\033#%>jaQ\276\363j*>]\233\t=_:\003\2762\271\217\276\345;\262<\272\365\\\275_\237\010>\250k\314={\024\017=\252{\027>\371G\334;\0279\207>\240\343\354\274\375#\262<\313\203\331=\255\374\354\274>t\243\275\3411\2479\020\265M>\252\030\216=w6W\275\036\377\211=5y=>\361\244\335\275\326\247\022\276\325\367\314\275\026\2554\276\316\334\247=\307+\036\275\223\177\326<\\\272y>\246=\311<\031\310\266\273\361\246b\275\"2+\276\317\271\210\273\261\345\315<\371\377\224=\263-\326\275\233h0\276\267H@>\034\200\203\274\001\265:<kL\206\275To\310\275\332G\234=\314\225\t\275z\374P<\245\250\t\276\227\301\275\275\333\266x>#\260\354=-\244.=\327h\371=\360\r\317={\316\006\276\333\337$>+\277\030>PP`<\317\t)\2762\215\361\275\267\240\275\275\032\021|\275\231\303!>\2226\317=\000\017*\272!\217\010>\323\316%\276\032\263\247=\231\230\334\275\367h!>\021x\277\275\035\225@\275\244\220d>\221\252H=\252s\217\275\344Xm>=\333\235\275\330\252\026>\031\247\315\275=\273u>I\265\220=\321B\300\275J\270%=#\347\251;\004\272\225\273m\217_=\363\305$>\276\377\324\275gJ\347\275\274G\004\275a\205\013>h+\021\275\214o\217=\244\205\013\276P\301\250\2742\n\231=E\204\344\275\250g4=G\022,>\334=\030\276\'\343\317\2757\242\033>k\350\032>\247\010\363<\230\032k\276\024[\252\273\325\017M\276*\232$\275V\363$>H\311\374<\020\352;\276\200\211\306<)\375\254\275j>\t>o\2002\276\347\325\350<r\213\211\275syu>\376\007\224=\331a;=\352%\253=AF\177\274]\352\236=\375O\007=\360\306\320=\256\034\017\276\233\336\007>Q0\033>Y-\016>?\260\212=\005\034\215\275\242\351\014\276G\335\377=\013\316\222\27562R\275%\302\326\275*dB\276F\262(\275$\303\244=\312\021\207=\002\037z\275\367\334\214\274=#\351<\001\345\007\276\016\203\213<E\213\002\275z\314\316=Z\010\026\276\341\230*>\355\265\305=aL\000>X&%\276\342V:>\227\264P\276\233\240\032\276\013\305\034>oLd>\013iT>\030\373\367=\032\211\033>\340\250\021=,u\223\275\377\201F\274\005\214\254=\313\273\r>*#\251\275W\010\367=\226\337\200=\245\n?>R\223%>\016^2>1y\024>\373\247\314=\375-\276\275\363\271\303\272.k\205\274\204\364-\275=x\373=\035\2000=:u\365\275W\253\267\275\016n\224\275\010\n\024\275\3672#>l:\013\276\352\300\n\276\261^#\276$\2570=\321\234\245\2752w\360=\276i\303==\232\r\276\330w\025\275\032\341\333=&\265\317\275\026\002\373=\360c\206\274\262~\274=\177\263.\276\220\223\026>\350\216K=\363\361\232=Xg\020\275\230d\031\276\2176\260\267q\275\333\274]\351\035>w\006\262\275\271\340\231=|\215\034\276\216\363\327;\030\224\r\276}YT\276\306[\000\276W\312\r=\320\2655=20p\275P\260\002\276F5\276=\2663\265=\236Y\376=\355V\001>\352\220\251=ZJ\371\275\352\374\356=\325O\013>\335\377\023>n\377\373=\212\357\270\275\216\245\302=\276v*\2763\031\267\275\201\273\276\276\330\033\232>e<\230>0\237\000\2779\307J=\2331\305\276\216y\036=\264\023\272\275|\346\222\276b\372N>\234\353\215\275\256\2279?G\322\t?\327\"&>\253\023R\276\3519\252>\240\326x\276\374\202\225\276\247\212D=l\314E\275\374\206\r>\000\036\335\275\224+\216=+J\325\275\025a\203<\2257\206\275\227\334\201\275bZ\247\276g\330;\276\0311K:\034uA>F\352\303\276f\242\027\276\005\2671?\221\035\000\274\177\260E>\354\374\213\276:O\303<b\214\250\274\206nC\274\017f\346=\026]\372=\014[\327=^7$=\000\351\356>5Bk>\220f7=\350\375\232=\002\350\245>\275\236\221\276nw\264>O\032\271>\234\273\315>\334\247\205>\317\306\205>\262\023y\274\351r\t\276\335q\016>vLY\2756\306i>\326\302\244\274MR\032=\n\262S>\237n\333=\231\033\010\275g\225\207>\033\243U\274\301\010q>o&\265\272\240\345~>\374+\261\276\375\331Z>\016\331K>\344\033\025\276\344\250\361\274\033\001\303=\307OS=\303\331\370=W\343\022>\3009L\275BZ]\275\266P\363=\306c\031\276 \273\224<\352\236\257=\3369\241=\344\245\342\275(\206\017=5\256\033>\251k\004>\330\230\247<\240\355#\276\036\334\325\275\025\234\001>\346\310\256=\010\321\326=SKR\275\330\277Z\276\356V\031=\214\004h\276.\221\253\276\210WJ=~yI>\256\3332\274\371\336\'\276?\345\005>M\270j>\221\021/=a]Y\277g\353\245\276\310o\025\276h\026\231<P\366\210=\323\214+>\2063\300=\032\001\344\2752\351\233\275\310\220\001\275_P\010>Y0\360\275\200\335\216\274\310\016\203\275\250\353&=`\243\231; \022\262\274\354\330}=;s\'\276Z\233\256=\025\254\230=\276\033\310\275+\302E\276\367/\026\274\263\251\000\276^Q\257;Z\323r\275^P\014\276eG\035>]!]\276H\344\254<\226G\213>\216s\350\275\243\333{>\276\230e\275\363u\351\275-|\017>\010\254\337<\r}q\2734\354l>\350O\275\275i\334\210=q\351\232\275\247\300\372\275\374\003\270\274\265\317g\275\333\035p=b\323\303\276\264,\030>\021\2437=T\354{>\261s\351\275}\023\213=\252\344\372\275\236\216\321\274s\245\010\274\350\023K<n\251\212>5\345\211=D\350\237<\245\343\376:\010\3078=\271\201.\276\200\362\316=U%\204\275/\321\231<~\255\021=t\327t\275\215\203\275\275\3464o\275% 3\275\354=\302\275l\'\037=\323\230\254\274\3769b>\264<\356=\263t\217>\327\234\343\275\0004W\276\345^\246\275[\r\017;\205%9=\336\350,>t\317;>\021\226\332<M\305\020>e\303\241\275\254~G\276p\341 \276\345`\000\2751c^>q\353\212\274c\333]\275\3654\305\275>\006\231\274\356\222\234=\343X\252:|\364\321\275\360\310p\276X,)\2756\227\223\275\022\r\253=\311\000\023\276=\233\031>\230\010\024=\220\341\007\274\265\001\004>@w\276\2738\372\273\275B;\361=\242\276\315=@\363\253<1\234\226\275P\234\226<\224\266o=\355-2>\344\250\022\276\255\234R\276\320\362S>\022Y{\276\267\025d\276\275 \t\276 p\247\275}\177\211=A?\314=\032\201\301;\355\001\346\275\005\362\000>\006\275C\274\332\227,>y\366\023>\260\024v<\325\333\032>6h\357=~\032\313=+f\037>J3(\276\0232,>\336\001\372=\276B\346=\324\3021\2758\307\343<~\001\232=\227F(\276n\366\247=\335\301+>_\336&>\000\226\205>\366\324\002\276\024?|\273\264\302e\275\3029-\275\023T\326=U\355a\276\213\020\037>5\021\232>\214\360\256>\371\027\256\275\373\220(:\350\377\213>\250\210l\275\032=\333\273\216\222\256=$T\366=\326\365\020\276}\307\225=\365\243\202=<\243\340=&\350\230\275\213\323\027\276\010K+>s\371:<\227K\245\275\267q\210>I\0019=\tW\252\276h[\013>\343\236#\276\312\323\004\274\230W\374=\300^\307\273\030\010c>:Q\215\275\267HG\275h\273\311=\222\2150=(\344\361<\215\274\254\276W\356\023>\301\001\300=\016s\200\2765{8\274\006h4\276\324\025\347<\316\305T=j\200v\275?\376\002\276\021\270\000>d\232\201\275\242\006\030\275 %->\374\025\237;\273\252\323=\245A-=\007_\370=\3776;\276\354\261f\2758\232V\275\314\016s\274\205^\344=\r]\253<\022\005D\2750\326\001>2s\304\274\214\374C\276<\312\002>y\2669=bG\t>\222K\350=p\026\023\276\"c3>\'\245]>\222\r\177=N8\214>[\022\022\275K\234\177>O\312\230<\206{\275\275\010\3459=\236\354\305=\336\306\204\275 \213\361\273\304\346\020\276S\r&\276\034\313\220=\270\203\236<i\027\017>\2360\251=q\370\010\276\220[\303\275`\004\013\275\260-m<z\242\245\275\212\326\226=\030\256>\276\362\'\253\275\254.\016>\240)G>\'\333\247\274\370B\360;y{\034\276\23391\276\315\337\277=\221\3547>\331\367\220=\224\3767\275\302k\271\275\220\004\332=\n\006\214<u\377\225\275*\303\323=H\233\037\275\366\340\342=M\254$>\374\324@\275\236a\312=Kv+>\305\266!>(.S\275/\'4\276\346H(\276\354\\\007\275V`\373=%U\035>\020\316q<U\"\026\275\313\371\327=\264k@\275\276\312\010\276\320\036\220=\361\005\346\274`\234\332\275\247Y\363\275za\324<\032\233\017\275\004\210\315=\331\270\014>\t$\201\273\201\000\203\276Ky%>\251\301\215\2753\033>=t\323\234\274\033\310d<;\222=>\345\366\260\275\314\003\343\275\371z`=8B\335=\"\005d\275\036\333\317\275\203\324\330\274\204p\026\276\350N\370<\025\222\003>-(\255=\261\327\357\273\235\373@\274\301\217\215=<\262\372=\035\014\346<lX\230=C/y=\302\014b>]\266 \276\324\340S>\177,\242<\027+8=\215\270D\275\250V\006>>\256\035>\017\010Y=\2000\373<\233\251\334\275\273\332\362\275\014\216\332\275\321&\303\275\270t\366\275AY\206\275\242\337\037=\2316\316\275t\323\003>2\374\222;\r\\^\273\311\220\3139&`,\275?\003\371\275\347\326\030;~\305`=J\276\205\275\254\0052>\265\366\001\276\257r\317\274X\220\255=FL\202\275b1K=_\275\027\2759\2735=Ll\336=.g\213=\270\030\035>#\261\035>\014\227\342=.|\027\276\227\221\236=\3755\315\275\320\353\214\275\000\354\r<\312\347\242==Y\205\275\305\245\375\275m\350\331\275PP\273\275\022T\302=\252\236Z\275\362>\252\275\240\202\356\273\024\352n=\341J\'>M\0100\276\030\027\031\276\370\313_=\216\002K>\346x\035\275E]\227=\206\353\233<#\352\021>\000\021\032=\255A =\212\177\033>\273T5\276t\207\347\275\225\222\363\275\272\270\024\275\236\036\201>#?\232\275\244\006\202=1r)>\301f\347\275^\264\246=8\315\214<\n\037\323=&\304\220=\206\345\343=\250\342k\275\024\216==\354\021\347\2750\3664\275Sk\036>\366\261\304=\244\214]=Sb.\276:\320\212\2758\273A>\014d\222>\353\204v\276\303\245\276>\3155\264\275\035\036\026\276\273^\312\275{\347%\275\260\313\232=\216Q\373>`\255\304\276\202\230[\2761I\325=+\350\250\276pFn=\221\032\211\275q\034\035\2768\231\036>lB\310=Xtb\276\200\216*>\353\204\302>\006\227\036>\343%\026\276\360\305x\275H\305\227\276KI\236=\305\327\216\276o\361a\276/\241\227>\221C ?\316E\357\275\'L\226=me\322\275\323\2719>p45>\322r\327\275\362^q=\364h\204>O#\246>\007\025\376\274yI2\276\363c\263>\322$\305>P\225L=\200\221\234\275J\277\377\275<K\265=j\003\323\275`G\200>\037c\256=\372`&\276B\033\006<\350|M\275Q=\000>\n\r\002\276\334\373\327=\247\"\005>^\246?\276\254jB>g\'\250\276~\333V\276\214{k>~\366\310\2756\007\225=<\303I\276Lf\243>4\214\023>lC\212\275\022\n\321>\362\352\203>diL=\261#\353\276\023w\327\273Y\304\255>\032,r\275\363\033.\276\3533\204<\330\221f>\r\245\366=\3529\311=,i\204=\317\327\003\2763-\017>\325\352\237\275\r\357->\204Ca\275\323#\016\276\315\006\037>-\253\027>\273\374\201\275\313H%\276\227V\246\275\372~\332=\010\016\343<\203\201$\276\336+\017\274\025T\323\276o\355\026?\004\251\306=\304wN\276\300\350{\276\'\250\214=\220\300\201=\206\036\254\275\232fy\275\273\216J><r{\2768d\341\2741\243\n\277UH\001>%\201\005>\242\274\300=!\275\033>\342\211\036\276\316\300\026\276J\323\251\275\330\307\354\274\245\2574\276\367(\327\275\360!\354\274\251\216\t>\320sI\275E\313\354\275\366}\205=\017\310\210\275J\307\234=\\\265\001\276\033\"`=\257\314Z>\244\222\305\275\217\0002\276K\214z\274X.\002\276M\'\215\274\016\221\332=M\364\313=u\376\256\275`-a\276\277\347\221\275O\201\352\273\307\260\205\274\300<\002>f7\003\276\214V\357\274\356\245\201\274\\\021b>\'\353\350=\351\2018\275\r\376\030>[\302\340=\240*\307\273o\307\003=R\274\254\275D\024b\274Wp\267=\253\210\370\275\374\250\205<\322*J>}a\221\273\005nN>\0136\355\272\007L\"\276\013\346(>iN\000\275\177\024\t=/{$=\360\022\246\275*\260m\275\237\373P\275\275\253o=\000\177\303=\021t\021>\026\360\244<4\320\006\275\331\207\362=\311\321&\275\020\301\315=\236\262\212<\rZ\002=F%\243\275B\225\271<\274e\323\275\334\277\212<\361?\363<\264\377\201=\317n\263=\300e\271=\320\324\356\275\265\030\r\275n|\214=\356[\030>\315\000\004\276\315:\227\275\303\266\013\276\315\343\317=\0026\221\275\rn\360<\372\370\010\275\027\341\234\275\231\301\032>\342\331\220=/(b\275\220\363\232\275\200\225\367\274!i\346=F\374{>\374$R\275\256\016\250=\253\240\023>\024\373\211\275Z\220\220=\217\371\245\275\320\202\234\275\326[\"\276\374:\007\276O\005\004>\357f\216\275\323\340->\340k\262;\246D\000\276\253\327\017>)\300\264\275\352\277\265=\336\034\231\275w\326\364\273\211\214\226\275L\"\244\275t\363\217\276\267U2\2758x\026>v#0\276\345\352\027>\352/\t\2763\224Z=$\201\270\274\355\016\243\274\235\347$\2766\326 \276\220\216\022>\324\n\013\276\300C\252\274\260\371\022\274\312\033\341\275\324:+\275\223\235*>=[\024>\355\212(>\343\001\001>\n\321\202\275\251\021\n\276\303P\261\275@\315@\275@/\231<$F3=\300\230\313<\357Y\025\276\335\323l\276\252  \275\257\212\211=\370%\033\275\221\264\313=\002|\005\276\227\267\351<\023\201\036=\212\260\323<\255\357\261=\247a4\275\2316i\275\277\377v=\370\004\215\276\355\276C\276\346\377\014\276,\267X\276{!\246\275w\352\n\275\243\t\233\275A\304X=\001g\224=\0232\204\275\345b\310\275,\312E\275\203\245\217\276\032\333\014>\337\261\301=Q\336\371;\246\201&>\371\211\361\275^\221\252=p\0178>\020G\217=\0309\020\276_)\016>P\372\315<\332^\211\276\365iq>\0234\014\276\300\344\302\275\025\363\r=\327\036\335\275-\243\264<(\214@>\316\250\327=\214\326f\2756\354\314\2748y\210==Q\225\275\370a\231\275W\'\t>k~\362\275\004\227;\276\244Y{=\362\310\251=zi\343\275/\362^\275\3067\365\275!\017)>\223$\200=\304\2378>#\216\000\274\022\003u\276y#\335\275\234\350k>\300\220\351=\373\300\202\275\r?.\276\005\302\t>\276`\230>\256i\337\275\006\303\213\275%O\025\2751\355\277=Z\210\035>\374($>6\030\211<\203\364Y>\"\361\352\275Y\301\251\275\270\360\262\275@\002\203<\221`\004>\227&\">\265\221\034>\354\375\367\275V\207X\275N\244\256\275\352\306\224\275\270\245\265\274\200\226\214:\303\360\324\275\253\220\013>rp\221=u\032\213=\203@{\274r\373\">7\366x\274f\006\255=S\341\216=a\274(>\336ks=\320lz>l\024\020>\352\032\335\275\321\273m\275C8\221=\335E\004=\227Y\021\276\227\240/>mc\003>\332\325\333={\2370>\352d\036\276\030\254.\276\215L/>\244\373\230\275A\320 >\250l$=2\251\213=Xq/=\036\314\322=\364\224\220\275\335\"\004>\252y\374=\020_=<Z\275\312\275\220\232\245\273\026\027U>\016\300\210\276\261\355\360<\313\035\255\274\377\007G=*\333\001> \n\264<\30504\276\013og\275\231\346\032>\020d\001>u\207.=3\204\261\275\270\025T\275\353\016,>\320\257\017>\311\026\252\274Z\310\233=Q\"\336\275\346\343\n\275\203m\316\275e\303d\275\360y+>\251\364\300=\307\351\226\275\342\312\256<[\227.\276@.\324\2753\244\230=YW\263\275A\271\277\275\2408\036\276\214\367Q\276z />\204\361\244=ZZ\322\274\240\256N<\307!\243\274h(\335\274%\311I=\001e)=\266\331K<~\361\014>\355\026\302=\231\027\t>`X\330\275\022\'!>\235\331\007>.\223!\275\033d\242=@s~=K\tm\274WzS>\332\022\317=\n\242\370\275\231\336[=\240\207\211\275#In\273k@<=\\\036\202=ph\233\275=A\221\275\364q\211>\001\302\020\276\216\244Y\276\260~\035>\335\320\n\276P2\004\276H\267\252\275\026W\274=\236\032:>\022O\212=\274\t\305\274\314\010\200\275g\002\027=\335 \313\275\231o\020\274A>$>P%\224\274\r\030\236\275\276{\255=\270\312\374\2759\316\000>\356\343\355=\320_U<@\360\330\2744\255)\276\242\371\342=\340\312\377\2740H\030<\200\235w<Z\345\305=\313\016\304\275H\033\204=\270^\230\275\0347<\275\211\257-\276\350\235\005>\372;\021\276\220T\363\275u/\344=\357G(>\261\021\251\274U\331\217=1\337\350=$\256&>\354s<>\261\255\211\276\\\371!\276z[\010\275\262\037\336=\030B\372<\336\367\305\275\014\353\014=\200\326B;\274\275\177\275 \031\033<F\177\333=\200\240\265:@t\370\273\340\320u=3o4>\230r\003\276\001\341\246\275>A\303=\256\367\031\276vf{\275}0:>Q-J=\323j\030<\227\3361\274\360\265D\274\270\254)\274\0105D=\241\1770>k\000\033\274B\032\023>\001\033\316=\233CG=W\363\225:7W\214=\032\010\022\276\255\260\240=\020\031\231\275EM\277=\307c\376=\371\362\034>\216\271\367=x\\\024>\3429\250=\244\251\226\275\336h=\276N\002<\275z\003\305\275\272\361\r>)#_\276\265\037\226<\262\3133>\014\010\200>\3503`\275\350\325~<\301\354&=\020\360\201=\205/\264\275,\235\006>m\241\335\274m\311,\275\317P\211=\177v\266\275.\235\270=v\r!=\032\033\235=a\331%<\361\375\340\273\021\210\212\275\246\037\321=\233\222\203<\2769\266=\241=\'\273\346@^<^\346\231=\344f\'\275p\351M><Fs=j\032\023>\'\0046>\216:\321=\272\267x<R\025\024>\034,\324\275\261\355\312=\005\226\010>\263^7>\202\357\021=\241I>>\323%/>M[N\275],:\274\023\277\315=\005\332\374<\220K\223;\371\337\307=\226\222\214>\260}\375=s\206\215=\3465J>\326\023\231=L\315\351\275\324\343\030\276\314|L=\360\032R\274\341\2771\276\320\307\030\274.\342\361\275(\013\327\275\224\277\344\275/\371\026>\203>/>|\0235\275\3565\330\275\270\252?=M\201\024>m\3057>\321,\023>\020\250\313=\312\222\005>\nP\320=\302\212]>\177\020\227=\\\344(\276\213[\014>\305\035\320\274\000\007\323=\231ph\274(!\232<\274\230\032>\336B\305=\020\263\020\275\260\343C\274\027=\023>\263\303\t>N\317\252\275\373\003\022>\257\305\020>\000\337\r=@[\023\276\246Y\027\276\327e\224\275\361\262\255\275\241D\t>\340?\246\274\372q\013\276\377w\t>\"\303\340\275\315\022\331=\365\231\001\276\253ec>\022\312\240<<\'\300\276\260\000Q=\202\220\275\273+i#\276\253>\\\276\262\336=\274q\355$>L\314\225>\310\225\222\275\030\215G\276\301H\202>\350\271Q\276\353\036\315>a\315\017>5\032\004\276\271\010\177\276\235\312B>\270\364W>`\226\241=\033b\324\275\317\273(;\273\367\260<\330\230\343\275\362P\001>N.\r>U\3652\276\315\330]>{\271y\276\273h\325=\316f\233=\200o\361\275n\314\265\275\364\354\224>\333\240W=\210\263\305=:\250d\274o\023\201>\2674\356\275\365\372\243\274\035\321\223=\023\255\270<\0269\246>\236\177K\276\253}\016=\320\023\273\274b\205\037>\024;\362\274\351&~>/\343\004>:\340\240=\325\335\353\275\305\210\226>}\362=\276\321\023\321=\262\327\370\275\363\211\304=\311E\200>\333\240\341=cst\276\244Q\305\275\256\270\227\276\345\211\023\276{\220\341<\235\367\014=\003\363\236>\014\373\210\276\265\262V\272]\033\305\275\352x\257\276\023\226\263\275$\324\252=\312\364\215\275I\034\271\276\200\367\026\274\034\267\351\275\257\223\214<3\201\022>=\260\n\276 \t$=\034\240\010=\204\376_=\327E\034>;\350(>\256\021\212=\3215\215\275\210\207\n\275\262C\263=\000\215Z\273n\033\024\276\030n\013\275\262\376\243=\354\273+=qP\364=r\214\022=\365\371\370>4=\002\275`\302(<l;\245=\257b\035>\324\315\200>\364\357\304\272\224H\251\275\0243\006>\nO;\274\037\233K=ZV\244\275\360\366\212>\206k1<\353*0\276\t\032\033\276\264\215\210=\350\352\323\274Z\237\232\275`\311\227\274 \365\244;\030\372\220\274\2231+>%\n\305\275\246l\230\275\272\007\334=\336E\261=\346\312\344=\000a\002\274\242|\354=.\215h>\374%\022>\nq\325\2759\035\233=\r\003\216\275\347\236\336=\003\377\357\275\355_H:)X\363\274\366\335\277\275?y~\275.\305\223\275\322@0\276\214-F>\314p^\276\373j\367=\373\242k=\375MM>\210\334\250\275\301\326\374:\365\203d<=s\323\274S\317R\275\236\362\030>-4\214\275\271t\037\276\350\247\254\273Z\370\201\275g\337\340=\374\313C\276N\227\370\275IY\340;<%\014\275\257\264:>p\003\261=\035\344\222\275,\210\351<x\203B\276\263\r\\=\033<X>\315\315\351<\242>\003>7\321\t>S\330\\=\314\033\307\275\353\256\206\275\314\037\366\275W\374W\275c\2255>\343\326\216\275z&O>.L\010>Zt\001\276\031N\031\276\232\231\021\275\330\341\207>\314\334\333\273\360\033m>\034W\272=k\246)\275\374\351\230=\317\3452>-\355\"\275\226\273\213\275\234e\332=\314\336\302=\244\304\262<\225~A>\316\300\232=\233W==\333\203\323\274\263F\324\2752l\337=\303[#\276\036\275\215>on\353=\026\363.=\247\014\000>5\251\'\276\202\310>=\001\357\007>0\205?\274/\351\014\276B5\004\276\344\036O\275PP-<b\010\362=\241{1>\356\177\232=\264A\232\275,2>\275\335\247\037>@\265T\274L\355\014\275o\225\033\276\213\177\t\276q\034\036>\210Q\324<\305HX\276\322~\351\275\234\351\236>S\037\235=\347\311\221\275>\241\222>\336\333\036>@/\000>R#\'=\017\207\031=#(\200\275h(\354<\204\273&\276\240/N=J2\276=\372\314\332=\273\242)\276\202\r\376=\323\024-\276\222\313\317=h\221\215=\250\312\022\275:\177\261=\306\255*\276\34414\276n#\373=\340\265\355\275\240\361>\275n\352\226=\212\253\342=\200\202\203=\035\241\246\2743\320\023>\234\365y\274*\253\227\275\307\253\210\275\032v{=E\242s\276\250\244\211>\304\230\270=P\216\013;\277z\377\275\364\350\375<\272\331T\274\326\235\255=$\026\007=\221\275\013\275-\357\357\275\370\331\376\275\374\337\322=\003\274.\276\201\370p\275\003F\020>\331\277\357\275\037\035\004>i\221\347\274{H\353=\\\342\332=\355z\227\275bQ\203=\025\036\256=\211\373\325\275\317\036%\276I\256\250<r\303\\\275\200\210Z>\270\250/\275?\256(>\227\022R\276\n\376\211<\211\2501<\343\314\234<\224\317\277\275\232\307>\276\267\367\"=\374\361\325=wb\275\275_\255\237=\200Y\002\275\344\223=\275\275h\252\275H\262\275\273\3459\031>\006\236M=f}\332=I\360\233\275\341\255L\276\222\270\214\275\224\225\265=@.\216=\372\t!<\300\264\321\275\200\300\227=\263\204\371=\332\203e=Y\277\364\275\'\n\201=\227\327\271\275k\254A>~I\337;\263\257l>\230]\277=\247\370\314=C\203\363=FN\330<I\212F>\034g\274=\230L\244\275\304]K<\364\'\001\276\2673)\276\316\022\323=\006\207\221\275=\340\030\276[\341\310\275\337[3>\251\2224>Ov3\2767\275\034\276\270\371\301\274\317n\021>@g\302<\260k\304\275\0148X=u\3761\276\213\0324\276[\311S\275e\272\210\275:\375\251<;}\351\275\371\004\270\275\304-\217\274I\232 \276\235\375\364\2747oY>P\211U>\375\003\'\276\177\276\003\276\020\252\007>\216!\224>\321\020f=Q`r=X\221\032=`1S\274\271\211\000>\004!\216=\252f\317=\017\254\211\275O\262\033>\333\246\034>\021\342\023\276\260\322\020\274 \030\210<P\242 <\177\177\016>\300\310\306\273\030\350D=[\354\342\275\355#`\276\022-4\276m\342\'\273\302\3707\275\321\220\341>G\325\n\276\006\325\006?\007=/\276\200\270\301\274\374 \027>\312I&\276\333\213Z>\023\241\220;P\220(=\253N\232\275\0226\302=\177Z\276>\215\370\225<\001\263\345=\345`\314>\327{Y\276\206\256\373\274\214(Z\274\213g(>\264r\022=55\213=\345\033\010\276\316\357\212>\372\327\234\276f\333E=d\310!\276\313\342\336>\303\036\335\275_ME\276\344\315\">\374/\023\276\231\313\317=1%\n?F\\\336>T\034\205\276=\316(>\241\305a\274\375\354\227\276\335\260\364\275\301[P\276{\007\'>_\023\217\276[\211\010\275\210\236\271<;\341l>\026L\033\276-\260.\276\313\335\200\274\322U\274=\032\264\211=Z\321<=be\t=\202\212\302\274P*\343=2\301x>]\355\013>\271\'\201>\206\355\246\275\321u\033\277\201\365\247\275\203\321\360>|\370\213>a\230\271\274=\240\002>\226\255\'\276SH\333\276\207<\356\275\365fQ<8D\232\276\302\2442>\313#\247\275\345>\236\2747\236P>q<c\276\274|\360\273\313\227\205\275\"\355\211=\210\375\017\276{\214\021>\314\353.\275\277\0354>@\203\351\275\361D$>\343G)>\201\207\031\276\200NG\274H\010[=7\332#>\371\242\022\276\336\274\326=\343G\024>Gu\275>\332\356\032?\255\343\276\275\207\273/\2763\353\252>Vk\010?x|W=\317\214x\276\336\374\016\275n_\226>`\253_\275~b\277>\335\277\265>\244\3315\277\026O!\276b\343\246>\212K\210=5\357\216\275\306\005\356=r\006\361=\210\310\027=@\2559;\257\343+>\022\035\334=\312\250\225\275 \311#\274\303v\000\276\0325\326=\330<<\275z\312\271\275!\243\032\276\251\301\r>\373\255\224=\355\252\\>}\274\253:@\362q=\266\t~\275\371\357\331=\322\252\024>4I\205\275c\264Z>\314l\324=\037\022\340=\010/\372=?\334a\276\267<\031>\240r\016>+\234e\276\301[\323\275\314\247(>\035R\2018\33675\275a\010\341=&\224N=3\030K>\276\235\323\2753\225\265=4\257\235\275\005\005R\276\021\013\370=\302\036\336\2746O\277\275\034]\252\275\363\026\014>\335w\036\275\322\224\206\275\326\325V>\2775\337\275\314\204\037>\005Un\276\226\013&\274K\270p>\335n\273=\322B<<r\205\030\276\252\246Q\276\371U`\275\262{0>\005S\234=\312qq=\223\222\\\275p1\324=\307\222\326=\375.\n>M\333\023>\244\255\334\275\212\236\010\275\316[\371\275\375V\207>\025\215%\274\032\255@>-\024\243=\342\t\035\276@\365$\275#\237N=\330+\312\275\275\340t\275\306e\211=k_1\274\347{\327=\2173\260\275\254^\206\274%\217\355=\372\303\202\275S\300@>\n\341t=zhN\275\3279\265=\3714\201>ay\355=\t`\263\274\252j\237\273W\036\250\275\351\344\300\275\256\360\350=2\010\034\276E-\017>\350\017\000\275\240\236\271\274\256\342\270=2\037\356=\343l\277\275Vl\302=p\245&=\313i\002>\311`\003>\276Y\236=\264./=^\253\213\275\275r\213>\351$O\276\".;>\346\314\236<\374\334)>R)\216\275a\303\306\275\334\270\n\276`\237\010\275pq\023\276g\263J>Fm\370\274\355\314\253\275\320\026\316\275\233\251\265=\336\262\210=Rf\177\275 N\024<\036<\204\275C\221!\276\250(\270\274@\372\217\273.\034\264=`n <n\303\250\275\241}\032>\000,b\274\034\205y=f\263\241\275\374A\223\275\267\336\036>\320\002\241\276\351\367 >\232/?>\023\237\205>\303p\265\276s\341\026>\010[\327\274\266\0346\274\270\314\313=T\t\306\2750\257\177=\330\212\241= \300\233<!\370\337\275Na\344\275*\223\356<\333\264\033>\031\234{=\210\016\207\275\016\324\211>}V\023\276\007\237\222\275\221\344U<3Im:Q\337\006\276$XW<]\024\205>|\240\351\275\242\r!>\272\253%=\275\347C\275\337\003\263=\265\r\t>\237:\304\274\356\333\257\275\275E\033\276\336\026\023\276E\323\276\2760\244\244\275\265q\233>|$,\276\211\035\225\276\'\022\311\274\323\366x\276F\370\273=\321\264#>a\256\253=\303\224\021\276!\252\177\274gW\213\276\017\226\017\275\206\357\352;\227\356\032\274\342\246\001>@\374z>\231\304\353=\340y\272>\374\036U>f!\227\275N\027s\276H\311\215\275\2201\224\273\374\321\026\276\261\365\030>8J5\274\337\247\360\274t\243\324>F\375!=q\306\370=\351Q\316\274?z\301=w\364\377>T\275\265>\230B\n>\354\335\222>\r\357D>\030\347,> \303\317=\025d&>\336\321\341;\240AJ\275;\3551>\264\350\031=\316\333\357\275\240\006\274\274\240\242\010=\214A\336\275\343\371\345\275\343\263\251\275CD)>5\016-\276\235\010%\276\267\211\020>h\222d=\350\234\201\274\345/\314\275/\232\253\276\030gx\276\360\374\215\274\005C\377=\311\355\255=\247U\023>i\310\023>\024`u>\334s\032\276\333H2\275\004\342\223\275L\245\016\276\374\307\275\275>\177\331<\351\335a=\304]\241=\250\305\024\275\371f\036>\330\264\230\274\256w\243=x{\210\274fA\000\276\024d\203=\303\345\016><\373d=\263\264\013\276\026O\365=\020v\005\276(qP\275wl >:k\253=?\304\004>\226j!\276v\242\032\273B\347\256>\376\272\020=\326\n.\277\316\177\023\276\031\246\214=1\262\236=\034\312U<Q\005\214>\372\3201>\302w\035\274\236*\252>\216\264\302\275\345pT\275#D_=\312\035\302\276\371\312\005>\273\243\205>\002\3434=\251\033\243>\211\355\244\275\321\265\002=hV`\276uc\203>\330\014\220<}\205\013>5\017\026>2\\{\276w \224=b%\341\275\232b\341=\234:G\275\231I\005>#\261M>\321\237B>Z\2228\276J\234C>\252\023\217<_(\213\274\247\227v>\2533\"\274\365,\353\275\305\374>=\372\362\032\275\2161\205=\036p\373=\002S\366\274\363\255\257\274\200)\313=\267\031\210>\353G~>\024\256\222\274\303U]\276\333\376\300=\007)\365< \324\330\276}\375\220\276\007*#\276G\234\217>\006#|\2750\233\265;s\376W=\006\005\314=\016\222\212\275H\023\360=\337\027\272>\360\270C\276\204\021d>WyU>\377)\353=\001\3643>\215\220\206\276\201;\364=\000\205+>\227\036\014\275#c\263=\246\3444\276U\000\214<\324\325\361\274\177\026\275\275\016\014\273= \007&\274@=\276\273\224\221\213=\300\020\227\273L\302\031\275V\302\345=\240\350\026<\234\241\010=#\245\270\275\340\235\241<.\222\226=\316\262\371\275\303\021\026>D\361\314\275\n\023C\275=\364\035>x\263\237\275*\377\233=?\350\233>\306\311\326\275\340\t\243=\303\256\326=G\240\326\275\257\003\314\274\221[\025>I?\343=\202\374\257\273\212\363\270\276\023\352\346=d\242\023>L\365-\276\361\256$>\357\025\017>\321\211/\276\004\030%\276\311X\333\275,a\000=\213\0062>\032w/\276\306|\317=qU!>\217\264\336\275n\314\t\276\240F\313<z@-\276\210\202,\276\324\273\271=\250\255\240<w.\353>h\331N=gXx=\004\335\370=\313\353\211>4S\256\276\302\321\275=\004\355=\276P\316\252=\336o\026\276$\322\271\275\306B\036\276\016\"\223\275\243>\236>\327\303\213>\245$\261\275\256R!\275\375.\241\276\235\021\270=K\347Z>\322cc\275\315\310\242=\343\354)\276\304.#=\361\007\203=\235\237\375\275L\255\002>\031\260\r\276\0034\006=\255uk=\224O\232\270\325\336<\275\200\026\346\275\234\322\245<cDA<\342\"\307\275\330\364g\276\320\346m>\322\032\351=>\tj=F\332I>\345,\202\274@n}<<FE=R\021\214>\323\2430>W\204\023\276\007>P=\343\303P\276F\224\263=\357\345\301=\230\037@\2760\251[=\036{\230\274=\307\202\276\253YE\274k\216\016>o\352\271;\250\366C\276\242\226\360\275\300\211&=}(.\276EyJ<\253\324W>#\023\005>i4\366<\036\231R>\251\230\215\276\r\000\313\276\301\026\331:\352\271\306=!\374C=\260\322o\274d\032\260<\316s\033=\274\251\304\271\3003\006\274\236\014\323;\265\177\021>\310{\353\274\020dH=`\244`=\0135\221\275x\035\211=\200u\375:\310\031\271\274~\322\370=/\301*>\271\266\202\275,\230r\275T5\003\276x\300+\275\304}4\275\264\t\332\275\263\233w>\3571\226\275]\026\300<\372R=\276\022\276\264=\200\306\210>\332\213#\276SZ\r=\250Q\200\274g\346\275\275\366d\377\274 \377\031=[\227\023\276\272\261\r=\025\014\252=\351\005\337\276p\200\014=\375\032\024>&\013\335\275\262\377\324=\224\354\t=\032\025 \276\025x/>\3300]\275\274Qe=\320\357\025\276\026\355\332=\341_\036>\225&1>\262\365\312=\200\036J=\000\223!;M\031\375=\321u\034>e\230\021\276\235\n\032>\010g\342<8\236\002=\212\371\005\276\307\274\237\274L\010\307\275\375R\020\2751\272\250\274\205+n=\303\363~9\212V4\2765\354.>\351\234\\=uh\014>\3279\351\275\315\\\004\274n\005>\274\232\2026>\243R;=_k->\235\016\224=\246\"\314=\260/\305\273\366 \026>XF\317\275\3646\334\275\365g\206=a\321\024<\217\245\243\275;= =\3507\271=\371\361:\2726\277\254\275\033:b>\003\201\272\274*\266+>\2362\230;\224c\357=\255\017\313\275s\\\234=s\373%\275\035i\333=O\335!\276\275\272\017>\001\260\277\275\374m)>\263/\245=\027\"0=\201G\356=\207`\"=\227?\250=\207\201l=\3068@\275pj7<W\247`\276\253+)>V\004a\275\265\357\375\275\216\223\207\273\035\343G=`\036o\275ic\233=\r\251D>\355\345$=\2509\373\275\361\204\r>\337\352`>\017\013\253=\212\rb\276B\230\245=&\270\005\276\311\220\230:\327G\335=n\216\022=\305hq<\306i\302=\t\235\004\276\323\237\005>/2\370\275\320\021\252\2742@\217=\200\222\200\272\252f\375=\212\332\375\275\024\246\003=\242\227\261= Q\n\276\244\220O\275\353&\020\276\027=\252\275\n\275\337= \000D\274\244\276\002\275\321>\250;t\212p>;\266\'>Yy+=H\217\234\275T\007\023\276\364_\255=\232\002\274=!\031\177=\321v\317=\r1%<\314?\000>\241\244\200=\227\273,\275\327\005\350\275D\310\325=\340\263\321;\374\343\024\276\204\277F\2757\220\335\275`\212-=\355\244+>\317\323)\276\362\r\000\276\016r\266=0\035\203=\r\337\037>&\'\006\27625\277=\013\243\017\276\020\235+< \364\212\273\346\344\265\275\346R*\276\255\240\276\275qT\217>\300\312+\276$\315\335=\272z\277>\261\307\026>\307B!=\213\3513\275h\301\314=\004\217\251=\266m\232\276V\030\030>\230\216C\276\nO\033\275\231\276\202\274\2746\350\274\320\254%\276?(\200\275Qy\031\275\022\271\266=)F\320\275\327\0346\276&\030m\274\007\373\353\274Zz\276\275\352\257\247>T\274/=\260\302E\276\014\304\201>\\;\310=\337\347.\275\350\025\235=\003M\347=\242\225\321\275\263\342\225>\371\037\206\2750\352.\275\225\203\024>\025xB=*R\017:\300G\016\275g\375X>\'\266&\276\3308\244\275\263c\225\276\340\013.>\276c\246=A\010\220=\362\003\206>S\231\313=\355\336\342\274E\321\232=*^\020\276\3212\263=;\365\032>{\351k\275]f\237=#<\205\275\214\017,\276\217!\034\275J\333\216\276`\236\303\275\326x\025\275\366\313N=wl\350\275{h\220=\374?,\276\021>\213\275]\020\226=c\\\n\276\221\306\303=I\3741\276\231t\275\275|\331\022={Cc>3\323~<\312\266\236=\275\225\254\274\3648n\275\362\365\240=\213\241\027>\354\225\020\276\037\3611>\340\3165=\302\300\354=\371\224\365\275\200Z-\275\370\363\304\274\271\377\001>\010\001&\275\356\207\341\275\260+$\276\000\007\321<~%\004\276\326\266\244\275\232\221\024\2771\001\202=\207X\301>\223)\330\274\271R\311\275O\210\202>\346\'\205\276\276\336\016>\376\177\231=\301\"\271;\271\"\353=\365\230\321=\240\364\033>\034\347$>.\203\337\2753\314\017>i81>\306t\277=\3266\334=\177\334\236\275\372\n\337=\024X\030\276\224~@\275\340@}\274\207L\033\276\330A\237<\354\200\026\276\233>\n>\005}\361\275`q\372\274W\321\027\276Z|\344>D\321+\276\263H\322\275\343Y\007=}\374\353\276\357U\020=\347\312\323=\337]\033\276\032\325T=\370\303\014?\2228\257\275\254\316x\273\';B\275\024\020\253<6,!\276#=\001=\306T\226\276\346\243\357\2745\333B>\r5\212>\221u/\277H8\t>\3658\374\274\234\317I>\217\t\322;\242\231\304<\311\243)>A\3669>b\235\027\275\376\245\205\276-W\r\276w9\205>\362K*>wq\235>,?\224>)\026\311=\270\261\243=\204E\220<\340\333\201\274\276aO>~\274j<\250\367^\276\177+(>\2714\253\276\316\365?=\221\366\n\276\204D\247<\036s\376\275\206\310\351\275c5*\276p\202\016\275O\362u\276\303\256\025>g\220j>UG >\225\237\034\276?\363\370\275^{\370=\226\375\347=\315\325*=\227\221\200\276\343\262N\275\310\325\205>\220^\304\273\342\t\014\275\024\2676>\271\367P\276e\242\034=G\235\014>\365\037\227=\025\265\'\276q\265C=\355M\017\276\265\256c\275F\264\036\275\320G=\274\271&2\276V\374j=\330nV>\215z\272=\351V\000>x3L=\257\356\320\275\340\322\202\275W\274\216\275\255\256\"\276J\224\032\276)\032\007>+1\034>c4\037>\005\326\005>*`\203=\216c\363\275\275)1\276^\335\376=\350\036\266\275\357{\037>\336\333\001>T\206\227>S:y\275\020\'2\275>\026F>pL\317\275\216\361V>8\247\221\275\366\254\251=~*^\276\'\253\265=\232\030\001\276B\244@>\265\306b>\327\000Y\276\305x\t\276\000dC<@\002=\275\\GV=\026\255\354\275\250\010\010\275\200\261\345\272\016\320\215\275\260\3513\276\026.\307\275\252\361\225=\177\305,\2762$\375=\226\354\355\275\351\267\010>\260\316\022\275\264\313A>\235&\004>\373\016\220\275v\265\342=\335\236\r>\265#\373\274\362\333\360=\213)O\274\304\2529=\363Y\226\275UZ\326\275\337S\333\274\026\312\210\276\r\367\013>\276\214p\276\351\331w=0\321\326\276,v\021>\365d\020\276\r\"\013\274\257\267\225=\262\363R>\352\320@>\224\025\005>\347|\325\274\224\373G>W\367\244=}j&\2756\253\213\276\022V >&\2055>\357\321\000>\256\302\246\274\224\032\274={=\'>x\240\036>\237\277\260<\332 m>\246\004\027>\013q\250\275=\362\217\275r\276k<\357g\202=FIh>!o\r=i\204\207>\365\365\200\276\000\257\201=\3208\201\275\306\200\337=W\336\0229\205\262\360\275\022\003\205\274\340\220\r=\200\215\004\275\334\323\304=Q\010\365\275\370z\222>\326\311q>\374\374\377=\330\2346>-o\017=H\032V\275\315\353\256\2748^&>a\313\261<C\376A\275\375Q1>\206T\336\276%\006>>\211\334&=\330.\220=\267\272h\275K\301\253<\365\365\203\276\307\263\022\276\243f\270\273\026\207\244=\235\360\277=a#\332;\300g\374;\256W\342=\016,\214=\226^\330=\200\004\030\275/G\356\275,@\030=r\n\204\275\232\002\323=FI\023\276\240^3=\220\346o\275V\346\242=\351Q\276\2756$\220\275\000\307\245\272q\373o;I\251\270=/N\226>\222v]>\257W\002\277\377\252\241>\031NW\275\220\246a<s\3324>O)\'\276\311\343G>\3739\371\274\036\0332>2\026\004>K\177\372\274.\302\327\275\270\324\311\274\276\010\255=>\203\250=\326B\246=\223\204\004\276@{\315<\315\013\244\275\004\245|=\213\336\010\276z\263\267=\226\367\247=*\"\302=\200\310\'\275\310\032-=\274:*\276\330\2006=\226\261\352=\360`I>!\246\340\275\347=\236=\367\227B\276ZN\323\275\024.~\276\211\320\246>rF\256=\221\226\025>\3245\225>\304\224X\2764\277};\343\036\022\275\212\037\313=)\221\354=\312\245;\276C\356 \275\362i\221>h\224+\275\230\2549\273\242@\274\274n6\014\276\201\002\036>\326}\257\275L\275\205=\347]\215\2769\224|=\262\375\261\276\255\377\221>\006\257\370\274h\030\214>k\361H\275\372\267I=\235+$\274\030\'f\276\034\213\220\275\024\376\274=K\010\374\275\303\'K\276\260\346\021>\263\305\010<\003\254R>\302Wf=\252~\016:p\3045\274\2519\022>\244\367\215>&\262\337=\033\016\303=\343.\037>\353D\023;#\300\223\276\013\206\365\275?\204P\275\3443\005=\334\344\215\275\265M\241\2741\370\372=O(,>\276\021\254\275\370C*\276\354\3365>\346\253Q\274D\300\201\276\241\351w=\263<\014>\213W4>\252\237\211\276+\363 =\010\033A\274\227\354G\276\337$\230>\262- >\002\215o=Xw\303=\246\326P={\354j=@\370\230\276\255\334r>$\227\007\276\200#\345;of\303\275w\277\241\275\037\216\340\275\325W\032>\200\014\244\273as1>\273O\270\275@O\347\274\220\367\004<\325F\362\275m\352\005\276\000\200\n9\004\306\034=\200\322\275\273\362\251\235>\352[%<{\221Q;\242\346\035\275.\264\207>/()\275\204\300\026\275C\rF\273\255,\331\275u~P\276y\361%\274;,#9f\\\020=\247\312&\277\370\300\260\275\000>\314\273\033\224\t>~\325 \276TG\213=M\252\032\276\226z\334=D3==\236\272\270\275\350\365;=U\356\033\276\005\263\013>\212-\252=\224\263\251\275*\'\321=\251\310\327\275\020\224\212\274hP\367<\030\315r\275\274S\013\276R\232$>\356\347m\276\017j\355<uEv\275\212\273b\276\306\352\310\276eO&\276\300\202\257\275\010\375\230>\354\241\032>q\321\270=\346\375\213\276\250H\233>;\331i>\3371\214\275\32638\276\025\345\310>#)\344=i\220\'\276\362\302\273\276<\203\245\274v\275->\217\337!>S\376\033\274DU\032=\367\251\325\275\203\365\035\273EG\305\276\025Jd>C\316I>\302\253\267>K\215\311\276h\264\265=+\225s=\374\205\"\275?c\003\276:iD>\\\"\256\275\350t\364\275l\215N=\245\344n<\033\243.\277\303\355\330=\324F\r\276%V\311=\311\007\215\275Q;\016>\031\3756\276(\374\226=\215\224\207<C\374\325=\207*\324=\037\325\236\275~\354c\275\206~Q>_\356\203\276\n\346H\276\315R\260\275w\213\304\275\"\231\013\273\307\377&\276\245\272\242\275\016\2344>ZV\314\275m\356\370=U\027.\274?\322J>3Uo\276\014\2301=\036\007\307<r7\r>\264\263a>\216\257\304=\244\376\022\276\3045\262>J\375\t\276\234\274\355=\322\305\021\276\264\350\032\276\357\364\036>\355\177!>e\341\010\276\302\225{\275\326=\216=\233H\031>\363\0170>\254\020\225=s\335\334\275q\323%\276n\310\242=\274\246\022\275\350\240:=\214U\222=\265D#\276\235q\321=\350\263\342=\363\263x\276a(h>\032\357.\276\346~\356<8\227h=_\323O>\260m,\276\222K)\275\354\266\032>\275\214\273<$y\306=\265i\266\275\003F!=\330\001\365\275T\256/= \t\201\274\205\227\333\2755\323&>\0008 =\212\242\306=H\030\271\274P\003\001\276i\233\370\275\3236\223\2752\256\357=\275\377\034\276\215*\000>]\315#>v\303\350=:\021\000\276\313\225\313>?\230\205>{P\316=@\3200>\373s\023\276\362\217\031\276%V\200\275>#b\275a\233a\276\341\301\256\275\334h/=\271J\213=JM\n\276\373\t\325\274\224\245\210\276\372`\025\276\372\203\273=-;\255<\337`$>\032\345?>\005\306\315=M\333\r\276\2547\215\276t\271j>\2449\3269\020\'><\2246l=\032\250F=\326\'\223\276@\006\322<\320\375\233=\365\201\031>\313T\205\276\244h*>:\211\266\275\360\r\220\275\354\270->\275\245\357\276\003/\255\274=\235M\276\211w\022=W\253`>\355S\031=\356\257\237\2742A\003>\315.\311<\265\210>>\377C\305=^\"\311<SM\004\276\2600\002=\300\331\235>\225k\023=\267s\200>\211D=\276\276\017\262>\342\236C>\310\321\271<k\216\261=\337,\324<9\017\\=u\254T=\266\315;\276z\233\037<\321%\331>+\306\315\275L\247 =W\013\350\274S\261\032>\037?0>\344\3345=\006;n\273\225\372\206\275\377\306\212\275\021-\014<\377\327D\275\206!\243\275GS_\275\376\022\260=\"\3130>\222\321\274=\325\361\337\275\220f\027=N\240\200=\004P\316\275\320\204\321\275x\n\003\275H\031\371<.\263\317=\310\314\035\275\340\317\367\275\375\354\207\275\351\374\356\275\n\\\267=\310\342\005\276\2028\310=\301\1774=\374}\005\276#\022}>\236nN>\265*\305=\nX\034>d\003q\276\201\345$\275#\332\206=\252\373\274=\233\353\031>\202\006B>\276\270\277=s\004\375\276\023\260;>.p\202\276h\321\010\276\026\323\373=\223\262\032\276\030\023\221\274\202\312\211\275\330\032\024=q\201\003\276t\013\274\275\362\305\255=\272\305\265=wd&>\276_\301=x\301\222\274\230WB=Q\226\010>w\344\000\276\321\300\257\275\361\231\356\274\216\241/\275\201U\255\276Q\334\270\275\226\370\273\275A\001\274\272\215\255\203>\227\331\346\272\r\202\245=#\344\272>\267q\203>]T\231\275c\370v\276Z\210\273>\014\250\250<J\324q\275.G<\275\257,;\276\036 \005\275<\3515>,\264\346<]\217\207\275\353|\356>\333O.\275\306\032\021>\275Yf\276\226\233*\275\010U\237>(<\241>\365Q\371\275q\031\021=\242\215\303\275J\253\024\275\357\377}>=j\237>(9\310=\005\037\027>\207R\217\276\313\302\342=\340\230\002>\266Je>\256\325~=\222\234\206>LP\r\275g\312\004>lT%=\362\274\\\276\273^\001\276\251\036\257;\316\340t\276\316M\303\274\213\227\'\274\250\246\032\276\374\230f\274\226\267\r>\265\210N<\246J+\275\326Uv<l\302\260\276\215\341\016?K\220\324=\265\267 \275X\216\270\274\003\310\227=\0021\034\276\232\232\242>1R\007\275[\014\250\276\342\304\376\275\354#\356=\206\241\263\275\021\304\025\275\366\343;<\354+\207\275\356\016\361=4\301V\275\373h\226>\240@\205\276\332\274D<\260\337\346\274\036\272\246=\252\343\302=\206g\343=r\347\240=)\311\032\276\357\321.>\304\000+\275\272[\010\276\304\263\237\275\2000?\273f\255*\276X\024\t\275v\255\265=\372(\256=\345j$>\231\264z>\3278\177>\247\330\007>\335\202\262=\033)\013=\315I\347\274}f\214>\312\376\002\274T\326[>\307\372o>\320,\342=h\210\356\275\237tt=\273\274\024>@\020\204\276\354\367\315=,\201\032=\373l\001>v\367\230=\244\023\'\276\311\254\201\275&\246\234=\266\313`\275\337\027\300\275\240h\365;nQ\217\275\344.\370\275\224d/\275\030\020\216\275XWH\275\354\010(=\220\2629=\3744\214>cl\014>\2155\366=\272S)\276\021\311\253<x\307\222<\3305\025>U=\341>I\264\326=\177\275x\276\275)@\275=\354 \276\027G\230\276\263\270\207\275\221L\250\275U\354C=q\3532\276%y\325\275\'\357\333>\320S\266=\260s\242\274\240\322\357\275BF\213<D%m=\007\262\260\273)\205\010>\307X5=\240\005\257\275\016(\020>\t\363*>\315Pe>lP\273>\003\373\263;\260\3238>\236\320\036>G\273\225>\2614\222\276dxg\276\355\316\212\275\226\001\230\276\240\247\331<\031b\023>\372\332\202>\327K\002=\024\347\306=\031\223\206>\026@\250>\274\"/\276J1\213\275N\351;>\312\374Y=%,\252=\300\274\036>s#!><\257\216>\361\222;\275\215sX\276f\0338\276\036=\344<C\3262\275\216\0133=\013\001\243=\377Tk>\273\037\222<-\347\245>\317\365\346\273p\222\035\276\013\2429>\315pS\275\233\326\365>{!m=L\\\277\2769\352\212\274\211@\351==,\201\275\313\200(=7\034d>\266i7>\227\226\204>\037\220\336\274B\303\342=\220s\272\275\006\261\233\275&U\013\276\226\222\266=\364\220O\275\324ox=B7\331=\306\234\001\276\240\363N\275i\t\013>\2508\244\275\030\327q=\320\027=<\240\031c\274\246\026\374=\271h\r\276\035\005\323\274\256\321\022>\337\336\261>\364\317\221\276n\247\210=\261^\303=IiI>\013\260\315<\013\343\333=i\206\332\275_z\232\274\341fI\274\260}\214\276\0138\217\274\307T3\275\376m\324\275  \207=_@\000\276\236\t\374\275`\212\017\274\364a\230\275P\2755<\253\3761\276\2741\245\275cM\326\275/o\221\275\200\3416\273\326\333(\276w\321)>\010\237c=X\203\033=\\\276\354=\001zl\275\254\034 >\250\361o\273$\220\251\275\367L.\276s`\222<)A^\276\327\261\026\276\222\356\223=\213nI\275Y=7=h\005l=KE\024>\307\325!\276\000\343\004=\252C$==<\333=\337\245,\275!\360*\276\006\370\037\276\344\241B>\022\005\030=#\\\272\275\364R\004=_H\001\2757\265\360=\314\024f=\271\200\263\275>V\032\276\303\014\016>\177\252\317=w\366\227=\365\267\350=\244\366#>\324\367\266\275\251\260=\276\267I\r>\331|3\276n)\274=$\034\022>\370\367\214=C\032I\274\226\315\322=r\371\260=$\340\253<\315\332\t>\266\3714>\016\314\246=\346\231Q>W9\232=\334\315\034=F\333\010<\203\r\243=#\366\363\275\266\000\253=\362v\016\276/\030\214<7gS\2741=\275\275\356\347\021\276\010,=>U\0008\275\225\202\232\275\301+\200\275>\260(\276\017X<=\210V\224=4\324\030\276:\022\177=\341O\271\275\351\031\001>:\006\316<\014\374\213\275=\316\351\275\25617\275i\301\316\275+\310\375=\326\355}=}\004\376= \330\204\275\024\316\023\275\210\201\003\276\220~%\275\274\342\014=\240\321\014\275-g\003>\336{\255=h\320a\275\34513\276\020>\014\276>s^\275\003H\261\275&f\330=r\346\320=\236\200\257=T\005\014>?\264\023\276A\367\242=\360\320_=\264\336\343=^\272\330=\024J\035\276\233&\033\276i\360\016>>s/>\350e7>\270\220n\275\022H\250=4\323\277=&oM\2754\301\255<\2532\r\276\254\370G=\002$\377= \232\323\275`\347u=*\023\270=<\265t=XSB\275\300\270\253\274<\230\003\276K5)>|9\225=\334\317S=r\224\333\275\"?\336=0I\204<n\266\266=\324\371\253=\034\277\n\274\344\261\245=\331\303\003>\252\"\037\276\322\372\002=/W\014>\224\n\314\275e\355\004=\370\312$>\370q\026\276\0343\022=\2714\332<\202\267\263=\206h\021=\260\243_=\005\022\373=\2622\224=\223\363N\275*y<\275\213G=<!\242\256\275\204v\244=\"\351\376\275\312fu=\032E\033>tH\\=\271\001\363<\204^\250\275\332C\311\275\225\325\226\275\'\020G\275y^\027>\213x/>\331+\001>\306\037\002=\301H\272\275\234\327\201\272f\260\t>p\361\000>>\002\324<X\312\215=\375\320~<\237\336\033\276-HT=S\206\353=\tce\273\305\034\"\276JW\017\275\344|\222:\030(\251\275\322\260\034\275J\305\301\274\027c\256\273\363_/=\177Qj\276\000\231\215<\027\344\242\274e0X>\304kO>\227\005\255<\253\006\t\276\022V\370=\300\222U\275\235x3\274J\250B=E\321e=\026\2256>0\177{\276y_-\275\024F\322\275\347\032]\274\252\205\324;$\357t<;H\204=\233*\320=:\361e\276\017\2323>\252y:\276\324\314\200=\313\261\337\275\322\373o\275\322\226)\276\030\224(\275\000\255D<P\371&=\003\341\333\275\300\337(=\213\225\027\276\200\223t\274pQ\027=\242N\315=|\006\232\275U1\013>1\265\203\275\nE\030=o\202\216<I\365\n>Qs\351\275L&V\276\304u\305\275O\033%\276h\331\021\275\031\317\007;\230\302\251=l\331.\276\033#\345\275\375\003\225>\365\204H\274c\361\\\275\355\303\325<\255\324\002>\224\322y=\252\216\325=\237\374\022>\230n\200\274\325\226\302\27501\316\275\236\323\303=a\000\'>\034\243\010= b,\276\300\376@\275\026\312\352\275L\025%\276S\035\275\275\2678&\276\321b\244\276\213\273a>a\325W>\255\003\347<\253-&=\303\250\000\276\345\342T\276Q-\270\276$<\355\276\234\257\210>E\372\037?\350e\246>\030\333\211\276\273\0346>\023N2\276g\030\367=)\003\027\276\222C\320>\254\300^=\202\225\021<\232\005s<\023\237\245=\203\205\220\275iO\236=\326\223\214\276\225\0004\276c+\020\276\217fO>n\034\024>\314\232\211\276\001\'\253=\223@?>\206\325\235>\274\243\'>\266\246\217\276\014\301\235\276\\E\002>\312\251\306\276\346\331\240\274\223\031\305>+\3559\276\217I\020=\350\312\036<\276\273b\276\230O\232\275\242\373\217\275\364J-\276\032\024\300=\272e\n\276\276X\324\2741\241\257>zXv=A\306W>T\024\223\275b\352\263\275\2225\212>\206y \276\336\3729\275\251\314\"\276\225\372&\276\027\222\036\276\201\341\204\276\211\344\200\276\326\365L>\274\0378\275P\210b>\277\032T>\311/\r>z%\013?e/[<^\033\301>N\271\316\276\017\350\244\275\277\302\227\274U#j>Y\376\347\275\035\035r>F\214\266<R\331:<:!<>lE\241\275\300\273t<\247\204\031\276S\342\037\276;-\020>0^\020<\201\024\276\275j\014!\276r\353\223=hnP=\360\315.\276\000rk:3\213\007\276u\262(\276\004\362\367\275Z\322\313=\257\352\005\2765h\215\276\337#\333\275r\360)\276\\o\204\275\242\366\226\275\214\2374\272Z\034\017?h\363\214=\375\307\">\361\206\013><\303\202>B%\036>?\003\252\276\225)\347\275\345\221y\276\302\347\305=\200\237\263\273\030O\311<\267u\010\276\364\276i=\332\370\340\275\321U\031>T3\020\276\022\231\363\275\206P(\276 F\243\273\340? \274\'M\r>\256\007\340=\343I.>\223\2211>\240\363\\\276\326\317\254\276\234\356\331<\033\327;>\014\256h\275/\220\244\2758$\302>\344\013\315<e\215\371=\213\367H\276\225hj\276\336\276\250>\243\016\205\275\354\340\207\276\210\034\310<\021\317,>\275D\310\276\030 &=\211\357\n\276]\333\204>%\354\331>4y\357=\310v\207>J\205\326>\252a&<e\221\035>\251\317a\275\315G\202\275|\267?;Lg\272\276\032\005\247\276\023\267\014\276]\320\031?\0226+?\272O\332\275\177q\300\276\035W\n?\235\333\302>\375\204E=\370r\025>Q\355\206=\240\343P\276\3217i\276\230\246w\276y_e=\026)\352<\203\237\260\276:\331\320<\336\302\365\275}?\372\273\371X\211\276\351\2470>U\371r>\301C^>\220ee>\234<8=\3779$\276\003a\217>\362\004+>\2316\214<0\205\326=\236[U>\224O\010\275\035\244\216\275\013\332J\276\037\220\336\275+\351\337=\007_A;:\330b\275\365N\343>\322J\375\274\375\233\321\275\366\343\016\276\276\001(>\364\231\213>Z\320\303;!H\203=\222\001\'\275\261\t\237\275\215\022\227>R \355\275I\340\217\275\307o&>\326\312\352\275M\306\031> t\362\273\023)\'\276.\274\000\276\253\035\002\276\242K`\275p\247\037\2758+L\275\360\001\010\276\026u\033\276\2769\202=\270h\263<\314\200\317\276UG\214<\374\305\010\275\213\220\267=\202E.\274\204/\n>\263)^=\266_\232>4\205\331\275\002\212K\276l@\303=\006\333\213\275\301\325z\273*\354\007\276\363\310\232=\276\31739\300\261\377\274}\323\005>a)\252\275\'G/>.0\205\275\230E\005\276x(^=\324\025*=D\367|==\241\371\2754\362%\276v\340t\275\227o\021\276Vk3\276\020GA<~\n\203=\324J/>5\302\037\276\0066\227;\351\200f\276\'\325\004?\rV\276\275\322\022\270>6,n>\270#\333\275\006\372\247\275;\nB=\333\370P>\022\016\r<}G\320\275*\227\253=\370\300\023\275\215\337\362\275j(\r=QI\000\275\372\276\221>\324X\224\276\223\035\342\276\005\341\206<\340m\372>\316J\r=\202\2108>\304w-\276M\346\305=Xu\362\276\232\277\243>t\002\336\275\334 \335>\254\214\300>\027\357\240>\363\340\326\276\323\353\255\274\325\240o>7\034\201\275\215\244\342\276\036\n\371=Z\375\231:#\263\207\276\374\364<\276\3206\325\275%\003\014\275\360\177\237\275]/o<\242\022->\2255y=u/s\276=q\251\275U\007\307\274=%J<\352+\006\277j\346\006=\327yk\276M/)>J\335\337>Ty\236>\273a\005=nh2\276@3\206=\206\212X<\003\002\235=\316}\377=<\346&=\350-B\276G\025\023=\231\263\002>?\267\024?\211\375\002>t;z\276ru\325\276\201h\010\276\334Q\'\276C\362v>\013\254\000>xw\243=\320\340O>l\246\251>\321P\014>\242\272\353\275\357\370\034>z\002\021\27621\305=\300\271\260\273X\r%\275#\353\004>\010H\357\274\360\322\211< \306\021\276r>\234\275\n\232\306=\224\262\"\275\250\357\200\275l\317S=^q\366\274\336\022\335=T\363\327=\035\214\002>e\257w>\002\022\345\2746\333\">v\017 >?yF=\366:\305=+\331\345\275\337\213\260\276l\006%\276\240\212\355>\377\313\031\275v0-\276Fg\377=`7\272\274\020\036\302\274\000S`\273\260\237\347<:\204\034\276\306\245\337=\017\206\350\275\364\323\032\276(\020\037\275\004\347P\275\325\010,\276&\233\006\276\320O\305<\320\257\013\276\336\275\351=\215\337F>\272,/>\216r4=\304\323+\274$A|=8\3178\276<\374\221>E\226G>T\234\r\275\273\227\334\275\364\212K\276w\307\371=\317\377\010>Z\331\312=\213\234U>\354{\225\275)EF\275 \026\035=\216+\006\275\261A\210=\301\306\202\273C\3274>\265Z:>\232\236\260\275\330\367\034=\363P\334=\355i\312;\265\017\216\274\251\371\362=g\237\232\273>\352\007\276yaT\276\232\212#>\324\204\013\275u\274\230>\0329]\276\\@\373=\352\002\310\275z\006\220\2751\031X=\017D;=\303\304\227=\274\245:\276\261\275\307=\353\342_=\275=\371=\263mr\275x\336\205>\253\016\307\274\3311\255<&\373\261\273\215G >\006\270\032>\177\277\222\275\224\374\361\275\346,\356=\024e~>Q\177\000\276\225\023g\276\274f\360\275\003\357\020\276]qS>\027\340g=n\351\241=\341G\206\276\031\216\222\275G:\234=\240\246\365\273<\340\341\274\267M\333=\357\316\013>\217\333\355\275F\334\273=\361\033\007>\035\244\r\276\327\000$=E\'\206=\345\344\030>HM\340\275\233G\001>\302\303\337=`\026\221\275\000\372?;\226\332\353\275\014\205\007=\266|\365=3\242!>6\223\251=nl\233=\200\350\343;\300\364$\274\234\353K=p\360I\275\300\330\007<\364{\r\275\000\036\000\275 \2232\276\275+D\276pot>$\336\202\275\326\323[>\353\273\357\275;2\331\275\341\213\035\276x0\314<\225\271\331\275\227\300\210=\307\266\363\275S{\272\273?de>\227\221\307<\267\003q\276@e\217=8G>=\271Z\025>x\r\341<\252Df\275\020\t\023\274\211C\030\276\246a(\276b\003\325=q\013\034>\226\221\013\276\340\010\301\273*\254\252=\342\034&\276\204ys=G\004,\276\030:\371=\253\275\206=\316\337\346\274\274g\306=\360\312~>\202\010b=$K\246;>\344\342>\344\311\206\276K\343\200\276{\035\375\275\215\037\211=\"\211\303=g#\254\276-\340\210>\251J\022\276\235eL\276\3504\217\276\331\n\316=\257\264\206>=\231\241=k\371\275\275\303\250\216\274fR/\275%\0042<\232\214\007\276!Mz>\316\244y\275Q\000\322\275\221\356\220>\275\336\311\275v\2261>\223k\320<\272\277\372=;\244\312>\203\340\225\275\2265\017=\264\265\212=3\263\021>f\313%>\346\201\241\273\nJ}=\277\367 \276\243\217\203\276kV?<\'\345A>\006#\336=\215\314\335=x\177\220=t\321\234\276w%\223\275~\356r\276\030v?\275\325\365\313=\037a[=.z\216\275\010\023\2009\023Y\275>\"\246u=\342n\021\2779E\234\276Y\321\023=\246\314\356\275\205H\276<\340\325\016>\237:\035>R\321\265=^\243\313=\212\372R\276\254\234\356\276\201\310L\276\302\177\225\276\211A\262<\000\344\013\276\217Q\260>Ty\001\274\325\276\215\27641<\276\'\026\243\275\030\242\\\276P\271\361<\306\307\320=\025\220\236\275\214|\270\275\246\336\237=\304\267\031\275\352p\230=\254[>=3\215-\276\304\010\210\275\000\256E:3\366\313\275(\001#=\372\253\026\276Mk\">F/\016\276\350\335\244>\221x\021>\013Z\327=\243\006\320\275\317,\262=p\302\016?>\250\324\276%\274\202\275(\334c=\200\302(>\022;%\275\254\\\036\276\314\356\030=$\223\256>T\245\236>\003W\254>\206\222\306\275\226\004\346=\260\255\177=\014\217\023\276<\333\"\276^\232\224=\340\r1\276\202Z)\276\323u\006\276q+\005>\252e-\276\024\243|=l%i=\276\224\274=V\250\357=lD\314\275!\023T>\230\202\332=w\337\221=\347s\332=\214&\n\275\251\340=\275\302\256\027>\324j\255<se\226<\306!\225\276\364\237T>b\004)\276/\263\026\276\344\301\306\275+c\320\274\177b\300=\324\356\202>\306\367\252\275\033X@\276\021\323a\276\321\201(>\220/\">\251\316\343\275\310\347\240\275\327g\302\2757m\271<M\033\307;\256\352\377\274\0160\273=\030\304\352=7\346$\276\355\233c\276\036\245\360\275-\333\206\276\355J\277\275\327\255\221>7\347\036\275\350\3730\2761\271\003>4j\031=\325\327%\276\347qt=Z\331\003=\377/\026<\300\310\353<\227\276\371\275\210!:=V\253\203\274\344\026\"\276\331,C\276\224\245\020=\310\272w>U\274\232\274\312U\016=\354\023\272<\203\344A>a\347z\275\3743t=\300\222\236\275B\357\232=XYU>e\254\275\275mF\002\276\353\334R>w\2726>C,:\276\213\253\375>\0145s>V*\313\274}2E>\242+\257<\344[^>\234\205\366=\'%0>\213\374u\275\034\n\017\275\242\3646\276[\224\327\275\006\366\271=7\002\251;\222L\227\275\222\224 \276 \311%\275\253e+>\361\003\024>6\234\222\275\004\231)=(@\326\274\036\202\253=E\201\002\276\177\322\005>\355\3312\276\034\234\014\275f\307\350=G\017\t\276\237n\020>3\321\014=\021!\242=\017\177\347<U\362\270=\031mD>\177/\003\276\263h\003\275\337\007\346=\234)\025\274\324\363\246=Yix=\006m\024\276r\014\256=\312\017^>\321H\237\275\030\271\177\276\207\225\276\275\177?\006>\031\344\023\276\232J\322=`/\"\276\221 \'\276\206!\350=\310\202\251\274\270\267\203<\340\307\005=4Z\363\275\034\346\010\275\334\372\024=V%\351\275 \035\215<\264YL\275\027@\340\275\350\312\270\275\2713\335=\202\010\365=\221\243#\276\230\372\266\275\271\267\031>\266\344\241\275M\n\217\276.\204\203\276\363\305\241=\250\334\'<z\335\002\276\016\003\345\275\226\373\307\274\336\305M\275\323\254\310=\373j[\275\233b\250=\2634\223\276\244\366\264>(\354\216>{u\035>\026\334!\276\302Y\031=5\326\017<\217>/>\232\365\003>\337\334B>\272[\241\275\232D\005>\267&D\276\231\342\230\275\013u$>\354<\374=f\003X\276CF\216\275 p3>\245\207\001=\301UJ=`gi\274\"J$=\203\246\205\276\336\302\230>r\372\234>\226\177\001\2767\372\207\275C\341D>E\225\206\275\256\300t\275\346\201\372=)\354\317=<\310\360= \343\020\276\276c\212:\337`\006\276\243\3034;\361\233\261=K\034\014>_b{;1+\216=\221nS\275\315c\313\275\332\224\032\276D*\263=J\310\320=(\302\2259\217\207\221>8+]\276|\275a>\372\317z=\233\215\'\276\352d\033>e\353\032=A\373\370=t\360\251\275\017\037\307\273g\235(=\253\354\241\274\303\257N>\002A\230=Y\331.>\177\313,>\330/\267\274\361.+>\355\213\035>\323\276\214\275u\323\032>Z\267\255=\302\234\271\275\365\343\027\276\233\306+>\305\345\243\275 \226m<\324\316\207=\n\347\200=\255(h>6\341\">A\033\003\277]\204\031<\211\223$\276\301\220\233=Hw>>\324*M\276\206\315\324\275-\374`=I|\031=\357\311\275>n\252\205<\035\004\374\275\032\021\361=\032\220\377=t\023.=\200\353 <\326\327\256\275\236V\306=\024\3568=\000\020\2048\250\317f\275%\376\002>\000\225\014=&\242|\275\016\257\317=\365j/>\0004\2219h\373L=\241\307!>\217\303\r>\251\250\204\276\262\014\271>\215\364\347>\211*L>=\320\254\276\2678\036\276\367\276\230<\370\314H\276\362f\235>\332l\251\276\351Vi<\334\237?=\271\nQ\275[\201\274=\324\232\t\276\314\017\t>\255\277k>oR\364=.\230\213=\263\274\241=\270 \216\276\250\365\210=\301\271\216\276\207\206h\276\356_\353= \235\026\275\241\276\317\274\014\377p>\240\330u\275\350\304\224>\013\223.<\3117\302\275\371\232?\274\211\365\240\276\263\343\016>\036\350$\275\311c2\275\250\305\302\275\362\334\265>,}\253>F \216=\312\345\251\275(\203l\2758\023\013=\376\030(=\362\303\216<\357\3111\276%\351\n=\376\324\362\275\320\370\025>~\315z\275\370\251\230=\230\234\347=\301\371>>\367\242Z>\227\264\274=\314$$\274a\016\212\276\216\352<\276\027aJ\276\367\263\365<\232V\2139\376=\001>\365\007m\274\231\026r\275\224\337\335>\266L\\\276\315\345h>\353Au>\0379D>\264\017\336=Ay;\277r\324\367\275&\344\004\276\245\335\203\275e\206\277=\026\204I=d\340p>\373b\235\273##\\>\210\t\317\274\263\232\306\275>!\325\275\r\3452>\3304\222\274\366b\357=\2229\312=\236=\310=f\241\260=\237\212\022\276/\355\001>\0321\275\275_H.>\376\336\215\275\022G\363=\"\034\360=\025\333\366=\274\247\225\275\005R\357>O\222\332=\225j\350\275\000\303\327=\334q_\275\235J$\276\351r\035\275\247u*\275\002\203%\275\313Y\376=\306\2160>\276\255\353\276\273h\372=\271\217\311\276\204\004C=\300\330[=(Q\214\275 \223W=\332\026\004\276\032\342\037\276Q\262\025>\230\203\254\274<W\024\276\356.\230\275\343o\226\275\220~ \276\241\006\007>h\256\345<@j\024<\274/o=$\240\210>\027\320\205<\014\212F\276>\031\217=C\226\035>m\360\006\276w\244W>\360WQ\274\037u\265\275%c\272=\363\037\330<\034e$\276~d:>\033#\205>\226\0209>\377t7\276\033\335|\275u?\262=i2\265=\006\235\014\275\035\322\256=:-\365;\001\021\251>\316\217\321\274\260\013\031\276\001\365s\276lMY\273\306\311g\275\275\324\352=\366\027\002>Fk\247\275\016\363\356=nqH\274l\324\033>o\224\242;\267!\312=$\0246>B\360\322\275\332[\017\276/\303\252=\272\204\250\275t\224\036=\231x2\276\203\027\223>\217\301\330=\330\006\211\274M\016C>\232\206&=cE\353=\025\270 \276M\367W>\212\370\340=\301\355=\274-$\302\275\177\253\343<\221\374\221=b@\353\275\203\312\010=\376\256\231=\242VZ>\312\230@\275\360\335\016\276z2\035\274U<n\276K+m<t\344P>\2341\300=^\210|=\357 \225\274j80>\230\257(\275Tat>d\345\371\276\274\310\345=\033\236H\276\244\t\">\263{O>\013\360U>\313j\241>\276f\373\275\210\371\021=\231\220\313\275Zd\361=P\373R\274\001\002\324\275J\324\031\276\206\260\355=\300\271>\274<\370?\275fko\275\2364.\276g\370\022>(\311<=LH?=m\231\006>(F\320<\t(]\276\337\230@\274\313C\205=\272\212M\275\261\363\223=\232Z>>#\362\035>V\3143=\327\3623\2755\255^\276\275V\032>~\343s\275\346\021y=L\331\261\275\266lb>8\331:>\"+g\2756t\035\276(\315\031=l#\250\275\234Q\033\276\271*\257\275*^\232\275\023\267\027>i\342\010\276\0063\226=S\216\n>\007\302\210\275s\235\304\275\200\351\377\272\023r\215\2757\206\354\275]bB>\272V\r>!4\360\275.\033`>4\331\013?\240\300\251\275K7;\275\n\331\002\275$\346\347\275o\330\264>\347\030\354\276k\225\362<N~\311\275h\273\335\275O\257\205>|$f>\371\017\364=c\273!>3\036\224>t\376->\367\234b\276\345a\232\276/\313\266\276\325\034\265>\331\356S\276}\266.=+\257x=\255\302\370=\244y&=WA\004\276\2626\201\275U\001*=\256\341\332>\252\332i>\277y\232\276{\236\362\275z\336=9w\016k=7\331\264=\007}\344\274\261e[>hN\222\275\245\230\207\275_\300N\276\244\002\010>y\201>=)@\275;.\344\212\275\335\341\010\276\226\307\250=\200G@\276)E\035\275\212\357\203\272\274H\037\276S>]\275\373\262\260\276\323\243\206=\346\300[\276\000\322\014<\373\221o\274l\3763\275;\236\332\276\210^+>\317\220/=\0238\233\276\236\2507\276V\337\014?-\006\014\275\231\000\005;\330|L>\263\033\206\275\241B.\274 \247~\276tRA\275\365\231\027\275\270\315*\274\212\344\026>\355\215\272\276\263\272\344=\211\304\213=\236\345\377=\276\370\203=\311?\246\275+\344\002>A\230\264\2750\200\244<\"y\343=B\205\200\275\275\253\312\275\270\346\256<\020{\304\274\322\305\005\276\377p\000>P_\330<\372\025\365=\004\035,=\377\323\002<\337mk\276\001\366S>>rv;\251\367\306>\001#\233>\032\003\301\275\344\212\017>U\270Y=\025s\037\275\024\243\346<\003\255\025\275H(\217\275qq\316\275\375\201\000\275%\3174\276=l\315\275>\244\317\275|(\250\275\271\264&\276gK\001\276\020\353\313\275\332!\001\276\210\200\035\276\\K]\275\3030.>V\270\322=$_\204\275\036\353\236=\020\n\266\274\024\023\331\275&\327\225=\276\010\277\274\2320\331\275\307\214\355=\376\3651\276.\026\341=A\212h=\253\316E\275\235\020\336\275\321\327\215\276\267C[=\t\003\226=\352\341=\274\214\016\250=\3337\203\276.\264a<\361\033K>G\203\276\276\021\n\243=2R\212\275xM$\276y\177B\276\'\354\234=\305\360\214>\372z\304=\303\\\220<\334\251B>y\230)>\021&\367=\224\3759\2768\270\346\275\r\223l\275QW\022\275\342oA\276\263\211y\275D\014\034>K\326^=S\002\333\275\020^\247\275\036pN\2760\200U=\002=\334=\224\021^\275|\n\003\276\254\031\325>\377\352x\274B\201\233=\336 &=\227P!>\335[\r\276j\216\362=t\027\034\276\025&\204=\034\303\266=\200\371\354\274\026\227\021\276\3377\247=\202\036\323<\231\\\321=\212\256\031\275\347\016R\276\3320\325=\016\024\356=p\2642\275\236\333\016\276.\360\254<k\251\234><J\031\276 \221\206\276\357\241T=\367\336\r>\177\331!=\250`c=\321\002\"\2771\006\014\276\014\226\016\276w+\224=\371\006\'\276@\321\245>\367x4=q\221a<B\001\213\275\300\346\355;\000N*\273\250h\277\274{\036\325\275PH!=f\253\010\276\304\331\306\275\223\237\000>\326\013\371=x\314\301\275\031u\032>\333\214\201\275\325\272\347\275]\255\r>\314KH=\010\036\236\276\035[,\276\030s\255>\205F\035=\371\016<\276\241Tk\276\013$W><\017\021>m\252\222>\205\301\307\2759\006\260=\332\216\347=\007\026\013\276\337D\273=\323K\034>\273\272\222\276H\365\350<\303\312\000>\200`\266<^o\375=|\347\r=\037\317!>\204wK=h.\305<Uk\033>@@2\276Y\275\354\275\345 \210\275Q\314->\245\010\206\275\236\016\366\275\200\351\007=\001\320_>\034\001x\276_a9>\0250R\2762\344\351\273q\0218<\337\336(\276\367P2<\363\035\354;\307\375\350=\274\240G\274o\016\321\275\261\246\223\272\314\032\036>\215\376\n>C\225S=y\3648>\237\3600>\024\367\326=\312\0362\276y\276\375=s,\t>\032\341*\275`hW\275oW\006\276q-\242=(\343=9_AG>\326\306O;\264\333\221=\350\216\362=\315\377c=xK\347\275o\234\364\274*H\035\276\200\253\272\275\336\2631\276\360xl\275\230W\212\275\351\306V;\365\361\322=Q\324\247=j\020$=\371\315\n>\016U\020\274\366Kc\274*\026\030\276[\231\321=\225u\022>/\357\225=\235\006a>\001%>\276K4\010\276\320\233\340=G\316\237\275,\315m=\000 \027\276p\304&\276\306\222\003\275\331\260\005>\303/2\276\362a%\276\301\3512=r\000\262\275%\367\205=\322\3309<[\027a\276e\322O\275\230\216{\276x\002\004\276IC}\276\"\350 >\272\271B=&\003\016\276\n#\030>\016\270\225\275p\310\203\275\223\232\236\275k]6\276\261\374&\276\340\371\236\273X\031\300<\246l\357=\202\274\322=Y+\262\275\311r >\344\272i\275Qi\000>\014Eh=@J2\276H=Y=\000^\006;\256\304\010\276\201^\030>\216\210\337=uT\023\276\373\021\345\274\332V\216<=\274\344=\310\220\211\274\362Po=#I\035\2750s\344=\020Rp<\307\347\014>\311\022`>\345d$>\014h\236=\265\234\322=i\237\324\275vnO=\206\024\226=t\316N=\350u\375\275\202\352\242=\323\261 >>\253\356\275K\314%\276t\030\014\275\326xr\275\276\032b\275\373\356\312\275ng\246=C\271\021\276V\020\377\275\306\227\366\275j\035\254=@\306\346<\266\230\303\2749fS>\014x$=\'\354\014\275 \206\n>&\215\037\276\314\370\037>lw5>\341\300\273=\214\363\340=\347\3113\275\245\333\266=\375J\320\274\206\273\356<v0\265=\267\036\316\275\240\301\201=\336\r]\274\276k\254;\233\373#>\322S\301=L\253\013\276q\245\210\275\006C\003\276\037&0:\024\233\276=\340\334c\275\347\363\032<\363\350\310=\337E\314\275m\'\212\274\334\225\021>\236\370\007>\214\221\274=\205|S<\351 \334\275\266\036\003<!\302\201=\265\360\030=\366\235b>\266\376\244=\234\371n=q\027\360\275\247P\204\275\245\250\n\275\377\365.\275e7\245\273\202\214A=\263\357\t\276\272\266\216=\376T~\274\036w\327\275\025\330\026=\345\362\262:/-\005>\236\000\031>\237qQ\275\016e0>ej\023<\313\355\273<\267\0169=c \266<\270\0252\275y64>\235~\235\275~\241\002>Qv\356\275\237\354@\276\224\200\003>\314-\337=\353\374\244\275\366\277\317<S,M\276t\245\314\275\212y\372\273\374N\310=d\027<=]\030\250\275\253n\025\276m\253\221;\332\215&\276\3636\313\275\202}\334=0\002m\274\036c\276=\305,\"\276\315A\031>\340\347\364\274`\251N<\210\213\231\274\233\037\264\275\036\232\336=\300\352v\275b\375X\27586\347\2748\277:=\001F\350\275\377\r\314\275\374:\034\275\300\321\333\275\230\000\331<a\247\317<Rj\314\274D\332\305\274\350G`=\266\244\000>)\263B>\357\374-\274\025j\262<\"\263I\276\374\331\272<\370\006[\275\024\224\010\276\312\226\007\276Ne\373=9k\013>\3146\r\275\010h\222\274\325@\255\275\226\023\335=?\253\330\275`8\302<2\302\237=\223#(>\022\342\344\275\330H\374\274P\346\214<G3\021\276\364\244r>\025\227\374\272\005\276\006>\253\023\001>k\304\212>\023\364\n\276\251\207\013>L\336\253>~\331\347=\276r\375\275:\007\006>9\246\240\276t\267\201\276r\340\363\275\024\212-\276\371\027\354=\356L5>\371\313\214=\336\312\251=\337E!\276F\261=\275|\310\312=J\203h\275=[\261=q\266\345=\005\225F\276g<\233=A.\216\275*\"l\275\347\272\246<vJ\233\274\302j\r\274\366\225\005=gY2<=\356\242\274\266\217\355\275\024\342\016>\227\200I=\023\216,<\265\325\\=I\033\304\275\314\001\201=Z#5\274v\215\261\275hXc\273p\354\024>\340\316\223>\232\222\302=\250\330_\273t\370\361=\241X\314\275\355\325\372:\222\t\333\273\374\202\005\276V\264>\275\302\255\317\275\361q4<\354H\375=\254\2539>\215\217:=t\214O=BUd\275\257\2438>\003\357\004\2758\001\243=S\242\177;\2534%>\213\026e\276\361w\355\275\345\343?\276\013\353\255\275\307\\\276=\2342\350;zQ\000\276#j2\274#\321#>\373\257\317;\rg\205<N3\337=x\363\006\274 k\350;;T\234\275\030\002\024\275\216o\233=\035t!>\336\247}\275\217\023\023>\002_q\275\301\276\027>\'\241\030><|\021=\212\035\345=\250\371!\276\232\237\230=\353\231\351\275\303\351\030\276\261\032\346\275\301\207\350=\267f4<\254\367\025\276\354M\236>\003\321\254\275h\236\372=\355\200r>[\350\000\276\006d\376\274)\203\010=\177\343\320=p\335:=mw\330=\352\010\227<\277\377\034\276\006Wg\275\366\376\212\275x\035<=\207\345\n\276\255s/>uL\347\275\314\216\260\275\022\361\341\275(\223\233\274\321\325\016>\354\020d\275\330/\316<-\3713\276`\2556<\031V\007>\242j\300=\254\325E=\264\232#\276\222\246\\>\254\010\345\274\377\235\361\275\221P\036>\302\361m=H\'\242\2759\346\253=\376kb>\227$b\275\247)\013\276\260\276\335\275-O\240\275\006\364r=*\304\306=\230N\200=\314j\211=\360\210\315\275\355\200\007=\223h\010\276f\262\356=^D#\275\326\030W\275g\t/\276\220\236b\274\030\210\205\273\336j\210\2748\340D=/\253s\275.\362\352\274\305RC\276\205e\342<R\374#>\313( >\327\255y>W\340&=\267\326\336=\340w\333\274\217LW\275\245\007\273\274\257N\311\275\273N\346<\261\\\231\275\362\230\246\274\340\'\322\275D\2627=\3163\250\274\345_\351=\247\254\213=!\252\375=ck[=\333\245\223\275I\210\r=\231\303\235\273\340\2471>\376Do>\013\365\010\276_\363\220=\241v\326\273Y\014\325;2y\256=?\007*\276f\232\303\275\027z\362=\242\221\032\276.\010\360\275\036]\300=1~|=Gw\316\274\200\335\347\275\25766\276\263D\037\276t\331z\276>\031\215\275\247\330\001\276\213h\261\275\374\333\026=\231\"\335\274\224\272\n\276<\332\001=\351q3>(\244!\275\\7f\275S\225\252\275\000\355t:x\213\342\274*\215\236\275\314MP=T^\214=2\257\267\2752\002\016\276\224\311\004=\314\355\037\275\350g\300<\250G\003\276\272H\312=\r\336\244=W^\256=\257\026\376<\226\243\251\275f\332L<\364:,