node {
  name: "x"
  op: "Placeholder"
  attr {
    key: "dtype"
    value {
      type: DT_FLOAT
    }
  }
  attr {
    key: "shape"
    value {
      shape {
        dim {
          size: 1
        }
        dim {
          size: 24
        }
      }
    }
  }
}
node {
  name: "decoder/conv2d_transpose_2/Shape"
  op: "Const"
  attr {
    key: "dtype"
    value {
      type: DT_INT32
    }
  }
  attr {
    key: "value"
    value {
      tensor {
        dtype: DT_INT32
        tensor_shape {
          dim {
            size: 4
          }
        }
        tensor_content: "\001\000\000\000\004\000\000\000\004\000\000\000\010\000\000\000"
      }
    }
  }
}
node {
  name: "decoder/conv2d_transpose_2/strided_slice/stack"
  op: "Const"
  attr {
    key: "dtype"
    value {
      type: DT_INT32
    }
  }
  attr {
    key: "value"
    value {
      tensor {
        dtype: DT_INT32
        tensor_shape {
          dim {
            size: 1
          }
        }
      }
    }
  }
}
node {
  name: "decoder/conv2d_transpose_2/strided_slice/stack_1"
  op: "Const"
  attr {
    key: "dtype"
    value {
      type: DT_INT32
    }
  }
  attr {
    key: "value"
    value {
      tensor {
        dtype: DT_INT32
        tensor_shape {
          dim {
            size: 1
          }
        }
        int_val: 1
      }
    }
  }
}
node {
  name: "decoder/conv2d_transpose_2/strided_slice/stack_2"
  op: "Const"
  attr {
    key: "dtype"
    value {
      type: DT_INT32
    }
  }
  attr {
    key: "value"
    value {
      tensor {
        dtype: DT_INT32
        tensor_shape {
          dim {
            size: 1
          }
        }
        int_val: 1
      }
    }
  }
}
node {
  name: "decoder/conv2d_transpose_2/stack/1"
  op: "Const"
  attr {
    key: "dtype"
    value {
      type: DT_INT32
    }
  }
  attr {
    key: "value"
    value {
      tensor {
        dtype: DT_INT32
        tensor_shape {
        }
        int_val: 9
      }
    }
  }
}
node {
  name: "decoder/conv2d_transpose_2/stack/2"
  op: "Const"
  attr {
    key: "dtype"
    value {
      type: DT_INT32
    }
  }
  attr {
    key: "value"
    value {
      tensor {
        dtype: DT_INT32
        tensor_shape {
        }
        int_val: 9
      }
    }
  }
}
node {
  name: "decoder/conv2d_transpose_2/stack/3"
  op: "Const"
  attr {
    key: "dtype"
    value {
      type: DT_INT32
    }
  }
  attr {
    key: "value"
    value {
      tensor {
        dtype: DT_INT32
        tensor_shape {
        }
        int_val: 1
      }
    }
  }
}
node {
  name: "decoder/conv2d_transpose_2/conv2d_transpose/ReadVariableOp/resource"
  op: "Const"
  attr {
    key: "dtype"
    value {
      type: DT_FLOAT
    }
  }
  attr {
    key: "value"
    value {
      tensor {
        dtype: DT_FLOAT
        tensor_shape {
          dim {
            size: 3
          }
          dim {
            size: 3
          }
          dim {
            size: 1
          }
          dim {
            size: 8
          }
        }
        tensor_content: "\023\362\267\276\3247\345\275\352\272~>\242\266\240\276b\021H>\366\346k>f\353<\276\227?\254\276\037\n\270\276|q\367\275\350\033x>o2\220\276.\332\022>0\022\234<H\'L;\301\231\330\276<@\255>\267\020\234>\200\375\037\276\020\355f>\274T\t\276\000-Y=\202\215\">5\2434\276\244\213\"\275\360.\266>\207\257\250\274\377\222\003=\370\316\334=\270o\006=+\347\264\276 \233d>\352\261\245>\232\2508>A\213\376\275\241\2210>-qv\276\362G\214\276\177\252\225\276\345\230\224>\201\263\367\275\254/K\275\310%!=vM\271>\335b\320\276\"\021\251\276\331D\224\276\221\031\301\275\346g\350\276\317p\274=\356\311\225\276n\357\340\274\326\272a\275\352<g>@BA>zOp\276U\000\221\275\310\265\343\273=\355\333\275\340\322j\275\013\'\244\276#\201\031\2753Gd\275\274\017\272\276\226\004\316\276\000\227\215=\260\234v\275\255\264N\276 KL>\362D\215\276\031\030\255\276\031\327\326\276"
      }
    }
  }
}
node {
  name: "decoder/dense_6/MatMul/ReadVariableOp/resource"
  op: "Const"
  attr {
    key: "dtype"
    value {
      type: DT_FLOAT
    }
  }
  attr {
    key: "value"
    value {
      tensor {
        dtype: DT_FLOAT
        tensor_shape {
          dim {
            size: 24
          }
          dim {
            size: 24
          }
        }
        tensor_content: "\345\010\374\274J\325\344<\314\353\267\276R\353[\276\274\321\225\276\215!\333>\322L\307>\234U\320;\036\335:>\206\350<>m\371\005\277\t\026\337<\344\202\320\276[\341\213>I\212\212>\020\274/\276\333\024\\\276/m\221\276\266\275\213\276\322R!\276\314g\'\276zWB>1\214\273\275\350r#>\376\252w>7n,\275g@\220>\274})>\310\234y\275\373\177\017>\244\344\264\276l\347+\276\244E\233\276\3101*\276%\243\345\276\302\362\347\276\2636@\276\374o%\275#\277\205>\017\3065>\224\333X>\311\216\237>.\200\250\2759\003\373>\035\276\000?\353\237\354>2\240\031>\006b|\276_\263\243<\362$Y>\317F\237\276\362\027[=h\201\364=\372\241J<\343=\000\276w\340\277>\313\306\022\276\324\300\002>\024$M=\326\370\016>>y\321\276\266\216\277>\222)\026>\307\200\034=0<C=\037!\234>=\212\355>\032\303\200>\222\255i>\236A\327\276\206\342\372\275\177\315\204>\022\236\007\277\315Z)>\274\006F\274-l\371>\204(\036\276\014\226\216\276\300\211a\276\212I5\276Z\225!>\343\221\244>\267Z\001\276\335O\316<\266Vj>]\205Z>z\227 \276\014c\027\276\033\231\212>\036\025\025\276\306\245\216\276{\255Z=\366,(>h\300\206=\324\216\343>y9\306>T\241K\276\'\214G>\201\373<>X\277\014\275\241\307\244>\350\341+=*\351O\276Di\255=Tj\020>6)X\276\374\013\364\273\016N\">\362 \255\276c\320\017\276\322\260\232\276\313\n=\275pY\007\275\016ZM>or\354\276\214\212\211\276\235\365\350\275\010$\372\275T\033\037\275)-\213\276`{\273=\346x\223>p\373\214\276\344\001\364=\356\376W>\\r\005\274\374H3\276\3401p\275\216\tG>j\030\266\276\336\334\231\276\t\320\000\276\377\023\266>\016 \260\275b\3638>\236\306\311\276\236\272\235<\352\372s>f\211?>\375\333\204>\216Ti<pj\304>\316\272\303>\2206\034>3\031\321\276\265\202\001>\370s\367=,w\315=X\236\354= \3138\275\276\230\266\275(\222e=\202q\262\276\376d\207\276\200\342#\275T\220\320\275S|\003?^\251\256=\256\214\001>\242-\257=\017\360\204>\262\316\034\276\"8d\276\017\247\252\276u\353I>\331\350\210\275\344\375\345;\201\302\211>`\276\271\276w\234\214\275O<X>\022*[>\000f\\\275rs\200\276\366\255\210>y\017\244\276\032\263\023>K\250\347>R\032\201>+\256\202>\014\221\264\276&\244\205\276\216\315\033>d{I\276\254\rv> \241\317\275\361\022\313\276\357\371\354>\341\031\365\275\350\360*\275\371\005\235\275\024\"\227\275\273\245z\276O\324\002\276\"<\213=\254\356p\274\254C\200\276>\344%>Q\355o\276\307\330\006>\036\203\\\276\264\264\212\275\240O\353\275\375J\272=\230$d\276]\256Z>$O\000\276\277S\377\276\035u9>\263\232\230>l9\350\275\314\330\217\276\302\275P\276\315\317\325>\013\3277=JH\212\276\276\256\r\276\234\224q<KZj>\233TQ=\354\325\266\275\251\350\377>a\014a>\300\024\037>\311c\247>U9\312>\2549D\276\035\215\212>uU\244\276kj\344\276\330\201\\\275$9\253\275|d\265\274Us\213>r\024\005\277x\022[>~&\211\276\030\t\327\275\251 \255\275\005\235H>n\330\240\276\272/\264>\354R\327>_6y>*\3235>{\016\037\276\263}\377\275Q\262\222\276\346$J>H\310$=\304{\210\275\313\002\254>\3231\207>\326\210\211=,\013\317=\361\'\260\276\010\316\254=\"\2705\276\220\351y\276Z\026\201>\254\252\272=\210\r\366=p\334K>\020\207!\276\034\303\323=B\251\320\274\343\353\317\275oh\334>FA\327\275\253\236\321\276\245%m\276\262\017\330\276C c\276\034o\003\2760E\361\275\300H\265=\204\252y>\\[*\275\252\347_\276|0\247>O\372\260>A\n\236>Y\324\343\2764\003\013>\232j\301\275\343j\314\276\023\024\250\276\322\345\253\276*\273\236=\206\n\366\275I\372<>\206+t>\031\276)\276\314{U=\204(0=\206\331=>\372\250\030>\373\352\226=?A\003?\374S\"\274*\222\025\276x\360\241>\350g\016\276Cs\027>\324P\254\276\233J\247>\360O{=\267\014\265>\030R\003=\206\033Z\276Z(\250\275\310\177U\276\334\312\240=p+\207\276\320*\202\276\321\302\343>\254\316\264\275k\212\235=\221@\246>\244\365,\276@\345\341\273)g\206\276q\346B\276\304O\364=\306Ta>3\346\366\275\212\204\033>h,Q=\022\367\033>l\267\273\275\211\212\000\277\325\314\236=\3528\007\276\266\342Q\276\202\026Y\276\020\366\026=\250\177W\275\247\362\'=\002\265.\276\022\304\204>\375\310\254>\334@\307=\031\220\336\276\036\307\302>h\250N=]\312=\276\003\202j\275\264\021\246\274\004q\226\276e\035\027\276\257\307\250>\203\"(>\321\236\270\276\303u\264\276f\377g>\236A\246\275\354dD>&,\212<A\213\373>yx\257=\027\356I\276\000\244\344>k\223_>N\300\252=\n|k>-a\271\2740\003\227\276S\343\261\276\000\253\354;\337\013r>0\220\354=I\312\230\275\232\234+>\313\213\020\276at\214\276\310\231\010\275\326\233=>\t\343\255>\263\270\321\276\263\r\033\275\365\252\315\276Q\007g\276\001\013\224>s\013g\275\310\224\273;`\r\017<t\374\237>\232wo\276\250p\002>\2644\221;\223\235\003\276\034WI<>\327T>\354s\001>\336\343\322\275\201T\264>o\003\033> \217\271>Q\357\006\276\327\025\302\275| \255<\000X\367=\374\205\002>\341\350\211>\303\376\034>\274\036\277;1:\362=\037H\213\276Hgp<\203\322\340=\020\234b>\311^\002\276*,Q>8\022;\275\274\302_\274\020\214\234\274\310\225\310\275l\014\350\274\323\2479\2768\364j>\346\220\013\276m\034\362\276\354r\217=\230\017W\275\221vk\276A\022$\276\323\244\312\275,?\254=\340\372\t=H\255\304\275\0250\2519\024\346\354=(\257\206=<\036p\274\330LZ\275\323[A=\3642\327\275\3043\324=\207\177I>\004\240J>8?k=\353\324\255\274\020\206\014\276\325/\306>R\033\223\275\332\310\262=\336\313#>\316\227)<1\250\232=\300;4\274\243\021|>4h\334=LI\262\276\034$\322\274%\330\234=\360\244<>\220\376>>r\275+>\202t\177>\341\315\202\274\225\337\264>\327\274\205>\350\335L> \226K>\2509\200=|\212\370\275\310\035E\276\311\363\242\276\370\360;= \200\213=\250\020\210=h\3053\276ht\355=7\274\231>3)H>\235\\s\272\260U(\274\240\366A=\245i\034\276\001\320\226\270\350\251;\276\025g\244>`\355-=\240\020\234<\225\223\260>\211\367\227\276\235\273J>j\303$\276\350\206\016\276\000\305>=\303\001p\276@\3023\275\333!\237>\200O\376\274\356\006\035>u1\021\276\r\265\263\276P2\323\275\3614\261=\2254\332\276y\\W>\346P\356<D\203@\276\243\014\032\276\202\311|>\257\323w\2761\261\223>\372b\351<\312\314q>\227S\211\276\267r\000=\316o\217\276\277\001\221\276\277.i>\270\305h=|En>\364\270K>\246\275\316>\345\327\241\276X\226L=\211Sf\276.\367x\276+\336\206>`\003\274=\023\232\257\272K;\031=\240u\243=\277E\235>\224\2200\273\025\344\321\276Y[g\276\344r\310\274\260\243\260\276V\356\360\276j\310\266\274\2469\t>\t-5\276MSS>i\226a>\311\273\230\276r`~>\253\014\200\276\022q\250\276{/\200>\301|\230>!\031Z\276\227n?:x\214M\275\010[\233= \257\341=HY\315\276(\375\232=\337bF\276\023D$\276z\330\201>W^\032>\357(\242\276\363\220\264\274\236(\307\274\226\265\322\275\233|\252>\007a\246\276\r|\016>\322\277\376\275!\266\321=\253\225\220\276BqU>i#\"\276v\212\236\275Z\356!>T`\256=\030\tA>\237\225\206\276\254\032\253\275;\320\036\275U]l;"
      }
    }
  }
}
node {
  name: "decoder/dense_6/BiasAdd/ReadVariableOp/resource"
  op: "Const"
  attr {
    key: "dtype"
    value {
      type: DT_FLOAT
    }
  }
  attr {
    key: "value"
    value {
      tensor {
        dtype: DT_FLOAT
        tensor_shape {
          dim {
            size: 24
          }
        }
        tensor_content: "\277\032\300\275n\216F\276\364\210#>B\200\267:\000\000\000\000\033\231L\276EL\267=\375\326\243\274\000\000\000\000.\\\017=\271T\301\2746\014\223=.\312C=Y4\221=\000\000\000\000\256\374\207<QI\235:\000\000\000\000\350\355\353\272S\221\355<\3150\031=j\022\003<\033\231L\276.\001^="
      }
    }
  }
}
node {
  name: "decoder/dense_7/MatMul/ReadVariableOp/resource"
  op: "Const"
  attr {
    key: "dtype"
    value {
      type: DT_FLOAT
    }
  }
  attr {
    key: "value"
    value {
      tensor {
        dtype: DT_FLOAT
        tensor_shape {
          dim {
            size: 24
          }
          dim {
            size: 64
          }
        }
        tensor_content: "t\224\305=\3113\301\276\346\232S>\242\240\t>\3667\233\276=\220L\276\276\022\350<\340\234k=\305\031\234>^\336\311\276\311\004\351\276\231\364\370\274\224\"Q>*E\336\274\313\317\306=\360e\320\276N5(\276\306\026H>i\003L\276\357\350\314=\326\212\300\275H\266r>\235\\w\276\007\2771\276\310\354`>\346u\323>d\301&=\274\353\330\276\032E\026\276\322\010\202>\315LQ>\310\317\\>AU_\275`\224\234<jm\233>\215\363\240\275y\250O>sd\250>\374\314\264\276\371\233\033>,\354]>\244\256C>\004F >VB\021>\234\003a\276rKx\276\270\214z\276\245\270\326>:L\303\276\020h)\276\315y\203\275\335\336\255=>~\215\2760\255\227\276\364\234\375=\260\037\037<2\"\200=\365p\237\275\010\021\356\275\350\245\271\276\266$\344\276|dx>8\360\025=\ts\213\276\342*\n>\223\204\313\276k\370\224>\024\360\002>/\304q\275\035\236\336=\276\315\304\275\215\357a\276\233M6\276\246\216B>\220@E\274D\261+\276S\267\207\276\353/#=\341C\265>\035\324v><\003\007>\335\345?>\252&\335>\3153\277\2766\337\214>E>\301<\216\302\t\276\3543K\275\373\363\261\275\300\226.\274\332hk\276\020\211\025\276\324\274\347\276FV\224>\223s\177>\260\221\243>\3627=\276H\213\330\276\r\014\036\276\351\262\346=@$W\275\231\263\306\276O\360\'\276\021\322]>BwF>\n\241\245\275lV\016=,\351\221\275\304\224\341<\356T\356<\034\340q\275o\230)\275\240,\215<\200\351\002>n\034k\274\\ L\276\366%C\276\276\275~\276\316\220\344\275\024^/=\254)\242\275`\017B\275DS\203\275\373\206]>\020\223\252\275\024\331\021>\343\177\215\276\"\340/\276<\344\257\275d$9>nN\321=\226\245\273\275\0168\341\275\375\353e\276?`\010\276n.+\276K\0244>c\376S>\330\335\317\274\000\301\025\276\237\354\'\276O\321\225=\235b\234>i\233O>\246~I\276\016\264\224\275,\246f\276)Z\024>\332\225\370\275`x\260\276\234D\027=A@\002>:6\236\275\356\205\276=L\000z\275\276\204u\276\271\003V\273\320}C\275n\002\363=\276\331\331=4!x\276;!\215>\367\023X>\032\301\226\275\334]\004>t\342\211\276\376\310\271<&t\265\276\366\010\364\275s\352#>W\233^>\235E\316\274\302\251Z\276Y_>>uD\037\276\352\232\344<\3527V\275>\033\264=\331\360+\276\342\342\211>x\216z\276+w\276=\200\024\315\275u\033\025>\316%<\276\030\356\277\275!t\313\274u\240\204>\210`\333\274\306\300:<L\001.>\362J=>\330m\273\274)\333\031>\264\345\343=@8O>T\267\216>\347wI=\'\303\250\276,)+\276\024\272\003\276\206\016u\275\025S\213<\316\016\302=\307\021\240\276\323S\031>=\304\271\275l\363`<m\243V\2764Z\305\276 \352c=\362\035\222\275t\026\277\275\314q >&\260\200\276|\233)\275{\306\305=\354\265\215=D\323\302=.3\374\275\360\256\n\276\305\251H>\220\362$=Q\035\260\276\244\027\204;\234\205\274\275\"-\014\276&\002|>\307ly\273E\322L\276\010\024J\275\230\020x\275\374\3745\275ims\275TV3\273\270P\177=\222R\244>\\j7\275\346\ng\276h\"\300\276\030|Y\274\313~\251\276\353\333(=\203\005>>^\3652\276~\'\200\276\300g\203\276j\277\226>O\0106>r\251\272>?7\211\276\230\213\213\276\037\225\214\276n\360m=3=`\275\232$\341\275\272n5>\2408\221\275\342^-\276\3644\027\275\000(p\275\000\375a\276jk\316\275\344Yj>\000\266\321:\350}\313\274\332Pj>\024n&>L4S\276CE\022\276\016\364\003>)[\203>d-\323=\254\362\'>\275\323\005\276\200\264`<\000\223 <P\355\232=\014b\322=p\207Z>\254\336Y>\277\033\204>\266\026z>\200\360\007;\300\365\203\273\036F4\276\370TX=\022\267:>\240z^>\020\313p=~\017|>\014\241\223=`\251p>\004\207?\275\236\333?>\202D\020>rbS\276,\230\007\276h\262g>\304\205\n\275\006\313\250\275f\220^\276|\206O>F-Z>t\313#\275\234\343\020\276\336uY>$`;\275\340\256\247<H\314l\275D\376\377=PSl>duK\276\254\1771>F\347.\276@\003G\276\327\302\n\276\350{\251\274\030\007\246\274\230g{\275\230\314a>$M\351\275?\244\346>\374y\036>\364=0\275\000\230(\275N\324\206\276\010\344Q\2757\003\304\276\302\332\033\276\317\024\201>\330\261w\275j\026\273\276\204f\326=\210\213s\274\201\211Y>\340\0203>\014\304J=\3453\222\276Z$\310>6s\373\2745S\222\275;\333y:$\302\311>\361+\261\276\336%t\276\332\323\242\275\020\253D>\271[\206>\361\010\373=a\025\376<\353x\271>\252j\r>\356go<\242\253\247\274@\023\216>8\213\300\274\266\202E\276\005\207\376\275_\001\276>#\022\260=\363x\242==\215\266>\320\2424\276\300]\211<\236\211\207=\032\223\337\275\216\241l>k\3268\276\312\315\r\276k\222c\276x\217;>\n\223\347\275\254H2\275\030\230\343\274(Z\020>P\016\034=\321\321\367=\260\262\333=o\216P=\370K\032>\333\352\363=t\001L>\250I\353=\224\207c\275\300\221\304;G\220?>\2278N>\215\277\207\276\256a\300=\237\350z=\000\220f\271Zf\365\275&\310\206=L_H>\235\373\263<\215\035{>\352]\236=A\205\251=\367,\035\276\235JT\276\262\211\333\275\325\037\314>q\257c>:\223\276=\274\017N\275XXE>\367\231F>\275F\021>:3\332\275\310\021\235=\027g\227=\306\273\264=\304\025\020=^\205\373\275\273\351\024>\3669]\275\357\325\207\276\327\346\201\276\371q\'\276\330\356\265\275\365\273\026>\003Y\325>kT\\>\022\250\261\275\233\020\226>D\315\006\275\353\276\324=\016\371\365=cFZ>\376\235\024>\334=\362\273\315\223\234\276\237\t\337\275\376\345\227=[\007\210>u\026\027>N\007\254\275\324+8>\217\r%>\200\002\316<\252\350\263=A\360=\276\205\262:\276\360\033\244\276\211\376\'\276\026\236\035\276\222\031\002>[\0101\276\213\216\303\276\216 \216\276\336(\332\275<\300\226>\374w\262=\314\306N\276\222e#\276DY\202\273\374\"\026\276\027(v\276\026Y\210\275\306\250h\276]n\342\274k\t:\276I9\224>P{\002=\266\234)\276MR9\276\010.\363=b\252Q>\261<\215>\216\243L>\340\037\031=>\254\232\275\364\010\037\276\320~\377\274\234\205\213\276\340\265\314=\350\250\207\276\203bV\275\2423[>.j\r>\252>d\276\000\274U\276V\251\033>\232\375V>\214W\254=[\310\334<\333c\236>b\0058\276\000\201\037>\363\342r>\365\262\204\275\350^\203\276\3708\033\273\274z%\2764\305->.\215_=\000cp=\034\376N=5;\223\276{T\003>\220\234\305\275@)\031<V\034x>f\225\315\2753~\266>\374\342\021>\003\346&\275\276\204Z\2768qj>\n\331\r\276\2667M:\2422\345\275L\356c\276\021MO\276@\217\004\274\264\334\312\275>\263\177>\306\275p>Lqf>\364p\340\275\270w\245=\236\366{>\246Fy\276\300E@<\030\372\263=\201`*\276F\n*\276\250\0319\275RO\001\276\230\240\254=z\233s>w\310\027\276 \214u<\320\'\211\275\222\237\000\2764\302o\276\364\220\220\275,\037Z>\264\374\233\275\300\237\200\276\262t\325\275\242\017\002>H\343\361\275|\\;\276x\346l>F\347x>n\212\260\275\000|\2509@\r\357\275\244\331\377=Nh\036>\260\364\177=4\347G>\274\327\314=\326\203$>\300Q\231=\200\177m;@\037D\276\344\\\034>\374\264\353\275\304\267U>\340+\014=l\264\266\275\272\345\321\275`(\200\275@\027\264;\200#\036\274\304\343\265=HGs\275\312\026\023\276\n\201)\276\010\2454\276,[\'>\337\027g\276\320Pi\274R\266\312\275\221\261\342\276p\227e=,J\005\276\363\340\237>\037\316\237>\325\032N\276^ \225\275\032\236\202\274\001\215\026\275W\205\205\276\036Ij\276\3104/>\322\032b\276,\221s\274\"\270\231>LIt\276\335h\254\274\016\220>>j_2>\246\272\205>\216l>>\334\215\215>\310\306J>\025@\241>\356\225<\276\233\210\314\276\024{\234\276\320\207&\275\331<Z>\230\262\'=\310\315\322\275Q\227\212\276bU \275j\365\203\276\010h\216=\t\204\003\276\014\030\367=ng\"\276\22444>?C3\276}\363 \276X\267Y=\240\034;>\314H\323=\322\177\241>m,\220\276\207.:\275\333B{>\2703\013=\257\314\230\276xn\370=\234yl\275\"\320P\276\334\010\203\276\226\010a>\307ca\276\315\375\t\275\200\010Y\276L\304\035>\361\326\212\276@J\345=\311\304\353\276E@\231\276\216\213n>@-H=(\225\320=\303\020\210>\252\024\210>\220\367\237;U\345\323\276\354~\\\275\030\212+>\302\027\246\275\240\311\310\276)\254\"\276p%8>\0357>>=\235/\276r\336+>\244a`\275\357\366i\276\303\247W\275\024\013\346=j\nv> \003R>\023\313K=\212mG\276\230\350b\272\200\001W>\374\223~\276,\320$\276J|;>\305!@\276\331\227\224\276\234\r\242=\361Vd\276\226\367\024>H{\214=~IP\276\325\207\207\276O\020\262\276!X\215\275\016\003+>\322:\006>H\356+\276\234\250\313=z\\\\\276\020Nq\275\306\355\032>1Av\276hf\025\274r\217\202\276a\003\236\276\273\347\022\275\177\355U\276\366\227\334\275 h\263\275p\223\371<ln\353=\324\304!\275.\357\322=\334S\275\275\333\354\035\275\033Yc\276\224\270\303=h\021\014=3[\251\2766\325\'>\2323\000>O \220<\372\325E>d;\013\275\234AL>\t\307\305\276<\364\306\275d\016\250\275\\\303\237\274\313\314\000\275J\033\262\275:^\010\2769\374R\276\030\253\215\276\010\345\275>\302s\"\276\002t\236\276\330d\361\275$RF\275\2101\201\275\340,\271=\261\253\020>\302\257Y>\374kC\275o\035R\276\024M\212\275dCQ>\177\364\242>\002\010\202\276\302p\000>FT\343\275ii\322\275Y\000\232>\031\\\274\274\366Y\246\275h\242\035>\033\3174\275\243\234\206<\303K\223\276wu\210>\024\216@\276H\367\251\275\257\247\202\276|\002\215>|\373\267>\034\210\244=\232\367n>\026`\335=\346\362\310=vn\335\276\245y\276\276i\250\301\276\317\n\006\276\360\003\302=\313OS=\312\003,>\\E\245>\340\234\240\275`\273_<X\026\213>H \025\276T(\203=\000\016J;\246\010)\2768\214\343\276\020!%> \250C=6^\006>\263%y\276\006\341\306<L\256\022\276\034\354@\276\373\261\202>\033I\035\275?b>>\2558*\276p\003\363\274\272\275Y>G\r\"\276\367\241Y\276\334\331\017>\355\220:;\274xo\275\004B\302=\023*\234\276\314\030\245=\030\345A>\214\247\204=\222\364M<D\302\320;NE\t\2766\2437>j\340Y>$C\312=1Y\213\276\030:\325=\026\211\005>\350s\221>\212\035\360\275L\307\354=\311\232\002\276\341\270\200\276\331a\267<X\343S>\334\310\214>\\\273\342=\252\202@>P\2248>\200\334d=\372nY\276\002\342\206=9\336i\276L\365\024\276|\301\201\276$F\230\275R\305\202>\366\324i>\342G\335\275\213~\224\275\330\031\202<rG\226\275@!\317=\304\200(>,\330-\276\266\314\000\276\270\251\203\276\264\373\310<\034`\020>\014\353>>\360\250\202\2740\360{=\355\032/>\221\221\211\274\022\335\214\276\207\263\201>OG\262>\334\346H=\214E.\276\2727\245>~\330\201>=\342l\276u\326\333<\033\263v>@\240\325<\006\257\364<f\252\215\275G<\345<\353\036\257>\031\222\021>\031\314o>\263\2277\276\361p\307=\270};\276a{k\276\362\021m\276\357\216<\276\314\270\350\276k\233G>DeK\275?\024\032\276^R\'\275\326\230\244\276\2242\304\273\330+\033\274\277\327\025;\235Y\264\274j$\016=9\004\001\276\264\371?=\215|5>9\206\202>\3609D\275L\310b>H\234\212<h*\375\273\205\026C\276\206\022\221\274n\243\327>t\374Z\276AMl>v[\210\2750_\361\275{\346}> Z\315\275\035\233\001\276\262\001\032\276\207\273w>\330\224\212\274\251\250\005>_\254b\276\370\240>\276n\232k><x\r>|\374\350\275\210oH=\356\022\234\275E(:\276H\007\013\275\322|>>\234\270\311=\030\177]>\332\323C>8\232)\276\034t\226=\326\231\311\275\3769a\276X\340\340\274/K\205\276(\2269>V\2429>D\2435\276\000H\206\271\224\3741\276\340\037\334\275<\201\267=\021;x\276 \361\216\274\374@\315=vn2\276B[\\>[\377w\276\340b\273=\216\354T\276\032\333\370\275sLY\276\260?\021\276\362\2629\276\260q\242<\235\034t\276\300\304U<\302\2541\276\324V0>\312\214/> &\016>\200%R\276\200\004\265<z,2>0\251X>\330\355\023=4\333\323=\340PF=\310\350\331\274W\332\200>\330\245\302=\"\303\247\275~\246!>@\203U=\2508)=X\370\217\274\325N\017\276\362u\216\2752\215\326\275\236j\014\276\266\367c> ~t\276r\006%\276`\332#=>.\213\276[kk\275\003\333]\275\210j\327\2748\361\030\276\254hN>\034-\231\275\337!\206\276\013\232\177\276\255\024\005\276\356\260Y>\266\177\223>\356\177\206>\275\021\230\275P5\202\276\340\355\277=\376%\262<5\010\242>\262D\\;V2\265=\372\325w\276\254k\236=\330\025\213\276e&G\276\r\305\326\276N\005\313\276HT\020>\016q\021>=\370q\273\227\340s>z\227\272\275\242\035\005>\214g%\275\240\271\204>o\035E=\370\370b>\245`\334\275\211E+\276c\221\030=\276xh=\031k\213>B>0\276\007\331Z\276\304\336\217\276\364\230\317\276 \207;>\330K\324\273\353\'\333\276\224\204i<f\2251\276\332\336\001\276\340\030I>\000ef\274`@\021<\275Rb>\224U\n>\331d\214>:t\013\275\"\267\306\276,\304^>\204\260\236\276\014B\347\276D\021\022\276\004n/\276\342i\211\275Ma\032\276\344\033\365\275\353|Q>\355\270\215\276\340\367\033\276\302\353.\276\274\232\323=u\220H\272\001\025\240\276zr!\276\334\366b\276\305\340\315=\224\010\263=`\004U<r\343*>/\205\206\276j\035.<\216(\014>B\3007\276\342\246\377\275\200O+=\220\310\253=<T\234=\337\327\026\276_0\230<\330\305\213=\364\310\316\272\2379\200>xe\032;\312\021\032>\2401\355= k\032>\210~\237\275\032\2416>\272\257\010\275\037\214\260\276}\016}\2764\326\346\275\204\375\272\275\320-^\276\021\330\216\275h\247\t=\2761\211\275\324Z\265<\020\340\301;C\253\000>\006\014\214\276\2579\251\276\230p\n\275\233\2270\276\206|\"\276\304\377f\275\345\312\004\276Lqp\276|\304\036\276\327\2157=\212\337K>\230\211\007=R\006\275<\023\357\323\276\244\014\022\276\252X\206\275\314\302\315=\024\312\233\2758\022\315=\2007\202=\300\250\274\274\3000\213<\000\331\240\272\310\205\312=$\317\345=x\251c=\035\034B\276\250C\327\275\320\364,=\310\230>>\316\326r>\340+4\274T\020\341=\027R;\276\310\301z\275\302\237n>\370\347\000=\317~K\276(\305\'\276\216\270P>*\345*>\320\1771\276\"\275K\276\324\315\"\276\360\345e\2764\001\202\276\246\037\"\276\000o/\274\310\262\375=\000\013\316\275\010W\373\274\366\361\244\275D\227s>]\332I\276\203-\200>\236\262R>\250\025\036\276\000\362\214\273\314\030t\276\230\345\007\276%\005f\276\020\273U\275\300\336\263\273\350\206Q\276\240\027\235=\300\210\337;l\013\214\275p0q>\252\206\035\276\360\036\346=t\026\210=8Q\222=\360k\356=\256<\271\275<\275\330=\314V\005>(KR==T\204>\033+\005\276K\361O\276e\342\222\2760\310\016\274ix\231>z\315\206\274\214J\310=X\370\030=P\264@\276\3619\257>\251#\235<4F?<\201\267\324>\014\035!\275o\207\224\276\212U\202<\331\225\350\275\030\031<>e\007H\276\203\371\025\275W@\274=h\253V>0\370\t>\021\001\014\276\375\235\243\276hs\033=\236\030\277<\236V\263\276\372p\331=\003zQ\276\035\247\027\276\207\334\003\276\3278\252>6A#>\226!\204\275@\231V>\200\\,\275\366E\004>\334\372\201\275\031$\220\274\342\244\212>x\376g=\267h\321>\223\330\210=qP\356\275\034\343\275\275<\252\317<K-\024\276~PO\276\365\007b\276T\355\362\273\026\342\302\2768f\323\273\366_\355=\350\007\375;R\360\025\276\346\264\204>\205\361X\276\316\016{>\240]\">\0000\270\276\336\352\255>\204\"\363\275\035\332\337\275F\216\014\276@\330\367\273\037\374V>\224\264\240\275=m\243>\022\377\">\342\243w>\351\223\350\276 \211\025=\255\210\255\276}\266\214\274\207$\241\276/8\260\276^c\002\276\214\327*\275\202\327\252>\222T\177>\000]\233\275Uu\206\276\347\013\323\274\332E\022>\350\240\323=]\374\000\276`^\245>.G\244>\253\260\245>,|\335;b\217\'>%\232\224=s\007$\276\362\000\274= \306\230\275p\366\036\275\252\336\207>\002\036H>\233\373 \276{\016\221>n[\204\276\334\024\031\276Bs\265>\034\202\r>\000P8\276\346*\017;\232#\207=\204\261\246=\330Kp\2754\233\262\275\370\360\203\274\367\222I\273\'\000\311=\231\026=\276\344C\253\276\021\200\014\272%\304\205>\351=\207\275\331H\202\2764\022,>\243D\201>vE\222\276\213\020\224\276\214\311\013\275\262)\006>`V8\275\247\361\214\276H\240\002>[\030U\276.[*\274\200z\214>xA\017>n^\t>\230\370\\\275li\241\276t2\t>\\vM\276\354\022\017<.\376\340\276\332\010T>\235\277\215>\317\363\207=c%b\276\2348\207\276\010\204\223=\271\217\t\276\2376\242\276P\200\321=\262\231}>\017\253F=\271\236,\276\272\236G\276\362\222 \276\366\310\253\275\331\000\r\276\265B-\276\2431\262\2766\2264\276~\311O\276\327\251\226>\006\216C>\n\340{\276<\371\023\276Z\3456\276\020~G>\256\356\230>\322\365.:\247n\226>L\323\n\276\nC/>\2649\220=\362v\230\276\242:V\276\260`]=\317\327.\276i>j\276W\350\002>\275\300\355\275\371Rb\276\203+=>\021fr>\2318\225\274H\r\235=\360\244I\275}\006w>AT\221\275\220\032\342\273\364\332\272=7t\247\2762\227\027>t\300\350\276C\272\301\274t\325\t\275\333\340m\275\303\301C\275\016 \001>\323{\240\276\221W\227>\227\010\240\276D\202{\276\3444Z>\326\315D\276\213\227s\276s1\224=\032\245\020=\020\344w>t0\210>\020\260\240=\314I\035\275\264\373\326=\340\013`=\265O\345\275\325\320\005\276\320\317\240\275\233\036\344=Q_y=\202\306\267=Q\016\250>\204\230\265\276\233h\206\274/\326\323\275\341\r\223=\244j\250=\343M\250>R\2327>\033\326\344\275\230!\262\275Q\364]\276\3607\034\276&26>\261\266\300\276\017\020\215>V\233\257>\254\000\250\274\007m\214\276\366B\277>\351\302p\276\231_\267>\276o*\274\017\213\201\276\274\307\206\275\017\251\236\276V\252\236\276,\243C>t0\017\275\210\010\t>\252\244\353\275o\326\r\276\\nV=\346\357\025\276\305\317\262>\274\032\021<\317\365\353\274 \305\235\276x\327\034>\375\235\315\276,Y\017\2752w[\276\246\272\031>\264\'\244>Rc!>\371Y \273BB\027\276\350N\006>\t\2502\276\371\257\370\275K\231\214=\020\017\355\275\370\266\222>\220K7\276j\223\202\274\251\236\345\275\360\331\320\274\021b\362\275\014N\210>\333\233S>\026\235\201>\262d\215<\250\321\215\276\360\214\036\276\213\007\316>\336\306\261\276\364\361\241\275h\360\025>\300P\321\276\310 \327=\254\234\260\273\214^9>\325\004g>Sh\274\276\351q\313\276\264o\361;\330\007\242>\326\230\002>5\230\336>\253\202\216\274\372\342:<K\243\246>w\032\021;\217\026D>\303\240v\275  \315;\265\325\022\276\t\367\276>\200\014\003\275h\362\024\274\333y9=\353*\203>\272\220\022\276\\:\267\276~\213\003>H\360\034\275[j\014\276\340\325V\275T\326\322\276\230co\276\'\356;=\256\001\372\274\334\352o=X\215T\275\007\206<\276\021\362\327\275(\207}=\373=\225\274\250([=\322\3011>\247\346\214\276(&\014\276\016\355\003>#\211\235>\311\204\374\275*\226\345\275F\3224\276\245\337{\276\232\206\361\274\t\364U\276T.\227\275\236\024\'>d\250\214>\366\320@\276D\0064\275c\002/\275X\264\262\275\366\365\220\274\0020\024\276\020\034\224\275\374\246\341\276\351\313\223>|\343\316\275\037\312e\276\342PR>\370W\352=\177\004W>\372\316\321\275\250x\335=\310\310c=aq\360<\010-|\275\276\020\017\276,]\376=u\004y\276\316m\202=\314s*\276x\2715=oi\031\276\032\374\016>\216\217\316\276\326\260\303\275v\027\324=\263/\273\276\305\200\\\276\006;U>\036\315\362=.\337E>\300\340\026=\330sf\275!\213R\276H\212\201>\0325\255\275\202r)>\014\301+\274\000-[\276\234\356.<H\021h\276"
      }
    }
  }
}
node {
  name: "decoder/dense_7/BiasAdd/ReadVariableOp/resource"
  op: "Const"
  attr {
    key: "dtype"
    value {
      type: DT_FLOAT
    }
  }
  attr {
    key: "value"
    value {
      tensor {
        dtype: DT_FLOAT
        tensor_shape {
          dim {
            size: 64
          }
        }
        tensor_content: "\000\000\000\000\033\231L\276\016\247h<F\220 \275\326\221m=\034\240\211\274\033\231L\276\000\000\000\0005\275c=v/]\275\033\231L\276\244g\004>\027\301\312\275^2f=\0034\242=t\322\336<\000\000\000\000\371\346\214\274\006\036\'=\257t\223\274\256\374\207\274[\021\307\275f\022\003=f\2007=g\006\201\275SI\035\272\342\017K\276\033\231L\276\373\256\266=\006\303u=G\301\250<\026\2262\275oj\274<Co\201=\002\327#\274\213B\317=\010\247\350\274V\010,\275\033\231L\276\256\2566=\336Ms=V\031b<\376\317U\275\364\355\353\273\216\3659=|\302u<(\317H\2764\200\267;\002@$=\033\231L\276\033\231L\276\037\220\240\274\270\230\273<V?F=\000\000\000\000\226C\013=C\215\227<<\2007;\347\217\302\275=\235\000=\033\231L\276\342\r><\255dL\276\033\231L\276"
      }
    }
  }
}
node {
  name: "decoder/dense_8/MatMul/ReadVariableOp/resource"
  op: "Const"
  attr {
    key: "dtype"
    value {
      type: DT_FLOAT
    }
  }
  attr {
    key: "value"
    value {
      tensor {
        dtype: DT_FLOAT
        tensor_shape {
          dim {
            size: 64
          }
          dim {
            size: 128
          }
        }
        tensor_content: "\215\336\263\275\226~\323=\234\210|=\314\311\004=B72\276B\034\372=pOm<\216X\263\275\177\014\013>t\206\035\276\244\217\300\275\3331\030>\263d\347\275\324\255\"\276\304x\264\275\340\351\222<\340\236\325\273;\337\004>\202(\377=6\014\351\275`\030\314<,\177\002\275\262\264\247=@l\350\273\232n\321=\334RG\275\352\362\321=\006\304\250=\374\216\214\275 \301G\275\370\"\344<\266\270\316\275\360\200\250\275\244_\260\275\355N\272\275`;\264;\222>\245=7\372\341\275l \321\275\355\312\331\275&h\346=rC\346=\335\221\370\275\010\017\264\275\247J&>\363\277\345\275@\030\365<\200h\223=\216&\324=\310DK\275\341-\016\276\032,\220\275\345\002\034>,\374M\275\375m(\276\246\263\343=\200\254N;\254\334\021\275<\2052\275\342\273\210\275\003\330\345\275\312\214\373=\352$\006\27645\\\275_i\242\275@\255\364;\345Z\226\275\242\360\271=t\274w\275\013\0264>\266R\321=\202&\354=\267\3643>\204\217&=#\311\034>\300\342\264\2740\017\033\274`\310\010=\036\361\214\275p\230\347<\360oi= \005\302<\305\006\274\275\3702\021\275P\260\375<H\022\025=,7.=\364\362e=\363N\203\275G\000\225\2753B\026\276~_\352=\234\254\037\275\002Q\240\275\270\344*\276\017i+>\n\327\"\276)\226\021\276\271\026\r>D\244O\275\n\361\247=9t4>Q\014\022>r\362_\275D\372\035=\017\307\036>b\317\352=\204\177u\275\326\005\226=r}\347=\367\024%>\200\214D\274h\nk=\311\275\035\276\2224\223\275\352\372\207=\'/\007>x\251\321<\260o\275\274\260\034{<*\360\232=\014\260\023\276:~\310=,\204<=\300\025\223;\022`\232=\021\330,>\251\220\341\275\233\t\347\275\365\356\013\276\326\340\005>`\007\245\276\344fL>\342\370^>\356\315X>\340\220\244>\225\342\027\276\360\213k\274O\262\235\275Wz\274\276/\243?>\342\252\260>\305!\254>W\300J\275\276w\251=\310\204\221<\220\327\253>lq\275=\023q\312\275\333\240B\276\247\347J\275\2676\313<a\337E>\210\335\032=\010\301\277>c\327/=8\305\333<\215\201\224\276\356\232\030>\231\',>RR_>\236\361\013\276\023\340\010>\231\260\316=\177\005\037>\311\322\265\275\210\027\324\274\261\270\237>\367\377\334\275\257\004~\275W\023\250\275\'\305\r\2759\273Q>ky8\276G\313\322\275\313\223\203>\rR+\276\021kz\276@\000D; PB\276\275\343\204>\177km\275\000\236y\273\'\251\322=\373%g>/m\202\276\327m\214\276\217Y\205>\243J\207\275+8o>W\253\023=\267\337_\275\017(\032\275\200jn\276\317\237/>\377\"\203\276\242\311\304=\010\303$>\020O\234\276\177\312\205\275I\003\226>\366m\311\275\0323\377=V\025\236\276+T\016\276\335\2761\276\373\317\274\275\311!\220=\215M.>\260\270\373<\306\336\376=:_\013\276:\2274\276\227\236\031>\006%\032\27615\010\276\340,K=\202\362\235\275p \322<\361k\036\276F\324\353=\000\244\212\274/\254\006>\351A\344\275\303\334\204>\203\013\031>P\267b>\315y\260=_\324s\275\035\227\200=\370\371+\275\',\362<\217\253\201>7\206\204=\340\205\r\276\355F\264\276\321\3352\276\207\266\272\276\313\252\304\275\255\004\246\275(\335e=RV\032\276\273\251\027>6n\273=\036\307\364\275\326f\330=\200\030\261;!\365)\276p\370\274<v<\370\2752B\035\276\230\231\363\274 \235\312<\330\333\207<xi\273\274Zy\203=\360#\005\275\024\244V=!\216!>{\013\237\275@I\234\275\256#:\276\030\206\266>\241K\020>N\\\035>\227kt\276Gj\203\275tm\010\275-\202g>\363D\'>d\003\375\274\321b\007>S+h\275\317b\"\276\273\212\310=\027d@\276\342\371h\274L$\020\276N\251\031\276\326\220\337=\227\370 >\274\363\031\276\371\352C\276\343\037\005=h|\370\275A\347w\276e\311;\276#C*>|\370\007\276\344\n\261\276\203\373\226=#^*\276LG\253\273\344\223)=~\272\354=\256Pa<L\372j\276\272\255/\276\313\227\034>:K\274\276j!\244\276\301\356\221\276\327\225\032\275%_@>\336m\375=\263\214\341\275\311\017~\276\315\347\271\276\247\237\211=\250w\247\276\215\023\374<\033\326\230>\356\265\212=\001`\224>\005S>\2766\"!>c=\316\275\300if=\314UX\276\375\340D>\0341\010\275\274\030\021\276\315R\230>\302\260\214\276\357\324\252\275a&y>\346\360F\276\366\211\000>s3\032\276\200\246\334\273\302)\210\276\037F\202\275\345\313^>\321\313\027\276\001\376v\276c\325\240\274\016\317\353\275\265x0>~\274\312=d:Z=\242\253\363=|J#\276`\307\034\275XZo=7\343\000\276c\2714\276\'6\334\275\000\200&\270\2044\362\275p\370\037=*\006\337=\022\236\325\275E\007\234=\203i\017\275\224\355Q=\202:\370<<\003-\276\204\330(\274\363C\217\275\236\337\343=z\241\023\274\320\377\311\2744\253\252\276\027|\352\275\216\367\212=\3276\267=f[\007\276\243\232\006\275\350S\316<\267U \276,WK\275L\301\035\276x \203<\301Z2>IH\305\275&s\312\275\260G\325<_\305\275\2758\314T=\220\221\222\274\005;\000>\340\001\007=\324b+=\360\321\340\275\330\016\347=\251\341\010\276\306T\231\275\347\022\013\275YS\001>\267\326w\275o\260z>M\375#\276\333\'$>Q\232\374\275V3U\276\310)\361\275\014\356\247\2767c!\275vp8\276I\307\322=\327P\017\276\374\3369\275\346/\272\274\271a:>\244\016==\366\367W\276Y\270\004>\310)\221\275\317\332\346\274\366\334\225\275X\021t\275\322\367%>\364\341L=\377\310\377\274\177\265\275\275~\235d<\010\037#=o\242a\275\005Y1\276\\\037\035>N\031F>B\263\363\275\020\341\361\274\272N]:/\r\310\275\343\026\245\275j@?\276\007Ro\275\236\255L\276{\301\267\275XxF\276\021\335\245=\016K\336\275\347\001\025\275\333\337\362\275?\230\317\275\214\227\207\275H~\023\276\265\357\341\274\224#3=\315\241q;E\362,=\027\351\215\275\217\274#=?\255\024\275\010\224\010>\342\277\304=\345\326Z=\227\354\216>\363\021]\276\332H\204=s\334\214=wF\264\275\261`:\276F\000\231\276\022\314\225>\251\247\377<\000\2552\274\1770\232\276J\305\227\276!\274\255\274\026\310}\275#\337\237\275\306\336\233=\370|\262<p2\303<\300\307\\\275P\'c=\350\242]=p+g=>l\341\275\317d.\276\354%M\275\342\"\340=\231\332\351\275\206\356\256=\000\007\207<\237\013#>\360\354h=h}\007=qr\212\275m,.>\014~\n\275\014\302\325=\333\037\240\276x\214\323\275\246\177\220\275W\304R>W\026\337\2745\264T\276F\017u\276q\026\033\276\370\326\316<\024\032U\275\363u\277\275\254\240q<\020\211\237<\352\324\233=\220\020\r\275p\177[=\006%\200\275:\226\000\276\t\325\022>`~\320<\263(\t>\226\034\004\276\302\366x\2752\346\373\275\335\272\r>K\246\037>\270\235\361\274\242\230\301=\246\361\305=,\210P\275\276\264\362=:>\210\276>\020Z\275\003\304\325\275\230\363\231\275\372\3468\276\256E\242>\304\216\014\276?$\344\2751\362\217>3!\242\275r(\267=\271\2661>\300\376\210<\305Xf\27602.<\232\335\242>\2338\351\275\336\356\314=\022\033\n\276+r\244\275\311\002\010=\024\316\2469*\267\343=\271;\034\276\027\242g\276\320\362%<\305~\250\276#\201\222\275\006\364\016\273\344\213~=\036<\274\276,\204\216\275\210r\377\275x\211\025\275\344;\177\275F\326\364\275\343\331\022\2767\363\027\275\307t\376\275\204V\033=a\023\035\276O\304\211\276\305\331\372\2757\244\226\275\370\250\037\275$?\205=\233=w\276\373\345@\276.\007\234\276\364X\304\275\022\246\232\276z\247\236=\274$\206>T\021A=\007OA>\022\313I\276Y\231\331<\316\204\227\276\017d\001\276H\364\252< q\345=\'\244V>_\270\202\275\3533*\273\310<>\275\262\314V\276\305\326\250\275-&\n\276\353\367\021>\316\315A\276bC\310\275\001se\2769\275\001\276\223\305\006>\006\375\027\276{\364\013\276(&\270\275\320\316\"<\020q\301<\352\014\034\276\361\0024>\220\000\232<`jp\274\000\355\027;\366$\312=\227;\000>Q\360\314\2756\202\306=\014\374b\275.\2044\276\351\234\240\275X\206\225<-z\025>\305k\211>*N\225\2759A\234\275\202\320\332=;\257\211\275\216@$9f3(\276*\243\376=\244v\023=5K\355\275\311\361K\276F\375\221\276\364\347\000\276\357H\217\275\037\037\265\276\026+\251\275\250\215\002\276s\0161>\"\304\303=T\357\375\275\022\350\270=\327Y4>\376\006\334=r\000\274=u\204#>\301\020\004>\246\004\237=\224\276\027\276\251\"$>\331\243\034>:l\035\276\020\336\276\274\2620\177=\220Tm<\005FA\276;\345\203\276\014\026s\276\t0&\276\013\307R>t\205\033\275V\342\213\274\215\264\367\275\317rL\275`\034\226>+\262\270\275\247\270(\276\274\020\277;\300Q\223>O\026*\276\224m$=\310\202>>\232`;\276\354\360\005>\363\265e\276\036\323\310=\312\305\272\275=e\">r\027\250=M|&>\331e\237\276\236`\030\276#l\370\275\326\345?\276G\033=>\200dZ\276W\220#\276\334\323`\274D\320\237\275`\373\t>\020EE<\0134\006>4\307[=\r\022$\276\207\013J\275\217\265\225\275\233\267F\276\277\354\215\275\255\234o\276.\241\232\276\016H\300=W\037D>sH\277\276\227\206m\276F\227:\276MdG>i\361\236\276\246G\260\274\320$\356\273h<3<\023\227i=\375\344:\276\247\253\033>\315p+\276\264\335\010\275I\276\037\275^:\262=G\224\211\275\202\363(\276\026f><|G/=\253+\331\275SF#>\376\017\254\276\222\036y<\325\264J>x)\000\276\226\321\213<\371\236\236\276t\203b\275\024F3\276\330\316R\276w\236\'>\304\323\037\275\270\017\026\276D\243>=8\215\034\276\322\213\257=p\213\260\275\000j4=Fd\314=>\346\373=A\236\334\275I\253\r>R-\261=P \026\276\360}$=\013\325\031>\036\346\303=\345T\024\2755\035#=\264lU>\204#1\275wo$\276&^!\274r\215\206\275\372\303\035<;\263\013>P\323)\2753\033p\276\347t\221\276\236\375\300\275\263\272*\276\007\366E\276\r\203\261\275\340\242\226\274d\342\357\275g9\235\275\032=\264\275\340\031g\274v]\252\275\002+\300=\000\026`<\312\234\361=\036\353\356=\257\202(\276\206\244\246\2752\223s\275d^ =\242c\354=\276)x\2759\350%\276\224\3513=\311+\245=w\030?\275\005\324l>\307\2025\275\000\311\240=\373\200\031>\006\233\313=H\300\361\275W-)=K\242-\276t\211\201\276\354t\356<\240\353f\276\217\220\000>\006\204\314=-\364\021>mI\207>\243\3402>\322L(\276M7%\276\303\206\201\276, y>{\023\204>-w\253\275\323\301\3159\272DB>\350#\003\276\317\340\207\2759\305\227>\007\032?=>p\345=\367\213\242\276b\264\364=oea\275\370yO=\'\201/>\362P\305\275\360\\\265\276o\236\202\2758\231\217\276\220\006\244\276\'\0022\275R\"\026>\300\007>\276\355H\211\276\302|\242>\310RI\276T\222\270\276G6Y\276\350\225\205\276\001\264\216>\343\273\374\275 \355\325;\021\224\262>!\224R>oAt\276tDd=|c\315=\255\006\216\276\004/\262;\333]\246>\310\362\256\276\267\317\337\275\217/\262\275B\256\027>\247\r\224>\270\020/\2763a\206\274\021O+\276K\225y=\004G#>\376\022\272=\237G\363\275\365\220k\276\320\250O\276\264~\223=k\315\272\276^\263\017>\344\230\316\275j\340\030\276\325\025\033>X\257\262\274\000\014\030;\330~]=\034O\357\275\265o\237\275,R\210=\372G\320=\340t\216\275\036\274\206\275\216\252\321=2\034&\276\260\347k=X|p=\037z2=s\350\274>6\375Y>,Qm>\350\247\220\276\257*\347\275j`\201=f\205\362=s\307\t>\222\001\237=\216\240\332=_\"*\275\337F\n>\340\305l\276x?\313\274`t9<\200\360\216\274\260\235\223=\010]\203\274\260\241\212=\244\010\014=\242\247\243=\272\323\330=:;\310=\334\200G\275F\331\221=\",\222\275BJ\036\276\246\004\376=\351\201\014>\272\017\307=\000\337\343:i\206\024>\016\342\202\275\005\335\010\276E\233\245\275\002*\261=\240h\022\276,\014e=\240\333\277<\357B\002>ps$\276\331\312\001>\2648==\310%t=D\2103\275\306\005\315\275\315l*>\250\333\036=\272\0223\276\354\362s\275\250FT=m\017\013>\000L/\274\310[\252<\206\362\356\275\200\335\035=X\375\361<\020\035[=\340\3656<\254\014n\275\023\335\241\275^\330v\275\275\314\377\275\350\211+\276\226[\354=X\272\270\274\036\366&\276\360\252\344\275\200\037v\273\026L\356=\243\330\272\275\022\017t\275<o\276\275\253\205\021>\025\236\003>\002;\036\276\255S\361\275u\312\r>\253\274\025\2764\327\374\275\020\260T=9\010\">\204\241\037=\036\207\236=\320s\017= (\025=L\223\003=\023\222\366\275\230kD=\256\026\253\275\242\215\204=\022c\211=\242\262\350=\260\323\233\274\333\031\343\275V\273\230\275\360QR<\032\\\254=\371\013\375\275\014(\032\276\2424\013\276\023\3654>\276c\252=\372E\256=`\224?\2741\003\236\2750h$\275U^\034>\004XA=c\004*>\037\002/>V\213\231\275P\254J\275:\301\351=\356\217\237=\357\336-\276\020\350\375\275N\022\367=\356\203\222=\032m\233=\252H\235=r8\013\276\227r\005>\310\335&=\032n\253=\220\006\000\276\360\320\322\274\241\333\342\275\201\271\217\275>\375\304\275M\307\257\275\220$P\274a4\331\275\315k\r\276\274?\336\275V\031\027\276pz-\276\032\352\006\2760\037a=4%\200=\302\272\331=\236\n\313=\010\010^=x\212+\276\232\n\376=Dh\016\275|\306\036\276pK\024\276\262B\336=\220\033\326<\330\0267=\200\336\243;\255\'\013>\036\300\240=#\3102>\343\334\004>\264^+\276\243\246\020>e\204\331\275\242\256\375\275`\216D=\207\350\033=\233P\226\276x#\020> \253\230>\014,\346\273\250\331\232=\"\202\273\274t\272\360\275)\374\256\276}\304[\276\207,\306\275\332\334\213\2752\'\353=\"\274\332=\302\327\274\275\215\333\014\276\302\303\240\276\314\271H=[j\201\274\022@|>\320K+\274\332T\020\275\"2B\275!\376\215\275|?^\275\000\223\207>\375S\230\275O\350k\276zP\267\276U\232&\276~\'\333=m\031p\276\266~\236>\370G\013=S\326\013\276`\353`<\324\204\000\276\221L\242\276\337\342&\275`}\212\276e\337\001\276p[\247>F\016/\276\274\232\273\276\354O\007>\267}\007\276\334g\016\276\360\027W\276\262\275\342=\242\255\202\276\362\341\013\2768\\\353\274\350(g=k\274L\276\203\322\001\276T\360\303\275n\363\222\275\334\217\037=\')\206\275\325\n\267=^O\260=n\"U\275\022\305\t> \317 \276t+8=|:\311\275\000\001\255\276+\364)>\013\207S\276^\333\257=Q:2\276p\037=\274o\302\017>n\334O\276\331\373\370\274UL\001>\343\370\242\276F}7\276TA]=2\362\000\276\256N\317=\322\211\301\275;\2222\276\003\363\005>\214o\370\275 \253\266;\022\264\374=\007\304\254\275\2028\354=\210\307\356<\332\253\316=\240\327\217\275a\206\274\275\322]\207\275\357v\375\275\275y\375\275\310\210]<],s\272\270\0202\276\334\202e=\2224\226=\365\335\361\275\364\275\232\276C\331\007\276\200\376\322\273\304\220n\276\0164\262\275\346\362\243>\320;L\276\342V\261\272\200\250\356\274\251\307\t>\345+\236\275P\000\340\274.\305\352\275\336\377\'\276\330i\033\275]\274\017>@V2; \340\315<\345\010\005>\t\215\335\275J\257\232=\375 \037>b>\312=\356\'\360\275\222\316q\276B\305\272=O\334.>\017\276\272\275\200\245\275>S\3060>[gx\272\205\271\020\275\367\036\221\2760\3525=\\\"\231<\325\025\014\276 \005\243=\010\337\235=qE\233\274r\223\300=7\3600\275\2340g=\224\306\030\274\234\r\223>\370H=\276\345A0>\235H\'>\270\244\254\273P\266\217\276 \221[\274\356w\243>g\247\241>\230\005\275\275~\266Z>L\314\004\276\313\334b\275\231-F>\313\321\254\276)\017\255\275\366\216\347<\371\271\377<i<\302\275|(:=\0171\004\276\321@\350=\t\360\302<C\276\236=\234U\034>C<s\276\267\361\207\276\326\301\010\276\235\242w>w\365(\275`My=\t\221*\276[\216\220\276\260]\373=\327\244r>\013\367\027>r\0165\276\327\232\342:J\311+\276\373e\205\276c{\352<\373\347\316\275\261P\330=u\326\217=\257\205&\276T\240\313\2754\211y>\275\230\217=\034\275T=|,\215\276\212\374\330=8\r\026\276|\371\332\275\267\002\002=P\021\013\276%Q\206\275\357S+=\313#\330\275\365\034\021>\'4\013\275\346\240G>\277v\001>\000\240\377<k\273*>\220\0330\274E\304\002>h\225\253\275\254u\222=sd\245\275\352\314\024\276\250= =Mo\001>\272n\357=\226p\373=?\025\267\275.\240\301=\000\365\375<\240\1771\275g\263\305\275N\001\320=\354\344I\276\267\315X\275=\333}\276\177b\215\275g\211\235=\322\231,>\357\022y>\257f%\275\177\355L\275D\345N\275\236\304\330\274\251\2433>%5\177=\266\227\236=\3770#>\031\245)>\230?T=\300\337\352\274\306\330\261=\n\276\321=(\257\372\275\352\320\254=\3117,\276\264\250\025\276\022<\377=\002\275\341=\336/\311\275\2007\237<\2463\257\275/\225\246\2756\312\237=Y\023/>\272C\275\276#Ft=k\262\000\276\222c\203>B\262\254\276\".\317=\340\245\016\276\336E\330=\307\024\222\275\275{\232\276\213\347\271>\360Z\225>\370\016\366=*\333\337=\270\336S=\323\2135>/e\006>\251\0259\276\277\254n\275\037_\037\275\354b\300<\'rJ>j\343\321=\212\277\225>q\017\231=\000\220\027\276\2606\253\276\370\300\202\276\207k\253>\262U\232>g/4\275K\261\013=\216d%>K.\017>*\232\253=\200\231\262;\235R\033>(\342<\276\367%w\276\352%W\276M\021\347\274\246Y\274\276\265\032\214\276\247\346\034\275\273\343\260>ol\257\275\250\375\216\275!c\002\276\321\313\224\276\257\320\223=3e\272\275\347\300!\276k\022@>\001]\213=+\255<\275\037\344\352\275\320\361\325=W\370\232\276\364]\276\275\016!\275=z\034\216<\305\030\366\275\357\234/\275\037M\253\276twe\276w\"o=\211\222\367<\033\326:\276\375\212\220\276:\323\310=h\270\222=\211\2232>\215h\207\276\354}f\276t|Z=\237k\037\275\013=\255>\206\320\313\275\334\322\216=\300}\027=\n\005\305=Xp\342<8P8=D\014\326\27573\231\275l\317\224=\032\343\341\275q0\243\275\020$\222<\364;)=\344l_=\231E\330\275\000\365\';C\372;=\231#\242>\016\211\343=\3037\324=\360a\\>Sf\353\275{\207\020>\3262D>\031\276\203>mK\227>D\263\345\275\230\336\233>&J\277=\023R\306\275\321~\271\275\213\333\034>xt}=;\211\005>\035\262\033>~u\305\275\300\356>={\342\n>\235W(>#\2704>\370\316\031=\375\236\006>\025h#\276\302\201\353\275K\2003\276\310\014E=\372\312\221=\010\371\304\274\277\261\274=\360Dn=\370f\312\274p\'%>^\316\337\274<~\341\27404e>\003\257V=y&\333<\220\017\253\274\030p\242\276\017\247.\276\353\257\037\275\023\177~=WH\312=\343\312\261\275\237\213\213<\306=\320=Wdr>H\310$\2769\307\212>\210\373\216\276\314oG=kKn\275k\344+\273\270\377w=\\\300\220\276\214D\206\275*\375\370=\333 ~\276~\265p>\262\274\204=a\213\024\276\270\317E\275\013\255O\276\031\360@\276\n[\017>\375\322\037>bd\370=\200\223(;\363\333\267>\000N7\272K\\\227=c\2613>\240\266\373\273\003\275\351\275\236\212\017>\014\257#\276\265\024\003>hY\352\274Z\362\324\275\220\360\021\276 B\263\273\335\257\253=\256\212\357=\314\027\264=\211\350?\276\352\355k\275\023%\344\275~/$>(\350\255\276X\202\004>&\362\020>\326\302\271<\034P\272>\335\372\033>\010\036\245=\216\303\r>\263\362j\275<\021\204\276\200\251P\2759\327L>\202T\024>\253\006\317\275S6&>\375\266\021\276\030\007F\276$B\n\276\261d\213\276\350\345z=\347:\320\275\270+\263\274\336>\375=\\\2536=\016\t\366=>\200\373=\350\230\202\274\210\362\242\274!)\005>\346Q\212=\244I\036\275}\024\027>\014N\021\276r~\253=\344\035\340\275\270k\243\274Su\233>Z\032@>\003:g\275\270 L>>y\305\274(&n=\330\2010=h\177P>f`\375=\227\004\216>\276\226\313\274\030\014\327\274\000+\300\272]5x:\247\260\007\276h\230\345=j\360\326=\331s\020>\267\0170\2760\257\265<\374\342b\2750)4<r\322\303=\033q\013>0\315l=\200\364\325<\245\\!><\317\236\2758w\214<\373\014\314\275w\255\260\275L\010n\275\202b\335=\211\025 >\265\260U>C\340\326\275#\005y>6\227\261<dz\337\274\240?4\275\337\356~\273\2667\360=\370\nN\276\231\360\243<6\377\342=\310\331\200\273\264\357&\2758\276\007<$D\360<\364H\"=\276\346\025\276\013\265F>\360\361\344<\025?\276\276\303\271s>\'z\025\276\256kP\276$\365\005\276\373L\256=\236\025\005>mD\">\024T}\276\234\362T>\303\313\264\275v;\'<\340\016\203\2763#+>\006;\224<@pA=L\210\322\275\262D\241\275f\357\370=\353@\206\276\216D\270\276\\\363f=3\333s\276[\003\000\276 \257r\276\247\252[\275\231T\225<p\300j\274\367\261\177\275\232|;\276\033\020\207\276\347\353t>\320\273\216\276\211\2578\275!>\013\276\326K\005=\226\n\2509V\330Y>\0300@\275\247\215l\275\335dp=\223\213U>\333{\317\271\321\222/\276~\370\260\276\214\347\341=y3\001>\017\266\233\275\031?U>R9\n\276\324Oi=\\,>\2756\332\000\276`\2461\276\367\244\010\276@\235\211\276\310\237\332\274\'\332\346\275y\2710>\310M\277<\214M\007\276\213Q+>\210\244\347<\370E\344\274sh%\276\006@\363=\0372\222\275\300\336\221\274J\241\223\275\374\320{=(k\216=\270V\250\274\276\362\332=@\016x=@\371\035\276\310\331G\275\304\0160>aP\232>|\265\267=\327\356\233\275\270\242\016<\031\363\226\275N_T\274d\361\030<3\313%>{\025\260\275\346\000>\2764\357.\276\032\267\225=D&\257\276<\235\307\275pR\372\274\003\014#>\240\206\221\274 r\273<\\\312W=\204&\007\275\226 \263=U^\025>V\030\247=\300t\347;cH\026\276\020\336\010=X\200]=\202\374\314=\350\233\374<x\214\345<\033\315\317\275\374\227 \275&\303\245=\222+\030\276_QW>\200\t\201>Zq`\276aX\030\276IG\240\274\314\205\005\276\356\234\016\276\356\335\306\275\355\341\234>$\225\276=\247\263\240\274\302\'X\274~h6\276\020\202)<\216\3562\275\225\324\222\275%=\254=1\360\211>\225S:>\274<Y=:g\010\276r\340\010\276\245/\036\276\014\322\226>\320\002\367\275\027/\247\275\000\220\275;\316b\261=\270+\t>\345q\030>Y\206\005>\207e\021>\302v\t\274c\220\030>\272Q\231=\304\365\202=\000\261\275\276\277RH\275\301S\010>\262\200\243>\223~C=\277\343e>W\005c\275\277\t\234>@\302\305\275\303\340\356\275\351\354\003\276\tW\215\276sO\247\274\010_C\276P\005\310\273>=*\274\364\004I\275\212_\235=\310\026\214>\243\356\312\274@\272M\276\301\252A>\0323\320=B\014\223=\201\202K=l\362=>:\225\246<\277\316^\276S\004\243\275W\036\'>\000\247\245\276\307\346L=\364>\001\276\'q\262\275\210\206\350<\037\3557\275\001cy>\302\313\332=\307\251\357\275\332=#<\376\014\313=\330\330\221\274fM\204\275c0#>v\212\357=\250\211-=\246\251\373=\302P\245=\324J\021\275\020V\372\274\000\222\255\271e\361\016>,cl\275\227|\n>\340F\223\273\007\232\030>\240\321\342=\355\276\330\275\361\006\223\275\021\363d\276\246\331\232\276Z\010\250<:y\031\276oV\006\276\371\205\212\275[T\201\276\356\235\312=\375a\t\276\222\315\202\275|\275\207=eqA\276n\361\"\276a\241*>K\025\037>7\211\010\276\020\301\017\275\266\336%\276\300\351\013\273\252\217\372\275\340\006\n=\t\344+> \274\277;\306\306\242=\366\007\373\275\264\243H\275v6\307\275\367\031\035>x+\234\274\320\177\216\275p,@<\236\001\344=\213\004\206\275\257\023q>\210\007\261\276Jn\304\275Ew\241=pK;\276\035p\363\275c\216\205\276\031\350!\276g\360>=\020\273\200>G\364D>\347\371\003>7p,\276Mm\321\275\310\322G=\024\261\023\276R\234\337=,\205t\276\003\001R>rYp\275(c\243\275`\271\316\275\253\300A>\265\005\233>\370|4=\303^\276\2767\013\221\276_\315T\275\326\331\201\275\353\350R\276l-\207<\327=Q>\3776\352\275>wo\275\312\177\031\276R \213\276\301J\033\276\264\204\276\276\255\0139>\"\243\271\276\020\307\227\276@\253\253\276\036(\250\276\030\024s\275\362\010N\274\305W,\276\337I\233\276\365C\223\276\260\346\014\275\036\225\261\276\325\357)>x\301\206\273\232|\033\276\"\000L=\2674\221\275\314\224\203\275z\200<\276U\362\203>N\335\204>>H\277=\302ll\276\366\233\216\276\237\220\005>\332\255\366\274\354\206x\276\377\216\026>\373\017\262\275\237\272.\276\315\263<>L\340\225\275\'&`\276\032\265\243\276\016\3467\274\317\177\261\2756\340\244\276B\263\276\275\223@\034>\304\374[\2750):\275\300\014\353\274\032\307\362=\323Z\020\276p\372\244<I\310+>\300%)\276\340\223\247\273\266r\263=W\257\t>@\311\004\274F3\253\275\210\000@\275\300\003\014\276\216\250\276\274\022w%\273\202A\007>\331\233\251\275\274jc\276\350\266V\275\217\037\004\276\023B\030\276-\031\'>y\\\033>P.\226\2746\014A\276\200\331s<\371\252.>`u/\274\352\022\306\275\220\316O\275\243\r\000>\300Fa=\0364\214=2z\207\275\305\216\306\275\322b\250=w\211\005>Q\246\277\275\351\271\005>\233\\\220\275\350\007:\275pvB\274[\311\003\276\000\316S\275\200*s\274\027*+>\246\327\301=*\264C\276+m\243\275o\356\253<\241lw\276UQ)>d\022J\275]\332\200>\334m\202\276\304Nd\276\357\037\245>\'\272\267\276q0\n\276\363\2503>:%\353=\274\315\317\275\023o\277\275\020\332\225=\324\0001=p\366\306;W\177\261\275r\216\227\276U\311/>\031\234\">Ol,>\256\206Y\276\223m\210\275G\005\010>#\345\210\275k\320\240\276\267^L=\200,^=\353\203@\276-+\025>\236C\317\275d7_=M\316\016>\345\234\016\276\026T\313\275\316%\"\276\"5\300\276$\333\216=\3776\177\275\203\316\225\276:\027!\276\374f\201\2761\262\273\275\r\227g>\333\225\267\275q\266\223\276YIl\276;\207\005\276O\244\303\275(\240\342\274\202\311\365=G\004\033\275\331\246\021=fo\234\276\004\226F\275\263\374\t\276\002V\003\276\210j\256\273\r=9>6\232+>\003\372\221\276\032\235\205\275\245\332\010\276\260\201\257\276B\255\321=\347T`\275\247\033:\276n\r\201=\004\0372\276$%\235\276\336K~\276\355\211\024>@\017@\273\021Yi\276T$\277;bVV\275\210/\266\274{p\013>\316\255$\276i\362!\276\000\2347\275\360\226P\275\312y\320\275\245\375\235\275\370Y\025=F\021\330\275]\324\026>\270\336\266<\302\337w\275`Z\304\274\336a\003\276|\026\321\273\'\337\007\276\270r\310\275)k\007=d\322\264\276br\315=sH\307\275\232\035\200=\265\321\n>\234@9\275\273\350\254\275\t\343\013\276\212^\201\275\252\372Q\275\362\3048\276\r6%=\237)\034>p\370\017=\265\355\001>\344\307\013\275\2728\233=\366\223\302\275p\346C=Z\316\330=x\231[=\362ZT\275\317Z\017\276x\200\352<\302J\002\276\320\327,\276\234\235\023\276j\355\326=\362\237\312=\310\255\245\2740\004*\276\3566\220\275\334Q\025\276p\274J\275O\003%\276\352\366\206=l\264h=\337 \303\275\320\035/=I\274#\276\200\002n<!\354\021\276\2048\002\276\250\345p\275\220C*\276\220\217T\274h\317\214\274\264an=\367\202\004>\004\264\330\275\367>&\276\\\343\032\275\324\020\225=\232\002\361=\024\001\005\276\377 \270\275\346\026\356=\356\373\036\276\311\253\031\276ju\252\2751\305\021>\227\201\031\276.k\363=\000\004S\272B\267n\275\370\024\221\274|\266\021=L4m=I\241\032>P\352\030\274\322\250\327=\210\373\223\275\000\352i=o\331&>+u\036\276\300\354\221\273\260\021\t\276\'H\'\276\343\252\022>*\374\371=\201\224&\276\346\210\377=\220WG<&\222\245=f\255,\276\340\017~<\016\203\246=^\264\036\276,\227F\275\254\271P=\275\034\252\275@\034\n\274Yw\254\275\0275\000\276j\277\353=\226\256\224\275\0352\333\275\360\252\346< \341\254\273\231z\035\276\340Q2\2762\360\r\276\201\273\032>\300\317\337;\303s0>b \371=;w\365\275*\355\314=\230\007%=\023\264\016>\244\255.\276\207\311\322\275 #&\276\365\357\247\275\027\334\027>\324et=\030\317R\275\300\212\255;HN\271<\274\032\005\276p\331\r<\354V\\\275\204\312#\276\320h\315\275BV\371=\270\202Y=\025\255\203\275\026\202\323=h\276\313\275\361\005\003\276\247\306+>\300\372\245\273\240!.\274\2603\371<\250C\332<\030\023\221\274\340c\223;\014M\224=\224g4=~\366\023\276\356\233z\275\036\265\231=N\301\244=\320@\333\274:\262\315=p\332+<\356V\343=\r\226\033>Z\206\374=\350\034\357<\201_&\276\214\203I=6\261\241=p\272d<Y\243\247\275q\031\211\275v\001\373\275d\201(\276G\321l>\"K\234\276\250\"6>G8\353\275\345g\201\276\202a\020\274\263\214\031\276\273R\026>\3766T\276\n\272\247\274\307v\254\275F\014\033>\3353w\272\025\265\223\274\225#>\276\340\271\343<\032\301<\276\334\336\366\274\226t\231<\304-\261\276\230\377\356=\354\305\353=[0l\276\254\315\013\275Q\270\014=\026\'\001\276>/\376={\310\242\275r\352\204\276\325\3057\276\312\275\351=\220\300\004\2769\207\272\275\303R\t\276s\361v\276\207<\037\276\224\316\001=\252\352\360\275E\231\005\276r\361\236\276\214Ky\275R\316\216\276\026\240\r\276- s\276\027\340\177\275U\021K>\362\307\217\276JR\204\276>-\332=\014\363{\276\362\003\214\274\317\207{\276\273i|>\342\303\023\276\365\320)>H\023!\276\255\335\000\276T4\177\2767G\246\276\211\014\352<\235\370\216>\204oO\276.L\271\276\247\213\202\276.\257\262\275F\235Z\276\001\245\213\276)Z\216>xW/\276IuW\276\230*\300=p\243\232\275/\202P\276\263\254\335\275|\307\265\275L\373\263\275\'\022\235\275\026\377\304=\267m\020>Z\272\364=\010\256/=\000\330\337\272G|\006>:p4\276\252\2040\2763g\243\275,54\276\336\231\205=\342 \301\275\025\022\n>&5\033\276;<%>\250\030\357\274\274\340;\2753\213~\276Y>\004\276\230\345\315;\'\356A\276\357g\037\276\321\220\007>\342(!\276\237\'2\275\027.\004>\234$\024\275\363\035\222\276X\311\031\276\365+\036>\275U\'>\243|\263\276\027\006\230\274\240\021a\275\014\023\354\275r\337\315=\360P>\275\356S\343=\212?\372=I\222&\276\324\371g=v^\252=\336\023\027\276Z7\344=\311\376\332\275GW0\276\361G\231\275\260\371\262\274\020\336 \274\333\234Y=\212\'\211=^\023y\276\210\031:\276|\022\246\274\254l\265>\350h\313=K\227\222=U\315%>\261\314\201\275\361\263\203>l\3402\276\205r\233=WW\236=\376\356\255>\377\020z\275\000k\257=a8\242\275b\346\223\275\230\341\034\275\240m\025\276\2771\203>x\001@=|\016\362\273T\271~\274\372>\217\275\370\311\034\273\207<\375\275\000O\004\276w\202*\275\267&X\275\274\035w=\021&\337<G\276\310\275\344\350\240=eO{\276\016\2243>Ae\311\2754M\035\275\354<\301=\244;\365<D\305^\276\001\037,>w\224->z?\244\276b\275+\276\2113p\276\"\1779\276\\i\021=\3738\275>\306\321\267=/\t\267\275\334\311T=74X=[\020U>\363\004R>a\201V>\t(\373=\253\272\247\275\342\007\233\275/\017\254\275nmv>\nY\033\276\310\225\331\275fm\305<E+o>\323\312m>\0326\261=\030\276K\276O@P>\316Xm\276L\272\003\275\320}a>\216\237(\276\027X\203\274\226\007\270\276\243\361\312\275\026\306\303=\217?+\275%\234E>\376\000\311=\322\252\332=p\267w\274\375M\201\275\000:-<\330\254\203= \t\213\275\277N\025\276\3625\363=\212\323\332\275H\305\035=\222E-\276po\032=\3065\363=\352\375\220=`j\220\274\342Q9=\023Q\372<\306\326\226\275\2008\002\2769\346G>m\035\226\276R\335\320=}\376\255\275I\324\363<\373\352\307=s\231\201\275\207\036\302\275\3162\251=\326\031\020\276\260\354\255\276\210Z\203\275z7\252\275\234\376\023=\335\254\">\210\177Y=\215\331\n>\352\232\000\276\222\262\312=C\203\022>\232\331\330=\343h\277\275\342.\273=\314\356h=rv\363\275\303\215\036\276v\007\262\275\242.\335=\316\326\221\275\\\2540\276R>\301\275{\344\211\276\037\3405>\363\310\324\274\224\021\243\275\001\357\372\275g\212\302<\033\027\232\276N\3249\276\244m\356\275O\013\316\275u[\314=\177\000\000>+\301\237\275\337\020K\275\326\205\314=\315\"`>\236=\277=\220\252+\275r.\250\276~\211\355\275\024\251\277\273@\374\226\275*v\236=\330\312\246\275\344\225\274\276o2+>\007\3148\276\260\013n\276\213G\021\276\375\243\315\275\241HQ\276\\\274\334=f\347\241=De3>tM,\275\360\251\335\275\216\254\370\275\336w\206\276\037*\030\2765\232\001>f\251\222\2762\364E\276\325d\204\274D\371\235\2761MY\276\331\305->\'1\210\2751\313\260\276\273\262\342\275\002?\344\274\0004<\276\364\004Z\274\351\241W;Q\320\\=7\360\340:\211\0027\276\3479c>\364\205\243\276L)=>\336\023P=d+(\274\350\237\255;\33020\276{\265\">mT\023>\360\006\271\276\340\321\214\2758p\013\276\236$\376=\336\250\351=l\327\364\275{6\177:\367\235,\276\2376\010>\277\\\243\275\024^3\276H\nL\273\360\260;\274\034L\253\275_D,\276\227\003\335\275\224\016\200==G/>\376\241\013\276\312\340\272\275{\353\334\275\233\364\010>\300\032\221\275i\376\321\275X\216\010\275\"\274\360=e\026\341\275&\261\262=\334^L=/6\017=\034\t,\275\213%\202=h\367~\276t\303\271<X5\013\276,\344*\275b\237\230=x\375&\275q\212B\276Gko\275\004\356\300\275\313<\016>\277o\037\276\312x2\276\250\235\307\275.6\r\276\000\030Z\275\342\023\327=\300\273\207\274\200%(<t\326\212=\313\272\024\276p#\032=\020\022Q\275`+\277\274#]\030>i5\370\275\225A\312\275x\313\\=\017K\340\275\013_\037>\230\r4\276\325\014K\272\363)\253\275\206\225\351=Sf\243\276\332?\255=\214\255^=\305\223\250=7\333\312\275\263\0374\276\037}\260=\350\213\205\276\234JA\275:a\257\275\264g\200\275\'#p\276\344{\204=a\2454>V\026\213\275\336\341\310\2757\"\220\276\256\023\237=\2609L=\245\275%>,V#\276\036\246\361=\246\345\207\276\3234\025\276[\377\201\275v\312\213\276\300a\234=\226)8:\200\r\032\276\037\207\023;\267\212/\276\004h\270\272z\263\363\275-i\010\276\000\010O\276u\336\241\276\217\305\273\275\ti\301\274\350e\210\276B\306\014\276\021g\250\276\253O\270\275\377k\035>-\322\203\275d\231\244\276\214@,\276\365C\241\276\006\001\336\275K\031=\276\025\023\344\275\226k\232\275<\177\344\275\364\346\223\275\271\207Q\276\344j\200=\326+\217\276\206o\266\274\234DI\274\315\201\213<G\242%>\347\266z\275:0[>\352\360S\275?\364\212\275a\023\272\275\250s\203\276\365\253`>\2576u\275\240E\335\274\215\254\226\276R\353M\2768B[\275B.\263\275\006<\261\276:\335\357=\014oD=\363\330\003>jN\204\275?R(\276\275E3>\253\356\036\276\324\270\016\275(\n%\275\034\266\027\275\325\024\n>G\310\341\275E\241\206\275N\334\345=d\224\r=dB>\275\340\324N<Jl\231=r\321\331=Hu\341\273dK\331\275~\203\267\276Y\213&=/\253\032>J\235\221=\312\210I\276\240\230\006=\203\001W\276{\246\255\275L<\214\2752\216)\275W\017\335\275\230%Y=\360\032\301\275\350\204\363\274\014\\:=X\255\212<\310.\376\274$\334\263\275\214\330l=\034&u=x\030\005\275\205\2273>RN\330=\342\371\321=\335\221\035>\351O\026>\266\327\227=8+\337<\004*M<\024\2371=u\255L\276\'\205\312\275sf\311\275#\254f\276\340\372\215\275\302j2=\304\001\232\275\025\367\334\275\\\263\265>\017n\227\276\236\247(\276c\005G>\315\205\365\274\244\206s\275\250\033\252=6\265\252\275@\247R<$\227F>\327\203\013>\257\251V\275[^\014>/\027\317\275\251\232\265\274\004+`\275\277{\027=\313\264\204\275\206`\031\276{\321\222\275j\214\236\2765uQ\276\3449\334\275W\021\253\276\273\225]\276qqB\276*9J>\342\351\316=@U\367\274V1I\276Ot4\275>\244\003\276j1\232\275(\360v\276\030R\235\276\227\216\240\276\343V\205\275tp%=\257\356T\276G\361\240\276\270g4\276\231\327\206\276;\005V>V\372\027\276\022\262\013\276Su\343\275\360\222\361\274?\211\026\275\323\362\333\275\353\226h\276\230\223$\276;;\005=\332<\232>\360\246r\276\002Z\013\276f4m\276>\334\207\275\366f\202=\277\014\007\275t\341\242\273/K\026\275\013\367\r\276\246\371\242=\230^z=\313\233\'\276W~\371\275\357\255+\275\360Gh<\327\335\026\275\"\016\312= \224\263\275\320T\300\274\026\264\362=\260\021[<\010*(\276\214\361\374\275\340|l<\000\3575;\270\323\341\2748\346\327<n\017\257=\322\016\002\276\236G\025\276\213\355\">pU\001\275\220O\324\275\254\301\200<x\002\013<^\031\023>\322}\210=-\037\224\276r.\001\275@\2069\273 J \276F\r8=J\304\306=zl\326=x\235c\276\033\025\250\275\002_\243<\317yj\275\374\301\034>T>\225\275\316\277\226=`\232\270\275s\314\232\275\345\236\224\275\264}9=\013\3720\276Z\252\253=\210\002\315<\033\205\330\275\377\'\">\253\n\004>\331g\n>S\351\007>\360\313L=\264J\014=n\314\035>\270u7\275\224\364\250\276\332Pu\276\002v\250\276\3177\274\276N\245\226>UY\326=\311`[>\r\203\374\275\3513;\276n\313T\275\344\354\266>t\244\254<j\312\004=\254\005\347\275q+8\276Z\213\205=\\\352\216\275\200c\341\273\n\360\351=\t\374\343<\360\255e\276\221\236\211\274Y\236h>\324$\200=\323\'\357\274\300\245x\275h\225\376<\323N\231\275\231z\002>a\315!>S\355\262\275\353\3208=8\210F=\375v\'\276\203\177\004\276jm\307=h=\234\275j<\213\275\335\330@>\351Y\304\275\377\"\204=\235j\207>\202M\350=]\321\210\276\361<.\276>l&\276\206^\332=\300\371\036=h\241\276\274E\\\036\276\226U\276=j&\033\276D1\'=\270\304y>d\237X=\241\245\215>\226m\300=3\327\277=\237\324\217\276\231R\023\276\007C\310\275FN\201>\3474K>\370\220X\275<\217\201;\034\030 =\316YR\276rX\330=\355\001l\276:O\351\275t\272\351<\210\354\317<2~i\276\333\376\220\275\271\327s>\255G\252\275<\251\257>\375@\235\275\211\t\246\275!d\032>\363\324\033>/\212)>\330\351\211=\360\337\327<\216\301\367=pOt<\310\212\337<\346_\333=\200\212\304\273\222\332\372=o\346!\276\334\212\026=~\246\310=\300#\232;\214g\223=\321I\252\275\236g.\2760\340\013\276\027x\300\275\231\216k:\010\010L\275\035[\010\276Lq\330\275\207\255\010\276\375\347N\276\213A\366\275k\212&\276\203\237\t\276\214\021\004\276\024^f>\240\023\000\276\200\314\007=\307\027,\276c\261\320\275N\030\265\275\275\326\271\275\276Y\270=\220SD\274\323\034\030\276\370\234\354<\002\327\263=@\234\316\273`6\005\274\240z\371;\000\224\246:o\2763>\247\247L\275wW\332\275\327t<>\300\364\263\276\004\351\274<\260y(\276\020\023\226\274Y\237\370=\352\024~\275\021q.\276\363\376\032\276\3663\223=g\2028\276to\253\273\023\207a>R\336\277=\3651\230\274\302w\027\276\2135\023>\212-\272=\307\t\020\275\367Tn\275b9\270\275\374\303\213\275L\316\317\275\230L\367<\307\343\201\275\317\316\221\276\023j3\276S\027\350\275\341{\233\276V\236\277=\356\340\035\275\026\331\274\276fQ\351=\352s\311=\254\350\337\275hw\346<\300\2009\274\200\370\036\276K\210\273\276\267<\300\276A\224\\>\260iC\276\254\240<\276\237a\303\275?/\203\276\366\262\371=\203(\031>Flo\276\253?o\276\237+\321\2752T\275\275\241:6\2768\277\023>\301\262\203>\263\027\350\275wu]>\336\337\214\276\000\343C=\032#A\276\270\355\320<G\350\302\275\353\035$>*k\341=\243y\230\276\370\240\320<\'\236]\2765\300\226\276\243\326\203>\3622k\276E,\323\274\306\204\354\275\010\356\353\275$\353$\274v\'8\276\373w\033><\347\232\275#\302\271\276n\377\237<$E6=\222\360\363=\272,\027\276\200\007/=`\344P\274\207\244,\276\360]\245<3\204\035\276\215z,>\254M!\275\350\215\247\274\031O\t>~\377\324=R\262\317=\"\2661\276\020\274\222<(\'5\276\373\363\003\276\223\372\004>k\366_\275\262K>\276sQj=3\211\240\275\221\332\014\276\322\277b\275\272\365\331=\\$F\276/\222L\275\270\003@=\337\327A>\205\320\237\276\014\203\031>0\304\335<\370\311\310\274x\215O\275p\256\217=?V3>\253/\020\276\360\335(\275\340\025\240\274\243\033\214\275Hx\225<ok!>\347y!\276\346\037\245=\373)4>\213\255\256\275\204\203\334\275\240v\342\273E, >B,\263=\367U\326\275=\200~\276$6\n\276\230\253_\275\202\030\241:frs=\314\271^\276\361\206t\276g_\025>?\235\244\275\347]2>5z\037>\"\272\223\275\344\302\254\274\202\364\020\276\317,\014\276L\342*\275S\362\210\2754\221<\276w\017\230<b\203\314= 9\347=z\037\341\275\202\261\322\275\020D=>\000\026\277\273\277\220\231\276e\336\244\276d\3415>\223\311=\276\305\025\254\276\241!\306<\326\213u\275;J@\276F\277\202\275\261 \304\275T\020\017\276U\236\214\276\212\317\022\276\310\220Z\275wB\t\276\232\302\242\276\377\371\243\276\255\007\267\276F(\031\2761[\317\275\031\003K\276\333B\361\275P\024\276\276\316l\354=\254\253\036\276\003kA=\000,#\275mg\374\274\221\014\365=\333\235]\276\3023\375=\303\313\330\275-\247\271=\227\027\024\276\345\242\200>\360\022\304<$\342]\276\261<T>z\237=<\347\264\357\275&\327\217>\353O\203\275\315\r\">\227+\266\275\321Y\200\275\006\341N\276\377\307\312\274\350\225z\275\374d8\275\037\320\267\275\207\220\344\275\300\367o=\300\003h\274\013t\017>\360aZ\275c8\251\275\205p\017>\357*-\276-\256)>\270\346\232\274\353e\253\275A\232)>n\261\377=P\177\035=0\247\026=\035d >V\227\303=\232&\010\275\034\324!=l\302\023=\036v\227=U]\257\276\222Q9\275\236[\021\276\312\264z\276\020}\262\275a\331\037\276gty\276\351\350\243\276\300\244f;|\223\277\275\220\273\236<v-\030\276\000+\217:l\312\033\276\014\230A=q\020\023>B\223\251=\230Y\"\276\"3\240=:\0332\276%C\376\275\023\310\026\276\304t\022\276x\303\255<C\332/>.\010\357=l\021\t\276`\232G<@\321\223\276x\036\354\275\022\315\003>O[\347\275\200\202\234>\235e\355<\307\323W\276{f\007\276\000\374\003=<\321;=\317ET>\004\020\036=nW\016>\253\027\t>\221\357\245\275\\I|\275\233L\244\275\242K\230=\"\203\227=P\233b=\312\023\256\275\371\356\225=\347\032\003>\002d\261=\322\207\362=\241\370\022>\250\301g\276L`\224=}\357\322\275\347\032F>f\371\200\276\264r\253\273W\354\263>\027+@\275\220\317\262\275a\003p>\277q\017\276\313\355\325\275\342\223\226\275\255D\004\276y\372\251>\230\245(\275\246\370Q=l&\236>$uc\275\3662\243=\301\300G\276\362M\235>\025\366\014\276\244\237\014\275_\260*\276\276\323\262\276O\307\345\274t\272\225\276\356\214\t\276\330\253\374\275<@\351\274\302\353\361=\341\0105\276sr\272\275?\201j\276\274\t\216\275\216K\252\275\306,|\275p\333\036\275\033b\211\276\342\340\203=\246\255\023\275\037\321;>\322G-\272\214\364\225=\003\233z>\177oS\275\355+%\276\224s@\275\302Fz\276\354l\200>x+\351\274E\034\231>\n7\231\276\203\316\035>u\t\034\276\020sV<m\321\277\275\343\374\020>\332\336\270=\022\246\366\275G\342\353\275h\257=\275.\376\302\275\300u\232\273\327\340\021>\204f4=\210d\227\274\207\203\007>\201\004 >tT\353\275e\210\205\276\337\234-\276\311\351%\276\315e?\276\210\016N\2732\200\262=\003{v\275A\273s\276B\321\213\276<?\032=%\"\254\276i\210\260\275\222v\232>\301\226\232\275\270\014\243\275\250\211Q\275`\004\223\275\311w%\276\226\3464\276\000>7\274\000\3726\272\300\341\210\274\370\372L=\237\211$>\0047\262\275@\255\305<|-3\276\361\\\343\275\273\002\021>\302\244\206=kM\010>\357s==i\344\006\276\307\377H\276\257X\225>8\037\211\276C\240\021\275\r:\354\275\252\034\212=\315\273->3\n*>Y\305\007\276\001:\205>\251%\301\275\014\265\347<W:\022=Q\326O>\330Jf=\270j?\275\2778\344=<\301z>m\322\271\276\377\222-\2761\226\215\275m\307m>U2\030>\r\311\362\275r_\253=j\003\242=\300\262#\273:\237@\276BS4>\n\251\275>sl\017\275\020\036U<k\366?\275O\2304\276\363&\020>\332]V\275\341)\016>\226\224\322=\234C\223>\364\244\217\275\235^\272>?\307\005>\271k&>\260\221$\276\354\221\264>\2529\257\276J\310\360=\200/};\226-\276=\245\230\005>g\227\330\275\217\377k\276\016\277|\275\267\322Q>\222\275\357=`\275\207\273\0102M\275\350|\247\276\330\226P\276d52\2766d0\276M\2041>$\364\000>vd\211=\331\323\235\275\365c/\276\331S\\\276\340\361s\2768\337-=\337\250\224=AY\350\275-\345\026\2764\217\031\275U\371\242\276\230g\260>\t\310,>\037\234\023=\347\002\224\276\376\004\337\275\0354\226\275\262\322\023\276B\213\n\276Xv\314\274}\222\346\275\n\243%\276PX\241\274\320\031B\274\344O\037=\n\256\337=\365\201\326\275@\346\013\274\217H\035\276Z\177\010\276\361E\001>\334\032\252>|\251\323=7\254\275\276\203\230\213\276P\360)>\250\232\315\274\377#/>\216\312[>\323\307\213=\201U\266>,\346\026=\371\267\033>\223{0>v\007\006\276JJ\333\275\336\341\336=C\263\025>\310u\036=j\265\361=\372\037\363=@\2469\274\322\230\275=\242#\303=d?\224=6\302\321={P\025>\350\366~\275}\017\022>\300<\353;i\377/>\034\215t\275\240\373\256\273\035\3703\276+\3632>\234\261\272>e\216j\276\232>C>\377\370\231\275\371/\353=a\350\221>*fI>\212f\227=O\335\364\275\316)R>\243\337\220\276\363\375\227>\341{\212>-\332\225=\345\216\023>K\203\235\275k\352F>\257j==\023C\241\276E\354\305\274gS\357\275/\311}>\363\275\237=G\345\333\275\272\016\203>\273LE>MQ\035>\244\204f\276\022\322\251\276\367U\253>\374\331\034>\017p\235\276z\377)>%0<>\3708J\275\324\246\214=\360m{\275\222%\305=\331\213\032\276\205\351g>\327L\232\276\236z\252\276\363\214\330\275\347hL=oN\270\276\327yu>8\333\335\274\246.\342=7\246 >\233\032\244\276\327\332\255\275?\275\003\275\252\033\207\276\237\200\014=\306\220\311=\224\257\364<I\355A\276m^\210>\337:b\275\360\346$>-A\n>#\211\025>\244\242\257\276*(\243\276\2202}\276\264\030\002\276t\240\213>O\337\271>\333U\223\275\264\354V\276h\276\255>\330\313\321<\270K4\276\035\311u\276\306\261\n\276/s\277\275s\026\360\275|\220\302=\'\343\035\276\\&|=^\202\306=\310{\\\275\271\270&>\010\227\354\275u\177->\226\376\264=\353\276+>\256\030\351=\204\253(=\362\036\377\275\266T\315=\334I&\275s\355\214\275\222\345\270=\233x\264\275\307\017/\276\031\277\222>\375\322\252>\355\363\314\274\037\345\226<\271\367\345\275w~\305\275Jmo>\002\351\241:\367\354\337\275\301\230\262\276\010\362\301\275\263\020\035=\276#\377=\344?V=d\023\003\275\376\365\277=\034\271\213=\262C\376\275J\013\302=X\236\000\275\200I\310:\233\"\337\275\374YR=\2455\031>\260\276\030=\304\262Z=\200[\201<\204G\006=4\201\316\275\002\202\324=z\237\235\275\307\274 >\314\257=={\256\207\275\\v\024\274\341&\201\276\014\247 =\020\300\332;.\257!\275h\367C\275\340[\250\27643\r\275\245\262\033\276\316n\234>\253\377\221>\351\347\021>\341Z\250\274%\235\231\275\237\325\n\275\213d-\273\370\026\220\275\000!\245\276Uk\333<\233\264;>\315z\260\275\024\002\353\275<C\r\276/\321\315\275\252\272\201=!\372\221\276\367E\255\276\305\2354>\266[ =;4\330\275\372\240\350=\226\217\323=\264\350g\275\276\374\370=\200=F=\001\304\2268\317s\323\275\tE\226\276\215\031\377=L\373\200\276\374\347\245\274,\3633\276\310\363\260\276\312\2265\276T(5=7[\267\276(=\257\274~\263\217\276\224%\221\276\267\265c\275\210\2648\275\257J\020=\200;?\275\324\261\253\275\021\314\375\274\"\201\352=\314\273\034\276\203\245\002=~*\222=\231\0142>iQQ>\266\215\305\2741\313\362\274\020\2323=?\307\001\275o=\006>\366\361\020\276>\311\345\275L\024\n\275\350\r\316<wy\236\275c\215\233\276\\K&=\316e\237\275\001$4\276a\324\232\275Q\302\016\276Tu\032=x\373\334<I\274\'>\016\371\317=x\'W=\326\265\360\275H \330<\347\177\305\275|\007\340\2750\333\\<\357\204 >\310[G=\240|5<\302\006\317\275(9\347<\240<\235\275w\005\020\276\254\341P\274\304\304k=/\361\254\275-i2=p\327\034\274\373\350?\275\226\260\256=h\252h\275\242\\\246\276=\201\272\276z-\360=\017\357\007>\203\236\021\276J\325+>LE3\276pm\313\274\250\007\255<`h\374</\250\227\275\250\237\"=60\301=\200$\363<\005\304\030>Q!\210\275\3503&\276\252\213\246=\260\257\035\276hu\273\274*\006x\275\215.,\276\240\025\233\2751r%\276H\305\255=9\334\226\276\321\244\226=\236u\024\276\3252\232\275\017\023\n>g\227@\275o\300\235\276\216\202\030\276b\213\300=G\002i\275\252\207\220>b\243\220>n\264\240=o\355<\276\rm\035>C\227\001>\323f\025\276\322\235\335<\267\022\271\275\354%i=\377G\017>\032\3616\276N\336\300\275\032\342\215=\243\245u>$a\357\275\373\247\307\275\254\273\200\276\312\373\351=ev\014>\324O~\276\336\201\352=\235\324\355=[\357\024\275\036hy\275\200\241\322;<\202@=\247\235\371\275T\347\211\276\376\001\216=\375\333S\276\302a\271\276;\305\215\276Cw\220\275\321\026\035>R\201[\2768\223\273\276/\256\333\275\317\337H\275\313\3119>r\255\001\276\313.\">\332V\220=\231\007\222\275;$?=\370\005\252\276\306U\374=ruw\276IC\215=\302c(=l\354\020\275HO\004\276\356\014\230\276\375\223U=\367\007\374\275\005\331)\276\341\212k>\001\267\204\276\223\2210\276\342\215N\276`\3457\274S\267~\275#\247P\276qs\004>\203Y\003\276;\207\230\276\025J\230\2740\347\266\274L\326\020\275]+\034>\270u{\275\020\201\017=\246\337\346=\301\322\324\275\272\036\372=BU\235=\2138\220\275\340\316U=\203\203.>U~\004\276\256x\351=\310\367\307<\014\355\t\276\363\264[\276\310\276\020\276\036\304\006\276\005j\200\276\212\265\034\276\325\203K>\252\032\255=\215\002\256\275L0K=K\231\000>\223p\266\275\334\335\264\276O\356\010\276\314\3414\275\210 \276\276\216\206\365\275\0008\233\270\351\372\261\275\225\311/>\333\353\033>\232\271\301=\2478\033>\272\265\336=\355.\037>\014^\020=N\335\023\276*\226\345=\210\364\311\275j\323\341=\026\205)\276\232\007\223=\036f\275=\305\220O\276\350O\233\274\363\"\200>\254s \276\265\017.>F(\033\276\302[\206=\rO@>\031kM\276\016D\177\276\026\206\205\276rr\'\275xT\014\276\037\371R>\207\331/>\205\016\007>\215\355S\276D\005P\275\365*\311\272\352\353\260=\304Id\275\266\224\337\274\364N\262<\206\376\210=\364a]\275D\203\205\275\315\371\000>I\316\232\276\341j)\276;\227&\2768\224\320\274\037B/\276\377NR>\007;\020\275n\266{\275d\006\334\275\366\252K\276\206\034\371=p+R\275Lov\276\002\315\236\276\255<X\276\034\330,<\247\034\n\275?%\277\275\344\361\025\276\377_\272\275\234\370\244=.\374\251\275(l\270\276}\"\274\276\213\000\256\276\254\247\177=\203\302\225\275_\310n>?\037&>DC\236;$]2\273o6\330\275\262\273\241=?\352\"\275\221\264D=\3431y>F;\253=]\000\315\274\310?\221\276|\021\203=;\317\017\276\245c\207\276,:\316=w*;\276\031P1\276\232|\347=\200\252\030\273\257/;\276\377a\231\275\344\310\031=\354\243\n\276\037>\226\275\210\327\276<B\255\220\275\001\372)>\247\215\'>|6\006\276\\0\221\275\214\030\005\276\346\260\267\275\006)\352\275~\034\331\275\024\375}\275\340\224\201;\213:\n>\253c\013\276\201\"->\323\342\023>\261b\321\275\352_\320=\313\024W\275p\354\023\275\212\277 \274\365}r\276L$\200=<\r}=\267\257\017\275\376\200\261\275\213wk>\367,2\275\300{\240\276z\240\243=\260\367\362<2\253\234\276\350\315m=\213X\017>\244T\001\276 \007S<|P0\275\354\262\357\275\327#\207\275P\007\331<\262\303\326= &7=:OY\275\336\365\325=\300|-;f\212\016\276\260\263\346\274>3\333\275\257\3513>\3336>>h\237\361<>\366\201\274\270Ud\276`u\245\275\375\232\010\276\3740B\274\004\323;=\244\220j=\005\220(\2768@&\276\007x<\276\014\024\265\276Z{\231=\326\311\364<\205\024\340=\003\220\257<\330\327\213\275Bda\276p_L\274++\026>[\022\271\275\270SV<\340a\215<\323\256;\275\210\202\n=3\312I>@4\024\276\356@\377\2757\273\233\275\317S\222\276\267\025\224\276\340\260\255=\270\301\270\276}\207\340\275\364\253n=O\245\213:\r\352\234\275\250\371g\275\344\247\360\275\023)\265\275o\353\321\275\005yK\276\201\010s\276\tlB\276\177*\021\275#7G\276\014h\203>\27621\276]z\222\276\273\034\236\275\267\334\355\275\365]Y>\226\300\021\276\"\302\307\275\264\236\211\276p\2757=\353\370:\275p\241\227\276\030\3250\275\361\221\270\276i\245\207<\000\273\r>\356E\357\275\375G\364\274\360\236\264\276\372\375q\275y\230q>\205[|\276LuA=\246\321,\276,\202\n\275\301*\r>`\271\244;0$f\276G\221C\275\343Z1>\310\376\t=*>$\276\036\274\335=\220L\001\276\224\005\007\276\201v\'\276ZI\377=^\275\235=\334\363\r=\"\260\361=\002\202\355=X\262\007\276\035\235\374\275\346\342\264=N\260\350=`\2722<k[\035>k\351#\276\310\324)\276\236Eo<\323\247\215>\300\r\370=\226\336\004>o\364\334\275+\363\331\274d\322\326\275\371\330\'>\3143\375\274U\3162>zJ\006\276/\264\266\276\371\261\010>m\330\003>\244`\276\276\213,;\276[d$\276\341@\244\275\201\270+>`\345\217;\232<\320\275\202\352\251=\374\306h\275!\265\261\275 \370Q\274pV\'\276\354 |=lea=\226\352\255=}V\023>\270^\251</\021\334\275\354\254\250\275@\304\031\274g\026\016>R\361t\276t\207\337;;:t>0\346\020>\264i;\275#\006\017>\024k\"\276\352\235\245>1\337\224:w|b>\332f\227\275\236\371_\275^#h>\351\235\217\275\271\270\017>\234\220\353\275@1\252\275\346\001\231\275\264\\\t\276HL\n>\332y\263=\357\235[\276\206A\260=\244i\225>\231\2637>\303\252\245\275\347\3176\275\263\3204>L\377\r\276\314\021\254\275OeU\275\274\r\343\274\340\306\200\273\000P\327<!\2130>\006\264\251=`\033\210\276g\234\320=\270\371\222\276?\335\r>7\264>=\373X\335\275;\230\032\276r\010\204\276)T\233>\265\357\321\275\340!w\274[\274\205\275\013A\221\275\033\013\r>\247\244\363=\256\2675>\275\275\210\275\341\260\001>\316\376\n;\310a\006\276\216\212\233\276\313\307\246\275<z\244\273\206\200\226>\t\367\335\275\\{\205\276\257\215\276>z\020?\275\240IZ>[\033\333\275<\347\035=\013\357,\276\272\237\017\2754\352\267<\331\204\013\276C`\207\275%%)\2760\361\022\276\216H3\276\266\374a\276\310\216e>.\301\'\276@^\256\273\n\251\034\276Hu\234\274 w\301;\304\017q=\245\336\007>\352\317\227= \255\014\276\000\363q\274\332\\\000\2766\010Y\275X4\215\274\201\271/>@\211\214\273\001\370\310\275\233\3570=\032\220\251\274\\\016E\275=q\026=\227\345\007\276\021\257\032\276\324\356b=SO\026>ThU>\357\331\343\274\223\303B\276\026\220\256\276\203\316\262\275\034<P=M\036\'>\332v(\275\n\022\211\275\024X\202=\033T\027>\273h\027\276\220r\356\275\326<^\275\320\030\257\274\264\211\\=\026Q~\275*|\357=\036\017\371=\004Ea=\023\'\367\275\002S3\276\376`\300=^\002\206\275\030\333\262\275\350p\275<\342\240\324=Sr\351\275p\234\313\274\270T\033\276\306\226\240=\364+D=\361\375\"\276mU\207\276\367\366\017\276\250Jf\275O\242i\275Ny\314=\235\025i>\2543\020=!\205\373\275bf\377=E\177\030>\0331\177\272\327\304\'>\033\263s\276\267\002\002\276\311(K>\334\025[=`\264\364;\304\264\017=g\031\204\276\360\224\276\274h\257\335\274\265rP\276\352\376\376<f]{>\311m\265\276SpP>\316i\307=\207\237\264=\300\371{\2730[\221=\310YB\276\023\256\301\275\374\026\264\276^+\213>\2349\033\276\350\326 \276\231\223~\276\356\301\205\276H\207\037\274\310>\361\275\2204\032\276\232!\204\276WM\247\275\266\375J\274\'\322\311\275\332\233\225\274\347\003k\276iF\326<L{\332\275\271ZR\276N\276\340=_\226\332\275\351\325\017>Fi\327=4\316i=\324Qh=\324\313r\276\323a\253=\3722\327<7\337\331\275\006\306h\275\202\330[\276\324\355\275\275\274[9\275h\3528\275r\320*\276\273\255\223\275\0043:=L\017\315\275\353Ac\276&\016\237\275<o5\275W\273\227\275\372\226\322=T3[=\200\355\377\274\326\035\202=\212\336\005\276\225\204\">\310\243/\276G\331\276\275\351b\206\275\277\013\324\275\340\026\236;)\371(>hO\010=\275/\226\275\316z\307=\350\333-\276\242Q\226\275n\271\306\275\363\377\213\275\250tx\275\213\241\014>\342[g\276\253\342\000>]k\227\275\373\361\305\275\340\375,\276\272d\024\276@\240\237\275y\033\207\276\234(\374=\310I\340<\344GQ\275\350\242]=\316C\373=\212\306\251\275\000\344\266<\036\337(\276\313\373\272\275p\232<\275\230:\342<d\020\000\275\226\240\363\275\346\204\360=\210\200\214=\217s.\2764\177`=\274de\276\320%\217\274=Ef>\201-\263\276\27521=\267\317\221\276g\311\200\276R\227\332=wjP\275\020\276W\276\342\0251\276\'\027G\275v\336\352=\307>w=\264\321\"\275z\343\205=\356\'5\276\3540\316\275\236\271o\276T\361\246>\267VN\275R`\177\276\211\230\215>uvx>\265\375\216\275\200\t\r\276\037{\201\274n\220\216>\016w\005\276\026h\242\2760\342\006\276?\2741\276\276\002\227>\244\305\255\276J\026\207\276\034\237\315\2756Cy>\244bJ\2756(\350=\033\3219\276\363\362\251\275\217~\003\275\270h >\0276\021\276\203\002\357\2741U\231\276R4\020\276h[\034>\242\007e\276\010j\207\276v\262\'\276-\0040\276\221\260\212\276\'7\212\275\235!1>\255\353/\276hQ\273=\303l\355\275\225\376l\276%\r\315\275\033\335\236\275\330o\254\2754h\214>6\373\301=T\331G=K\201\237\275\013aO>4\325C\275\021C\014\276L\273\303\2736\374\234\276\322J\225\275:\246\242\274\273\364\003>\237\206\037\276Q\220\265\276\254!5\275FR\356=v\2108\27675\237\275<\3246=\021\215\">\200\023\267\275wi\371\275\343\246\003>*((\276 \027\362;6\312\244=.\260\260=\021;\364\275\371\364!>cm\216\275^\272\357=M\367\366\275\007\2764\276\260\016\241\274h\030h\276\\W\244\275\215\2450=<\027\326<\342\rz\276~m\004\276x\225\026\275e\221\031\275\033\333\250\275\005\210)\276\2614t\276\3272@\275\036&\032\276\373\265\341=\271\224\023\276\252\346u>\210\330\033\276,a\200=\000\246\003;\300+\265\275\337:\037\276J\372X\275\326\372\200\275p\206\030=\000l\000=\320a`<\270E\360<\223a!\276\341\261\001\276\3279\252\275\256a\000\276\026\361\362=\366w\351=,E\201\275\256\347\357=\253\021\345\275\331z\020>\211\036\267\276\302\004\232=\244<U=\337\351\023;\037$\243\275\301\275\210>\273\'\026\276\363\221\301\275\260\301\212>V\207\213>v)\364\275g,o\276\030\357\242\274\217\240\264>\373\360\271\275\373\240\">\227db\276W^\204\276D\236\246\275kC4>\343\361\037>9:==\357\003\000\275b\213\306=9\340<\276\316FT\276;\330\225=\330\030\376\275.\327l\276:#\007\276\010\017y=\315 \367=e)#>r\276\273\275\322z\035\276\203\\\215\275G\372\304\274\326\357\225<\204\336\306\274\267l\271\276\r^\203\276\303ps\276\246+f\275\014+n=\360\310\257\276\255\365D\276w[\200\275\020&\355<\213B\251\276\236\006\366\275\245\226\221=\305\t\361\274c0\225>$\000\263\276\2113\235\274I\322\214\276O\r\010\275\r~\032>\034\262H>i\334.\276\203\242\356\275v\316\031>n\021\222=\217a\317\275\257\026\317=\272\223_\276z\265f\2765\213\336\274v\203!\276\236\350\220\276\2333\325\275\206\331N\275\273\245\023\276\220\231\234\276Hh\357;\370\t\037\275\300D\"<&\270\262\275\022\253\261=\204\332&\275\361X\337\275\331\254\021>\365\324\030>T)J=\177\373\205\275\304*\321\275\350k\375<z\307\356=/^\037\276M\177\002>:,\252=\360`3=~b\307<\227\356m>,\371A=\002\230\266\276\210F\030=6\237\264=2\366\374=\357?\022=\rm\222\275\032N\245=\327\322\247\275\211\260\322\275\324\336==c\260~\276\216\352\237\275^\205\356\275\210&\265<\277B\277\275\361\2643>\321V#>tJ\032\276\036\274\275=)o/>\n\337\272=\"\206\331=\372\016\341=\345s\214\275\203\313\007\276\257\307\330\275\200\030~\274\3130\347\275\357`I\276\326\243\275=\250\237\311=\030\367\251\274x\022\310=\222)\013\276\340N\202\276\302q\366=w\262\232\2750\325\235\275\333\014\225\276\374\336-=[\240\353\275\013NO>\303\235`>H\354\254\273]4\205\276\266m\261=\tN\021>\322\033\233=\3209 \275\374iq\276\275\335b>)H!\276T\241\221;\274\307\004\275\241\203@>\002\024\255>\365a(\276\037s\003\275\345\206\365\275\246\332!\276\207\346\">A\364\271\276\366\321(\276\220\374\002=T\316/>\242\201\376\275\020M\005\275\005b\323\275\022\235\271\276\372WO\276\341\0104>;\230A\276W\215\270\276\370\307\235\276\341r#\276o|\302=\\\tO\275\213\205\314\275\306\315\243\275\336\003\230\276\266\260\242=\353\346\233\276\320\367\246\2752\225\245\275\263T\205\276Q\262\000\276\247\215\230\275\000\341\013=I\006@\276\334\212D>\345\316\000>`\265\t\276\364\231O\274\307\314X\275F\321\331=n\262\200\275)\322\213\276X\353!\276\230\276 \276\034\262D\274\t\232p\276\220\020i=\250\027\376\275\002\235\244\276w\004c>\342\243\253=&\\\253\274a\" >1\031\004> \3779<\350\006\230\274\356\001\226=\220\0178\275\350\314\250\275\352\221\304=~*\317=lOP=\340v\316;\277\344/\276\'\211\t>\037\257\223\275\236\231\312=\260w\337\274C\227\030\276\341\267\007>\352\260\360=S\233Q\275\311\034\026=5{\030\276\017\027J=\271\336\010>\220Aw\275\251\032\201\274\346\223h<\307\351C\276\247\215y\275J\361\251=w\344\231=\214A\352\275\310\375\300=(\330\376<6\007o\275\322\345\310=Q\215#\276\362J\277\275\254\350:=S\205\014>\004\247\003\276\345h\000>\254\241\221=td8\275)Y\333\275};4\276\350\260\026\276\004\030\032\276\215i\355\275\244|\307\275~\016\220\275:\220\206>Se\202\276\017\234\367=\330\312\236\276uK\300\275\221\014\005\276\247pV\275\345\241\t>\016`\200\276<\252)\276\026\360\014\276\234\316\237<,\315a\276E\366%>\230\025\211=\024\225j=,?\253=\006I\312\274\277!4>\007\026\202\276\033\377b=G\302 \276n\224$\276\035\200/>EZa>\030#s\276\007\r\000\276\316\365\204\276\371\311\261\276\034a_\276\262,\341=\324\033\200\276m#\214\276\320D\'>\261\014\030\276\226\027\026\276\204\305\017\276\322\356z\276\317w\222\2753\363\324\274\202\250\207=5\270]\276\357\351W\276a\321X\276n.\205\276\224\216=>\320\024p\276\243%\357\274j3\032\276F\257\027\276\331\276\020>\247\251\037\276\361\034\n>\302{\242\276\217\263u\276\335\314\005\276\313\312\254\276\230\300\n<U\313\000\276\255\350\t>\341M\261>$\274\311\273\314\321\256\276\310J\262\276\2267\272=7\317\363<\344\306\260\276\306N\007>\202J-\276\221\247\211\276\215\222\002>\020Un=Z\\\"\276\353\234\221\275\000\252\366\275\303\365\017>9NC\276\202\021\210\275-\010\026>\221\356\014\276\211G\024>\272S}\275\335\312\252\275\240M\304<\270\233\240\275\320\315\275\274\000\016\317:\324\325\203=N\353\365\275\352\372\202=wl\032>\366\020\256=x\346\025\275\360\245V=U\020\006;{\215T>\307;\221>\345\346\021>G\035\323\275\233$\031>\210\325\354<\2665\036\276\372\335\315=\204\343\030\275p\231\026\273/\326\"\275\3007S<C\202\013>\017-\004\275\243\006v\276\260>m=\"y\251=\241\010\310\275@\016\026;\266\305 \276@\215k\273\252\254\203\275\276\273\024\276\230Z\032\276\330\004\210<\256\311\344=\274\215b=zH\224=\030\032-\276!o\301\275\236\"\002\276\277\2417\275\314}\240\275\251{\201>\016\301\271\276\316j\327=\377$\275\275{\237\231\275\347\332S\275\347\350N>8-\205\275C\243\325=\266!\251=91>\276\377Ev=\371\026\203>\252\203\017>\301\253\345=PD\022\275\214B;>\327\322\010=\217\206\256\276\370/l\2768:\204\276^\354`>A\325\030>\377\334\260\275$\360\277>\212\375\026\276 }#\274\323U\342\274\206s\222>\247\330\324=S\242\307<\3372\231\2762\r!\276\221.`>\324J\204>>#\'\276\200/\337:\315\366\251>\rs\267\276\212\363_\276}\0345\276oo\036\275\207\237[\275\303v\017\276\363\311\201\276ni\271>\177\'\214\275;\014\245\275\230\246z\276[\177\242\2766\245\207=\340#\031\276]\\\206\274\342T\007>\260\177l>\274nX=\233\250z\276\010i\030>\213\305\235\275-)p=\223k\352=m\327\t>0\207:\276\315)\230\276\316a\266>x\206\266>\226\2209\276\217\3048\275\374\344E\276\204)\203\273J\227H<6K*\276\307\354x\275Z\353L\276<\261\200\276\331\224.>\265\341\221\276\207k\024>{`\216\275l\007_=\014\007\034\276C\032\362\275\226\221-\276&\037\256=\311\221$>\266J\316\275L\037m=\275\372\017>Y_\027>\346\200\265=N\304\261=!\257\007>\267q$>\237\200\334\275rg\360=>\271\201>\375\036&>\246&\257>$!\213\276wV\336\275\252\351\347=+T\212>\343\342\016>L\300\251>\262b\361=z\375\257\276\224i\306\275\303\204\241\276T\nD\276p\325\360\275\267\3572>\240\367W=\222v\302\275f\325\026\276\245\210\001>(\225\344\274\326\263\377=\240\344\222=\354w\006\276\366\366\321=\302\314\343=\250q\343\274\212\341\210\275/\024\003>\372\236\367=\246\316\360\275\351\000s>\340t$=\333\350\241\275?B\263\276\273s\374\275?\272\220\275\307\317Z>-\303P\276\227\303l>\t|7\276DA\233\276\327;\213\274L!\212\276\252\220\212\276\026\217K\274\247tc=nlU<0C\r\276\013?p\275\3754>>\306O\305=n\0330\276\"[\375=\021\322\222>\354\205x=@\026\350\273\3442}<o\025[\2765\001\210\275n\026\214\276\030\020b\276$@\257=\2324s<+HL\276\216\013-\276\232[\262=\270)\270<\234\324\366\275\320\215\204\275\025\030\240\271\365\361\243\276\254\303\220\276\260#\377\274ndE\276\217\350&\2764\367`\276\233\tw\276\025\356\352=Z\272\215=\n\351\227\276\0133U\276G/(\275\343\311\032=\317\213^\275\357q\203\276\342\233\263=\203S*>\355>\227=\210\033\200\276\312Er\274d0l\276\314\337\331\273\224\247c=\330\r\364\275<\230)\276x\360\236\276\370\206\237\275\322\370\360=DJ$\276b\031\305\275\202}\251\276m<J>\265m\350<U\001\222\275\213\346\207<\320\014i\276fa\353\275\340\351=\275\0052<\276\320+\336\274\223\370\023>`\276\245<)\017\312\275\276\023\361=r\033\240=rr\254=d\0015\276P\226\177\275\334a$\276 \201F<\250\231\227\274\250iY=Z\226!\276P\2019\274\256\205\257=\002\215\226=jw\322=c\365H>\020\201\315;\346\003\260=7\300U\275\361\353:\276\030\340\010\275HP\312<\343{T>d\252\341=9\t.\276\007\225F\275`\334\236<\302\037\243=\\\234\267\276\375o\222\275U\363\r\2768)G\275\"\215\357=3\232#>\220T\234< \346b\275\374\003&=\306\265\217=@\344\257\275\274e\003\275z\326\263=\300\254T<\363M\004\276\360\307\227\275\231\2064\276\000>\360;\242\306\204=\264\340K=\250\005\225\275\213\023\336\275{^K>\320\036\253>\260\202S\275\017\244+>t\374\250;\210\204\217\274\025\271\347\275\331*\260\276\0235g=\330c\033\276\222\2753\272\023R\027>s/y\275\360\203\372<\334\336\023\276iR\214>d=\001\276OU\371=7\026d>\0317[>\231\010\227<>\254\271=da1\276pW\257>xS,\275Z\314\250\276\213*\201>\276\036m\276xw\222=\253-\310\275\246\316\275\275<\215\207>h\302T=$m\'\275 \3011\274\342A\201\276\024\3220>\006\371=\276\2131\t>\234\221\031>\315C\223>\300\332(\276L\220\260\276`o\236>\332S3\276/H\023>\257\374\223\275\036\305\242\276\342[I\276\221\320\316\275\364\356\372=H\004\336\274\335j\203>f\312\256=\273\356v\275S\'\005\276\271\\\221\276t\317\326=\233\276N>N5\016\276\034\307\"<\007!;\276\352\276.\276G\312E>\356\341&\276\241y\014>[v\251\276\210\237\304\275U\247H>\201m\010>2\327\200\275\356z\027\276\256\261&\276\240\266#\276\3647!\276n\312\326=o\302\027\276\2750\351\275\260\347\031=\030\266\334\275\322x\\\275\200\216\302;%K$>@|\257\273\300\001\264\2755\265\023\276\242\341\367=\203z\332\275\340\316\004\276z\327\376=\347p\032>\227g\002>\236\326]\275\302k\220\275g6\223>H\262)<%\223\340\274\376\264B\273\224\312*\276\304R\227\275Ff\324\275\322\325\240\275\027\270d\275`\\\235\276\257\367\037>\236\272Y>\354a\215\275\233I&>n\333\270=\356\206\006\276x\245\270<\363\324\213\275\000\004\177<\t\350\030>\342\312\226\275\372\200\330=T\354\037=\2179%\276\243,\333\275~\262\010\276\010\320+=\267\226*>\340\322v\274K\237%\276\264\213\005\2761B \276\305\212\304=\252\036\251>\347\217\213=N:\327=\244\331i=vRV\275d\003f\276G~\243\276\360\"0\276\034*\236\273\270\347v>g\327\247=V\307o\274\026\330g<\303\250\004\275\336\322\370=8Hd\274\335<1>\030\272\213;\373|\215>\237$}>\311\332p>\340\305x\275h\357\013\2754\'x\274\000\251\222\276\376\016\326=k\252\377\275\216\030\331=c\n*\275t\362\204=u\223\270\276\336\006\270\2743\303c>.\344G>\000\306\270<\t\260\027>\020\374\276<\371\004\256>V\t\374=\023\350\375\274De\204>+\036p=\273\276\211\275\3003H>\270\203\010\275^\017\024\276\271E%>\225\241\026\276()\214\276\227}\356=/\"\211\275c\021\r\276\030\025%\276\237\2466>\302\360\273\274\236\226\344=c\016\311\275\306 \207\276F\304\376\274\202\247\364\275H(\223\273\274\016m=&\213\223\275w\211\007\276\206\343\300=p\027\232\276\340\201\352\275\326\002\253\276\234\002\246\275\256\3307\276\313\247\232\275\316\253\013\276\302}\224\276\234\344\206\274\220\037\026\276\237\001,\275\263\000\221\275\265\020\347\275\200k\325:\010q\363\274\"Y\351=\370\350,\275\010\223\010=L \204\275\361\020\017>\307\233(>\360nH=`r\224;\372e1\276(c\306\274\000\211\374\274\210\026:=\340m;\275@/\232\273\262i(=\225\210[>\3520\271=/A\350\275U.\344\275\366k\313\2752\323\336=,\006j=\263\257\022\275\350)v\276\372)\001\276\200\360\315\273S\335<=|*;\275\264\217\360=\300\240.\276\240\\\250<\2710\213\275X;\316\274\320|X=(Z$\276\006\247\325=\024,!\275\260km\274\314\'\312\275*\327\315=\032y\321=8\267\022\275\300%#\275(>\345\274I\374(>\345\214\206<\224\316\017=5\017\236\275\235\256\271\276\315\n\364=\263\225\362\275T^\t=D7\204\276\rOr\276w\3568\275\200_\222\276\263\033\003>\007\344\220\275\267\r\213>2\362I>40\177\276\332\323\234\276\276\360\'\276\030\206~\275\276$@=\204\273#\275\266\324\032\276\376U\231=\001[2>\334\240>=S~\241\275d\335\212\275\235\221\225\276D\226\026=\200\013\237\276H\372/\276LN\352;UEP>G\330e\275\260h2\275\310+\210<\314\024\223=:r\242=>\2224\276\300\350f\276V\235d\276\025\002X\276\270\277\250\273\373=\257\276\224w\241\276O\375\244\275\'\337G\275\200\311\367\275\353\2265>\206{}\276\207,\336\275?\345\014\276\334\300w\275\017\0360\2758Fo\276L\366\355\275\325\347\307\2740q|=\311\351\254\276\207\2735>\303\257\341\275=b\316<^\260\313\275\204\016Q=w\235:>D\244\251\276\332\037\272=.m\327=\277\334\231\276\n\233Q\276\0275\356\275N\316\213=n\343\222=\025\211\204\275_\342S\275\027\357\321\275\311\361\n>@\247|<\313\230\355\275=\\\034\276A\330\007>P\025\320\275\220\346\364\274\376\377-\276\366\024\243=\350\332\254\274C\265\030>\214\346G=\030\010\206<\274\372.=P\230I\275\025E\311\275\220\316X\274\322R\261=\300\343\331\274\003\t\020\276\033%\002>\017\357\024>\036\240\364=\371\336\304\274\023\305T\276\344\277\242>\335\200%>o\027\000\276\334\020;=\264rA=\256Wj\276\357:b\275\221\312\347\275\205\017\241=v\323\322\27444\007\276\010+G\275\232\245\252=F\207\376=\301\301\'>Y?\350\275\017W\020\276Uw\201\275\024\205\026=\225\243\203\2752\"\331\275\344\2604\276\210\235\007\2750vM=\352\216\373=\315\211\006>\030\225\270\275\335r\017>\230f\302\275\310\355\361:_\0130\275\037G9\276\002\275j\276\233\252>>\344\216\223>\037y\017\276\"T=\2761\3613>\257\266\036\276\0334\363\2750\031\340\275\026\2447\276\254\251[>\316\347O\276\367\002*>r\217\257=\255l\361=\276=^\274\226l\246\276\302\315\364\274F\245f>\202wY=Zy\016\276b\267\026=p:\210\276h\265/\275\362\223m\276\243(\031\276\334\340z<\016\246\027\276\034\014\177\276\316\200x\275\214|G=\350\212\322\275\222\005\364=\004\3046\275\306\363\025\276\244\237U\276\2126+\276\207\252 \276w\247Q\275\355_\265\276\250\351\031\276\300(\266\276x\350\000\276x\250\021\276\r\320\\\276\225\343>\276+\204\362\275\334\036\t>\344\345+\276\356t\212>n\327\260=d\311^=\216`\n\273l7?\276\010\352C\276@\024\377\274<\323\221=c\352\225\275\360o\241\275\337R\277\275\0372\210\276\363Z&=a\210a\276f\356j\276\235;\242>\200\301L\276jqj\275\260^\214\275\020~\241\274q\326\223\2767\334\214\276U\366\013>\360\230.<\243>\220\275X\314b\276\270\035\273<\241\016\343\275\260\310\341\274l\3502\276\000\370Q9\200\267\350\274\320nd\274\330\307\222<\000\000\016\274z\356\037\276^\357\017\276y\201\367\275\026I\340=\343\326\">\345\010\031>e&\215\275\277\255\232\275d%\356\274\316\252:>\353\211\231\276\027\306\036\275r\021\375=\334\217\026\276\036l\367\275Lsk=6\306b=\314\002<\2763%\300\275\200\261!\276\210v\031>\357\025\">\255\035\330=h\226\360<\312\315\326=@\257U;%\345\240\275\337e\336\275=,3\276\374\026-\275\375>\335\275\036\333\356=\336\311\367=\020\306\005\274\300\034s\275\222\253\373\275h\\5\2755\030\017\276\260&\026\276\271h\362\274\036\237\272\275\216\002\244\275\037\243\273\276\335\332;>\274.d>\314\265S\275Y]k\276\2607\374\275l\312;\275\245\227\205\276\322)\032>9\335\214=cB\274>\355\354\177>WZ\373\275\027\201\305\275\340I\360<\212\244\032>\232\001\213=$\2176=\266\355\'>i^\213\275\266\234\362=\311\305\232>\254\003|=\033\003?\275id \276\334 \347\275~V\314\274\320E\034\274\033\206P>\010\311\210>\362p\231\276Dn\321\272\351\317\216=\340\361[>\360\270\377\275\327\272\356\275c\t\301\274\251\223\213>\034\222\t=\201\310\221>\225\246\367=\243J\246\276\024\257m\276\365\341\263\276\004eu=\316X\303\275\3375^>\025-,\276;\373\236\276?\363\024\276\375!z>\252\232\255\275\016\375(>cu\031=\371\351\">p\014\231\276\256UV\275cL3\276p\205\010>\326t\234=\242G\370=\213B\177=A\375w\276\341}\n>\324\251\270\275\214\353\254=l\007\263\275\212R3\276X\025T=\327\310\261=0\314M\275;m\021>\240zh>\277h\027\275\230G\262<\360\0268\276\201\226\234\275:\007\327=\326\321\272=\250\026\"=e^\022>\257\243\026>>\307\000\276\374M\010\276x\207\364\274\206\036\316=\234g,=\215\242\037\276\225\022\r>\216$\312=\230\241z=\375\014\014\276\236\001\311=V\016\264\275\240\372\210\274=\275\n>N\246\033\276\322\366\'\276,\0021=\013\342\200\275F\356\375=::\"\276\377\342\372\274\253\257\201\275\224K\222>\300`{\274\337\177G=\372#\353\275\370\032\014\275%\017\016>\034\322\362\275\322~\037\276\220\2021\275*,\021\2765\323\006\276\207Q\002>\2429\216=a\273\340\2753j$\276\314o/\276\nG%\276\026z\230=\327*\014\276\360\275f<D\266\026\276ut!=\267\345\006\276\244\201\003\275\273\204\206\276\271n\005\2763\205\242\276\312\244\356=\026~\360=\201Nl>\272\340\036\276_\370A\275\361\353\252=\004\037=\276\346Q\212\276\002$P\276L\254\215>iE\303\275\021\225\364\275\352\217\225\274\007X\030>g\021\276\274\027\207Q\275\325\037\333:\245\373^>\351(M>>#\034\276\204\261S\275\002\223\224\276B\327\032\2764\361\254\276\237\036\007\276?n\016>\244\261:\276\016\333G\276\307C|\273\014+\035\275\367:[\276\240\357%\276\342A\266=\256\321]\276\2175\224\276\335\003i\276\333\276\253\275\266o\031\276m|\274\276%\341\263\276^-\027\276l\337\274\275\323\331\247\275\001>T\2763\'\023\276\352\372\213\276\025\255\016>\357\237a\275\312\026\314\275]\014K>\311\264\003\276\264:\205>z\341?\276\354Y\367\275\023\325\247\276o\203\370=\316\345>\276\371KI>&\363\233=tyY\276Y\034\001>\037`\306\275W\266\205\275T\2222\275\3276\230\275\365n\276\274\033\302:>\233\316(>\336[a\276\211\027\275\2764\226s=\270\345\354\274CS\336\275r\325\306<c\377(\276b@\377=\344\324M\2753\212\016\276\232\201\316=\303\000\032>@\"\272<%\261\256\275 \n\363\275#\210\207\275\321~\021>)t\022>r\374\321=hc\225=:\332\302=\034\310G\275\"2\240=o\265\237\275s\321\022>\303Y\376<\327\302W\275\304+U\275\200>\267;|Qr=\243g\240=QU\210<\006\245\233\276\327g\267\276P\2350\276\230\017\362\275\256N\225\276\214\024c\274\225\326\302\275\2105\335<\253\310\031\276\022]\312=\226\257\257=\264\r:=\260\353\016=\354xM=\230\320\245<=C\036>\0017\035>Q\021\037>h\365O\275@\"\t<P\3436<\020\350\271\275\215\342->\2605]<\305<^\276\313\346S>\017\217;\276\r\255\255\276Z}W\276\330y_=\314\244L\275\300\243\215\275\001V\250\2752dW>\r\353\226\275\000\3466\272\263\007\373=\255\033\236=\244I#=\311\224\001>\347\266\003>d\317F\276\231@\316\275\2752\311\275OH\236\276s\344\211>\353\214%\276d\344R=:\316\246=JF\330=\0325\270=#\341y>]_\242>ke\"=\266\365\356=\226\240\270=\215x*\276\034\255\025\276\rV%>\355\336\211\275\366\271~\2758\005\216<)\331E>_E\310\275/7N=\\\201\370\275\303\024\027\276\337\004\267\275\267\203\020>\323E\214\276| ]>@\373\323\273\240vp\274\250\n\231<\000\224\3109,f\237\274\357\223&>\235<\220>T)\037\276 ^\"\275\233\344\252\275\340d\210\273\245d\262\275\034\204h=~\017\255=\022,\211=\253\326\217>\032\037\355=3%P\276m1\266\275\236\244\213\276\313+\375\275\340t\310\274\363\036\246>\001\204\202\276\241*\305\275X\213y\275\200\310g<\253s\263=\314].\275{{:>\303\225\037\275E\341$> }Q\274\004U\212=\340\020\252\273\261I\034>\035\303\317\275\372I\307=\252>\261=\002@\241\275D\002\204=/\361\010>Z\242\265=\217a1\276\226\325\364=E\315\034>\300>r;\322=[>o1\034=\242\325\247\276\351\233\245\276)d2>\241\254\020>U\263\351\275&\036\363=\305\354\344=K\225\212=\260\026\274<\3058\227>\323$\">\375\252\017\2762\344\r\276\377\025+>\000\372\005:\217\252\033\276p\313)<\242\315y\2752\270\031\276\321\326\242\275\203]\036>\000Du:\270\360\262\275\247\0264\276\340=M\275l\254.\275\306A\344=\340G\221=\211\000\305\275]\024\030>\206T]\2766\215\267\275\325\3165\276\357\304\224\275\033\265Q>Y\367\243\276\027Q\255\276\354\361p\274B\361_\276`u\272;\216|s\273\364\263\215<\224wk\276}\337.>\250n\356=\277\016F\276\224\t\"\276l\242&\275%\377\217\276\235\364n>\212\241\334\274\250\227\241\276\343\r\366<\341\217i>\034[p=\233\366\322\275,vw\275#\236h\276p,