node {
  name: "x"
  op: "Placeholder"
  attr {
    key: "dtype"
    value {
      type: DT_FLOAT
    }
  }
  attr {
    key: "shape"
    value {
      shape {
        dim {
          size: 1
        }
        dim {
          size: 16
        }
      }
    }
  }
}
node {
  name: "decoder/conv2d_transpose/Shape"
  op: "Const"
  attr {
    key: "dtype"
    value {
      type: DT_INT32
    }
  }
  attr {
    key: "value"
    value {
      tensor {
        dtype: DT_INT32
        tensor_shape {
          dim {
            size: 4
          }
        }
        tensor_content: "\001\000\000\000\004\000\000\000\004\000\000\000\010\000\000\000"
      }
    }
  }
}
node {
  name: "decoder/conv2d_transpose/strided_slice/stack"
  op: "Const"
  attr {
    key: "dtype"
    value {
      type: DT_INT32
    }
  }
  attr {
    key: "value"
    value {
      tensor {
        dtype: DT_INT32
        tensor_shape {
          dim {
            size: 1
          }
        }
      }
    }
  }
}
node {
  name: "decoder/conv2d_transpose/strided_slice/stack_1"
  op: "Const"
  attr {
    key: "dtype"
    value {
      type: DT_INT32
    }
  }
  attr {
    key: "value"
    value {
      tensor {
        dtype: DT_INT32
        tensor_shape {
          dim {
            size: 1
          }
        }
        int_val: 1
      }
    }
  }
}
node {
  name: "decoder/conv2d_transpose/strided_slice/stack_2"
  op: "Const"
  attr {
    key: "dtype"
    value {
      type: DT_INT32
    }
  }
  attr {
    key: "value"
    value {
      tensor {
        dtype: DT_INT32
        tensor_shape {
          dim {
            size: 1
          }
        }
        int_val: 1
      }
    }
  }
}
node {
  name: "decoder/conv2d_transpose/stack/1"
  op: "Const"
  attr {
    key: "dtype"
    value {
      type: DT_INT32
    }
  }
  attr {
    key: "value"
    value {
      tensor {
        dtype: DT_INT32
        tensor_shape {
        }
        int_val: 9
      }
    }
  }
}
node {
  name: "decoder/conv2d_transpose/stack/2"
  op: "Const"
  attr {
    key: "dtype"
    value {
      type: DT_INT32
    }
  }
  attr {
    key: "value"
    value {
      tensor {
        dtype: DT_INT32
        tensor_shape {
        }
        int_val: 9
      }
    }
  }
}
node {
  name: "decoder/conv2d_transpose/stack/3"
  op: "Const"
  attr {
    key: "dtype"
    value {
      type: DT_INT32
    }
  }
  attr {
    key: "value"
    value {
      tensor {
        dtype: DT_INT32
        tensor_shape {
        }
        int_val: 1
      }
    }
  }
}
node {
  name: "decoder/conv2d_transpose/conv2d_transpose/ReadVariableOp/resource"
  op: "Const"
  attr {
    key: "dtype"
    value {
      type: DT_FLOAT
    }
  }
  attr {
    key: "value"
    value {
      tensor {
        dtype: DT_FLOAT
        tensor_shape {
          dim {
            size: 3
          }
          dim {
            size: 3
          }
          dim {
            size: 1
          }
          dim {
            size: 8
          }
        }
        tensor_content: "\216!\004>\000\214\223\276\022\022\235\301\354\210\026<\035\265\260=\310\026\252=c}\004>3V\377\275O\237\177\276J<\235\301\033\253\336=\\\343*>\334\326,>\316<\n\276\274\217E>\010\214\311=\34183\276%Y\235\301]\177\331=\265\274\235\301\242\026\264\276\215\376\211>\271\363\220>\234\363\310>\305]]>!\354\262=JG\237\301@L\214;{e\222>\253\276\217\275\021\024\241>\231\231\221\276\301\'\224=\313\275m\276\256\023\274\300\345:i=\263\2634=Q\341\312=\314\256\003\274O\351\244\275\274\263(>_Qw\275\272\215z>\311h\237\301W\364o\276\333n\355=Pu\305>\350\363\002\2764\034\301>\362\256\223\276\240\345\005\276\220*\236\301\247s\003?\345\272~\276\311\270\033>\323\202\002\276\364Ay>\230\037E<\314\373/>\363\247\236\301\240\207\301=\341\005\241>\350\246\000\276\034\t\223\276f\024\006=$w\003<\321\2347>|\001\006>\305\341\033\275B\257\351>>L\236>\266\231_="
      }
    }
  }
}
node {
  name: "decoder/dense/MatMul/ReadVariableOp/resource"
  op: "Const"
  attr {
    key: "dtype"
    value {
      type: DT_FLOAT
    }
  }
  attr {
    key: "value"
    value {
      tensor {
        dtype: DT_FLOAT
        tensor_shape {
          dim {
            size: 16
          }
          dim {
            size: 24
          }
        }
        tensor_content: "\264\360\017>\2245\025?\211\316\352\276a\265%\275\2113\005<\357\002\214>SaK<G\033\000>\317\370\260=`/V?\004\361*\277\316\361\314=9\344\321<\253\351\312>\214l\227>\334E\351\276\250W\316\276\351\376s>gj<=RD\202\276\221SN\276\205\\r\276#\r\346\2753\013\000\277\215\345\035\274\315\265(>\363\212\250;\\\300\206>{$}<d\217`>S3b\276Z\342\256>\265\0227\276q\300n\276z\340\223\276\355\347w>F\205\327>K8k>&\007\233\2743\247\206\276C|i=3\2223=fyD>n k>\177F\200\276\017=I>\222\304\230\276d\211\247>\304\002\326:\245\260\231\276\261\004r\276\361\271E>\373/\010>\355lt>\217A\351=\271\037\r>U\204L\275K\226\314;^<\205>\351i\231\275X\371\251\276\312h\220\275\306\374\272>\373*\026\276_B.>\030\253\241\275xJ\362>\2643\246\276\340{:\276\343Y\301\276\256&\302\276\225\345\226\275fl\327=\316\2039\276\311\337\370\275\233\302V>\366\306\261\275\313=/=\267W\035\275$I\226>/\032v\274\242\232\207=\377\310\001> \310\272\276j\236@\276=\353K>\263V\335\276Gi+\276\240\355\225\276\215\021\204\276A\341\214\276g\343\211>\234\220\177>\310\241\240<\270\200C?\365\000\327\275\265\247p\276V\354\200=\267\266\301\2750\212\224=\002\256\225\276Y\315\351\275\203Y\203>\250\216\330\276\201w\243>\01759\276\212|j>Rc\'\276\263\261+\276O@\353>\276\214\013>\303g3\276(\014\271\276+(\311\276j\354U>\375\352\265\276p\337\206\276\344A\347\276\'\0320\276S[\343\276\256\021\316;\026\034^\276h\376\241\2763Z\251\275\263\277\305>ut\214\276uX\013>\033$\222\274\245\252[>/\013\237>dC\202?\253\351\\=\377\377\211\276\341\314\005\276\337\001\262\276&$\272\276/\014\'=\007\213+\276%\235\350< \305\031>\034\324;>\366[\201\276o\022\353\276\024\037\325\276\377-\365\276\017Z\375\276\'\203(=\021\001\202\275\345\340C\276\243tv>\023&&=\365\300\362=\003w\325\276\201\355\253>\367\376\247\276s\315\360=\341\322[\276\222\315\315\276W\260h\276\262\241\241\276\223&d\2761y\337\276\031\361)>Vf\263\276\360\365\254\276\026\247\202\2765\263\024>\314\322\354>=\026\344=\020\375\260>\247\233I\276\317\002\235\275.S\205\276.Z\240>\202\3500?CI\246=\371JR\276a\271A=\2735\341\275\257\n\271\276\341g3\276o\200S>[\333\263=\213\006\211\276_\320\260\2730\030\340\276\241\003%\276\255L\365\276x\000\234>\0067\242\276\314\343\276\276\023\022\201<3J\232>u\021\026?\265\'\250\275\036x\234>\024@\367>G\377\234\274Om\365\275\305\232(>Z\350\331\276{L]\276\200\334\255\276\334\213\260\276\351#\022>#0\"?1b\035\275y\221x>L\306\322>\370\302\243\276\\\262\262>f|\004>H]a\276\317v%>Q`o\276-;\216\276\314yB=I\252\363\276\230t\330\276\030\305F>r[X?\254\036\202\276\243\" =+4\032\275\217!W\276T\260\271\276\264\014\317\276k\361k>u\255\253\276X\242\264>\001\306\363\275%S\213\276:9\306=\275:\342=%\226\002\277\300\356\243\276\266I\247>ew\370\275C\202\371\276\006g=>\304\204\327\276\336 \273\276\323\037\232\274\332\2167=\203\224\027>\326\332\347\276\273aG=\321\245|>\227\314>\276\324\352\027=\277\233\007\276\377n\342\274p\243^9\377P\227\276\035t_>M\360\310\275\310\270C>\240\221\303\276\303v\t=mj\354=\376#\230\276\325A\300=\023\031\014\275\3751\223\275\222\332i>\"\027\r\2751\375/>\276I\217\276\242\266\022?\0359W\2754\344\303\274\331\347,\276K\320\240\276\263\371*>;\031U>5\025\000>\327(\260>P\373\200\276\241\022\270>\367\232X\276\2514$>sr\374=\321Y\000\276\2023\034\276\245}\013\275\342h\303\276\357\363*>\315\374S\276\355\305\275\276]\2342>\321\031C\274\225\246N>\347o\201\276\215\303\037>\000y\276\276O\353\313\276\310+\262>8\210\025>H\3758=\340m\207>\344\354\354>c\265B\276\330u\017=\037w\210\276A\315L>\3748\336\276\276M\345\2762\270\036>98\002>\263\274R=\\\312\005\277\243\003z\276!\202\214\276<\333\013>\235\377\337\276\247\361!<\304\205\010>wP\360\275\346\034!\276<\0173>\235\006\260\274p\2547>\023\246[\2763\266\266\275S\2009\276\373\360\267>\265\236\277;%\251@=\324j\227>x\253\276\276\357\031_\276\275\245c?\313&\246=<-M\277\023\257\310<1\233_\276\311\005\013\275\271\307\252>\005l\341\275\350\325\245\276\371f\002\2778>:\276\276\320\266>g8\210>\023\273\007\276\'\263\371=\326\341K\276\021\255_>\351\375\254\276\346\332\261=\253\211\236>\353\212\303\275t\370\264>\'\365\010>\033\356\365=F\342\321>\237\257\341\276\240\223\321\276W\301@\275eHP\275\217 \266\276\030\335\332>ox&=\221\272\261=!\205\312>\254\376\255\276\237\362\214\275\223\253\271\273!;\365\275\224\377\275\276\343\246N\276\357\ry>/(\344\275\373`\213\275\201\031q\276\336\032\t?9\340)\276\252&\262\275D\321\216;\257\305R>\363[\344>\225\250\274\275\365|\252\276\305B\264\276"
      }
    }
  }
}
node {
  name: "decoder/dense/BiasAdd/ReadVariableOp/resource"
  op: "Const"
  attr {
    key: "dtype"
    value {
      type: DT_FLOAT
    }
  }
  attr {
    key: "value"
    value {
      tensor {
        dtype: DT_FLOAT
        tensor_shape {
          dim {
            size: 24
          }
        }
        tensor_content: "\244\317T>\361\206\025\276f&A>\247\315)>6\304\325>\r\267\256=:\010+>.\361\204=\203\022\023>\025\n\326=\213\205H=\027\213\r><\321!>g\027\001<\202H\234<p\032.>>(\354=\236`\302=\264\032.>\363\241\263=\300\252N>hx\350=\214\233C>,pM>"
      }
    }
  }
}
node {
  name: "decoder/dense_1/MatMul/ReadVariableOp/resource"
  op: "Const"
  attr {
    key: "dtype"
    value {
      type: DT_FLOAT
    }
  }
  attr {
    key: "value"
    value {
      tensor {
        dtype: DT_FLOAT
        tensor_shape {
          dim {
            size: 24
          }
          dim {
            size: 64
          }
        }
        tensor_content: "\343\022\017>\353\206a\275KN,\277\034\220\237\301k\374\350;\004\3021>S3z\276j\022\n>G\300M=\345\033;\2753\253y?~N\310\275\3230\244<_X\"\2752;\234\301Z\272\224\276\260\3324>\364\321\300\276\311x\203\275&\276l>\243\342\205>\205\025\177=\177\325\006\276\207\020\261>k_\030\276\341\276\260>Ri\234\301\241j\027\275\017\304\343\273\237\354)>1\003\005\276m )\274k\267\223\275\303X\032>\340\272\231>\261A\001\276\230\251\263>\034\362\272>\367=\242=6\275\005\276o\3457>\370\261\237\301\205jx\275P\004\331\275\210*\211>z\341\323?g\227Q>\254\002\257>:\241\226>\354\236\244>\206\021\272>Ss\241\275\320\250D>Y2\n?\367\206\271\277t1\227<\233\214\272=(2%>Q\"\373=\327\213\234=\240!;\276U\224\t\276\367\246\233>2/\225=\327\272\260>\016\265M\276\361\000\364\300\373\002\235\301\363\310\232\276e\372\r\277\325d\207\300zc\335\276m\034\n\2764\303\261\277\374\024\315>\217\025/?\351\177\t=\342\000\240\276\206\332\233\301>/8\300\\\031\366>M3\255\275\357\213->\300\036B\276\347\352\017==\345\205\276@A\225\276X?j\275R\344\243?\224 >\274\277\356\234A\245\301\272\277~v\300\276W\345\377;/\177\345=\223\375 \276<\272\300\277c\005\264\2777\037:>\2565\344\276\002\037\363\276\037\025\362=!FP=X`\037\277\270\266\n\277d\027\234\301Wd\340\277\211Q\322\276\0077\240\277\2614\215\300\201\275\313\276\255\030\025\277\324E\270>\037\231\320\276\303\220\343<-e\025>\022\233\217>>!G=i\373\237\300\232$\302\276\247\374\262>:\350\256\276\033\254@\277\'\202\255;\247\300\231\277\204\372a\300\217\010\036\276\35555\300mt\233<)\333\252>\035\340\031\276v\370\234\301K\334:>\362\224H>0w\207\276`\303,>\353&\020>\215\231G>\033LJ>B[\r\276\343\215p\274\000;\260=\307\242\234\301\0320\306=\231V\274\275\233\302\374=\316\243\235\276\211\277@\273me\207>\357\344\265>aR\220\275OT\250=#7\341=\377\033O=\226\001\234\301\345\333\216\275H\364\244>\213\323\016\276i\250\213>\005\re>\316\237\260>\212\036Y>r\263,>}XN=\'Q\240>{\\\374=?\021\263>\347Ug\274\t\277\316\275\nG\235\301\020\270\225>\013\023{\274\035J\002?\350\353??\374\375.\273\303\323\177>\326\374$>\035eA\276\366\351\361=\005\302X\276\014\2748>ns\370>f\305\305\276\2554S>\311fa\275>Rl>\275\222@=\352\027$>\334\272+>o\343+=E\357H=\347v\020?\267\2053>\360u\231>\003\342\236>\311\374\236\301\215\324\266\275\217\253\t>\222K\203=o\301\237>6\236}>uh\220>D<\326?-\311E=\201\311\327=\355\210\200<e\237\234\301\313\026\263=\035/H\275\335ql>\373\266o\276\374X\016\275[<\376<I\264\036>\235\344\\>\234\237\010>)\305\200>x\251\034\276\004,\236\301sA\252\275>\224\010\275\241{\270=\r\t\347==\254\206>5\n\'\277\035h[<q\332f\2761\014T\276\261E\377\275\234U\275\276n\304\212=\255\373\014=\224#\025>?\365\232\301\305\357\267=\017\004\217=\336H,?\227\247\030>+\343\357\275+I\277=w\300;>b\222\273\276\310\251j\276\346\3155>\217\240\320=U`&?7\210\257\277\270\272\n\276\323\311\227\275\363l\233>\247\322\211\276&\210\315>_wS>* \200\276\205}?>\233F@?L\260\215\276\352\201\266\275y=B\276xL\237\301W\371p\276\007\021\336=\353|i\276S1\326=\211[\304=\201\027\025>\t3\200\276\245\252\r\276\275(h\273\355\004/>\225b\237\301\013^8\276\224\250\201=\251\024\335\275\003\270\244>\232\365\001>s8u>g\007#\276\374E7\276\222V\024\276D\300^=G\232S\276\014\237\232\301g\331\216\275|\027\205>\0352*\2752*\203\275xu\017>I\322u\276\205\341B=#\004\252>\247\215\336=\253M\020=\243|\311>\205\006\231\274\320\255N>\177\016\225>y4\233A\345\267\273>jn0>\207C\026>\346\335+@U\207\360=\245\303\031\276\311\375\236>\232\023\030>\031\215\016=]\352m=\030\326\244\275\203G+\273\255\374B>]\020m\276\213eC=\3732\222=\351;F>\003\032\217>5ay>n\200\237\276\331\263Q=\003\245)>\017)\361\274\003\216\357=\271\352\226\273F\341\236\301\372\320\373\275M\221\373=\213^/\276\356;\t>\003\205\301<3b\263\275w\025\256\277j\373x={w\300\275g\000\243>\273\343\231\301\023\366\257>)?\023\275\327\3046\276\341\020\200\275\251\020\273<\351f\215\275\010\263\002\275\3330m=]\306\253\275\224\266\222\275\313{\223\274\031\210\232\301\307\332\371\274\310\035\325=\270\331{>Q\322\023\276?\342\253>\373\005>>>\202\255\276.\363\262>\253\357\355\275f\235\025\276ITL=\233B\333\274E\375\275\275\337\343\243\275A\214\234\301s\237`\276\201C=\276d&O\276[v\207\276\270\201\202\276\3077\306=G>\260>\352\354\236\276\3331\031<\001\324E\275:ab>\233\233\205>\362E%\301\3416\211\275*\007D>\023\252\244\275\373\365\256\276c\212\364\273\332\277O>\335\271\206>E\263Q>\360\004\005>]S\322>\363-\n>\262\255/><\317\236\301\277f\251\2755\233\021;3>\320<\261\304\370<e\374~>]\203\207<+\246\343\276\013\371,=gQ\255\275\277\324A\276\0214\234\301\201\215F=\023\256F=5\020m\274\037L\225=\202%\247=\261\352\354= \355\267>\364\035\204>Pid>\'\320$\2763\266\275\275h-\234\301\353@\242>w\225Q>%\206G>M?\243=\211j\300\273P\347\"\277\232\302\230\275\213\275\367\275\'\002S<\320\231\202>\227\366\010<\231H\206=/_y=\224\327\t>\341/\236\3012\350\260<\270\361->X\271_>\315\034I?\361\004`>Zy\202>\312Y3\276\320a#>\214_c>\220i/>\333\225\000\276\317@\004?S\360N>\367?0\276oVJ<J!\037>W\031\355>\205\\\217\276\300\367B\276#]\311\273\300\213\324\271\353M\224>\021\234\250<\334\202y>-\225]\276\032d\235\301\341\215Y\275 \\\301>AA\023>\331\016\241>o\220\266=\211MV\276\'\353\262\277\251\265\007\275\337\")>\025l+\276\262\177\234\301\320\242\001?\244\207\025\276PD\214\276\013\315\230>\335\221\362\2746\346 >\327\267\256=\333\271\'=z\241^>.\242\004?-\313\212><\214\235\301\264\246d\275\316:m=\303\355f>\217\241d<\315<\264=\323\344\206>e\257\262\275\217}\243=\'P\022\277\233\311\307=\021Y\250\277\347T\257>#\314L\275\'P\205>\020\230\236\301h\224\240\276y\010\344=l\376u>\364!\234\276\346\371t\273\376\256g\277\335\206\221\275Kw\233\276c\023k\275\261\027\022>\034y\032\275*c\311>3a]\277\357\253\027>\376I+\277{n\340=\226\230\300\276\262%\021>\231\270\247\276\215\325+\277\323\305\026\275\3506\000?\225\324\017\276\377\255\215=-\362,>\322~\236\301\345\361\375=R\030%>q\227a>\317\007\213>\375hO\276\363v\253=\233~\214\275\370\266r>vo\225==U\266;q/\235\301\207\346\225\276X\000\r=Q\356(>\325\234\202>\216 \213>\365\225\300\275W9F=\352\345\201>\332\227\000>Abq>\304\242!>\322\355\234\301\316/T>\275\030\377=q\314\235>\207@;>\274\350\216>\3052\320=E\220\330\275\327\323\243=\335k0\275\"\260\203>N\213\265>\215\206\275<{\316\344\273\007\226#\276\257\250\236\301\202\325\037>L5\244\275A@>>%\023\341=\277p9\276\310G\222=\273\264$\275\3416\270>M\341{\275\3451!\275\006\342\204>\232\n\246>\310\210\035\276E;\021\275\213\027\256=\216!O>\257\217\325<y\336\245=\363\251\323=%c\260=\010\210i>s{}=\t\254v\275\201\311\231\275\301\0134\276VK\235A[\324\322\2756\\\301\2720gJ>\230\203O>&|\322\276{7\'>\321%j>J,\334\275i\357\377=S\274\273>\352\305\231\301[\305`=\026\017W>\361!\360\275\336\254\226=O\003\224\274\333J\037>\320\236\217>A\325v=\003\373\307\275\265jD\277\\o\215>4\360\234A\223;\325\275#\022M==\271\010>\2201[>\344jD>\347\203\310>\217\353\234=R\360(<Q\221\254\2753]\241\275\0077\301>S\016D>\214\006\026\275K\217\243\276\245\303\234\301U\327\235>\266\357\206>\202\325\202\276g \260>\215\010\233>\030\245\325>uzP?+\204Z\276\322\346\214>s/\251>\224\037w=\215\312\264=$\003\243>\355g(\276,\342\245>\3312\373<Vv\001>\2341b\276\371\244\256\276\003\344\210\276kA[\275\372n\002\275U\343I=\025^\234=\213$f>v\"\237\301\231gt=\255u\367\275\251Tr\276+\227\230>\r\227\033\276\227\362\006>.N\362\272\316n\">7q\267\274\'\235a>\230\205\233\301\2541:\276\372\001\350=\270^\254=\344YK\276\217\223\277<\365\350\273\275\243y$>H[F:&@-\276\321\001-=E\002\200\275\3038\236\301\035\314\212=\034}\021>+\005B=\004\235\203>\326^\177\276\365f\256\276\315\3172>\251\333\205>\032vF<\353\"\201=\324]\264>=\260\225\275\251j\202\276\345-\323\275\231K\235\301\3010\025>\203Qw\275\237\257\324>\265\366\204?i\225\265\275\035i\023\276?\222\351>E\355\314\275+u\304>/\214R\275\205\340\273\275-w\246\274\326\252\007\277\274\256\245=\332\250\014>\221w\005\276\025\230=\275\377\372v>\207f\357<\001\225\321=I\360\217\273d\200\215>{\245\226=\007\342\250>ub\237\2752\230\235\301XP\026=\273b0=\266\235\177\276\303\255\253>\276\342T>\262\2618\275\213\243\237=\006\264\'\274\241r\264\275\216p\002>\215$\233A\267\017\277=\251\362\000\275\033WZ;\177\010\230\276\227\275\332\275\373^\344<?\305\t=Yf\271>%\203r>\032u\311\275\022{C>\207\222\234A5T\375=\202I\233>t1\031>\344\331\300\274\025G\202\275\243I\023\277?\375\'>\233#\242\275\277<\321\275-\r\311\275Z\354\354\275x\274\307>\rl \276I\354\004>\305\265\233\301\361\267\366=\2416\224>\201;\365>V\340\304>\216\335w>\215\034\325=\\\215\213>\315\214\001>\331\363\243\275Y\231\375\275\032I\200\275z*L>7\210\374=\017\373\241<\271\205\030>[[\347<\341\2053>\243\211\352<\013\311\013>\255\206\305\275SD\354\275 WT>R\344\025>b\274D\275\330\271\026>!\342\233\301\037t\300\274dq\264>z)\036>~\216\231>\325\324\363\273\353\025i>\237)\222\275\352\262M>\021\372\256\275q\255\224=\035\272\232\301-X\033>\345A\366\274\3514\340<\367`v\274\313\227\\>\"\364_=\350\'\003>\262S >\200lK>\235\2045\276\210F\353=\032%\234\301\251\261A>\223\r\247<OH\370\275\n\206,>61Y\276m\n\302=\325U\201<\326\261\265>\257X\241\275\375;\311\275M\005\306\275Cx\334\273\303\236+>\027\216\342=p\"\234\301\375\240=\274\314,\031>\340\340\037?Mq\222?\336\200\013\276\021\372/\277\237\216T>\301\366\262>&\221f<\331\216v=\233\272\204>\275\356\252?\272{\006?\277\020\322=\206L\025>\352?\206=\177d\034>\211\337\311<\333y\217>z\257\014>\207\017}\275\332K\203?\000\277\315>L\235\267=\231\336\346\277{b\235\301\333\001\274\274\303M(\276\253\360)\276\331\337\313>t\274\274\276\255\243\375>{\004~\275\271\024M=w/\241>\326H\235=\337\354\234\301\357\3433\276n\3204\276\255\241\021>\256\206\341>\031\017\201>\020K\023\277G\255\366<_rU>+\255\350=\372\232\355\2764\001\022>\177\270\234\301?\350E@:\303\304>\250\337\242\276\211e(\276%\025\234\275\010\337\336\276j\244\007\275\333%\203\275\251$\035\277-(\020\276\247\226)?\361\270Y=#H\372=\rv\321\275\317W\233\301,_\330>\205\336\212\276\035|\372=7m\244\277\360\213\007\276\331B\232\277\247\304\356\273Mg6>\344\243F\276\222\017\302>\'v{\276?5 >^\2515\300\353\030\226>\020\324\214>(\267I>[KZ\277+ZD>q\353\346\276\215\306\237?O\375.=\326\275\251@\332\311\303=,\216\324<m\000y\277#\013\235\301\315\373%>\337\353\215\275\221\335\271\276z#\221>H\355/>7^\220?\247\354\231\2775\255\036\277\263sQ\276\355%.>F\232\232Ag\261\215\277Q\2710\276\333*\333>\353s\235\277\221\231\014\275b\033I\274rS\260=\027\007\024<\263\236@\276A^,\276\375\244\312=\263\203\235\301\212\341\005\277\020\261\035>\343\320\242\276\321F\305\274\375\206|=\253\367\262>W\335.\276A\236\362\275g\273|\276u\336\313\275\005\327?=\215\300\202>l\255\201;Z\360\361>P\246\233\301\321\362\027\276\310~\266<T\3052?P\325\241\277\240\235\265>wZ\224\274\335ch<\311O\205\277\352\027\006>\366<\326>5\342\333=\270\217\000?C\311V\300\317\325}>\204\260\227\275\367V3\274\256\232\002>\370\241O>\307\374E>\177c}?s\201\206>\017\024U\277\317\032\231=?\344\257\275\255*}\2762v\236\301*\320\274=!.\210>B\034\224\275\341g\224>qWT;\263\242(\276[?K>\010\330a>U\2654=\241L\336\275\001t\233\301\361\345{>\3114\254>\235\354M>\265\303\177\276\363\026a>\003\333a>1w\016\276+\255\205>W\254]=\305N\244=\013?\203\275D`\234\301\220\247\265>O4\320<\304\016\273=\226F\232\275\030\350c\276\274\365\030=V\300\334\272\371\222\211>\333Z\205>\334x\301=\031\027\260>\003,s>\355\310\312\275\212\0074>\245k\232A\037=\327>`}\231\275\300P\332=\215!\036@5`\310\275ZC\215=\240\274N>\rx\271\276\332&\203>\246;\217<99\230<\307\232\265>\313B\001=%\272\000\276O\003\366\275\211\350\247\274\221\242P>\214\326V>\032\324\265>\216l\007>\234\247U>4\204\276>%\351\014\276\321\017\363<\257\351\252\276 \325\235\301\337\200\254<\277.\254>\370\2160>I\367\t\275\367:\233>e\332t>.\252)?l\301\210\274\277py\276\367\262\307\275\251\212\233\301\245e\247\276h\230\010>\2213C>G\247\233\275\\3\207>\037E\201\275\333\240N>\221\\\376\275\223\006\006<\031 \r\277q\271\214\276L\370\236A[\230Y\276\246v\316=xV4\276?\336\216\276<\203\223;H4\t>\206R\220>\213\307\376\275\344D\275\275\t\375V\276%\330\273=\220\202g>\327\313\277>cx}>\351\366\234\301\274\311\233\275y\251\362\275\333\332\374=?\234\005?\201\315\007\276U|\244=\377\322\226\273\263=\270>\001\016\262\276B~f<\t\361\035\276j\024I>M~\010?\2618D\275\255\001p\276t\331\236>\331\206I\277\001\'\216>\037\242Y\275\002\262\030\277S\ru=\275e\310\275\361\010\311\275\200\266\247>6\363 >\270\311\233\301\217(\330=P\005\326\275\262C\201\275\020\346A<\211\342)\276YW\r< \025\317\276\006n\016>\365z&\275\303\250\037<^$\231Av\361\346\275r\026\222>Q\220\276\275\203\314r<\205\3730\275\354\005\240>=K2\276\370\3100\275\215}_\276\344\266Y>\247I\254=`\350\235\301\337\016[>\336AS>*\354\235>\327W\016\276\247\230\000\275\213=?\276\347\204\001=\271\3741>aR\032=\235\035%=Wp7>\346N\003>-\316H>57\326=\341\253\235\301\273m\236>\370\034\216\276\233\321K>\206t5\276?Y\371\274*\3734>\243\260-=\317\3239\276\035U\307\275RzX=\034m\r>\272\246\223>\025F\315=3\026n=2\007\273\275h\340\037\275\357{l\276P\300\014\275\2063\024>\363\274R>aFb>G$m>X <>d>C>\235\272U\276\252\234\234AR\324\211>\025[\376=C\207O;\336\261\362=\327\352\333\275\362\211d\276\337p\350\276\331\025\362\275\037 M\276b\034\220>\234\323\231\301W&\250\275\251\366B=m\347\372=\315\377\231\276\303\362\243\274\2638\371=\350\225Q>0Yn>i \315=\2719\031?4\302}>\246\245\234\301\2435>>\233K\257<kK\316=\351nL>\253\313;>:p.\276\023\217\235=\243\230\334=|\304\237>\212j\237>\016\225\274=\337X\000\275\276\240\311\276k\222\273=\300K\233AY\301\031>}\232\206\275\231e>>\204\3124\276\237\313\325=\020\231\271>C\366f>CP\350\276\233\027Q>\312\316\233>K\320\276\275Kz\350>x\212\005\277\202\010\332\274S\344\244<\273\243|>\215\276\336;\370\221]>/\256\336>\353\203H\2766\204\247=;9u?Nw\250\276\377\371\251=\3012\274=\362W\235\301~\336\000>\177\352C=\255\220W=H\246G\276S{\355<\003\364B\276\356&+\277\001i\241>\260/\035\276\325\207\251=\226\252\234\301*\013\017?;\021\033\276G\n\t>\017n\300\275\240\273\276\275\271*\232>nd\222>\315RE=Z\212\017\275h\004Q;\375T\313<\356\221\234AE\355\003>\243\230K=\375\257\237>2\307 >\357\235\247=\346\254\306>h\300\201>\003]\234>{K\252\276\212\216\n\276\345\366)\277}\t\333\275W\216\234\275\025cY>\215/\233\301\t\240\216\277\033\234d>\356\226\353>b6>>i\337\377\275\204\274\374\2775\223\246>\341+U>M%\312\274\003\t\373\275\031Xs:\353\351\305=\2429\234>ku\276\275\035\233\310\273\037\t\254=X\312_\276T\023D\276\277\013\337\276\223F\247\275\273\264T\275\234\222\312?<LB\276\372\353(>v\322\333<\027y\234\301\204?\253>]\036\201\2759\261\333\275\261\211\201\275\262\301\225\275\361\2007>\363\344\001\277]\242\215\276g\277\035>\3576\014<\'n\233\301\203\0362=\026\310\344;z\243\006=op\316\275A\265o=\1776\315<G=\316=\017\205p>\354h%>c \177=\373+\021=\225\341\233\301;\200l\275\241<\247>\340\234\372=&:\001>$B\215\275\300M\303\276\t\232\271>\241\227\246>5\320J>\356D\221>)O\342\273}!\236=\300\264[>\020\'\036\276\024]\236\301\033\313\217>B\013j\276`\261 ?\353\032\013\277%!\272=4\'\375\275\202\260\246>\247Hr\276]w\223>]^\033>\177M~=\005k\244>\010\027E\276#\227\214\276\274\225<\276\236\237\007>%\344e;4\2409\276I\r5>Y<+=m\234\021;\306\005\320>\253\225+=\2331\270=N2j\276Y\201\235\301\325\271U\273C\252\275>\033\001\332\275\033\241/=)\310{=% \254=\t\272\026\2770\241\014>\013*1\274)\205\301\2755\324\235\301\003\036\202\2767\3709=\206\341$;\021\263\317=\343\215\225;\244\341x>\273\221X=\217~6\276>14\276?\023q\276\263\314\027=\253j\234\301q\037\347\274z\234\334=\0166\232>\317\361!\275l\211I\276?h\261\275\017\203)>\371:\315\275\323\254\243\275a\316#>\265{\213\273`B\307\275\002\227\r\276\362\353\231\275\243\274\235\301S\210\272=\250L\226=1B\326>B(\010\276{\'\352=\031\2540>k\014\330<y\"\203\276\027\267\031>\013C]>\271\360\216>\366H\024?2\334\225\277bh\034\276\266\277S>\216\313I>\353\347l>\232\256\304\275\234\226\355>\321\225\224\276%\020&\275\036\353\351?\210\021z>\023\326\277<\304\333\235\276\013.\234A\200\241Y=\360\271\307=\030-H>3l\247=\370\020\251\275`LK>\307q\357\275\342\025]\276\236}\032<\003;w>B\263\233Am\004\314\275\275\217!\276\337\312\251\273\303v\217>8\026\222>\313S\227>{\014\221\275\237<C>\342]\034\276\027\303G>\3212\260>\360\200\236\301\032\374\235>:\270\207>@\231==-y\034\276\331\n\213=\362\234\265=\022\t\267>\004\352\023>\257\207\200\275\304A\250=\335/T\274]C\224\275\340JV=\217\331\245\275=0\236\301h\017\273>\212\241\230>p+\002?o\364\212=\013\031\311\2757)\322>\351\247_=F\2071>HI\237=\212\214\241=9AA>\264n\024?\237DT>\'\014\206>\273|\236=\255\317)\276\301\344F=N<\243=\202\022\270>\233\234?\275O/\320\275\267[\262>1`\020>\217\366]=\305\255\212>{\252\237\301\303\311\203>D\270\237>\343.\225=8<\177>\356Y\007\275\351\007\372\275\201\326\033?\3250z\276\243\256\207\275;I[=\025\315\233\3019\253\225>\324Dv>\237\316K>=[\357\275\216>\247>\356}\246>\001\327u>\027G\376\275\355\242\t\274\2779\371\274g\261\305<\323\365\235\301Q\032\244>\262\004\201>\201\252\354=\265\227\\=&\355\206\276\377@\004\276\307\241\222>\3355\n\276J\0176>7U\025=i(S\275m\233\353=\305\304\005>\224V\006>\244\216\235\301$\250\254>z\370\243\275\263\024\246>w\237\250\276\"\223G>\340Z\256=+\300\236>\271+]<\207\210\210\274Y\225\215\276\260\244\203<\252\364\370>\330AY\277\2050\355=\233[\005\276W\336\321\275\013\267\252\2759\250\214;\366\275\001>\2708\216>\210n\216=\200\265\333>"
      }
    }
  }
}
node {
  name: "decoder/dense_1/BiasAdd/ReadVariableOp/resource"
  op: "Const"
  attr {
    key: "dtype"
    value {
      type: DT_FLOAT
    }
  }
  attr {
    key: "value"
    value {
      tensor {
        dtype: DT_FLOAT
        tensor_shape {
          dim {
            size: 64
          }
        }
        tensor_content: "\355.\334=\304Q7>\335\2646>\204\263\235\301\024\3577>\201sE>\335B,>\253g2>\220\363/=\234\003\010>^\371\322>\257\204\376;h\200%>\216\233C>~\'\233\301\263\377a<)\355\257;\301\342W>Bp\315=\341\2170>\006\272Y=Pd:>\247\346\034>b\200%>mv\022>\250\317T>\005\032\234\301?\364\332=\212\232v>\031b\355=6\240\010>\242\001;>4\201!\275\300\024\217>\020\360\004>\333\266a>\264\020F>\006\374\027>X\2148>\240\317\324=u\032.>e\200\234\301\354\3069>\037!\036>8\363\004?:\252\322>f\200%>C\374\027>\346y5><\213\304>\200\001;>\355\021\023>\264I\034=\272-\006?l\252\356>N\223\250=,m2\275 <<>\332!\374=^7\367=\\\n\326=x?4>\211\177X>\177\211s>"
      }
    }
  }
}
node {
  name: "decoder/dense_2/MatMul/ReadVariableOp/resource"
  op: "Const"
  attr {
    key: "dtype"
    value {
      type: DT_FLOAT
    }
  }
  attr {
    key: "value"
    value {
      tensor {
        dtype: DT_FLOAT
        tensor_shape {
          dim {
            size: 64
          }
          dim {
            size: 128
          }
        }
        tensor_content: "RK\236\301\216@\235\301\016\367\234\301\235q\235A\311\260\234\301\374\216\234\301\242\253\234A\221\207\363=e|\236\301Os\234\301tQ\235A,\001\235\301\327\360\235\301\220z\234\3011x\235\301\312*\236\301-\031\236\301\000Z\363=\271\230\236\301\234\013\220>m]\235\301\314\177<>\316\306\234\301\014\220\236\301PUH\276\217\000f>L\243c?\212\253\227\301q\265\235\301E&\236\301\013\003\236\301\002\377\317<T\314\n=\207\314\236\301\273\216\234\301\305\317\235\301\250\323\234\301\216\263\233\301\205\"\235\301JC\236\301\374h\235\301o\211\310\275\237p\234\301q\302\236\301\210c\235\301\260G\001?\303\365\235\301\237\272R>\373\306\234\301\323\257\235\3017\237\037\276\337\222\234\301\036n\235\301\214\375\235\301eC\235\301\351\036\235\301H\3764\275\322\017\236\301n\347\234\301&\220\236\301\263\2473<\000\r\234\301\211@\032\276\256\344\013\276\266\347@>\271\177\236\301<\026\235\301\007,\236\301\r=\241\2743\261\034>\234?\177=\306\333\235\301\221\337\234\3012\177\234\301\336\324F>%D\236\301\374\271\234\301\315\320F=\311\275<=\303t\234\301\251\010\224>c\345\330=\032\347\235\301\350\332\236\301\007\306\341=\'\204\234\301\273XQ>H\352\234\301\355l\204>\271h\234\301P1\235\301\225]\234\301\317\t#>j\373H>uP\235\301\217\237\236\301\204b\324>\325o\235\301\322\365\234\301R\013\235\301\361\301W<\002\261\235\301\357-\273=Y\303\233\301`\374\236\301\266\350\233\301|\367\234;\026z\236\301\035\205\236\301Ad\270\275s\225V=\3736N\274<\t\212>1z\235\301\323Q\234\301(\024\235\301\213\250h\276\235\274\235\301\005*\231=\033\022\236\301\365o>=d\007\235\301\342\247\236\301)\314\220>-\360\231=\327\315\234\301\330?\274;1\217\236\301.\321\234A\255\377\234\301\336\264\234\301\355\302\236\301\224\023\233\301\270\216\234\301F\366\235Ap\250\247\275\241\351\233\301\323]\234\301\241\307\235\301[h\236\301\340\347\234\301\201\201\235\301%\240\235\301\030\245\236\301\2662\235\301\006\272\256<\336\337\236\301\332\177\003>\261\313\235\301d\336\005=\"o\236\301{W\234\301m\021\370\275\213\200\000>0\034=\276\210\213\226\301\330\207\235\301\300\375\235\301\266m\234A\215\025d>k\363G>?\313\236\301\213*\236\301\213\216\235\301\225\005\235A\341\360\234\301\230\206\235A\343\023\234\301O\272\234\301\252\200A=\330:\236\301\306\033\325=W\276\233\301\316l\036\276\016\311\235\301\347\363\304\275c\316\236\301M\017\236A\305#+\275\377\246\235\301\276&\236\301\350c\234\301\304v\234\301\323(\235\301]\216\306\2741\t\236\301\311H\234\301)\346\236\3017\301\260\275j\230\235\301\260*\337=g\3106>\372C\006>\316\263\234A&m\236\301.\233\234\301\205\365\254\274\354<\256\275Rx\016\276t\342\234\301\241\275)>\205\t\236\301\000\003]>\032\257\234A+\002\236\301~\336\217=>\'F>\317\207\234A\320j\234>}><=\250\212\235A\270\274\236\301\271I\025=\031\372\236\301Q=\352=\244\024\236\301\253H\325\274\243^\236\301\360\375\234\301i\362\236\301\311Q\357\275\3600\263>5\345\233\301\361\326\235\3011U\210=\\t\235\301`\371\234\301\005\304\234\301\244\000\004\276\201\364\233\301#\206<\276;\260\234\301D}\234\301Im\234\301\237\344\216>\335\230\236\301\254g\235\301\261\370\010>G\021w\274y3\215>\344\3501>\210B\235\301\020\247\235\301\273\257\236\301\033\335m=\236\271\234\301\361\357\267=\345\314\236\301\207\364\362\275\033c\234\301\317\271\235\301Y\262\352=\033\'4=\246\216\235A\224\236\210>M>\235\301\320\334\234A\371\363\234\301Y(\236\301\340~\235\301~\327\235AF\326\233\301\256N\236A\340\360\340>\2703\235\301\263\210\234A\021<\235\301\213?\234\301r\246\234\301\230%\236\301m\366\234\301\227e\234\301\273w\234\301\373%\027\277\230\014\236\301\363\273\223\276\000)\235\301U\320j\276`$\235\301a\336\236\3016\031m\276T\233\336>\225\303^\301\336\004\236\301\275X\233AQ\323\233\301>\027\235\301j:B?\341@~=\322}\236\301\323/\236\301\355\n\235\301t?\235\301\\\007\236\301\236\302\236A\220\311\233\301\224\327\234\301\202y\000\276\226\315\235A\325\344\236\301\262\274\234\301s\033\t?\3724\236\301\177\225\345=\0311\235A-^\235\301\313\014\251\276\010R\236\301\252\030\235A\010\251\235\301\356\177\236A\354\321\234A\207\353\253>l\031\236\301T+\235A\354\357\236\301Ula\276\251\374\233A\007\363\305\276\033\025\266=/\252\301?\376X\234A\027G\236\301\270\005\234\301i\371\262\275\030\tU\300\246\031\203\275\227\274\233\3010a\235\301\024\257\235\301GE3?`\255\236A \003\235\301\362f\261=\025X\255>\023-\235A\242\252\344=e\311\232\300q9\236AA\300\234\301\375_->\361\327\236A$(\030>\351\270\235\301\370)\034\273\221\364\236\301\366\257\236\301\304\304\234\301\253\347r\277\360\256\020@sg\234\301\265\346\236\301\274#\204>Hv\235AD\334\234\301\n\270\235A(5\000=\364W\235\301\251\353;>\257j\236Ah@\234A\360T\234\301\211|8>K\205\234\301\236U\234\301\255%\223>\313>\230>\356\277*\277\376W\316>\240!\235\301b\000\235\301\312`\234\301t\205R>\374\004\236\3017\301\313>[-\235\301[5\025\276\237\324\235\301F\216\234\301W\020\264=W\204W?F\325\234A\262\023\320>G6\235\301>\322\235\301@9\236\301\326\315\236A\262b\235\301\212\347\236A}y\234\301\347\204\236A\034\035\236A6\303\234\301\327\345\235A\312\021\235A\217\221\235A5\224\235\301\251\361\236A?R\236A\224/\235\301ji\235A\375F\236\301k9\235A\037\355\234A\016\375\235\301\203q\235A<[\234A\205.\235A\360=\236A\262\255\234\301\244\241\234\301.r\236\3016\347\236AAM\234\301\340{\236AD=\236Ajz\234\301\255\240\235\301\344\266\235A\006\333\235\301\233a\235\301\327\335\236\301\265\002\236\301hU\235A\237\003\237\301\266\357\234AWk\234A\246\307\222\2759\347\236\301\031}\234A\374[\236A6\221\234A\357\372\235\301]=\235A\001\006\236A\333\203\234\301w\250\234A3X\234\301D\254\234A\301\017\235A\250\210\235\301\302\205\235\301\331\310\235\301\272\334\235A\234z\236A5\302\236\301/\341\235A\235\314\236\301\345M\234\301gz\235\301\304\033\236\3010\355\235\301\327Z\235\301\261\243\235\301\371\210\'\276I=\236A\264\017\340\274\301\017\000>\314\342\235A.c\234\301\232\344\235\301\244M\234A\275A\235\301\213l\235\301\324`\234A\236\271\235A\201\\\235\301\031V\234\301=\233\234\301\014w\235\301d\234\236Ao\361\236\301\257\212\235A\264\214\236\301\201\266\236Ax\252\236\301\001j\236A\356\013\236A\3058\014\276\345A\235\301\017a\235AG\245\235\301@\344\235A*\n\237\301\354\256\235\301\256o\234A\272\261\236A\037o\234A\241\346\234\301ml\236A\224A\236A\205\246\234Aq\263\236\301\244\244\236\301|\215\234A\225[\234A\377u\236A-\263\235\301\266\307\235A$\234\235\301q\344\235\301 \001\235A\313\306\235A\303\016\236At\336\234A\207\026\237A\023\220\235\301\023\375\234A`\271\234A\236\033\235\301U\277\236A\254k\235\301\374g\234A(\212\235\301bo\236\3019I\235\301\254\344\234\301\203\316\233\301\363\017\237A\333\223\251\275\242\316\234\301\3404\236\301\026m\234\301)\257\236\3014\376\234\301,\321\234\3010\276\236A\235\324\235\301\200\010\236\301\361\232\'>>\263\235\301\233E\243>f\276\234\301\373\302\266=\364\344\235A\0107\236\301\305f\346\275\307P?>(^\023\2757-\235\301\337)\235\301\375\362\235\301B\001\236A]\217t=\302\377\017=e&\236\301BO\235\301\220\032\234\301\'b\235\301\253\031\235\301:\254\236A\321\360\235\301\207\263\235\301\347\364^=\213\307\234\301\355\334\234\301\265]\234\301\025\032\032>R\301\235\301\257\264\221=\025\363\234\301\361k\234\3015\036\340=\3434\235\301\370x\234\301g\333\234\301^E\235\301nN\236\301\0131\021\275\367\247\233\301\224\311\233\301\230X\236\3017\213\333\275\344\342\235\301$\364\331<\2452\003>e\205\362=\334\006\237A\211m\236\301!\206\235\301kh\t\274\220\301\244=E\346\'>~\375\235\301\214y\017\275\306\216\236\301e\330\227>\234<\236Ar;\234\301\234\306\334=\303\327H=8\365\234\301\020T\'>\333\203\177>\266\321\235\301\320\237\236\3015\243\332=\001\014\236\301}}\375;\275\033\235\301kU\221>\372\313\236\301\035D\236\301\202\225\235\301\316\222\r\276`\366\017><\\\235\301F\315\234\301\245B\036>|\252\234\301\036n\234\301\254\253\233\3017\367!=\235\214\235A\317\267\002\276\220n\234\301\217\262\235\301T2\234\3014\260\203>\342P\236\301+\031\236\301\312\224n>\361\037\220\274\232\210,>=+\021>\021\265\234\301 *\236\301HD\235\301\243\320j\275\033\224\234\301\177!7>s\031\236\301\333n\251\275S*\234\301](\236\301\027\305\225=\311a\213>\315.\236A\035&\245>\t\216\236\301\213\253\235\301w\023\235\301a\226\235\301\334\035\236\301{U\235\301}\357\234\301s\246\234A\261v\024\275\236\316\233\301Os\235\3017\264\235\301{\305\235\301\177\325\233\301-\320\235\301S&\236\301S\254\234\301L\252\233\301\355\323\255=\023\236\234\3017\300[;\232\032\234\301p\275\312=\316\207\235\301*\017\235\301|\2235>vB\240\275\332\332\212=\255J\230\301\026$\235\301\215,\236\301*\312\234\301G\336\360\275\017\234\000=e\265\235\301>\330\235\301\333|\235\301\312L\234\301\217j\236\301\240\261\236\301\361\350\233\301\324\355\235Aw\207\221=\263\326\235\301W\350\236\301\252\320\236\301\"@\262:>\022\235\301\301\352\236\273\003&\236\301\372\226\235\301\225Eg>7\242\234\301[T\235\301\025\262\235\301\024a\235\301\341\037\234\301\232Q\204\2759\252\235\301\340I\234\301{\220\236\301\305+u\274>>\235\301\244)*>\031 \210=\250\177^>\034\354\236\301\264k\234A\247\300\234\301\023H$\275\306<\242\276\217E\034>E\353\235\301\321\252 \276\3136\236\301\244\020\225<\3379\235\3010\315\234\301C\001\210>\321\267\004>\313\275\236\301jxN><h\021\276\376[\235A&]\236A\213\027_>\246\223\235\301\351\355\031>\236\344\236\3019\370\007=l-\236\301_s\236\301\340m\234\301\031\000Q\274\240\303{>qH\236\301\230\032\236\301/\350\203>nm\235\301\270C\236\301\231\216\235\301\221\327N=\216N\236\301\215\"#<_\224\235\301\270\336\235\301v\277\234\301\243\310\205>\330\245\236\301\251\361\235\301\036s,>^\'\t>\266\256\216>\2613=>\312\004\235\301\336\300\235\301\004\026\236\301\002\222l\2768R\235\301\373\022#={\352\235\301{g@\274\006\367\236\301\217\322\235\301X\t&>\337y\220>\244\277\236\301Uj\221>J\270\236\301\267\260\234\301\270I\234A\271\351\236\301x,\235\301\002\304\235\301\216\234\234\301\3628\234\301\225\016$>0\030\234\301\035\273\235\301\241\201\235\301\3144\235\301\031\320\235\301\024\234\236\301jh\236AJ5\235\301\236\032\234\301{+5>e\335\235\301\205Nk<n\257\235\301\267V.>\035\001\237\301\251~\234\301\361J\216\275\317\271Q<\\\251>?\210\342\234\301\243z\236\3015t\236\301\032\302\234\301%s\263\277\013\330}\275\233\357\234\301h|\233\301\203\321\235\301\257\366\235\301\247\316\234\301\206V\234\301\035\303\234\301\211A\236\301lN\017\276\021\021\235\301\032p\235\301\307\370\236\301\253\333\266\276\343D\236\301\237$\016>\026e\234\301i\233\236\301\315\337y\2759q\235\301~#\234A#\374\235\301X\356\235\301\253\354\234\301}\'\022?\0024\235\301\263!\234\301\350\367\235\301\314sS\275\2202\233\301\275\001\311=\214\201\215>D\323\301>\372\300\234\301\255\201\236\301\375]\233\301\224\373\231<\200\2007?\364\"J\275\315\260\235\301`\326\277\275p\205\236\301\311\023\022>\250s\234\301\027\325\235\301\231r\205>AOn>M\223\235\301\243\3570=\242\227\303?K\331\234\301\313\317\235\301lz\r>\221(\236\301\206+h>Q\232\236\301\377\246\330=\253\177\234\301\316\345\233\301\263\367\234\301i\263\202\276\017\225\315>\024\263\234\301\241\350\236\301\333\250o\2776\316\235\301\034\362\233\301\201\027\235\301\327\361\377\275\317\221\235A\261t\215>`\221\234\301\255(\236\301n\302\235\301\307U\213>\241\200\234\301\rN\235\301W\305\332=\342>\005?d\307\201>\026\201J>c{\236\301\351V\234\301\037\244\234\301*\204\204\272\321\333\233\301\2554\357>I\267\235\301L\010-\276\177\311\235\301\232x\236\301\262s\221>\034\220\320\275\242\321\234\301s\037$\275Ve\234\301l\261\235\301\352\364\235\301\300\352\235\301h\"\236\301\371X\233\301\220\373\233\301\335\242\234A*lK=\246=\236\301?\307\234\301\246V\236\301-S\234\301\365\263\233\301\030\016\236\301\303\260\235\301\355\341\236\3014\034\234\301\2355\227>M\215\234\301\271\351\032>\033\232\236\3013\025\023>+\310\236\301\023\232\234\301\322R\300;\005&>>\325zR\276\216U\234\301\201\264\236\301\240\345\235\3013\'\235\301\212P\207:\223\240\030\275\254A\236\301h\344\233\301\021^\236\301\266m\235\301\004\327\235\301\324\366\234\301\345\224\234\301\033`\235\301\223O\201>jB\234\301{\201\236\301\3011\235\301\266\237}\276!\237\234\301v\244\261\275\007W\233\301\310\216\234\3014\001f=\376w\235\301\177\370\233\301\337u\234\301\303\326\235\301\024\216\235\301h\214\221\275\005\323\235\301A\024\236\301\025\032\235\301\027\311\375=\341\325\233\301V\317\001=wT\022>\344z\"=\233\024\236\301\362d\236\301\035V\234\301\236\010,>\252y\253=\224\240p=\0079\235\301\330K\235\301\375\330\235\301G\323Z>F=\235\301UB\235\301a\251\232\274\251\352\272<\"\347\234\301\261\305\217>\247w\325=\321\264\235A\343\266\235\301\236\026W>\350\233\235\301\345\342\377\274\024\316\236\301uD)>|\320\236\301`T\236\301rX\234\301\331>^>\335\004\003=)E\235\301\002\177\236\301\025\214\007\276i\341\236\301lm\234\301{\017\235\301\376\r\334=\221\027\235\301\355\220]\275\344\364\233\3015<\234\301\330T\235\301\333\341a=\002\263\234\301\234+\235\301\3754[>+S~>T\366\242>\232\377\211>A\301\234\301\2101\236\301\325\366\234\301\263\323d=\345\374\233\301L\257\203=B\217\236\301u3\215=\354\366\235\301\374\242\234\301\270^X>\004\004\277=\354\305\236\301\026\016R>\317u\235\301\"G\236\301H\353\234\301\002\236\236\301\266\350\234A\010\022\236\301\365_\234\301\354\026\236\301[\033%\277q:\236\301\326\262\234\301\372\342\236A,\230\235\301c\271\236\301po\235A\010\314\234\301\244\264\236A3\027\235\301\376\262\274\274\302\314\235\301\327K\342\275\357\350\233\301\237\004\t\277@[\236\301.\373\235\301\363\3125>\332H]\277p\251\217?\367X\230\301gB\235\301$\220\234\301i\222\234\301\310\205\270\277\267Q\211\276\007}\235\301\372\001\235\301\365c\235\301\272\000\237\301\207U\236\301\006\210\234\301uF\235Ar\351\234\301\005W\201\275\316\333\236Aqn\235\301\030\311\235\301\251\223\n@\244\250\235\3019>\247>\213l\234A\377\004\237\301\343\277D\276\207\321\235\301\237Q\235\301z6\235A|q\262<Px\234\301\234\027\r\277\253\244\235\301e\315\233\301\341.\235\301\231\206\377<\274.\235\301G\347\360=U\021\361=\227 \330\2773\255\234\301+K\236\301\225\211\234\301\347\036\211\275\002\361\n\277\221\305\213\275\334\262\233\301\022\337\236\301\374\270\236\301\212\247\240\300_\325\235A\033\221\234\301\277\275\250<\352\247\323>\306\031\235\301\241\274`\276\366\215P\277\r\216\235A\224\014\237\301v\3576>\223\261\236\301%n\266=\210b\234\301#LR\276\265\225\235\301\244\326\234\301\031f\235\301\231f\010<\347\270\215?u]\235\301\346X\235\301\273$G\277u\231\236A\206\337\233\301`T\235\301\243O \276\305\332\236\301\363\360\026\276\350u\233\3016F\236A`\r\234\301L\214\t?\310\016\235\301_\341\234A8N\271>\037[Y>\253\022\211\276\370\242(?\022\222\236\301z\025\235A7\213\235\301\322u\"?\264|\234A\333l\321>\362\222\234\301\024\267\357>\237\276\234\301\200\r\235A}\202q\276\326\265\376\277\217\000\237\301\016\331\003\277U\344\235\301ng\233\301m\254\234\301\221g\236\301\312d\234AJ,\234\3013\366\235\301U\001\235\301\350\033\214=x\220\235\301\304\373\233\301\344\225\236\301\251\260\234\301\311\353\234\301\357\233\235\301vD\236\301\300)\236\301{\307\235\301\266\004\320=;\260\236\301\355Eq=C\366\234\301\334\3474=\214\363\235\301\330]\235\301.y\017>\307\375\234;\204\335\025?\260\256\226\301U\337\233\301bo\235\301\031L\236\301\006\224\211\275E\013\222=\034\300\234\301Jq\235\301l\244\234\301[\227\234\301(\013\236\301Y\221\235\301}-\235\3015n\234A\213,\364;g\332\235\301\207\266\236\301@\315\235\301AC\316=Tv\235\301%\350\262\273\014\252\234\301\202\n\237\301\247#\322\274w\221\236\301\256\335\235\301\3054\236\301\006\372\235\301\330\007\236\3019\177?>\312\347\233\301\210\030\235\3016K\236\301\217*\235\274\342:\235\301\342\350\361<sq2=\246L\000\276Q\311\236\301\255\327\234\301\tf\234AN\307\231=2\3253\276\334\r\306\274/\342\234\301\316\364\236\301a\333\236\301\201\013s>\303\232\234\301\345\036\235\301UiL>\235\310\340\274\020\330\235\301\243\272\211>\365%H=\350\276\235A\003P\235\301\006S\207\274\247\204\236\301\003\244\315=\251\327\236\301\215\004\256=m\302\234\301\025\366\235\301*\310\234\301\207\212\333\275W2\271\276\255\010\235\301\207\246\236\301\345\t\373\275;\254\236\301>\256\233\301\000\317\235\301\275p\217\274,\376\235\301\351\264\035>\341s\235\301-\354\234\301)K\234\301\3545\247=_\332\234\301\025\000\236\301I\232\242\275\031\n}>\007\342\037>\236w\212>(\237\236\301\325J\235\301P\"\236\301}\365\251\275\220\357\233\301t\233\340;nD\234\301\377|k>\252b\234\301\351q\234\301;\314\236>5\037\206>\034\021\237\301\0231\304<\256\362\236\3017\317\234\301\377D\234\301\377\317\236\301\365\212\235\3014G\235\301J\007\234\301\331G\235\301Z6\261=j\227\233\301.+\234\301\004\311\234A\230u\234\301 \003\235\301\257\226\236\301\222\217\234\301\303\365\236\301Bk\235\301B&<>~d\236\301\227m\r>kK\234\301#\336\270<\364q\235\301\255$\236\301\216\353\005>!\252\022\276\347\036q\275.\377\226\3014\276\233\301i\226\236\301\265x\236\301\t?\356\273\177e\300<1\334\234\301\334#\234\301\260\r\236\301\276,\235\301\035\235\235\301Z\231\234\301\252s\234\301\203\304\235\301\016\004N>\217\306\234\301q\311\235\301.\035\234\301\266\n\250?\314O\235\301-\331\002>Dz\236\3011u\236\301;\206\336=\257\026\237\301|1\235\3012Z\236\301\031\367\233\301\256\001\234\301\263\253\325=\316\006\234\301\tR\235\301\231\022\236\301\316\0207>mx\234\301)\315X>$R\305=\305\032\314\277\330\335\236\301>(\234\301\371<\234\301RX\274=w\020\202?\\\313@\273T\365\235\301\016\344\225=\324\325\234\301\303^\235=\252w\235\301\341\360\236\301\242\233\26698\336\352=B\255\234\301x\'\212>\343\312\247=\310\231\235\301,A\234\301\262\260v>\371\"\236\301\260\177\202>\320\024\237\301R\213\343\274+\306\236\301\342E\235\301+U\236\301\241\242\350=\013\316\254\277\227\323\233\301\236\321\234\301;\221W>X\023\235AZ\214\234\301\252\032\236\301\240P\214=\362\310\234\301~T\027>\315\212\236\301G\317\236\3018\033\234\301\335\251\030=\312\340\235\301\266\274\236\301\346t6>}\177o>\324\r\241=\336\023T=\322m\234\301\021\213\236\301#\306\236\301\007\220\262\275_\327\234\301\327im>\365\253\234\301W}\240\274\"\216\234\301\002\030\236\301I\254\010<\207\312\253\275\305\366\234A\030\034\220\274{C\236\301&\304\235\301N\350\235Az\332\236AE\330\236A\363\214\234\301\314r\234\301Bc\234\301e\210\226>\020\217\235\301\303Z\234\301DJ\235Af\214\233\301\357\241\235\301xJ\235A\ny\235\301\211\324\236\301\r\301\235Aa\245n\274T\223\234\301\371\332\021\2764n\233\301P\321O\276A \236A<+\234\301\233\273o=\225zu>\030\0248\300\001w\235\301h\321\236A\017\226\235\301\030\222\236A\353\t\371>\035\252\376<u\367\235\301\371\313\235\301\243\"\235\301\243\361\235\301q\025\237\301\376m\234\301=\374\234AE\341\235\301I\303\300>\371\377\232\301\305\272\274\275\373\204\235\301\034\325\366\277e\237\234\301\003\253H\2774\023\237\301,\277\234A\027\340\223>\372\317\236\301d\026\236\301S=\234\301+\250\234A\251\230\234\3017\370\317\276V@\235\301\314\213\235\301\300\010\236\301\302m\330>$j\235\301EB\244>\300\201\001\276\037\206h\277\335~\234\301f=\234Ay\270\234\301\217\207\305<w\276\214\277\230\3005\275}\371\235\301\373\n\244\275\254\263\236\301bq\245<vh\235\301 \210\234\301\335M\320\276\305\002\241>Xp\236\301!\023\344\275-2\t>\305\235\235\301\005\235\234\301\"\261C\276\206\260\236\301(\227\222=\256\334\235\301n$\260>:d\234\301\375\206\236\301\n\017\235\301\313\330[>\005Ox\276D\347\235\301\375\323\234\301\037\002\310\276\237\221\234\301\227\242\235\301\272\017\235A\016\337h>b\026\237\301!\321N=\034{\235\301.\202\235\301q\256\235\301\231bd\276j;\236\301\310(\236\301\336T\023;\326\210 \276\216A\227\277\2414\302\275fa\236\301\213\034\236Agn\236\301\220\276\317\276D\322\234\301\'!I>\373\003\236\301\213r\242=\032\177\235\301\005u\236\301U\355%>\200~\316>\227C\235\301\350\303\220>\'\241\234\301\251\267\235\301v\253\234AI\177\236\301\374\267\234\301M\336\234\301\363\267\233\301`%\235\3014\032\225\276\014u\234A^\336\234\301\231\361\234A\306\240\234A\212\235\235A\036\350\235A\335\262\236A\222;t\275\342\001\235A\347\333\266?{\261\236A\003a\030=\324\227\235A1\212\030\275\017\273\236A\331\010\235\301\0316F\2755J\214<\n\205P?R\036\232\301\211-\234\301\313\377\236A)\275\235A%\377\264\274\327o\314<\327\365\235A^z\235\301Y$\234\301\260\330\346\275\203y\234A\364C\235\301S\243\235\301\370O\336\275\220p\002=\202+\233\301\303\021\364\275\340\022\235\301\\\001\274>\235t\236A\350\201:>\002\323\235AG\363\010\276*\221\245\274\234\240v\272Q\'\235A\034\226\235\301\274,\235\301\221\270\233Ai(\023\276\245\016\235\301\351@\236Ac\217\236AJ\310F\276\233\334\233A\210\333d\276\212}\331=\337E\340\2768e\340\275]\273\235A\030I\235A\021rQ\275S\323\277?\334\357y;\033Q\234A|#)\274@\030\220=L\272Q>b\212\236Al\201\235A\347\300E=\206\242\020>\363\274\343\275Q\221\205=\037K0\277\263u\234\301G\035\235A@$\335\272\252\271\013\276\t\240!=\\\006\235\301vV\013\276\303\030\234\301\016\365\233\301\022s\234A\316\256A\276\253 \036@\221?\234A\006\342\313\275t\360\205\276\262\236\236\301\032\243\234\301\021\346\234\301xy)\276\262\364\022\276`D\177\276\203\275\234A\223\310\236\301\2300\234\301!\177\231=-\340\235\301\343\276\235Aw )>7\234\212=g\356\231>\251\342\246>\370em=\370\345?=Y(\236A\354\342\035>\032\206\235\301\244\344\246=\005$\236\3015lq>/\266\235A\277F\235\301 {R\276\024\273\n\276\263\245\236A\254\246\203\275z\366\235\301\202\341\234\301T\375\233\301\243\323\236\301\017\340\236\301\016\323\234\301\364R\234\301\264\367\234\301\202\350$\275\030\273\236\301\213m\236A\024\375\236A\237\354\233\301\\7\236\301}\276\234\301\371t\235\301\317\243\236\301\340\214\234\301Sy\326=\007\202\235AAJ\366\275\027\265\236\301_:?=z\340\235\301\200\272\235A\2150\226=\311Y\001>\221n\236\275 \301\235\301\300\252\235\301\317\375\234\301uY\234\301\333\236q>~\305\031>\301\331\236\3017\251\235\301\236\233\233\301\274\231\236A\274Q\236\301T\342\234\301m\350\235\301\303&\235A\032\242\350\274\0230\235A\351\255\235\301\261\253\233\301\'\223\014>\356\361\234Ar\037\"=\022\270\234A\227\230\234A\336\306F\276\201\255\234\301\250\335\234AV@\235\301\021\316\235\301\242b\235\301\323\343\264=\334\200\233\301\340\306\234A\316\003\235AXW\320\275\035\235\233\301\315\354v\276\264\323\r>\234\013\034\2768\207\236\301\2246\234\301\214\347\235\301\224\026\356=@\335L>Y\310/\276>\244\234\301\327\216\304\275?\264\236\301o\030\270=\236\277\234\301\306M\236\301Ava>\225\250s>\374\203\236\301\245K\326<\303\2456?\336\310\234\301\300&\235\301B\226?>\332\367\234A\3271\347=\245\205\236\301\207\220|>nL\234\3016y\234\301?p\235A\226\253\212\275bg$>\234\027\235\301\277C\236\301+h\263>\235\325\235\301A\306\235\301Q\317\235\301\223G\304;\243\362\234\301\033V\233=\355r\236\301\346\301\233Ar\232\235\301\025\231\330=\035F\236A\\9\235\301\376\316\277=%\326f>\305w\330=\261\002\006>s\242\235\301LU\235\301\265\211\234Ao_h\275\223\017\237\301\314\263\330=\214$\236\301\202T\001>83\235\301\215\363\235\301\275\300Z\274\370]\252>\344*\236\301\372\320\">B\360\236\301\263d\234\301\273\346\234\301H_\235\301\320\255\234\301\244T\234\301\004!\236\301\201\035\235\301\002\346\233A\223\322\234\301\324&\235\301\311\320\235A\3013\235\301\020\007\235\301-s\234\301!\315\234\301\255R\235AA\262\234A\362\322\234A\270\\\235A\260d\235A\231\336\233A\250\376\232A~\314\235AX\326\234\301\033\364\232A\222\352\233\301sY\233\301\353\342\236\301<\t\236A33\235\3010\221\234\301G3\233\301KT\233A\254\n\237\301\303\340\235\301\240\257\234\301\321(\236\3014U\234\301\030\006\236\301c\332\236A\212\274\236\301\3258\234AuO\235A\320\200\235\301\367\275\236\301\0325\234A\035\243\234\301s\002\231\301\016g\236A\304]\236\301U\250\234\301\250\362\236\301\t\265\233A\007]\235\301~T\236A\360\275\235AVX\234A\207\344\233\301x,\234A\014\324\235Ao\207\233A\"M\233A\303]\232AU~\234\301\n\310\232A\007\336\236\301\275\355\234\301u&\234Ao\232\233AY\242\231\301\262\035\275\275\312j\236\301\330\265{\275\351{\234\301\034\326\233\301\177m\236\301\305\331\234\301y\272\231\301h\313\231\301\006\263\236\301\257\265\232\301\"%\233A\023\343\236\301;R\235\301O\351\232\301\177O\235A\255\325\234\301\265F\234\301\273\310\233A\027\t\235\301\305k\234A;\354\234\301P\027\232AG\224\231\301\006\025\236\301\307\343\235\301\263\331\232A\316\302\234\301\235\316\233\3018\201\236\301\371\360\234AG\342\234\301\255d\235A\370\377\234\301\330s\236A\316-\235\301\301\037\232\301g\327\236A\201\270\234\301\207g\233\301\262\244\233\301\0240\234\301\205\272\233\301w\324\236\301\3606\236A\245#\236\301\242\024\233\301\225\302\235\301G\342\233\301\236G\234\301i\345\233A\310j\234A\346\223\235\301\252\212\235A\211Z\235A\204k\235\301\266\332\234AB\263\236\301\236\t\236\3018\240\235A\276 \235A\363\316\235A\274\213\235\301\016.\235\301\004\225\234\301%%f>\363\034\236AC\264\234A\216\014\236Ai&\235A\305\272\236\301\270u\234A\353\324\235\301\362t\234A\327\006\235\301\205\265\236?\371\272\234\301\250|\206>d6\235\301\375\312Q>\340K\236\301<j\235\301\251z\230\274\215\r]\276}\247!\300\nu\236\301\"X\235A\373:\235\301\202\204\235\301\357\354\367\273\273\365\035\276\221i\234\301\013\\\236\3013U\234\301\211\326\235\301\250\001\235\3011`\235\301;.\236A\352g\236\301\\\266\204>\375r\235A\001L\236\301#\371\233\301#\271#?\354\310\234\301q\273\276>\266\254\235\301N\263\236\301#i1\274\037e\234\301\236s\233\301/\201\236\301\234\326\222=\313\312\236\301\260\265\007\300\244v\235\301-*\233\301\302\255\236\301!7l\275\025b\235\301/g\240;\307\213\261=\372\365\006\277\245\226\235\301\033v\234\301&\372\235\3012_&\276\235t\262\276\234S\312;(\010\234\301u;\203\275\231\275\236\301\356V\314\273U\315\236A\221\027\236\301q\336\330=\313\237\320=)f\236\301\226_p\273\027\247\301\277Tu\236\301\221\226\235\3015N\346=\224\274\234\301\372y\003<\337\325\234\301Y\333^>\343\314\235\301\261\370\235\301\235H\236\301\311W\037>JK2@\001\331\234A\322h\236\301\2364\304\277\305\'\235A\371,\235\301\240\035\235A\227\357K\276\246\234\234A\344\355?\276JH\234\301\252\343\235\301\210\324\234A\035.i>s\263\234\301\023\351\235\301?\255x=\312\363h>\276\\\033>\272M\014>\002-\236\301\266\231\234A]b\235\301\322\330\311<\032\352\236AhM\036>\013\261\236\301\0029\212>\334\"\235\301\241\264\234\301\373\217F>|\356-\277\026\024\235\301\372i\256\276\336j\236\301\231\030\237\301\243x\234\301\265\270\235A\256\233\234\301\211\333\235\301\341\201\234\301\330\246\234\301W&#\274G\343\235\301\366 \235\301\343U\235A\247W\235\301\213I\235\301\325\237\235\301\322\243\235\301\331u\236Ar\213\235\301\275Ye>\232\000\237\301\263\315A>\203\356\235\301\205\032f>\343\014\235A;Z\234\301z\214\014>/\202\024=;\271\307\277\204\007\226\301k\020\233\3015\217\234\301\255\314\234A\205A)\276!1\315\275\305Y\236\301wF\235\301!S\234\301\356!\235\301\204\376\234A5j\234\301]\317\235\301B\303\236A\n\2557>\226\007\236\301vp\"\276T \235\301\365I\355=\334\337\234\301\364\241\034\276Wu\236\301\254\r\235\301\347\342d\275\001\275\235\301\250\260\235\301:\351\233\301\234y\234A8\312\236\3011E\274=\375\301\235\301\0055\235\301\tW\236\301aD\223>\316:\236\301\224\325\271=\375\347\n\276G\254\026>%z\236\301\205\204\235\301\241.\234\3014C\t=\323\026\232\275\234\034\365\273\302\377\235\301-\377\234\301\342\025\236\301\243\377*>\r\242\236\301\233\373\234\301\245\n\320;\347fV>\330\315\234\301\221\221>>\207\300\215=\022i\234\301y\320\236\301\331\217a\2756\217\234\301g\n\020==\221\236\301\010\351\200>q\255\234\301\025p\236\301\363\272\234\301_>\221;Mj\031=\314]\235\301\014\351\234\3017\033\030\277\325\033\236\301\001\321\233\301\360\177\234\301\316}\254=\312\003\235\301~\237\003>5 \235\301\324\272\234\301\\M\236\301\231\312\222\275/\214\236\301\2102\236\3013\006\005:`M!>\314\260Q\274\002\312^=\251\\\234\301\364\312\234Af\004\237\301\361\250+=z\372\234\301\r\200\005>\265\364\234\301X\205\232=\362d\236\301yF\235\301\222\247\025>\262i\035>6\365\235\301U1\273=0;\236\301\ng\235A\310\006\236\301\366[\236\301\241\305\236\301\250\300\233\301\266\344\233\301\256+\235A\027\312\332\275\202\007\235\301w\014\236\301\231\330\236\301\212\212\235\301}\352\235\301\023\343\235A\255\n\236\301\237\370\234\301\354q\234\301tq\217>@\\\234\301\026D\350\272\313\325\233\301K9\312>K\037\235\301\337n\234\301(\340\264<5\337@\275\003\030\251>\343H\227\301\306\'\236A\222\367\234\301\330\325\234\301\314,\265\275\222U\355=\r\334\235\301\342\032\236\301I\354\235\301Xr\234\301b\251\236\301/\325\235A*\346\233\301\'\355\236A\301k\203>R\030\236\301\034#\235\301%\262\234\301Z#\014\277Y\375\233\301\241\201\021\276\027e\233\301B\206\236\301\326\332,>\304\376\234\301n\036\234\301\334U\235\301\026\300\235\301\273\020\234A_Mj=\000f\236\301~K\234\301?\255\235\301\307\304\226\275$\373\235\301\253d<>\333/\014\276\306\2450>\277\360\235\301\342\200\234\3019\372\234\301;l\201\275_\304\323\276\\D\342;9\031\234\301j>\236\301j,\235\301\313\260\002=\325\372\236\301R\'\235\301\322%\002>\323(/>C\317\236\301\n\263z;\341oy=\331d\236A\302\226\236A\035\351\224>\366\220\235\301f\322\201\2746\002\236\301\370_k\273\007\017\235\301\177\210\236\301\377.\235\301\305\3518>\334\315\250\277\317\003\235\301\310\217\234\301;\356\371=\270\344\235\301E}\233\301\267\342\235\301\'\r\215\275C\230\234\301g\300<\276\265\004\235\301QS\234\301\3634\235\301M\310{>\025\225\234\301:\205\236\301w\313j>\224\372v<+\214N>Y\364\204>\021\327\236\301\254\024\235\301\361\254\235\301\250b+\276\210<\234\301\212\007e>\265\001\235\301\273\245;>\255\231\234\301\371\236\235\301\362\006\326\272>U\021\274\270x\235\301\322\'Y>S\t\236\301i\313\235\301\324!\236A%\013\235A\002\353\235AK>\234\301\324W\234\301\220\214\235\301;\276\326\276\332\224\234A\325\222\233\301\261\216\235\3016\362\233A\247\347\236\301\242\306\236\301\227\267\234A\210&\236\301\332Y\235A/l\005?\360\343\236A\nGp\276|\213\235A\333\325\353\275\340\365\234A\004\230\235\301\315\226\372\275\242\304\321=9d5\276\020A\235\301\240\230\234\301\354v\235A\235\373\234\301X\347\327\276\007\345\255=\356\224\234\301\033\222\236A\2214\235\301\301\343\235\301g\356\236\301\353\000\236\301F\220\234\30184-\276\214e\002\276\304\303\235A\220\214\n\275\213\233\235\301\245I\337>\356\351\234A)\200x>q\343\235Ai\327\235\301@X\240\275\353\351\236\301\315\254\234A\321\214\236\301\211\255\235\301F\306\235\301\213uH?\317\014\236Ah-\234A-\022\236A\216\277\344\276f\210\235A\t\265\254\276\235\'4>\'\002\231?\361\005\237\301+\213\235\301\333>\234A\377\244\036=+\242~\300gN\005>Z\324\234A*\354\316=\007\257\236\301:\031i\276\316\364\235\301\037p\234A\032vq<\331\375\200>\177\205\236\301\264\363\202\272b\024U\300*\016\236\301\241\332\234A6\331\245=I\323\235A9\361W>m\201\234\301\345\240*\276\227\240\234A(\201\234\301\027\233\236\301\034o\320\276?QL\274*\220\234AD\334\235\301%\326\236\274\342J\236\301C\317\235Au\355\235A;\257\231\274\\\205\236\301\355H\205\276\310\306\234\301\351\215\235A\305O\235\301&2\234>av\234A&\007\234\301*\021E>\276\377\355=\371l\316>\353[\032?\241\361\234\301\364\266\234\301\"\322\234\301B\250\330<\004\313\233\301\361Pp>\302L\235\301\233\252\263=J\317\234\301\327\377\236\3011Ch\276.\r<\276\206\225\234\3014\353H\276\277\010\235\301\202\226\234\301\207\330\234\301o\240\236\3019\311\234\301\212\006\236\301\246:\234\301\0071\236\301\355\265\006>\244\027\235\301\016\340\235\301+\235\234\301{u\234\3019m\235\301s\327\236\301\275\331\234\301\010a\236\301\220\006\236\301RY\221=14\235\301\3102\327=\201l\234\301\371\312\235>\035\215\235\301\254\334\235\301}\317O>\005\3130>\311\235\376\274\017~\234\301n\004\234\301\377\360\235\301\214F\235\301\3438\310\274\311\340\343\275lZ\234\301\'\260\234\301*\271\234\301\202\177\234\301\360\035\234\301\'Z\235\301}o\235\301\271\000\237\301\372@\311=d\375\235\301,\374\236\301\347+\235\301\033t\257\275\213\372\234\301y\351q<\016P\235\301\321\230\236\301\'\2033=\275\232\235\301\034\374\233\301\273B\234\301K\242\235\301e\366\235\301a)\250\275\004\"\235\301\246.\236\301\203\234\235\301\025\215\207<\002\270\234\301\363\263\035\276\337G\205<\321\001\016>\n\340\236\301 I\236\3018\352\234\301\333g4>\227\006\t>\334\360\264\275t\036\236\301=d\235\301\277j\234\301{\306\231>YF\234\301\252\'\236\301eA\211>[\275\215>L\270\236\301c\304A>a8\347<\tn\235\301]\203\235\301\331\007@>\306\272\235\301\265\321\243\275\252p\235\301\363\303\207=\266\022\236\301z\271\235\301\267\216\236\301\355\002\026=\342\331>>b?\235\301z[\235\301\027s\231=\224\001\235\301\337\017\235\301\366\250\233\301\241/\372\273H\226\234\301I\010\265\275\366\261\233\3012\r\235\301\310\347\234\301i\242X>\225\316\235\301H\361\235\301\376\317\332=l\025\010>\353N\271=\273\213}\274\305\307\234\301\030\211\235\301\201\364\236\301\\I\016>a\221\235\301\021\242\005> I\235\301W\007q>\350\345\234\301\371\346\235\301\270\'\204>\265^\223>\344!\236\301a\316\233>~\177\234\301g\312\235\301\016~\234\301\320I\236\301\357\"\236\301i7\236\301\205\225\235\301-\366\236\301\304W\251=\235\226\235\301)]\233\301]\177\234A\367\304\235\301\315\346\235\301\215\215\234\301\217\267\235\301\263\022\237\301%\274\234\301\247\\X>G<\235\301\356\005\232>\253\032\236\301\227\366\376=\302\343\234\301\241f\234\301\213\315\202>!\312\365\275r\343c>\023p\226\301\310\035\236\301(\322\234\301*d\235\301q\343\310\274\233\305\231;4\261\236\301@;\235\301\204N\234\301)\306\235\301\016\374\233\301\235\224\235\301\357!\236\301\3166\236\3012K\207>q\341\236\301W\n\235\301\372\213\235\301\267CX\275DU\236\3017\252\377\273y\331\234\301{i\234\301\244*\371=\356]\235\301I}\235\301Gj\236\301r\202\235\301\313c\234\301\031\234#>@\361\235\301\220\340\234\301\260\225\234\301\031]\020\274\243\034\233\301\253\361?\275=gI=\266ZX>\020%\235\301\217\300\235\301`5\234A\016)\034>a\2172\276x\377\007\276\346#\236\301j7\235\301\346]\236\301\247^\362\274D\225\235\301H`\236\301\261\303\330<m\200v=DJ\235\301\276\\\330=\325\337\315<;\026\236\301\222\016\237\301\236zT:\337\022\235\301/\017j>>\222\234\301\347\213A=W#\235\301\030\321\235\301\230\020\235\301/.{=\376\345\257<\331o\235\301\241m\234\301%\222\002\276b\331\234\301\301\025\236\301\3100\235A\367\010M<\244e\236\301\345|\213>@\317\234\301l\377\235\301R\311\235\301\303\333\025=\261c\234\3017\376\235\301\023z\001<\336\256\365=a\267\235>\361E@>:M\234\301Xn\235\301\307,\235\301\177\347?\275p\220\233\301\327;\270=?\332\235\301k\352\243=\375\026\236\301\357\250\235\301 \034U>\363\266\243>\316\222\235\301A\302\002>==\236\301y\031\234A\310r\235\301\255\327\236\301\024u\235\301\360\242\234\301\217,\234\301\376\332\234A\316\000\266\275\031\035\235\301\2641\234\301\317\200\235\3016\326\236\301\r\245\234\301\207\304\235AU\354\234\301u\035\235\301\336#\236\301Kdh=\263\014\237\301C\006>>i\373\235\301u\2723=\020\201\234\301\212\325\235\301e\204\234\274j\013\006\276\036\327\003?\234\n\230\301\2413\236\301V\201\235\301\323\341\236\301\351NM>\350\355:=\253\317\234\301\273\t\234\301Y\325\233\301\246\224\235AP\017\236\301\313,\235\301 \032\234\301\241\332\234\301\351\317i\275\363;\235A\335z\235\301\007\345\235\301\r\322y>\357\265\235\301\232<7<\344\017\235\301\210|\234\301\024\345a\276R\343\234\301\0264\236A\245\374\236\301$\312\235\301\375C\233\301\240\362[\276r\342\234\301\021\344\234\301\032\247\235\301-\364\253=\227\215\233\301\355u\247\275\351=\225\275\313)\352=\354\335\235A\tQ\234\301\333\"\236\301\036u\030>\t\2363\275\355\232\274\275I\375\233\301\331.\037\276L_\235\301-\213\354=z\346\235\301=\355\236\301@\007\330=w\370~=\262z\236\301\242\n\206>UX9\276\331\036\235A\247*\235\301r\377\231>\013~\234\301\327\t_>Np\235\301\233\324\370<\271\\\236\301\202I\236\301u\332\235\301\262\254M\275\241\036\022>C\373\235\3012\357\236\301d\215\224=\343{\236\301\263e\235\301\226s\236\301\256\017\336\2749e\235\3014\367/>(k\236\301\333T\235A-\366\234\301]\253\364=\'/\235AFL\234\301\311\334\r>X\340!>\341_\212=^\217\205>\375\033\236\301\224\023\236\301H\222\234\301\2523H>,\337\233\301\377\277^\274!\227\236\301\230+-=\333\210\234\301\246\373\235\301\307/\210>L\230\200>\256\233\235\301\005\320|>7q\235\301\004I\236AyQ\235\301\333\t\237\301\"\026\237\301e\257\234\301\372\034\234\301q\215\233\301MaF\276\002\346\234\301E\224\233\301\247\322\234\301\370\010\234\301d\"\234\301\263\307\236\301[\001\235\301\354\336\235\301\204\327\234\301+}e=9\311\236\301\031\327\320\273\332)\235\301\277\006\313\273\241\000\236A\213\204\235\301\235\320\272\274\243p\204=f;\214=o\355\236\301\216\346\234\301\177\217\236\301\205L\235\301\341W\377=\025Km>\021\004\236\301\2445\236\301I\223\235\301rE\236A(Z\234\301\010v\234AL\372\234\301e\032\237\301\225A\267\275B\212\235\301\024\217\235\3010B\234\301S\2410\273\0160\235\301T\024\213>\346A\234\301\224\355\234A>{\347\275\266\003\235\301\350\030\234A^O\236\301\364[\235\301(\237\234\301\312Bf\275\234\177\235\301\n8\234A\037\311\235\301\007\004\220=qn\234A+\317\206=\256\364J>{\003E\275f\355\234A}\205\234\301\261e\235\301qo\246<\n\272|\2761\223\300\275\245\013\235\301WI\237\275<\022\236\301\324\317\207>\204\017\236Av\200\235\301\272:\235=\013\"\">\314\350\235Afa\201>t\033\001?{\227\234\301s\217\236\301^t\010>\014\200\235\301\362\376\003\274P\370\235\301\263rt\275\316-\235\301o\312\235\301u\326\236\301 \277p\275\226\210\314>\342[\233\301n&\235\301\241\214\304\2759\372\235\301\266\354\234\301\277\337\233\301cr3=\320\274\235A\267\313\002\276\025R\234\301\tr\236\301\266e\235\301r@\005>c\212\234\301\234v\236\301\3464\217>\203-\353\275\231\347e=C\234\377<M\357\235\301~\305\234\301\252\341\236\301\261t\334<\001\311\235\301\220\212\177> \004\237\301\205\226\367\275\212&\235\301.\016\237\301\016\374\004>e[w=V\326\234\301\363\240\002>\251E\235\301\005\261\235\301\177\325\235A\254\t\235At\017\237\301\351\340\234\301\226O\233\301k\247\233\301\177\000\201<\221\305\235\301\353\326\236\301\214\217\234\301\027\311\234Ac\014\236A\353\372\236A\270\357\235A7t\235\301vd\234\301\337\035\331=\305\231\236\301\217\204\264>\356k\236A\205\257\244\275\317`\234A3O\234\3017`\024<\206N1>\267\177\033>\224^\235\301\353\371\235\301\301\320\235\301x\370\234A\004\3219>\233\0230\2769r\236A\302k\235\301\273\260\235\301f|\236Ae\262\234\301jh\235A\274\021\235\301\271\202\236A\300iA\272\273\271\234\301\316\237\202\275\316\001\236\301\t:\215>\322y\233\301\252\234\241>\024\320\234\301\332\310\234\301\217\034\017=B\252\234\301g\006\235Ais\236\301:\276\235\301\304\266\236A\276\313/\276\366\361\234\301\005\253\234A\006\235\236A!o[\276\214h\235AI\243K\276j\t\006>\231\026.\277\3423\235A\366q\236\301\177e\236A\274\341\253\275}\201s?n\352\010\276\230\317\235A\363w\236\301\305\353\234A&J\033>\315\247\234Acx\235\301\211\272\364=+\370\267=/\345\235\301\306\001r>\221}@?\266z\234A0\372\236\301\005\235G\275*\251\236A\221\314\357\275\273\207\235\301\335#+\276\342\361\236A\317\023\235A\366\024\235\301\246\3056\276\374\205\274>\234$\236\301\207\351\234A\365A[=\325]\236AS\035\236\301b$\236\301\267\275\330\275C8\236\301O\223\027\276^\313\234\301^h\236\301J\327\234\301\225\222k=~\'\236\301\031\366\236\301O{\030\275x\021Y>\001\314\271=ml\014\273\360[\234A\336\231\235Ao/\236\301k^*>\340\240\234\301\353E!=c@\236\301\363*\034>vZ\236AN\317\236\301\003\256\021\276\377\"\346<\233X\236A\343\023\037>\364\334\236\301\354J\236A\204\376\233\301|\215\236\301\244\242\235\301\207\335\234\301\336\215\235A\332\212\235\301Q7P\276yu\234\301\215\312\234A\217\020\236\301\343\376\235Ae\321\233\301\240\302\236\301\220\005\237\301\265\244\234\301\307b\234\301\351|\302\275\023\347\234\301\221\004z>P~\236\301\361\367\316\275\376\353\234\301y\247\236\301\333\262\003\276u\315\241\275[K\323;K\334\226\301Em\234\301\314\237\235\301%\\\234\301\233\374y=\233\300\252=c\214\234\301Q]\234\301\205b\234\301\005,\235AH\023\237A\315I\235A$b\236\301\351\030\236\301\357\247\010=\227\331\234\301@\275\236\301\031\370\235\301\304\311.>\273\307\234\301\266\344q\276\007\265\233\301\322\000\236\301\342\324\300;c\224\236\301\347\377\233A{D\235\301\321a\236\301\004z\235\301t\331\221=m \236\301\357\315\233A\256v\235\301aP\352\275\'b\233\301}\315c:\315\2412>\316C8>\247\000\235A_M\235\301L\307\233\301\207\361\026\274\000\220\241\275,\344K<\350V\234\301\034\"\235\301D\230\235\301\340\223$>4]\236\301k\267\236Aka\033=\375RM<\346\017\235\301l\r\251=\267\3766?\005\021\237AI\316\234\301\2717\205\275\017\313\236A\313\343\355=\263\235\234\301Q\212\350=\277\001\235\301b\301\234\301\304\355\236\301,\2724\275\344\031\342>\031\243\236\301me\234\301\360d\265=\325\331\234\301\003;\235\301\303O\234\301\007\034h>d\223\235\301\035e\334\274\247m\235\301\350E\234\301\000\266\234A\r\035\r<C\347\234\301\207;\234\301\324,\260=0\243\267:\337O\306=\222\377H\276\300\315\235\301\030\247\236A\217>\236\301\267<;=Ag\236\301\037\237P=Eh\234\301x\020!\276\305q\236\301\321\243\236\301B\031\243>\010\001K>\031\354\234\3011X\241>\227\021\235\301\3551\236\301\031\274\234A/\036\236A\204\272\234\301\244\342\234\301\222f\236\301-,\236\301\357\334\231\275\232\205\236\301\201h\235A\274\021\236\301`\r\235\301\223\375\235\301\254\263\236\301\367W\236\3015B\236\301 \201\236\301}1\326=e\313\236\301\361:j>\242\260\234A\245Os=|\212\236\301ke\235A\033\017\004\276W\331\373<|#\306=\020\330\234\301\013\343\234\301\253<\236A#\313\234\301\376\300\216>\260\377\023>,\223\235\301\010\255\234\301\"#\235\301\233\242\236\301\206\254\235\301b\240\235\301\203\377\234\301:L\235\301m\024\245\275\257)\234\301PIB=\275h\236\301\217\266\305\2747\"\236\3013,\374=\270 \233\301\263\316\236\301\237HT\276h\237\234\301\010\010\236Ai:\235\301\037\204\234\301\243\222\233\301,\n\354\275\314\032\233\301T\242\235A\225\350\234\301\177\237\025>\375D\235A\347\256\023\274?\367\264\275#w\376=@\007\236\301\336b\235\301\033=\234\301c\225y>\372\353\222=\022\206\355=\373\240\236\3012K\234\301v\345\234\301\034\344Q>\006=\236\301\274\020\236AiY\021\275\203d\215>e\362\234\301[\343\010\275+\n\215=\013R\235\301Z\004\236\301\347\205\201>\002\330\235A\\\356\006>K;\235\301y4\266\273\022\317\235\301$X\236\301\243\372\235\301\265\002\232<]\226v=n\227\233\301\220\022\235\301uF!=\244\017\235\301-b\236\301\254\276\235\301]G\">\320\214\236\301\024\021\244\275KE\235\301\024\035\235A\341\357\234\301C\320\215<\200\016\235A\343\302\234Av\314T>Ei\211>G\003\360;\327V\211>\250\372\234\301\226e\234\301\373=\235\301\330\024\037>\267\370\235\301\267\014\353\274xc\235\301\257$\005\276qz\234\301GL\235\301\345\002}>\253\031|>O\334\234\301\322MC>`C\236\301#\033\236\301@\276\233\301\317\001\235\301\344\007\236\301aJ\235A\304\322\234\301\006\233\236\301\236#\235AQ\315\234\301\021\254\234\301o5\236A\r\n\234\301^o\234\301U\021\236\301\013\233\235\301f\367\234A\241\354\234A\215\344\235Ax?\235\301>\005\234A\345E\234\301[#\234A\036\215\234\301\222%\236\301u\245\234A\024\260\233\301{f\234A\350\252\236\301\302\322\234\301\3711\236\301\276\303\235\301\221\234\235\301\'D\233AJ\326\235\301\340 \234\301\023W\236\301\324\327\236\301\265\224\235\301\305|\236\301\305\304\234\301\370\317\236A\376\333\234Aj)\236A\354\276\247\275t\215\236\301\233\217\234A\031\257\233\301m\325\234\301^a\234\301`\\\236\301U\333\235A\033\013\236\301\000\366\234\301\321;\234\301^\'\234A\005\362\233\301mt\234\301\367\272\233\301\264\017\236\301z\203\235\301X\007\236A\270\201\233\301\264\365\236A\327e\235\301\342\376\233\301\n\016\237\301\006\272\235\301\274L\234AL\022\235A\265\253\234\301\265\271)\276\201#\234\301cf\236\301,Q\235\301\307\301\235AL`\236\301\203\342\235\301\363\344\234Ar^\236A,l\235\301\'\035\235A\230\256\234A@\337\235\301e\000\237\301\366\260\234A\373P\235\301\2700\233\301\002M\234\301\357k\236A)\266\235\301b\257\234\301\266\006\237\301|\223\235\301\335\313\236A0F\235\3013\307\236\3019W\233\301\325x\235A\211\323\234\301\343`\235A\000\267\233A\201o\235\301Vw\234\301\221$\234\301\277_\234\301P\024\235\301\023\303\235Aa\312\234\301>c\234\301s\377\233A\366&\235Am\212\235A\211\245\234A\026\326\236\301(\224\234\301\244\256\235\301\327\221\235A\264\243\234A~\232\231\301b~\235\301OZ\233\301#l\235\301\001\253\236\301\004\000\235Am\366\234A\323\357\234\301\243i\236A\210\272\235\301=\367\234\301\257\026\236\301\033\361\235A\002\302\236\301A\355\234\301#%\235\301xh\235\301P\310\230\275\026\217\235\301\353>\235\301\355l\235\301\361\250\234\3019l\235\301X|\234\30167\235\301\226e\236\301\342,\235\301W\346\\=jq\235\301\r!\022>\226\004\234\301\327\357\201>\354\010\237\301\337\261\234\301\206++>.\214\022\276$Z\221=D\277\225\3014\016\236\301\237\337\234\301Yu\234A\263}\027>`-\200>N|\235\301\261S\235\301\257\351\236\301?9\235\301Iv\235\301|i\234\301\317+\236\301\346U\234\301\337,\222\275c\002\235\301\373[\235\301\326\017\235\301\224\014\333=\312\334\235\301va\243=\213\025\235\301 r\236\301\214\335M\276\246\253\236\301\356]\236A\245\344\234\301\215\366\236\301\227\016\235\301\310;)\275\237m\234\301,\271\235\301\310f\236\301\375\374C\275\010\311\235\301\030\344\276<%\317\035\276C\245\202\275CY\235\301N\026\236A\315\037\236\301\362{\010>\366f\242\2756\030\344\275\334\313\235\301<S\235\301\252\346\235\301\245~t=\221h\235\301\300]\235\301\227>h>\001\311@\274J\000\237\301\376\251\244==o\323\275\273\343\236\301\373\017\236\301%\247h=\016\364\235\301\255zZ=\372\252\234\301l\315\317=\017\263\235\301\247F\235\301;\006\237\3013\231j>3\365\032\275\352#\234\301\330\254\235\301\224i\037\2762\360\234\301\316!\235\301pG\233\301\001H\362=5C\235\301 \311r\276!\351\234\301B\240\235\301\302n\234\301\020\371\202=\226\272\234\301d\036\236\301c\240P\274y\241}>\014\241\262=\302K\\>\002\247\234\301\347\304\234A\250\341\234\301\034\232\212\276\305\234\233\301W\023\351\273AG\235\301\213\302\313<d\243\235\301\223\265\234\301S\246>>w\351\365=\340O\236\301\315\250\320=\271h\234\301\333\006\236\301[K\235\301a\220\235\301\376\003\235\301&\332\233\301c\026\236\301\251p\235\301\225\226\n\276\006\260\234\301B\374\233\301\2658\236\301%\256\233\301E\026\236\301\005p\234\301a\005\234\301\341\256\235\301\225\377\235\301#\214C>\363\254\236\301\313\376<>\264H\236\301\271\310\222>\352\025\235\301\322L\235\301\025D\037\275\035\027\327\275\217\021c\275F\364\235\301|5\234\301\301!\235\301\216\371\236\301\001\0336\275\352UC>\263\236\235\301)\221\235\301\216\225\234\301\343C\234AC\314\234\301+h\234\3016q\234\301~4\235\301]\274\212>\241J\235\301_D\235\301\314\252\235\301EI\014\274\230N\234\301K\356\000>\270\374\233\301z\010\235\301\177\251\373<\352\200\236\301\206\314\233\301%\266\235\301\305R\234\301\305:\235\301\033i*\276#9\234\301\'\247\235\301\261-\236\301\334\2450=U\220\233\301\345\253D\276\227\243\373= \253\303=C\204\234A\210j\236\301\230\207\234\301D\005\350=EY\250=d\315\375\274\212\r\234\301\374\177\322<\352x\236\301\203:o\274\270\202\236\301\271\226\236\301\177\007{>6)\352=\265\361\236\301\364\021\206>\340u[>9\020\236\301?\207\236\301\034\nd>\274\344\236\3015\002\215=\323\t\235\301\203\006\'>w\333\235\301\244\026\234\301\272?\236\301\375\236C;\2647F>\231\245\235\301\205\241\236\301fP\"=\000\363\236\301\316e\236\301\032\350\234\301\350\302\220=\000d\234A\227\233R>YW\235\301Al\236\301\376\022\236\301\342B=>\352\243\236\301&\245\234\301\013OD>\035\265h>5,p>\027(\227\2748\263\235\301n(\236\301U\376\236\301_u\314<\232\201\234\301\267\243\">\227\357\235\301N\334t\273\271\217\236\301yD\236\301\325\332\226>\301\205\327=C\231\236\301$\253\315=\021\361\236\301\224\254\235A\336\213\234\301\255>\235\301\201\346\234\301b\260\233\3013\017\235\301\370?\236\301\036\364q>F\035\234\301N\212\235\301\343\232\234\301$]\236\301S\270\234\301\022\322\233\301\313\204\233\301\nm\236\301\233\202\233\301\277N\214=L\337\236\301\347\311\266=rN\235\301\r7\215= \260\235A\025\200\235\301;\316g> \201\355\275\277\031p\276\205\375\234\301\"\363\234\301\005Y\235\301\020\356\235A7C4\275\335\365\362=.\202\235\301\3240\234\3015\330\234\301\272\203\234\301M\252\235\3012\307\234\301\241C\234\301\305\360\235\301\372\373\002:_\331\233\301\254\270\235\301\302\023\236\301Eb\374=\351\350\234\301\032p\337\275\030\240\236\301Aq\235\301\317\273.>\204\217\236\301\000L\236\301\247R\236\301z\021\236A\315G\236\301\347\321q=\314K\235\301I\244\234\301A\027\235\301L|\035=A\031\235\301\340\237,>\233\271\r\274\261_\020=\361i\235\301\241b\234\301T\371\234\301\206\030\005>\317\233\273\274\264\277\005=\324u\235\301U|\024\276\334\232\235\301!\304\205>\024\343\234A\024\227\234\301\007W\231=\235\363O\275\347V\234A\331\260u>\031{\033=\345x\236A\337\247\236\3015\ti>\2066\235\301qz\261=\027\246\234\301[\274\225>(\336\235\301\033E\236\3017t\234\301\314\033~=]\001\223>\207\034\236\301\014\262\235\301\027\255\363<\251b\236\301\362I\235\301\035$\235A)7c>\223\275\235A\253\203N=S\362\235\301-R\235\301\353\344\235\301\210\036\200=\237\332\234\301\227\354\235\301\247(\300\274\337\222\240\275(1\214>u\265\271\274\212\211\235\301w\215\235\301\002\241\235\301\315\207=\276E\366\234\301Q\214U>s\302\235\301\271uC>Tu\236\301V\357\235\3015s@>\005\355r>\364?\236\301\277\307*>\270\270\234\301\\\305\236A\002\023\235\301\201F\235\3010\177\234\301\226\211\232\301\005\203\233\301\024\251\236A5Rc=\004\346\235\301\221\246\234\301\261\211\235\301=\211\235\301\031\014\235A\177\024\235\301\305/\234A\262\211\234\301\031\031\234\301E>I=\330.\235\301Mo\032>\031_\234\301\tD\n\276z\252\234\301U\"\235\301A\206\204=\314&\212\275\017\371\327>\320\246\234\301\210\007\235\301\036[\234\301/S\234\301\307\345\036>\362\302\314=\331\356\236\301\242\204\234\301\216z\233\301\342#\235A\203\247\234\301P\255\234A<\343\234\301\360\227\236\301S\352k\274B#\236A6R\351\275\023\021\234\301\260\001\273=\317\301\234A\312-\350=V\347\233\301x\374\235A\355\347\004>\272\315\234\301\036\224\234A\305\025\236\301\353\307\234\301\356\327\235\301h\310%\276\036J\233\301]8\236\3018N\234\301p\307\215\274\357\220\234\3013\335T\275z\242I<7DW\275\361\026\236A;\035\235\301\320n\235\301\0340\351=\211R/\276\t\030 >\256\251\234\301\200\214\211\275\222\244\235\301i`A>\333\277\235A\237\300\236\301\366\326\262\274\n\375P>\275\364\235A\374\220Y=R\2158?GS\235A\361B\235\301\224\330S>\206Y\235A\301\356@>\233`\234\301\232\331\213>\212\345\235\301\214K\234\301@B\236\301s\371\322=\021\001P=\323P\235\301\355\326\234\301_1\316;v\005\236\301\262g\235\301\240\200\235\301\221\2400\274\346\214\234\301\014E\320\275\312s\234A\327>\235A0\370\233\301q\266\003>R\212\236\301q\007\236\301\321\336H>\036\254#<:e\265\274eL\266\274\215V\234\301\236\020\235A\010y\236\301\354\355[=\355g\234\301\210\362J>Q\206\236\301\341\353i\275t\273\235\301\330a\236\301\233\237A>+\306Y>MU\234\301\375b5=\373b\234\301<\271\236\301ST\234A\251P\234\3016\373\236\301\354\347\233A6\035\235\301ic\234\301\273\3614\274\225\254\234\301S\330\233\301\305\321\235\301\266&\235\301R\201\234AK\337\234\301\"\366\234\301\260\310\234\301p\n\235Au\nI\277\270F\235A\313\265\000=\210L\235A\311H\332=~=\236A\271\273\235A\360\317\254\275\203\321\001\275\213$\005?A\231\235\301\206t\233\301\n!\235A\345\024\234A3\2012>\367=\341\275W\232\235\301N\026\236\301\322S\235\301M\257\236\301\327u\235\301}\326\236\301\231\224\234\301\261?\235AMCo>\207\237\234A\270\030\237\301\251K\234\301\331s$>\370\023\237Aj\304\030>\244X\234Ac\354\236A0\336+\276^\312\236\301\243\353\234Az\220\234A\227\340\233\301\021\362\233\301s\244\317\276\2042\234\301n&\235\301\202]\235A\3251\342=\317\'\235\301}\022,\276\210~4>z\324\255\275H\304\235\301\034S\234\301\335\326\233A- \232\275\007\207\217\275\237\2241\276\257_\235\3010\216\272\275\203D\235\301\201\025\221=\n+\235\301\342\336\235\301Y\241\321=\212\204\240>\247\341\234A!c\201>`Fc@PS\236\301\301\267\234\301\035Q|>\026\310\235APq7=]\335\235\301N\211\241=\0257\234\301\250\334\233\301B\316\234AL\353\003\277\352\341L@\251\330\234\301c\370\234\301Sm\367?\007\264\236\301\220\000\235\301o{\235A\266\tD>oY\235\301J{\025>\'}\236\301\261\253\235\301\271\225\236\301Xs\371=\346A\236\301\241\032\236A\333l\253=\335{\236=\335\306\032>\271\222\227>\323\322\235\301i\200\235\3010}\235A\3018->\346\202\236\301\023J*>(e\234\301\317\255\035\275\317\300\236\301M{\234\301~\251\220=3\322Y>Gv\235\301T[\260=m\n\236\301\346]\236\301\035Y\234A,\265\234AO\022\235A4\220\234A\340\253\234\301\330\331\236\3015\334\256\275\267\316\235\3013\376\234\301\224a\234Aw\235\236AI\322\234\301\016\333\234\301@\266\236\301\206\210\236A\274O\234\301\303 \374\277\030\240\234Aw\353\230\277/\327\236\301\3630!>\227q\234\301\035\312\235A\352[Q>\205\376w\277\002\014T@l\242\234\301\2215\236\301i\"\236\301\224\255\234\301a\230^\277&\361\231>|-\236\301d3\235A\332\377\236\301\302\023\236\301\263e\234\301\327\250\236\301\352\006\235\301\365\260\026>\202U\225>\274_\235AX>\215\275,\226\235\301)\307\272\277\273P\234\301\350\343\220\274\230\013\237A\272\023\236A\264x\236>\026Z\234\301\273\322\233Ad \236A\302(\234\301\251W\234\301+\237\373?\230\350\235A\200\255\236\301z\360\234AS\013\025?\357\337\234\301\342X\271>\325*\022\277\325\t\322\275\210z\236\301\013\316\234\301v$\236A\377C\250\276\364qg@\256\307\375=\263\344\234A\036]\236\301\302\322\234\301\031g\001@\224S\234\301\034l\234\301y\n\276\274r@v?r\001\236\301\222\330\023>&\345\346\276\2404\235\301-\266\236\301\327\355(\276\244#\235A\300\024x\276\214\251\234\301\337\324\003>\207\274\236\301\267\314\233\301\323\350\235\301A\270o>\223\013\352?w\220\233\301\217\367\236\3010\363,\300\352.\235\301\226\224\236A\270s\233A\215c\372>\241o\234\301\265\261\234>0G\235\301]V\236A\365\365\235\301L\261\263\2760n\235A\230\024\235AVCG\276\330\320\237=g>b\276\270Z\341\2769\344\235\301nz\234A$c\236\301\3373\234<]}\234\301I`\031\277\273\237\236A\231\240;\276<o\234\301\262\030\236\301\310\037\322>\206\336\313\276\245\\\235\301\266-T\276\367\266\234\301@E\233\301e\004\236\301\321Q\235\301\311[\234\301\n\003\235\301\225L\236\301\335\340\233\301UjY\275g\343\235\301g\333\234\3017=\234\301\207\253\234\301\366!\236\301$\315\234\301\220\332\235\301i\267\234\3010\033\235\301\217\220\334=\367[\234\3011\324Y>\223\334\235\301`\355\230>_{\234\301\366\235\235\301\273\377q>\201\220\316=\215\017\365\275K\\\227\301c\360\233\3015P\236\301\t\226\235\301\317\372\014\276\0254\n>\217e\234\301\202\342\235\301\365V\234\301\270\001\235\301\315v\236\301\021g\234\301\332\201\234\301v\362\234\301\223JY\2733\372\235\301\324D\236\301\032\322\233\301\317\324\364\274\361\240\234\301%\243*>\027\017\234\301\373\363\235\301,\353\307=t\200\234\301AK\234\301;\032\236\301$\373\235\301x\021\235\301\252s\244=\375\305\234\301\335.\235\301E\264\234\301\250\235\016=*\234\233\301\311\313%=\325w\210=\t\217!>\3425\235\301fq\235\301\307\217\234\301I\340\372=\245\250\033\276_|\372\275x\205\235\301<B%\275W\301\234\301\\\1770>\306\031\235\301\321\324\236\301\322P\214>\243\225\202>\330>\236\301\377\360\210>v\020\001>\006\275\235A\354\177\234\301\354\333\222>r\305\234\301R\316\275\275l\272\235\301=\023\031=\037d\234\301%I\235\301g\315\235\301\261\014\360\275\220\242w<eA\234\301\2111\235\301\243H\\>\376\257\234\301\200!\236\301\300\277\235\301K?\251\275C\373\235\301?w*>\r\334\233\301\300W\236\301\373\252\235\301mR*\274\333\202\236\3016\370\235\301\201\301\035\274\247D\300;\212\000\237>XC\347=\231\327\236\301I?\236\301\364\222\235\301\250\270z\274u\271\234\301\026\357G>Hi\236\301-\343\310=!,\235\3013\332\236\301R\210\242>\324B\220>F\222\235A@\016\021>\000b\234\301\202\336\235\301\211@\234\301l\021\235\301\311\002\236\301\213t\233\301\341\255\236\301\220j\235\301u(\304\275JW\234\301\317\353\233\301\233q\234Aj\034\233\301\273\220\235\301\220\347\234\301\313\376\235\301AO\234\301\374\230\234\301Lq\027>q$\235\3018\300\000>\024B\234\301\342O\">\014}\235\301\225O\234\301\3052>>\207\350\333=\374\224\306\273\334h\236\301\374\205\234\301\335\340\234\3010r\234\301\022\370\335\273xv\202>\"\212\234\301I\037\235\301\210t\234\301\272\272\233AT\274\233\301\'\372\235\301\t\370\233\301\211D\235A\022\0364>O%\235\301\255\202\234\301>\n\235\301\321\035\326;`p\234\301\021\303\267\274;\315\234\301\321O\236\301\202\320\000>(g\235\301\237\311\236\301\243\340\235\301.\021\236\301DS\234\301\305\236o\2748!\236\301\000I\235\301k[\234\301\323\034\362=\345\366\234\301\010j\021>\001.\007\275\016\003\021\274I\211\235\301\215l\236\301\261\260\234\301j\323\211>\233op>\326!-\276}\034\235\301*B\235\301\235\002\237\301\370\216\002>Q\327\234\301\024\313\235\301\374\227\222>\357d\324=Z%\236\301Wk\221>U\2111<u\373\235\301\254\317\234\301\353\3537=\214b\236\301\201~\204<\201\314\234\301\252\353\032>\350}\236\301\361\000\236\301Q\034\236\301{\274y<\302\217x\273\320\370\234\301\222\014\237\301\227^#=sk\234\301]\257\233\301\322\275\235\301\024\241\334=qs\236\301GN\266\273\231\000\236\3015\t\234\301Z\345\233\301{\315\226<\027-\235\301\275\372\234\301\030\340\031\275\017f\361\274x4\225=m\222:>\222\374\235\301g\257\235\301.*\235\301\n7\222=\376\377\235\301\003ne>K}\236\301\305\215\204=\034\010\237\301\tP\234\301Lo4>\214QW>\016\375\235\301P\352\227>aJ\236\301\354\261\234\3016m\235\3019\374\234\3013\213\235\301\260@\234\301\331e\235\301:j\235\301c\252\302<\'\230\234\301.\213\234\301\307l\236A\350\203\235\301\301T\236A$\262\235\301\362+\234\301\316\006\237\301\261\227\235\301\006\303X>\265\312\235\301h\000i>\257\266\235\301\365\242\262=\275\200\236A\315\343\236\301\000\345\201>\272<]\274\221x\314\277`w\235\301\025_\234\301/z\235\301,\213\236A\001\277\320\275>_\007>\243|\235\301\014\347\235\301\177\034\236\301\363\266\236\301\242^\236\301\226\r\235\301?#\234\301\035\360\236\301\212ao>\321K\235\301\\\363\236\301\001^\236\301_\340\005>\022\022\236\301\263!m=\272\006\235\301\312z\235\301F\n-\276\316\317\236\301\322\355\235\3012\314\233\301\331\265\235\301PL\234\301Xb\301>\357\300\235\301\001G\235\3014N\235A\227\306H>U\315\233\301\225\271&<\314\362\'<\341\222X>-\002\236Am\"\235\301]\333\235\301\327w\r\274i\322\360\275\366\212\255\275k>\235\301=\336\235\301\311\332\235\301\231\225<><\211\234\301\031\327\234\301\021\313\242=\247\222;<4 \236\301GZ\361\274\227\236f>^\233\234\301\362\353\236\301\r\354.>n\273\235\301\265om>\307\211\236\301h\003\017>\254|\236\301\366\272\235\301!\356\235\301\001\350J\276\302\216H>\033S\235\301\260\276\236\301\213\035-\2775j\235\3012E\235\301\250\230\234\301Y>\331\275\226\376\235\301\225\252H\276\326\330\233\301\004\003\235\301r\346\233\301e\267p<i\372\235\301\315\250\234At H>a\204\333;E\006\225<:\304;>\367T\236\301\"~\235\301\372U\234\301\313uV>7v\235\301\257\271j>R\177\234\301e\327\004>\272T\234\301\321\376\235\301\341x<=]\261\">x\335\234\301\001\326\343=\372\010\235\301\326\251\236A\200\177\236\301\212\333\234A\026\201\235\301\255\'\235\301\325\003\234\301\347\331\235Aka\201\276\031\247\234\301\223\323\236\301n\336\234\301\337\260\236\301P/\236A\006\254\235\301~\277\235A\'j\234\301w\226\235\301\'\351\207\274\247o\235\301\244\003)=_M\235\301E\266\323\274\305\330\234AB\342\235\301\004\314\242\2755\231(={\360\370\275+\226\235\301\321J\235\301\213c\235\301N&\236AGv\222=\232\307->M\221\235\301yR\236\301v\251\234\301\204\263\234A\203\026\234\301\003_\236A\225M\235\301%\336\236\301dKG>\312\261\234\301;\322\235\301\2419\235\301\202\373]=\035\347\234\301\005\246\215<\325^\235\301\337\261\234\301\260\270K=b\224\235\301\274\006\236\3018\233\236\301K\207\235\301+7\235\301\201\257\377=}W\233\301\310\341\233\3018\234\235\301)\3751\276\375\\\235\301\t\301\361\275\3621r<\021\007\205\2751\002\235A\212\235\234\301\337#\234ApGC>w)W\276\202\255\205=\032\223\234\301\2268\272=\271A\235\301l\240\237>RR\234A\252k\234\301\207\222\000=\025>@>h\253\235\301Q\261\227>\3377\373=i\330\234\301\345\251\234\301b?\200>-\264\235A\232\231:\2756Y\234\301\005&\315<\240\220\234\301y\324\235\301i\276\236\301?\333\006=\376h\'>\300\343\234\301\225\224\236\301\264\"\361\275\024\033\236\301n\225\235\301\021,\235\301\265\252\337\275W\375\234A\366\371\030\276\223\340\235\301V\224\235\301\351\244\235\301\331U\230>q\264\236\301\304\236\234\301\227\316`>\262\3641>\251\374\026>\343\022/=\225\205\236\301\3075\236\301\252\315\235\301Q;\272\275\242\341\234\301\223\234\017=\032,\236\301\2564\320<\315\205\236\301\357\226\236\301\021\034\026>y;\252=\213\361\236\301\324\342J>\227\234\235\301hN\234\301\206\223\234\301X\210\236\301\346\r\236A=r\234\301\032\250\235\301\203\376\234\301}\245+>\367\255\234\301\271\227\234\301\241\274\234\301\322\263\234\301\217\277\233AN{\234\301\003d\234\301>\217\235\301\014n\235A_Q\244<\220\262\235\301\275\374\r>\201\352\235\301\243\332\374=\313\017\236A\235t\235A\354C\325=1\014\367\275c\351\232\277\014\324\235\301\007\032\233\301\032\216\233\301J\362\234A<N\216\275th\323=#t\234\301;j\234\301\256k\236\301\265\346\234\301\340\345\236\301\354\034\235\301\353z\234\301!F\235A\347\3235\274\004c\234\301\034\261\376\272n\357\236\301\371:O\276\331V\236\301\020\203\266<o\255\234\301\242\227\235\301\242\003#\275\246\000\235\301\374\314\236\3012\036\235AO\305\236A\025\250\236\301A}\364=\'3\236\301Rt\236\301+\243\234A\255\317\352=\205\204\235\301#xO=\275\220\367\275\306\337+=\266u\236\3013C\236\301\231\343\236\301\317\3379>5\252\236<\3309\'\276\227U\234\301\255Q\235\301<*\n\275*\274H>\030\260\236\301\214h\234\301q\356\343<\367\304\233>\377\000\237\3019\304\350=\302r.\276\3010\236\301\344\300\236\301\265\230j>~\313\236A\013Kk\275\314\344\236\301\211\026\216>\251\201\235\301j\n\236\301\365\346\235Al\356$\276\211\242R=d\315\235\301\322x\234\301;?/=\374\225\235\301\224\304\234\301c?\234\301\271\361\211=\265\304\234\3010\343H\276xN\236\301\315\034\234\3013\030\235\301\347\324(=\353\323\235\301\020\211\233\301\014\370\004=A\236s>;\216E>\033N\215=y\255\235\301\317\226\234A\023\023\237A\265\224\224=\n\270\235\301\245~k>\250\027\236\3019\220w\274\230Z\236\3019\261\235\301\r\0273>\313\336G>\362\275\235\301\362\276\226>G\331\234\301Ut\235\301\321T\235\301W\347\234\301\233\365\235\301\242\203\233\301\311\201\235\301\031Y\235\301;\3176\275!\017\236\301.\346\235\301,\236\235\301\320\014\235\3017\363\235\301\001\225\234\301\205\255\235\301\327\250\235\301\261]\235\301L\033\236=\234\025\237\301}8f\274ed\234\301IWD>\233*\236\301\316T\236\301y\035K\275\227\'\361<\330\215t\276X\334\226\301@\007\234\301\0105\235\301\310\375\234\301\316o\330\275\313\250%\275\243\014\236\301s\367\234\301\313\024\234\301\313\340\233A\263\271\235\301\306\350\235\301]*\234\301\225\362\235\301\251x\217>\355\200\235\301\354\221\272\275\334O\234\301\344L|\276\333\234\234\301\245v\024>\005\335\235\301}\346\236\301if\035=\000\007\236\301y\341\233\301\300w\234\301\234-\235\301q\220\235\301\323\224A\275\250\211\234\301x\275\234\301\010\263\236\301\372\303\234=\357\220\234\301\301\2456\275JF\016>\273VF>\255\371\235AG[\234\301\005\376\233\301\033 \017\275J#7\275\034\177\372\273\034\034\234\301h}\234\301rq\235\301\306\323\024>&s\235\301\312\364\236\301\027\251g\274\013\003\200>4\317\236\301\314\022\237>\244t\242>\310o\235\301\305\303\235\301\254\026|>\035\266\234\301\301\3607=kU\236\301g.e>\313\201\234\301$\206\236\301bj\236\301G~\312\275+\220\274=^\357\235\301\036\321\236\301\343\350P\276DW\235\301\233\212\236\301w\005\235\301\364&\306=\310\321\235A\223\311\370=s;\235\301\n{\234\301\316\350\233\301\373\334\237\273-N\236\301\226\352\234\301\345\0319>\276\310\324=\223\370\r>\337\361\223=\342\004\237\301\244\345\236\301\326\322\234\301\267\275\327<\222\212\236\301\341\224\227>\264K\236\301F\273\304=\250\345\235\3011\322\235\301\233\030!>\215\356\250>\313\333\235Aq\353@>&\326\234\301\337\224\235\301\n\247\236A\'\010\236\301h\267\234\301\224p\235A\032\240\235\301*\337\235\301\325\241\252=\346@\233\301\311:\235\301\320\225\236\301\373\017\236\301p=\235\301L\240\234\301\241\341\234\301\252~\236\301:\277\235A\341\375\000\274\262\r\236\301\035\374\242>\221\366\234A\322\326#;E\331\235A\3226\235\301o`?>.\347\266\275\233\006\254\276\271V\230\301\264\023\236\301\256\002\235\301B1\236\301\033\341\334=q9\220=\357\243\234\301\035\354\235\301\3515\235\301\227\263\235\301c\262\234\301,-\235\301h\254\233\301\310\206\236\301\2613\223>U*\236\301\255\252\236\301L\214\235\301\226}o>\007\030\234\301usp\275\030\256\234\301\200\000\237\301\255\001\347\275\211p\236\301\027\312\233AF\371\234\301\203\244\236\301\027\254\233A\377\037\003\275\337\016\233\301\0021\234A\223\353\235\301\231u\035\275/\247\233AXI\234=\231\025]=\354e\220>l\205\234A\000`\236\301\364\017\236A \3603\276\344\325\255>\223\265\264\275\2214\235A\277\367\236\301X\016\236\301\312\333J\276\036\225\234\301\212O\236\301Tw\227<J\t\365=\306\023\235\301\261]\t\275N\327t?\371\014\235\301(\304\235\301M\307\254=\016\245\236\301M\377p>\200\357\235\301e\201g\276m\361\234\301\355\337\236A\333\001\236\301\307\014\013>\\{&@\226\312\235A\231\267\235\301_\202@\275k\261\235\301\246\037\234\301\177\247\235\301K\204\017\276\237\365\236A]\2605<\311.\236A\334\355\235A2\200\235\301\341\337z>\335\204\235\301\273\231\235A;1\276=\352\005j>\232\230\n>Z\212}>u\242\236\3016l\235\301&`\235\301\rP\355=\\Z\235\301\030\326\237={T\234\301\2025\021>O|\234\301\253W\235\301\336#m\275Y\276\276=\315\007\235\301\231Y\362\275\206\200\234\301\356\345\235\301\274|\235\301&\257\234\301w\t\235\301\324^\235\301km\235\301%^\235\301\240\266,>~\266\236\301\024F\235\301|\211\235A\333\026\233\301\030\217\236\301\006\215\235\301;\341\235\301h\300\235\301D\363\234\301Fz\355=\327\005\235\301c\330\210=/\345\234\301\305\256\035=\221S\234A\264\301\235\301\213\000P>\234\0040\276\346\351)\276\276\203\235\301\225c\234\301\303\035\235\301V\261\235A\314\321H;\365<1\275*\311\234\301\232\214\235\301\205\202\234\301\312[\235\301\244q\236\301\223[\236\3012\367\235\301p8\236\301\245:->\300\365\234\301f/\236\301\'\321\234\301\373\360\002\277X\251\233\301\337u,>\341\001\234\301\025F\235\301m\340z\275\016\254\235\301\031\320\235\301\315\372\235\301\303\237\234A\314\310\235\301}=\224<\022\177\235\301\224$\235\301\375\323\236\301;\341<=\264\240\233\301%x\265=)\311\362\274\322|\330:\216\001\236\301\033]\235\301TB\234\301g\261P\275\257q\006\276p4f\275\000\303\234\301>N\236\301\365\333\236\301\214\332\353=\371\217\234\301\214H\234\301\270F\234<\361\024W>\361V\236\301\033\310x=rOw>DS\235\301\207\244\236\301\335\304v>\005\373\234\301\013\252\021>\025n\234\301\314:\362<\t_\234\301Qv\236\301\250\211\234\301\005\n<=\341+\215>\226d\236\301\203\255\236\301!~?\276\247E\236\301\260\375\235\301\303\202\234\301\246\310\204\275-\311\234\301E\342\372\275^\351\233\301\312\264\236\301\t8\236\301Y2o;\225O\236\301\323/\234\301\256\253\007<\34507>ch\236>,3\255=6v\235\301\022\330\234\301\010r\234\301\210\227\207\275}Z\234\301\'+\377\274\340<\236\301i\331D>E)\234\301\315\r\236\301\205\275\335=j\230\207>\353\363\235\301I\364\301\274`V\236\301\250\306\234AL\266\234A\'\032\235\301\230\233\234\301\376\365\232\301\367\205\234AT\320\234ATC\233A\177\205\235\301\262\r\236A\247\351\234\301\323g\235A\323\226\235AA\240\236\301\257@\234\301\034\343\235\301\336\233\235\301\303Y\235\301\007\362\235\301\370e\236\301\303\232\234\301F\275\233A)\347\236\301\016;\235\301\305\023\236\301\260\262\234A\024\311\234\301\354\013\237\274\302o\234\301(r\236\301\252\324\234Aui\235A@\311\234\301\316\250\236A,K\236\301\222\264\233\301J\320\236A\013\253\235A-\365\235A\023Y\235A\243M\345\275\236\355\233\301\316\335\233A\260\233R=-\224\234\301\343\331\236\3019\232\236Asn\234A\230\212\235\301k\023\236Am\311\234\301\353,\235\301@*\235\301\251!\234\301$\025\235\301\324n\234A$\220\234A\263\310\235A\370m\235A\017D\235\301\304\305\234\301\241\377\233A\306\025\235\301\2775\236A\3228\234\301\313\331\234A\337]\234A\257\320\235A\311\005\235\301h\n\237\301\254\226\017\275v\227\234\301\002\311\265=\310\356\006\276\214\014\235A\004Z\235A\013\177\235\301L\023\234AV\353\235A\271\341\235A\264\356\234A^\350\233A\356\222\236\301\352\322\235\301p\317\236A\026K\234\301\235\221\234A\0219\236A\220\305\233\301\336`\236\301\2551\235\3017}\236\301\3559\233\301\0021\235\301D\303\233\301^\323\234\301\202\217\233A\311Q\235Av\t\235\301\210\223\233\301\016\022\235\301\273y\234\3015\310\234\301\350A\236A\360\356\235\301h\305\236\301 \236\234A\221S\234\301\256\205\234\301\271\327\234Ah\030\235A\252d\234A\246\347\234A\017\344\234\301\272\356\234Au\313\234\301\257\032\234A\333\344\236\301\350\273\234A\367b\236\301\201\021\236AV\270\236\301(w\236\301z\253\234\301:\230\234A\314m\236<\357R\235A\016\235\236A\022\202\234\301\274K\235\301\361\255\234\301\204o\236\301\245\301\233\301\257[\235\301R&\236\301\305\026l=\277\366\235\301\033{\235\301\340\265\235\301\305\375\233\301U!\234\301\202{\236\301\006\021\236\301:e\235\301\026Q\234\301\337\350\202>\234z\235\301\205\240\213>hs\234\301_\024\210=\241\350\235\301\004\266\236\301\027\177\202>\2623\312\274\rv0\276\001\304\236\301\307k\234\301\016\265\236\301\004\367\236\301\264$\002\274]dg>+\201\235\301\tJ\234\301\323Q\234\301\366\374\236\301\330\304\235\301\330\334\235\301\017k\235\301\320\336\235\301\261t7\275\022\306\236\301#?\236\301F\375\235\301\241:\340=\250\n\234\301\340\216\260\274\220c\234\301Qh\236\3012\020L\276\266\305\236\301=?\234\301\213\234\234\301\023+\236\301\334l\235\3011\356F= \037\236\301B5\234\301?\177\234\301_W)=\"\225\235\301\263\033\336\275X\205\201=@\001.>\352{\236\301\331\r\235\301\206\220\234\301\2039!>\207-\333=J\232\021\276\007\270\235\301\003\014\024\276\330\341\234\301\nO\207>\237C\236\301\225\355\234\301V$\016>#\320Z>\336\302\235\301\361\004e=MR\024\276\231\342\235\301\224\326\235\301G\353\034>\364\024\237\301\203\261c\275\274\"\235\301\323\370-=\241J\234\301\030\241\235\301\301\376\235\301!%!>\247\204\022>\321\304\235\301w\035\236\301/\231\t=wH\235\301?\326\235\301\r\027\234\301Ea)<\364\206\236\301\262W\320\274o\252\236\301\230\354\235\301\321\303\233\301Ukc>w\276\234\301\371!\236\301\375\243]=\021{\234\274#\tu>Eri\274\270\200\234\3018\273\235\301\271\006\235\301\036\201\003>\273\200\236\301\255\2316>\343\307\234\301)\270\000>0S\236\301-\366\234\301i\221L\274\232\251\252>\3461\236\301\020\346\276=6\000\236\301\026B\236\301\355\310\236A\203\363\236\301\236\351\235\301!s\234\301\222\353\235\301\217\220\235\301\351\030`\275\2659\236\301\234.\234\301\325\212\236\301\303\001\235A3\244\235\301\346\212\236\301\261?\236\301\261>\236\301\275&\236\301\330I\020?\005\321\235\301\231\033\250=F\326\236\301\242\020e;\0252\235\301\214c\235AE\016\030<\36674=\246\255\344?I\213\227\301\205\307\235\301h[\236A\374\314\234\301\331\353\320=a\236\310\275\'\014\237\301f\320\235A\036\354\235\301\272a\235A/p\235\3015\220\234\301J7\234\301~\351\235\301\n\277\r>\330\232\235A\211\247\236\301?\"\235\301\027}\021\275\226[\235A%vT>\225\347\234A\331\361\234A\321\231O=\210]\236\301\006\361\233A\000\205\235\301My\235\301\357t\234\301\212(\371\275[\\\235A\247\325\236\301\320\334\235A\335#\204<m\245\233\301\270\335\034\276B6\005>\262b\014?i\264\235\301\177s\235\301B\020\235A]\'\234\275\246\242T\277\306T\314=_\332\236\301\000\251j\2754X\236\301\305Oo>\357l\236\301U\250\234\301k\314A>A\221J=};\235\301\320\274\017>\002\315\244=\335{\234\301\355l\234\301<\260\223>\336\367\235\301UTW=\377\233\235\301\336\353\215>\323\266\234\301+\353\233\301\364\305\236\301\037/,\274az\250>\362\267\234\301,C\235\301\251\026\360>t\016\237\301\245\232\235Ah\032\235\301H\016\361\275]\031\235\301\213\rS>\215\021\235\3016\230\235\301aC\234\301yw\034>\243\013\237A\337\301\236\301\262o\253>\254Z\212>\206^\213=\023\336\304>[K\235\301\316\301\234\301\324K\236\301\313\375\211<\016l\235\301\361e1>\311k\235\301S-I\276Km\234\301\302:\236\301\371\023\241>-\350\r\276\347?\235\301m{Z=\300{\236\301\351\276\234\301\017\272\233\301l\001\235\301\001\017\237\301\332\323\233\301x0\234\3011g\235\301\267\"G\275\350|\235\301\3637\235\301z\313\236\301R\236\235\301\230\370\234\301oj\234\301\330\343\235\301<\303\236\301\247\034\235\301\035\356\021=s\325\236\301v-\t>\306 \235\301\361\250\211=\320d\234\301\030\323\235\301\327\201N>a\273\332=+\036\375=\200\310\226\301q\036\236\301\341.\236\301XC\235\301\025\303\241\275\334\266D>|\355\234\301\256\367\235\301cF\235\301\330\237\234\301\025\t\234\301L\006\235\301\305\023\234\301\037\333\236\301\r\335<=OM\236\301\027\320\236\301\014\306\235\301\22593\276\241\315\235\301\364\261\366\275\221\030\236\301\242\260\234\301\327Q\257=x\225\234\301\233\177\235\301\375\343\233\301\217`\236\301\r\030\235\3017c\372=\013k\235\301\275\276\233\301\370\244\235\301t\002\353=\336\177\234\301S\346J<RZr=]%+>\360\202\236\301\240b\235\301\230\354\233\301\240\201F>\013\266\304=L$\027\275\t\265\234\301\'&\236\301\241J\236\301_\312\033>O<\235\301(\000\236\301[\247s>\376\n8>\360\205\235\301c\021\210>\025\\\255=\250\365\234A8\020\236\3018\010\361=\340\231\236\301\265&%=\323`\236\301\212\351\251=\203G\235\301\250\330\234\301~\242\235\301\343s\033=(\3418>\3451\235\301\315B\236\301o\331P>QJ\235\301\251\347\234\3017]\233\301&\004\300=\340\314\235\301\350\341\314=\372_\234\301\334\305\235\301\032\204\233\301=AJ>\030\365\236\301(P\235\301\245^p>,w\331=\021\2771>w~C>\217\223\234\301\\/\236\301\242i\235\301\201\304\332<[\345\234\301\332\210\214>3\236\234\301\217\345H>\006\200\235\301h\r\235\301)Y\200>\027\267d>\212\375\236\301m\023f>5,\235\301\\\365\234\301\204\271\234\301Ce\234\301\374m\234A\237\225\232\301c\300\234\301\377\251\235\301\331.\354=\227\353\234\301\231\340\234\301\033\344\234\301\252\276\233\301\206\350\234\301Z?\235\301\303\333\236\301\020i\235\301\336\021\236\301\330\375\264=\350\274\236\301\225\371\010\275\026\375\234\301\341M\221=\311\026\235\301\006\217\234\301\2157\217>\035S\343\2754hO\276 s\236\3016\214\234\301\014\036\235\3012\265\235\301\351\375\014>\353\254 =`R\235\301\336\025\236\301^:\235\301\225M\234\301:Q\235\301\242T\234\301O/\234\301\242\267\236\301\351.X>\330c\235A\230m\236\301\032\211\234\301\312\321$=z:\236\301\213\246\234\275,\024\234A\3512\235\301\275 \'\276\337q\236\301LW\234\301x\346\234\301k 