node {
  name: "x"
  op: "Placeholder"
  attr {
    key: "dtype"
    value {
      type: DT_FLOAT
    }
  }
  attr {
    key: "shape"
    value {
      shape {
        dim {
          size: 1
        }
        dim {
          size: 24
        }
      }
    }
  }
}
node {
  name: "decoder/conv2d_transpose_1/Shape"
  op: "Const"
  attr {
    key: "dtype"
    value {
      type: DT_INT32
    }
  }
  attr {
    key: "value"
    value {
      tensor {
        dtype: DT_INT32
        tensor_shape {
          dim {
            size: 4
          }
        }
        tensor_content: "\001\000\000\000\004\000\000\000\004\000\000\000\010\000\000\000"
      }
    }
  }
}
node {
  name: "decoder/conv2d_transpose_1/strided_slice/stack"
  op: "Const"
  attr {
    key: "dtype"
    value {
      type: DT_INT32
    }
  }
  attr {
    key: "value"
    value {
      tensor {
        dtype: DT_INT32
        tensor_shape {
          dim {
            size: 1
          }
        }
      }
    }
  }
}
node {
  name: "decoder/conv2d_transpose_1/strided_slice/stack_1"
  op: "Const"
  attr {
    key: "dtype"
    value {
      type: DT_INT32
    }
  }
  attr {
    key: "value"
    value {
      tensor {
        dtype: DT_INT32
        tensor_shape {
          dim {
            size: 1
          }
        }
        int_val: 1
      }
    }
  }
}
node {
  name: "decoder/conv2d_transpose_1/strided_slice/stack_2"
  op: "Const"
  attr {
    key: "dtype"
    value {
      type: DT_INT32
    }
  }
  attr {
    key: "value"
    value {
      tensor {
        dtype: DT_INT32
        tensor_shape {
          dim {
            size: 1
          }
        }
        int_val: 1
      }
    }
  }
}
node {
  name: "decoder/conv2d_transpose_1/stack/1"
  op: "Const"
  attr {
    key: "dtype"
    value {
      type: DT_INT32
    }
  }
  attr {
    key: "value"
    value {
      tensor {
        dtype: DT_INT32
        tensor_shape {
        }
        int_val: 9
      }
    }
  }
}
node {
  name: "decoder/conv2d_transpose_1/stack/2"
  op: "Const"
  attr {
    key: "dtype"
    value {
      type: DT_INT32
    }
  }
  attr {
    key: "value"
    value {
      tensor {
        dtype: DT_INT32
        tensor_shape {
        }
        int_val: 9
      }
    }
  }
}
node {
  name: "decoder/conv2d_transpose_1/stack/3"
  op: "Const"
  attr {
    key: "dtype"
    value {
      type: DT_INT32
    }
  }
  attr {
    key: "value"
    value {
      tensor {
        dtype: DT_INT32
        tensor_shape {
        }
        int_val: 1
      }
    }
  }
}
node {
  name: "decoder/conv2d_transpose_1/conv2d_transpose/ReadVariableOp/resource"
  op: "Const"
  attr {
    key: "dtype"
    value {
      type: DT_FLOAT
    }
  }
  attr {
    key: "value"
    value {
      tensor {
        dtype: DT_FLOAT
        tensor_shape {
          dim {
            size: 3
          }
          dim {
            size: 3
          }
          dim {
            size: 1
          }
          dim {
            size: 8
          }
        }
        tensor_content: "2\n\370=g\351g\276\222\020=\276\254v\n=G\363\003>xd\210\276\007(\215\276\357\312<\275Z`\231=\nU\204=\001x\361\275\326J\233=f\304\313=1\271S>\234\3129>\313\010\226\275\267\242\367:\203\266N>\333H\007>\006m\333=\313\366z\276\203\217&>)\353]>\006\300\211=\023\237>>\307\033/\275\3111\233\276\033\351?\276\n\301\371=\261\3176>\204X\275\276\246\035\364\275\n+\t\276d\370D=\333z\254\276l\216}=~*\212\275\372\330\316=\323\214E>\004\n\270\276\034\344\223\276\264&L\274\343\341\334<\241pU\276\255! >\307\300\234\276\2047$\276\207\267a\275\244\2313=X\230\220\276\214\357.<0g\023\275\224\316;\276\310|\005\276\275\210x\276n\375t\276Ac\207\276&F\312=\273\271\020\276f\217\220=U\312\014\276\242D\252\276\2760A\276\277\007\222<T\375&=Fs\250=<\367k\276\306\300\216\276]&\260\276@rU\276\242\2716<\305W\224\276"
      }
    }
  }
}
node {
  name: "decoder/dense_3/MatMul/ReadVariableOp/resource"
  op: "Const"
  attr {
    key: "dtype"
    value {
      type: DT_FLOAT
    }
  }
  attr {
    key: "value"
    value {
      tensor {
        dtype: DT_FLOAT
        tensor_shape {
          dim {
            size: 24
          }
          dim {
            size: 24
          }
        }
        tensor_content: "3z0> \207@\275\234\323\250=\353\3265>\230\027Y\275*\020\225>\327PZ\276\302\204\322>\255T\013>\016j\217\275\t\343\"\276.\005\217>l\003]>Z\021\306=\316\346\276<\315\\n\276\200\232\364=\214&>\276\265zq>o\207\355\274\335\327\030>\352~ \276\204|}\275\271\204G>yv\225\276\215\314\222>\274\301{\276\322\313\246>S\370\230>\366A\226>\374*\233>\026\356\202>8U\271>\305\313\225\276\234\272Z=\2664\251>\032cn>d]}\274J}\231>\353D\244>\247=\214>r\377\035\275\207\277\203>m$\317\276\202\270\235\276\264 \227\275\372\373\216\276].@\276\265\374\202\276+\263E\276x\026\021\275\230|\000\275Z5U\276\"\221\205=R\324\366<\314\323\256>\222C\317=\037\344\205\2764*1\275\014 \205\276\354=x\276\206R\265\275A\273e\276\030\311\210>HL|=\366\001\236\2766\376\243>\211\003\200>\261CX\276\257s\030>\022H\351=\336\336\224>\314\242B\275\010\214\232=\310\214\241\275b1\233\276\370\351\216\276\232\310\301=0\301[\275\003$:>r\227\376\274q\006\256\276\3661@;\217\272~>\264@\314=\270R\233\275Ms\000>\370yB\275.\205K>\216\347\243\275\nA\202\275\306\347\331=\335\022\325\274v<\314=F\273^\276\036W\332\275KA\364<\320\345r\275\265G\260\276\206\366\312=+.D\276&7\231>\353i1>\006\255\204>\247\304\226>\342\026\306\275]\247r\275\026\363\'\276L\223\256>\313\201/\276-\215G>\250\255]>\252F\327\275\216\311\221\276\006k\260=i+\231\274dB\031=\331e\027\276\034\342\222>\305\352\307\276#\001\352\274\002\307+>p!>=:\254\226=(\2423=T\222\004<\023\202\212>VW\227\275p\351\233\275D\300\371\275+Au>*NU<x\337\311>\264`\027\276\351/\207\276\2666\317=,\202\253\276\017\315Z>\026\200\374=\321\302\'\276L \220\275S\010$\276\000v\247\275\270\032\323\276\337\031/>]\017\264\276\341\251\205>\240I\203>\002.(\276\322\271\372=\230\320e>A\245\216\276\254\304!=\206!\327=\034{y>\032)i\276\017u\\\276~5\237\276\'\247~>\010(P>VtS>V\330\217=\332\354\362\275\256\230\271\275\231\305\010\276\034\206\232\276\326\016v\274\220%\307>\265p\270\276Z\225z>\341\312f\276,\330!\276\376F2\276\325\277+\276VP\250>v\022\256>\021\277_>*t\247>\316\322\303>\004u\235>\013\357\021>28\325\275\252y\210>\303:\026>\n:\032>V\261\216>\002\372\260\275m\227I\276@\275\342>\270\227\265\276b\215\313\275\271-*>i,\037>v/\017>\325<\003\276)\0171\276\004:\242\276}\\]\276\346\375\276\276\242\030\253>\347\034C\276Dd\034=\023X\253:\0003\017\276bD><\244!\241>#^\303\274\036i\212>P\200\204\2750j\217>\375u\206\276\003\301(>\177\242\031\276\212\237\255=2\203s>\304\246~=ux\016\276\344O\226\276\353v\225>\267\232\007>\371\337\201>\333C4>\024\350\217;XQJ\275\305\016\221=\037\363\205\276\314\323G\276\332\272\317=\352\237\251=\312c\202=\2404\203\276\316\004\270>\034%\201\276\021\324#>:\t\313\276*\354\200<a\3124>\352=\234\275\246\225\240\276\322\023r>\232h]>G\300\021\276\334d\005\276\362\241\342\274\360n\203\276\276p\222\276D\333\271\275\275\277\200>\265H\021\276\270)~<xP\253>\221\247\204\276\216\216\t\276L-\347\275\264\305}\276bb\"\276\375\325\223\276\232\021\317>\342E\257>$\346P=\335KU>G\217\000>f\201\232\276sP8\276\354\200\223\276\375O\222\276\344k\310\275\027<\000>\320o\204<\360\350\201\276\3255\026>\311\360v\2765\346\324\274\034\"}>\316\371\202>N\256\202>\n\226\352=yfa\276mJ\213>\276\027\250>\267;\242>3\034\222\276\243 \002\2767<\r\276\354\204\224>\017B>>xN\007\275G\3137\276\342\221\360=\325\016\260>\220b\204\274V\\\324=8\3168=6\034\274\2763\274\"\276\342\212\234<V\223\202>\247\\\236\276B\224\253>\232O+\276\232\266\317>\342\223\243=Gfe\276v\263\277>\027\220\024\276ag.\276\333|\247>6n\014<`\244\266>\3051\200>~\241\303\275\252\242\324=\026\271\321\276\274T\226\275\370\253\347=\006>T\276\230n\021\275\310yU\276\320f\215>hA\202\276Xj\216;t\257l=\301Ba\276m\263\236\276\307\333\222\276\326\302\207>\314\265\224>\312\002\237\275Hm\245\275\232C\217\276A\2725>\2144\000=\314\033\275>\266\177\310\275\003\347\243\276Z0\241>UY(\275\320j\365\274k\367:\276\\\253_=\200\254m=\032\317\327\274\354\td\276Z\276\303=\0259\227\275\227z\036\276\336e\\\276\256\222\332\275\203N^>,\263\233\276\267\250\367:\312\034\366=\333\232c\276\347WS=G\271\030>\355hx>\262\3253\276\321\343T>\301\351\222\276\316\002k\274\276\332\007\276\200\3741\276vX\026\276\272a\220>\270\276\t\275\003\351(>\322!\245\275\2619\257>i\006q\276\334\255.\275\301\314\252\276r\215\264=\324\376\027=\252\376|\275\367\202\036>\331~Z\276(\270\374=<h5;\326U\025\275\331\211w>\335R=>&S\222>\226]\224>\245[w>z\211I\276\312*7>0\233\013>\342\314\366=\211\202\224\276w\014\010>\374\3266\275\257\032\271\2767\261\207\275\204cO\274\250=2\274|\331:\276q\224%>\t\237\213\276\030\263\226>\212\322m>|l\311=\235\3109\273Z\340Q<_\225\200\276\364\372m\275]\303i>\330ek\276\017M\177\276\271\357\260\276a5\210>E\021]\276\204\347o=\226\234f>%\003\325\275\236\317b\274*\242\246>\241a\003>\227O&>\340\305\317\275`\037i>\207\nT\275:\212\341\275pdj>:8\222>\200kQ;\234R\322>\017\374`\276\234)_\275H7]>\306\375e>\264\271\233>\231~<\2768Ob\276\34690\276\312\222S\276:\227\361\274\262n;\276M8\307\276\322\021\177=\270\373\303>\030\031s\276\2247\304>X\302c>l\336I\275\263\377*\276\363.\230\276\304\271X=6\370\205>\200qo\275\254MV\275\263\220\213>\267\312\202>z\342\351=\251\246\n\2762\322\243\275J\216\241>\377H^\276\223Q\243>\246\210:>\024{{\275pi\277<\353\325\032>\320\221\341\276\032\303@\276\3637\205\275:\267\216\275L\023\006=p\247f>\341R\222\276\003n\222\276\333\3633\276n\273\271=\017\336\220\276\350+K\275wTk\2753\371\215>\"\010\372=\306\247x\276\357{\202>l\325L\275\225V\215\276H\326\207\275\264\230\375=\312\221o\274\270x\031=L\031 =A\014z>\274\356\260>\366\305\262\275\257\230`>\323\025b>F\316\353\275\024H\033=\2126\362=\034\335\037=t\324p\275\376i6\276\370\3353\276\342H\256\276\206\274\300\275\n\343W\276\3568\035<\325\256|\276\326\363\202>\250z)\276\270#R=\216\212\253\276\032$\364=\226\331>\276\374X\251>^\265\277\275\271\027Z>\224Y\320\276T\270{\276E)\204>\014\276\236\276\006 \353\274(f\224>\360\024\342\275\264*\225>j\300$>\324\023\001\275\202\311\223\276\'\305\203=\252%\327\275[\334A\276\347\023\210=\260O$\275,J\254>\344\352\242\276\237\307\243\276mns>\301n0\276\245E7>\206\205\274\275\027%y\276\353\213(\276i\r\002>\356\017\371=\272\0202>\266\374\241=:\373\364=jar>\332I\330\275\216\260W\276\277\236/=\037V!>\022\247\266\274\345%U>\375|\203>\311|Z>eKP>}\304i\276PN5\276J\002r\276\364\216\014\275\014\375i\276N\224\215>>P\216\275\004%\206>e4W>^\304\307\275\004\302\264>\230\tm\276\260f\212\276\362\271^\274*\326K\274\362*\323=P\336\244\274\004\217;\275\356\310\222>d\215\336>`\316\212\275\337#w>\022zp\276\224~a\276"
      }
    }
  }
}
node {
  name: "decoder/dense_3/BiasAdd/ReadVariableOp/resource"
  op: "Const"
  attr {
    key: "dtype"
    value {
      type: DT_FLOAT
    }
  }
  attr {
    key: "value"
    value {
      tensor {
        dtype: DT_FLOAT
        tensor_shape {
          dim {
            size: 24
          }
        }
        tensor_content: "$\304\261<\000\000\000\000\000\000\000\000\2367\370\274\000\000\000\000@P\374\273\365\230\314\275\301\033\215=\365\230\314\275(\010,<yh\021=\211\234\263\275\202[1\275\226\317\325<\232!\016\275\202$\027\275\000\000\000\000\365\230\314=\372L\004\275\365\230\314=q1\210\275\365\230\314=\352B-=\271\226\241="
      }
    }
  }
}
node {
  name: "decoder/dense_4/MatMul/ReadVariableOp/resource"
  op: "Const"
  attr {
    key: "dtype"
    value {
      type: DT_FLOAT
    }
  }
  attr {
    key: "value"
    value {
      tensor {
        dtype: DT_FLOAT
        tensor_shape {
          dim {
            size: 24
          }
          dim {
            size: 64
          }
        }
        tensor_content: "\342\274\034\274\224s\244\276\355\215\201>.\020G>\252s \274\344\256j;,v9\276\\\217\276;#\312 >\006h\207\276t\264\361\275 \016G=\354\207\245\275\205H\026\276^\332\222=\213g(\276\234\354\200;\355\010\336\275\340\360\323\274\351\375\006\276_\267(>g\327\010\2762S+\276To\304;\346\225\246\275\276\202\266>\030\201\212\275\3114$>>K\r\276/!\025\275r\240\226\276Z\327\322=\332\030\263=\235\"\020\276\014\357\027\276\321\034L>\236\2142\276@z\273<\3260\021\276\262!\231=I\275\211<P\364\010\275\237\270\211\276\364\354h=^l\250\2754M\317\275\377\342\033\275&&F\276<\347\016\275\016\375\200=yw\345<\225E\241>DD\006=\2271\016\276\346\221d\276z}[\276BB\244=\216\363+\276\344\337L\276;x\361\275SE\246\276\345\345\264\276} \007\276\373v\"\276\2204s> T\000\276x\362\241=\004O\002>\350w\016=|\037U>F\374T>\\\301~\275J#\305\275Z\331t\276u\307N\276h\357j=T\275\252\275H\'\006>H\rm>\000\036\215\272^q6>\024C\">\360jI\275\332\0075\276\334\372e>\370\3571\275\322C\000>\352)\203\276\254&\326=\310R\372=\274W^\276\224A\001\276\"\200K>f\311a>\000\230\332:tpX\275\262\3448\276\020\275\233<\200\223\343<p\247\322\275\344]\327=\356\251w>\210\016\030=~*a>0\223\372<*Tw>\034\345\335\275@g1\274\244_\001>\263By\276\034\254\347=@\331/>\004\nR>\250~\351\274\215\263\026\276\365\002\203\276\346\342 >XQ\230=pC\267<\204*\007>\321,d\2768\211\014\275 m\277=\262\002\246\275X|\232=djK\2758Sp\275\326\030|>*\\\225\275\270p3\275 \315!\274,\376_\276\316,U>\300[\374\274N\354i>\220\302Z\276\250\035v=\350\\N\276h9\327\2748z\212\274\024\207+>\302\363r\276\221\tf\276\206x >\275(G\276H\327v\276P\0356=\230\374\010\276\240P\217\275\354\315\'>\346\314f>8\257\251\274\200i.\276\003|\000\276z\356\027\276\"\243\336\275\216\375\025>L\254\023\276\230\266\345\275Pt}\275\264}u\275\270\315z=\023\373\200>\324\326\006>0Vo\274h\230\037>;\211\200\276\275\323Q\276@\265\254\275\340\303\317<\360k\242\274\030\357\200\274\326D`>\272rv>\200\354\006\274Z\232\002>\370\341\017>\236\371\364\275<\362=\276h2D\276(>\361=\272Zt\276F\232\030>\260o\326\274\316E\r>\223j\013\276\340\335\206<\300\334x\276\022t;>\246G\204\276\"])>\302\245\365\275\357\203N>]\227u\276\002[+=\200\347\376<v%\211={34>\202\332\356=U\377f\276\326\237\275\2757\343\257\275y.\201\276\216\273~\276};\374\274\361\010y>\342\236\207=\205OT\276;\252\007\276\352\024f<@A<<{\302\250=T\200\327;\272\212\321=\307_X\275\201\351\223>@\377\365\275Z\006e\274\247\352\021>\335\321\314=\313\3266\276\367/\313\275\362\016\200=R\322\336=\257r*\275\370\365A\275J\2706\276\240qx\275\356Y\321\275D\2373\275\217\265&>\372~\030\276D,]=\010D\377\275\020S\247\273\306\024h\275f\352\256=\321\322;>\355G\250\275\350\246e\276*u\253=:g\333\275\0336\004\276\177\312\225=(\350\024\275M\367u\276\313\310f>N\355\327=\206\313\262=\200\314\215\276I!\235\276C\343\316\2754\t\256\2754g\002=\026\370\334=0\353\272= \332%=\334\013\033>\374\216\343\275\334\031\315=\024@\243=^?\355\275\324\202\355=\036{X\276\240\3719\274@\345\324\273\200\322\217\275\300\362\345<NK\005>\034Ig>\004\225\215=\210\036\203\276\354g\271=\226=\027>.\240->W\320A\276\000\314u;l\252X\275\350\022|\276P<\255<\360\307U>t\001\226=\324R\364=f\221p>\353a}\276\202\016\024\276\200\250\000<@x\\=\334\253\345=\205\226C\276\200nu\275\240\016\372=|\257\206\275\341\230#\276\226\373->\211\017\200>\036\205v>(\021\t>Vfi\276,\273\'>\320\217\201\274\032$\014>p\210\344\2744\206U>4z}\276z\254\017\276\320\232\224=\266\224E\276p\035\271=\234\313\">\312\326E> \332\002\274\000G%>f\217|>\360\250\276\275\230\200N=\244O\302=C\247\205>\324\267\306=\340\214L<\257w\214>\335\334\335\275\243b2=\337Ry\276\326\265\217=\007/_>\222\037\372\275@mT>w\2742>\326$$>\304\251\027=\233\327M\276\224=;\276\316f|=\373\nK>\311vD=\355Hi>y\255\231\276\320\362\352\275\357g\217>\256\t\024\274F\213\326\272>\252\316=L\020\300\275\313\275(=\034\273\236;\n\023\222=\351\337j>\322\036\356=}\345\307<4\n\032\276\307\361g\276m\335\265\276\353\324i=pR\017>C6j>\023\005\205\276i7&\276K\376\232=\302*\306=A\370\224\274\214\332\323\275\250\246\035\275[\222v>\323\341m>L\001\327\275\316e\032\276u%o>\326L\360\275\232B\267=\257Vu\276\207\036F>Uzm>\206\014\034\276\313\245\033>\317\360\255\276_\010J\2750I\322<\377\3717>9\266\305\275\000\r\323\275Q\202\005>\021\224o>\350\236\216\276a\245\t>|\275\273=\326\243\216\275\340\274\001>\327\373\306\275\254\370\r\275n\301\200>z\025\317\274\310\317\262=3\013x=Z36>R\261\262\275#\201\231\276\2020\340\275\226\350x\275\245\022$\276\225\2544>\354\365\237\276\260\005\216=\245P\017>H\275\n\274\230\215\251\276\037_`\275Q\344$>@\225\002=c\027\022\276\372\342\344\274\215Ub>\322F\313=\313\"\210>ys\022>\013\332\335=\274Z\212\276+j\033>\204\276\366=t\300\314\275D\033\037>Z,o>VQ\034\276\216f\352=\021Q\r\276\030\347\304\275%\266/>\033\301\224<\262\367\262=1\017\026>\377\210\253\276\336\202^\276\344\255}\275e(\007>\360\336w\276\255\366W\276N\372\320\274\262H\246=4VB\274x)w=\211pY\276rF\237\276\316\302\263=-\327\017>\314\r\212\276\006b\230=\031N\242\276 |>=F\245\350=\216\'v>u)\214>\004R\360=)\302U\273\034\250\032>\311~G>X\351\253>\236r\256>\344\367Y\276\032f\230\275\236%\'>\007\2609>\013\255\177>b\325\203\276Z\377\036>\242\350\336=\324*\217=\374\025=\276hy\215>\367\354u>RF\212\276\207\246d\275\3436\216<H\355\003=\016\245\356<\242s\213=x\230\212\276\005\"\253\276\320\260b\276\242\233\207=:T\266\275\2673\250>\004t\350\275\340\327{\275\007\372\002\276\367\032\001\276 o$\274N\334\241=\"\n4\276\232\r\370\275\205\271}>\230\031\372<\022-o\276<Zs=\235\266\213>\376\360\346=H\242&\275{\227.=\365\356\r>\360*I<\347\3205\276,\006\225\2767\367!=\337^\r\276\242#\251=\244\203\301\275g\205\005>X\240~>\220\243}=u\205`>,hC\276p(b\276Xqt>T\230\325\274\000yV<\304#\276=\200\276\233<\376~\250\275\314\346-\275\021\340\212=+,\250>\210\360\362=\220\352\017=\366L\014\276\262\267v>\300F@<\300S\303\273\206\305&\276\"\311{>P\217\214<\227\317\034\276\314\341\204=\342=\332=6\310d\276&\245\210=\333]\034>\200\215+=H>\344\2749\374\022>/v_\276\257\232\304<\177\0160\275\341\251\322\275yw\313<\232\033\202\276\221\362\370<\253M\224>0\030\220\275>\343\234\275\234\016`\276\332(C>D\032\265\274\007I\225\276\0254x\276B \253=\352\355\217=ha2<\306\251\353:\314\222\246\274\3706j\276^\027\275=d%\217>\t|\021>\200\376\371=/\363\345=Qb\203\276\330x\032=\244\332\r\276\265\004U\276:\377\327=\221\021\223\276\274Y_\276\340\022i\276\025\334|\276\230-\354\275\233\263(\276P\2106>S\245\033>\0346\022\274\200\330\221\275\251\017<\276\316\273\262=\253\207\031\276\322\311k>\244\254`=_\343C>1D\241\276\270}\363=\020\356.>\302\225*=u\353}\276\000s\305\275\317\263\t>\204\377D=G\207\206\276\2244\000\276\217u\010=/_?\276M\317z\276\346\322\374\275+XS>`\307\017>\274\232\261\275\333\313@>]\334\035>\225\205h\2763\215O\276\240e{9\266\227\377=\367}6\275{\211u>\272\260b>\265\222j\276\266\000\211\275\010\242\372\275\210\365\364\275\370N`\276k\007\240\275\344:\355;\207P\204\276\317\0046\275\237\315T\275\235\220)\276~\335\312=\212C\261=\216C\352\275\325\333\037>,\223!\274\245\370|>~\277&\2754\261\221\275\216B\322<\000\340};\253\032\247\274\230\365\350\275\255=\214\276\\\260_>\203\306\267\276\232\202\250\276\335\354E>t\177\010> \313\243=TD1=\313\247<> \021\225\274\261\254 >W\331_\276U\257\013>\312\352{\276\311]\010\276\240\332\221\276\227{\204\276.d\376\275\264\223\311=\376\366\232=%{\006>\371\247\210=\254\233>=\354\2330=\024w\366\275\035=j\276\360\233\224\273\017\331\316\275/\243}\276\022\251n\276\266\323\006\276\024\370(\274%e(>\033x\027>jc\237\275\243|\234\2765\311\276\275\206\366\231=<\253G=+\340\201>%\312v\276\025\2531>\236\300\035\2760\320\374\274vY\207\276\036\315\247=\232\2250\276\325\340i>\332\372\361=6i\303=\274Ma>\323\211]>\312\024\n\276X\365\362<\021X\213=\231\254u\276\2017U>D\024\261=VnG\274\226\260\205>\205\271\217>x\235\227\276I\205\224\276\007f\035\275:Z\310=\375\013x\276\007\307\263\275~S\200\276h\2272<\364\227g\276\234\033\n\275\313N\215\274K\312\201=D\274\356\275\032\254\361<A\245\t\276\020\023@\275\256\377\314=\320e6\275&4\266\276n\273H\276\224\210\204\276\336\362\366\275\006\301\204=\243l\030>,\264\307\2755\201+\276\270\\\212<@;\370\274M\312\035\276\336\324\264\275\230\375\313\275\034\260C\276\302\360-=R`\000>\3558B>\263\314\233\275.\035\365=:\004V\276E\314|\276\224\365F=\231\326\027\276\252o\207=.\301P=@\266\276<\344\2134=\260\321\376=\212_r>tS7\275\273\307\033>4\207\'\276p\326\371\274\"O\013\275\377%H\275\311\0140\276:,\373=\212\002\377=\014\224\330\275\230\300\276\275\372\016!\276)\273\234\276\346\307\300=S\334\205\275\242e\255\275{&\316=\206\202\346=\\\315n\272\245a$>5\272E>\205\207Z\276b\371\225=\035\016\315\274\252\207\231\276\316u\214\276u\303\314=\214 \323\275\350k\367=\357\361\023\276\343\212\367<\322\250\200\276R\334\235=\344\017\022\276\342\326l>|\213\242\276\203\007\'>tPq\276?B\013\276\255\007?\276N\252\211=\316\231\225\276\225\3023>\257I\263\276\270\217K>\270{\356\275\324\237\203>\021\250\027>\324CG=L\344\027\276\\-{=\324\366O\274\214\352\374\2742\326\231=,\352\241\276\205-?\276\274\2561=\033\3633\276\374wF=\342J\206\275\354\276\020\276\'\364$\276\260\223\316\275\272\277\016>\332\265$\276r(\335\275\230\261S\2765\247]>r\016!\276\353Q2\276\n\321W\275B\324\234=\357/\246\276\326\035#\276\010G\235>C\237\247\276\031K\374\272\204\014$\275\000vm<\204)Q=\350\331\223\275 \205\'=\362\261\355\275`f\310\275\351\r\007>\3549\256<\226\354\205=\202\3726<H;\236\276&h/\276\313\255\200>\0008\225\276\374Mp\275\304?K\276\274\332[=\231\315B\276^l3\276\013\227P\276\247uY\276SR\212\276\364`\202>\306\307\256\275\360=]\276\021\\<\276\234\224\020\276\177&\027>V\373\242\275\310\225\266\276d\300\300=\254\253\241\274\251\370_>\023\363\021\2766\214\210=\272\274\263>\030\347\'\275P\037T\275\350\021\223;\235\352H>\206\330\264\276\322\323\016\276\226\324\265=\317\231Z>\210\235\240\275\212i\350=\302\0201>\240`c>\300\227y\274\256\226\032\276\342r\360=\244e\013=\227X\033\276\224\022\t=}\211\014>z+\360\275\366S\302=\333\363U>b\227\305=H\250J\275\265\313A>\256b\227=\374\364\320\275\nC\002=D\021]=IzF>\216+\371=\231*\030\276\250-q\274\236\276\224\276O\275\022>\255\262\363\275\000G\325;#\255\212\276\"\351\272=\036\254F>\346\0130\276\201\315x\276\036N\261=\377\230\n\276N\323\357=\201m\'\276\371\254\205>\026U\226=\242n<\276Z\217r<3q\016\276\n\212\201\276\264Ih>?O\221\276\371\255Z>\355\331\233>\211\353\362<|<E=\351J \276`N\202>\225\264\206\276D\340O=\335\360L\276\351p5\276\304\226\220>\r\203`>\034\276I=U#b\276\377\0016\275^\310Q\276\275\2266\276e\257\363\274\322\340J\276\021\350\201>fFa\276\305\225\003>\346\206x>\000(\353\273\005\236*>==\013>\262e\265\275\306\177\211\275\265\n\301<\206\020\307\275\006\306M<\345\341\037\276\354\341\256\276\246Y\312\275\357\020\030>\004\003Z\274\272\302S:\277\255\005\276QI;>F\341\374=\031\030\206>\313+\013\276\337|<\275\2406d\276!\321V\276\217\003\226\276\3250\334:\340A\262\276\312}\016\276=-\035\276\rs\247>__\323<U=7>RJ\024\276\254E\022=\351\376>>\202\333\335=\3112T=Es\036> \267T\276\245Kt>\014\322\033\2750BX\276\347\020F>\220\231\270\275\036\206\230=\215\rD>\t\367\212\276lqX\276\265\001\264\274(^\r\275\177k\234\272\177\364\226\274\345\236\025>\344y\347\275\014\037\016\275\177\203;>\016\315_\276H\323\340\273\322nQ\274\274\331\"=\305\226\006\276\3640\024=P>q\275\030J \276\341%\266:\244b\026\276f\3157\276\321\250\025>\307\2215\275\223\262\233<\3150X>\320\351{>\251\350\030>U[P>h\020\177\276#\243\031>\201\354{>\206\360\213>\034\006Q\276\004iZ=\252\361\243\275\337\353Y>\\\335\224\275\177\250\021\276\334\317\245\275\003\\\234\276^q\252\276|\271\305\273@\256i<:*\276=B$\337=\323\362A>a\355?\276\240\207i>\320\310\304=Pe#>\n\314\'>tS\312\275\350\234E\275\336AA>(\342\234=\004\010\225=\300\227\207\273@\364\315<r\2662\276\017\204\177\276\230\215\247\274\356\317\277\275|\032P\276vR\010\276\364\316I\276\250(\246\274\312\274/>\312tr\276L{\026>\214$c>\376\260j\276f\000C>\324\323c\275P\334\256=\000\266\024\276U=\200\276>_\261\2758L.\276\360\t\324\275\326w\277\275\004\223\305\275\204]\244\275H\205\177=@\3072= \333\313<:\354s>BS\025>\206\036\217\275\222Y\027><Zf\276\226\2757>\364\267\002\276n\313O\276\252\277A\276\374DV>O\177\203\2768\275\206=\346\370\017>]\233y\276\032\276|>$\335\362\275\340e\221<^<w>p\376\216=\024\372\221\275\364\343\203=\010\357\253\275\276H\021>p`\000=\330\200S\275\356\033I\276Q8\270=7\254\267\274Y/}>\200A\230\274 \370\311<\0222\254\275\036\373\210=\200\214\272;\376\276\263\275\376\202i\2768\342\223\274\310\354|=\270\027\230><\210C=\375\311#\276\014\006\201\276\325\0011>h\017\020>\272|\201\276p\245\'>\327\352\035>\300\262}\275\267\2728\275\n\003\033\276T\312\305<\204\254v\276\230sV<\337><>W\214\244\276D\322\014\276\033J#\276\004\241%=\024q\336\273\217F\206\275\370 \032\276Lv}=\212\233e>\004Y\243=g\362\017\276&\203\340=H\230\212=o\\t>\324\021\001\274Q<:>\2164\035\276-!\261=\264M\244\275\370\254\023\275|\244n\275D?\257\275\2156)\2768v\376=i\351\002>s\261\001>W~M\276L\330w=\307\313g\276\202\374\376=c\2304>\327\003j\276\317\311;>\245\266v\276\305\216\230>\316\231\306\275ryx\274\374\254\325<`\2537\275\270&\372\275\037Rd\275\311|~>\007\372\263\274\216\037\214\274\r\266W\276\214\027\024=\320!L\276\220:\203=@v\337=\352\3054\276r\341\224=\247\251i\276\023\017\016\276\024tD\276\330w\252\275\357\305\355\274\'c\210\276\256\303\342=\370\354\t\276\322P|=z\324\251\275\214\376\345\275\301\204\035\276\021\330|>R\254\032>|\3760>J)^\276.\244\204\276\027\177,\275\223/\223=bZ\301\275e!\206\276\300\210\001=\340\202\277=\270E*\275\025\344j>\251\376\377<\335&\010>\335.C>\257QC\276\342[\233\275\247\333\000>\014\255I=\303\340\036\276Z\244\376\275\224#k=\310v\003\276\212e\250\275\027\333\374\275\266\354\367=L>a<\262\322\356\275\021M\267<\223x\005>\016\265\255\275\352\207\230=\253$\005\276V\351@\276\322T\364=\236St\276\262~\243=*u\370=~\216\265>\000\262J:\235\344\215\276\312\202\366\275\304\206\355=f\213@\276c\257|>q&\206\276`z\210\275\250\233\035>\242\314q>\234\334\'=\023\376F>\271d_\276\376R\255=\266{\270\276\304\205\372\275>\277\322<\004\026\226>\037:&\276\032\231\275=|\351\\\275a_\005>\"\'\312\275\320\214\254\273\303\247\036>\351\373\310\275QL\013\276\001Ux\276/\242i\276\020\177\305<\177\337T>\201\312U\2760\241\224>\352\310b>\014~\337\275\345tL>\007m7>\022g\237\276\231bF>\250\346\246\275\365T!>\367/,\276\361\336l\276\222\261\025\276\013\354w>\263A^>\274\340\221\276\002p\263=*V\231=\353\251\023\276:\026\243\274v\027\326\275\336~\203=\005\276\270\276\347`\236\276?\252S>78\252\276a\002a>3\352[\276V\272\262=\207A\204\276\t\205->\363\377\235\276\t\032\203\2748>\376\275\016C\362\275\242\204\272\275(\037\305\275L,|=\243\214\260:\t\251\371\275%X\027\275\266\033\322\275\351\004#\276\214\236\215\275\233\0103\276J\"\021\276\250iB\276\272\325f\276;M\205\276x\212,\275\352\2547<\274T$>_\3024\275L\216\377\273\334\275\n\276\377!o>\377\030\335\274\\}\353\275\341\177\274\274B\307\342\274\332\223\367\275\204\267\035=\247\267[\275\256\356\334=\270\246\224\274av(\276\340Y\317=\0326E\276m\353W\276\0172O>\001\002\t\276\202w\321=F\375\245=Iz\231\276\232i\230\275 \016v\276%\"\233\276\242\346\303<\235\330\r>{*9\276(\204/\276\216w\261=\326H@\275\366K\271\275\"\223\210=F` \276\017m9\275q\326\207\274T\223\025\276 \347\254\276?\360\t>\211\261\025>/\320P>\016\377f\276_v\255>\276\033\260=(\315\355=\310\032\032=\317\022\266\276](\235=N\007\260<\246\334\244=J\232\311=\207?\211\275\226\221\221=\270\tB\276\336\240h>\364V\236\2755\326\355\275\353\377?>R\367n\276\203\276]\276\376\2272\276\177\312\024\276,\234)=\203^d\276\035\326\354\275\351\202\030\276\032U\216<\\$\313\273\227\231\022>G\217\"=g\236\354\275!\304\r\276\226UC\276m%:>W\357u\275\357\005#\276\303\'W\276\006\205\006\274\344\035D\276\344\3608>\213j\037>\205\215.>\303\233\214\276\261y]>\035\213\n>\021\217~\276{\345W>\212#\200=\213\271\257\2760\215.\275\370t\324;{\245m\276k\"\010>\200\003\245\275\246\201\377\275\"\327\324\275\004\266\311\275\226$\225=\316\341\"\276\031\302\213\276\206\264\244\275?\277\224\276\252\350\260\276,\247C=H\033\227\275`\334;>\362\242\345\275\314\341I=\024\024`>\\\211<>B$g\276S\231\'>\355\312C>\347\351\230\276l\206\244>\320\013\225\276\215\024%\2762\231\020\276\2540O\276|K\205\275\314 \215\276<<L\275[\200\'>\017\224\177\275\230\330q=0\347m\275\217\2742>\236r\354=\256\231\'\276Df\201>\374#\340\275\003 \035>\224\335\245\275\245:i>\366\224\367=\3273\273\275\021\355\016>\346\253\316=\326p\306\275\275Q@>\022\344\303\275\275\262\345=\274\311\303\275n\223-\276\322\213\352=\357\033a\276HU\246\276\362\220t\276q\214B>\354\337R\274\005\244B\276\241\2367>.\274\372=\r\007j>U\003y>\247\242a\275\235\302I>\004\214<\275B\234\363\2755q\\>{\274+>\203\343\206\276\360C%\276\0371\010>\r\256y\276{\023\207\275\363\356\203\275\312\357\200\276AYd\2763\374 \276~\367\336=\177\337V\276\222\315\345\275\306\265C\276PT\226\276s\357\026>\327Zx>|x\036=\014*Q\276\326\210a\276\016@\221=\264\231(>$\257x=\252X\317=/\216?>Gm\034>\341v\202>\232\246\361<\316\331+>i&v>6\326\010\275\002p\203\276\020*\217\276F\366\300\275*\247B=\006d\333\275%\235\022>.}\200\274\211l\220\276\204\305\261\273\306c\215=4\017\362\275]\007\262\2753\353\\>\"\024\241\275\250\201\353<&^\340\2758h\030\2769\t\016=Q\302t\276\234\0223\276\373\020C>Y\301.>nO>\2750\323\226\276\306\346\002\276\017\n\023\275h\263\350\275V7\335=\257o<\275$\315\242\275$?\234\275Wg\016>\031\221\001>\303\311V>\347\215G\275hj=\276\033R\210\275M\222\036>*\217\274=\307DB\275l\031\241<ha\224\276\374\264\230="
      }
    }
  }
}
node {
  name: "decoder/dense_4/BiasAdd/ReadVariableOp/resource"
  op: "Const"
  attr {
    key: "dtype"
    value {
      type: DT_FLOAT
    }
  }
  attr {
    key: "value"
    value {
      tensor {
        dtype: DT_FLOAT
        tensor_shape {
          dim {
            size: 64
          }
        }
        tensor_content: "\365\230\314=\365\230\314\275\365\230\314=\000\000\000\000\330a\241\274\341\324\211=u\017\213=\252\231\031\275\325\351\225\274\365\230\314\2754p\316\273\000\000\000\000\023u\223=\244\363}<iu\202\275\346u`<\225\310\207=\365\230\314\275\000\000\000\000\021\006\222=\365\230\314=\365\230\314\275\365\230\314\275\315\265\225=.\\\017=,\370B<\022]~=\365\230\314=\365\230\314\275\205\207\226\275\365\230\314\275k6\253<\365\230\314\275\242\271|=\000\000\000\000\315\265\225=\000\000\000\000\000\000\000\000j\225T=0\220\240\273A7\232\275\376\n\265<\335\366\206=\020\307\272\273w\t\371\272\241\335\023=\365\230\314\275\275{r\273\031\302\227=\365\230\314\275\225W\312\274\365\230\314=\031\006\001=%\267\321\270I\274\205=\351\307\251\275\365\230\314\275\365\230\314\275I\365\271\274\365\230\314\275\365\230\314\275\365\230\314\275B\262\035=\006\214[\275"
      }
    }
  }
}
node {
  name: "decoder/dense_5/MatMul/ReadVariableOp/resource"
  op: "Const"
  attr {
    key: "dtype"
    value {
      type: DT_FLOAT
    }
  }
  attr {
    key: "value"
    value {
      tensor {
        dtype: DT_FLOAT
        tensor_shape {
          dim {
            size: 64
          }
          dim {
            size: 128
          }
        }
        tensor_content: "\237%P\276`\332K\275\324Q\311=.K\212\276\014\010-\276P\006\203\276\331\334w\276\362\266P\276\264\303\201=\344`\337=X\374\254\274\032\260\244=\304\273\341=\300\031->\260C\"=rTh\274\373\267\212\276n!\333<\314\224\n\276=\371\000\2767\310\340<\304\327\206\275\034x\206\276\246,\347\272\013\255\207\276@6:=,\376u=\350\237\221=\032\213\256\274\274B\232=&\320$\275\\\207\342=fo\356<\364\235|\276\340\002\242\275\374 \236\273\341S\365\275\344U\317\275\327Rn\276\177\351\377<\253\031\t\275\004Q8\276\222\023l<\010n/\276@`\024=\022\333 \276\374\301.\276V\211\003>\037\362y\275\326 ;\274\372\035\233=V\354\252=\343\230\213\275\2245U=\000\212\317<0T\002=\344\334\277\275\033\211\037\276\0227]>\"\335`\276U\363\364\275\306j\036\276\364\340)>\240|j>hn\374=B\206|>\264\225\270\274\364\3356>\325U\224\275\250.\265\273\036\277%>b\311\205\276\327j\211\275|\267\336=\260{\376<\253H6=\373\371\027\275\260JK=\217\376n\276&\010c\275\000`\017:8\234\260<\017\000\006>(\205\030\276\254SP=\200\301\337:[/\017\276\310C2=\227\211,\276\000\214\317<\214\352\177\275\000\375\035= \323\223<r\365\335=\034\223\035\2755\362\343\275\303H\350\275N\354\014>t[\263\274\275\301\276\275\234R\212>\233\341\334\274\375\2677\276\320r\364\273\0140\366\275\234\033<=\"~\005>,)\021\276\342Qg>\003\305O\275^\233\227<\240:\247=\374\302\223\275\3401\016\274\224\217\\=\361\300\025>8\346K=p\253D<\236j\203\275k\036*\276\320\335Q\274Bi\266=B\001\223=z\312\227\275z\007\254=X\345\354\275\247\351+\276\337\332\327\275\214\365p< \350\310<\034\013>\275[\351Y\276\360%\037\275\023\000~\275X\010\367\274\230\2507\275\241u\307\275\204\342\257=\020\244\021\275k\0032>`\346\214\275d\021G\275\307`.>\360F\235=\272&\t\276\346Lr\276\016\243\215=\200\3361=A\273\234\275\362\206\314\275\205\r\032\276\337\310d=\230\332\006=\001br\276\302y\350=\353\037h\275\274\r:\275\206\000\361\275>\335\320\275\266\244\370\2753i\202\2755\374\300\275)6U\273\036\n\t\276\026\031\352\275\r\301\346\274\256G\000\274\264\303@\275i\331\230\275\217\360~\2739\272\t\276A\347\351<\340C\256=\010]r=+\352\233<\206lC>\275\251\364=\235\305>\276q\271\343\274r\357\223\275D\371\226\273E_\357=r\311Z>ll\211\276\362{0\276C/\030\276\254.3>#-\031>\373\021y\275\360ry=\311\000\335\275\024\303\024\275\037\356\021\276\335\352\301=x\203\201=T\021a>\'\322/\276\010\350$\275<\3645\273\266{\356\275\001{0>S9h=F\021\323=Ts\252\273\2162D<\000;\214;H\374p\275\243\257\021\275\260\252+=\3037\007>nQ\374=\233\177\317\275\336\255\342\275\314eX\275\312Tx\275\360\324\036\276&\342\243\275\360,\227<!$\023>\314\366\034=\270\267\335\274\336\006\323\275\2648\206=z$\n\276I\0203\276\361\006->\376\340w>\227\350\021>\242\221\217\275>\247\375=7\013\006>\320m\221=sq\202>~\252~\275\224\355\221\275\253\330\300\275\364zq>\324\347\346=\214\251\014\275\013\003d\275\266\371\330=\241D\001>K\352\032\276P3:\275\332!\255\275\276\316\327=\010S\260<\010\227\367<\302\034\345=\320\354\325<\223\250\007>\004\211F=\204\257m=F`%\276\251V\224\275Z\365\366=\244X\022\276F*,\276\222\233\313=\r\244\r\276\312\316\277\275\005\202\204\276\210z|\276\361!/\276\236\306/>\304~\364=\3749\016=\034\247\232\275\276LT=%Qn=\367\322\201\275\006QB\276\312\204\022\276\303\037\366\274\241\267c\276N\271\005\275\325r\031\276\355c\007\276\326\345\202\276\274:\245;\205\335<\273\317k\020\276\336T8\276\"d\354\275>\246\002\276\"\375-\276\310\374z=4\345\026>\253\217\212\276\313\375\200\276\364\035L>Y\330~\276w\003>\275\220\243\013=8QV=e\366\033\275sn!\276\263A\204\276\024\tj<\331\213i\276\276\2114>\307)u\275\210<J=~;C;\322{R<\246F\254\275\242_\312=R^\333=\317R\331\2750t\360=\320\311!>\334\261\">\320\0048\276_\227\302\275\330\265\253\275\232\013\"\276\260\355a\276\rg\027>\224^\253=\334r\315<D\215\006>C\356*\2768:\316=\314\364\326\273%\354\324<E\261\371\274\230\270\210=\014\335T\275B\022\034\276\024v\032>\333v\001>F\213\006>\302\030>\276!`[\2766<U\276\270\t[=\274\272X\275\240LY\274\031=\265\275\300R\300;\202\354\375=\373\2353>3\227 \276\205\300\001>wc\315\275\260\263\250<\210\231\310\274\347\006->x\341\020=\300\351%\273\000\214*\275\362| \276\277\335\271\275\266\205\341<\251\232*\276\010\303\323=\234\033\241=\372e@\276 \310_=\026z@\276\370\257\030=_0\244\275\375\210\032>\344\277I\276z}\344\274-\230\035\276\224\356\370=\013\025e=\314\264\360\275\341\321\250\275\030\305\251<>\233\372\275}})>\350\205O\275\224BA\275\260\010I\275%\212\307\275\320s\273< \254\265;\272\002\367=>t\371=\336w\371=\027%\366\275\240g <{Z2>\246\242\272=\276\373\263=\"\262\356\275\313(\301\275h\t2=t&R=\351V\r>\232\031\307=\200b\256:\312N\r\276\352\222\371=6a\316=\346<\260=\031\037\024>w\220\020\276\030m\014\275\340(J=\3509K\275V\266\363=\246\262\362=\240B\007=\374\t:=b\r\004\276\2404\270\273\2362\323=y\253\360\275P*g<H\005$=[\024\024>0\340\256\275E\305/>\272\360\374=\"(\357=T\355R\275\332\375\240=\270\333D=RR\263=\232\010\201=\177\343->-\3201\276V\010\006\276\270;\326\274<\235Y=\034\335w\275\314lB\275\366\000\371=\222\036\301=*W\274=\272\276s\2757\327\013\276f\263X\275J\013\203=\020N\004<\345\260->\320\315\300<\252\232\274=P\237\361<\024\206\"=\300I?=\003\372#\276hz\302\274hr\232\274\350gE=\263\267\212\275\030\3244\276\204au=\251\254\037\2760.\376\274N\016\362=\257\003.\276\344f&\275u\377\033>\346h#\276\220s\232<`M\373<\216\370\352\275;[0>\374Za=4\207U=\366\257\371=\t\013\013\276HJ2\275(\373\006\275\366M\254\275\3325\374\275\235\213\010\276\030\264\312\274\262\265\021\276@Z\374\274\310\361\255\274\214\234\036=\000]\207<T\357\245\275\344\251=\275^\251\221={\2473>\312\311\371=\206(\317=\320X\234\274\316S\323=\022\351\256=5J\025>H\222\274<Px\036\274\257}\'\2760\274-\276 \000\013\275\240\376l\274\317V3>\262w\361\275\310g\365\274\260St\274\366-\313=0\237s\274\3402d\2749S\016\276\202k\243=u\016\346\275\2600`\274q\327\006>\224\004<=\350\177\026\276\360\332^<\234\0205\275\255\311)>4\241\223=:`\307\275X+\030=h|\255\274\035\022\365=g\257|\275\"\316\031\276S\n\302\275h(<=(\373\366\275\262\327\304\275\211,\202\276z\370\245\275\344\331S\276M\t\'>0\347\014>nr\204\276\240\333\251\274,\313n\276@6\\=r\300t\276`\310\256<\231\306\220\275\022\010\222\275\227\254\t\276\354\263\366\275k\215\201\276\370\325\227=XW\026\276\020\263\030=\037\"\024\275\2650\204\275\026\361!>6\262\016\276\361\300r\276\207\204\217\275$\375\230\275\204\215\315\274\007I\215\276\335t\213\275 \222T=\240\360T\275\310\031\001\276@e==x\246\310=qX\214\275~\361\212\276\367\313N\275\2500-=X\016\004>\224\0346<\212/\205\2756\337\345<\343\3224\276\327$2\276\206\010J>\000.\374=\201>\362<\272\002\266\275\2613E\276\031\242\322=w1 \276\25722\275\252\030\254=\226O\007>7\336K=*\343\005\276\300\316h><\373\000>C\307\340\274\330\t\264\275`FE>\210\007j=\351\367\014\276V\310\313\275(\303\017\275\365\031\004\276T$7>:L\254\275\343\303u\276\263T\325\274\366\321\026>b+\250=\322\253\257=:I\016\276\317O!\276\272\275\266=\241+\215\275jv\350\275\354-!\276:>\364\2750__\274\323\343\264\275\314){\275\236\356\335=[\035\021\276\n\342\221=\314\325\270\275\370+\352<\007\234\366=7Gd\276\020 <>j\377\350\2750\347\003>\3544\013\276\354S\214= \301\264\273LX\003\276b\336{<v$\347\275\010Y\317=\252!\013\276s\224\'=\264\020\275;\314AY=\320\244\200\275\030\216\332\274AU\002\276\202\006\204=R\001\314=\235\273\001>\211\340\020\276.\216\275=\234qI\275\300\271T\273,\373\010\276Bp\233=a\225\023\276L&p=\203\344*>\370\001\000=\022Z\271=}\272\021>\320\255\242\275pNj\274\010\t\213\276<}Y\276\355\210\273\275O\273;\276\352Q*\276{\307\232\275\002\332\364\275\300\360\275\275}P(\2755[\000\276U\204\306\274h\244F=\201c\215=s\2678\275P$\021\275\322U\236\275\254\253+>\340i\341;8Kr=h\367\220<\022\335\206\275\2709\236<\217\016\232<\254?Y<\342\017\020\276\302\001f\274\021\375\326\275\367L&\276\336R\354\275\310\250\016=\234J\023>\254\rp=A\024\270\275\205\274*>\016\003\220=)\330\010\276//\235=\025\303\002\276\316\004d\276\034\372m\275`\342\020\274(\206\n\276\326\230\312<\327\202n\275D\321\250\275l*\t\275\313\275.>\317\333D\275\3148\033>\217\323==6\\\277=\310Mc>j\352\330=\372B0<\314A\017\276\034\245p>\004f\355\275?\331-\275\215$5\276\351\021B\276\230\0021>[\311\246\275|J\204\275v\217\214=fY\303=\243\207\255=\306<\374=\333\322$\276\351{7=\326A\226=\247\275\032=\240\250\242\274B\"\225\275\372\320\223=[f\377\274>\364x\275\363\200\017>*\321\210\275\031:\023>\265}\005>8\256\350<\251\356\345\275\300\346\327\274\240\255\316;\321\316\263\275c\211\036>X\323.\275b\2653\276\320D\n\276\331(1>\2501\317\274\311#\034\276T\031o>\024W\006>\344 3> 2\r\276\300<9>/\"\260\275\325\016l\276F\343\213\274\226-\321=\016\357o<\2067\377=nb\357\275h\316\222\275\260d\013>\\\333\203=\200\270\344\272\014\331\201=\224\2233\275\344~E=\0207X\274\030\024i=[\265\020>\020\334(\274\255^\017>\204 :=\006\236\222=\270\260I=r\254\261\275*<\341=\374\254R=\240\335\236;\353_\007\275\370z\200<\320\244\240=\210\300\362\275\304b\272\274\204\030L\274\313_f\275;Q\236\2758\306>\276\210\376\020>\216\302\351=\303\002\017\276\310Dg=\314\277P=\r\362\214<\\EM\276J\\\017\276[\206P\275\363\241\356\275\353\266e;\262\347\350\275\nn\007\276(\213\221\275\262,\214\275$K\032\276\3379a\275\251I\301\275H\341\322\275\017\223\351\275K v\275\252w]<s\001&\276.j\315\275\204\361o\276<\312\367=3`\363=\311\332\207\2743\026T\275*:I\276\234X\322=\3722\275=\233\370+\273zM\343\274\020*\266\275\204U\r>/\257\331<o\025\177\276\370\350\264\274:\212&\276\242Wd>\210\247\345=\240\232\363\274\026\003\257\275c\0068=r\341l>\353\342\265<\220\342\355\275\240P\352;Z\330I\275\332RH\276\036#^\276f\2623\276\237\225\t\276\206>-<\035Y\353\275\240D =\030\207e<\025\316>\276\330J\003=\030\360\256=\217^\372<i\340\260<od\017\276\272FB=\315\212\300\275\202}>=\234k\231\274\n\0378\276\260\355\310\275\030\357\251=\023\200\017>\356+\r\276\010~\346\274XX|\275\331*\244\275\310\262>=\200\t\276\275HU\371<\210\'\252<h\337H=\260Mk\274HP\244\274 \353\"<\324\330\221=\226r\246=\372\003\207=f\346\276=W\t\306\274\016\357{\276\2514\223=\0028\004\276\354\024\331=\370\245\343\275:\343]\276\334/\232=\325/\307\275:\367\363=b\010\264\272\350#>\275yw\220\274p6\237;\373H\274=\320\031\245\274\331\234*>\211\362\013>\031\310\201\275\312\267a\275P\243\355<:\324\336=\274\347\374\275\2402\242<\"\307\306=\312\252\375=\246>\240=`\021\316\273Aq\004>\370a\030\275\265\001\022>\341Y\206\276}%\221\275\353D\306\2742p\001\2766\232\254<\001\241i\276\207:\320\275p^D\275`\333\327\275P\205a=\340\255\345\274\004\306F\276`y\241\274\214\035\027\275\203H\032\276\305\263\211\276\260\250G=O\224E\276M\036O\276\325\244=\273\371J\300\275\312?\263\275\277u\021\276\003\233\242\275\221\325\275<\032\260\264\275L\375+=e\244\016>W\031,\275D\007\356\274\350f7>h\222\365=\225|\236\275G\313\'\275\241C\255\275 \303\212=\036\305\300<\350o\275\275\305\312\220\275\341f:>\244:8\275\265\270\004\276\207\006J;\3353a\276\271$\231=y\253\013\276w\000s\275\354~\202\275\200\271Q\276\326\377\316\275\212\031N>\356\210\345\2750\274\233\275\3763\377=$\307\232\274\030\334[=jG\024\276\323f\026\276x\333\271;\355\343\035\276\362dm\276\200h\340\273\314g\217\275\323\270\031=\004\371\305=\273\030\201>0\313a=\212{\230=\322\265\246\275MK\013=`8n>\373\316\200\276Z\005-<\036\203\257\275\334\274\220\275?J0=\355\325\366\2758\205R\275\200C\020<TV?\276P\261\241<~x\330=\330\300V=\367\246\005>`6\210\275\021\275\347\275\001\2250\276e4#>\253\361\004\276@\002]<\230\305\332\274\242e\226=\342\320&\276\330\233\337<\221*\037>~c\376\275\200\2316=_-\301=\221\216\323\275,\275\300\275\3424\024\275\206g\326=/\257\034>\203\334]\275\222\220:>@\265u=8\031\261=\024\211\020\275\304\341f>t6?>\016\221\233\275\210\321\357=\026V\322=P\205\256<\003\213\002>\020t3\275\320\274\231\275\263s\013\276\0003t=h7\265< \203\r\276\324\034\n\276R\202\257=\322\257\345=\334N!\276\205\215\t\276\214Bi\2754\016C=\217g\031\275z!\234\275]{+=\025\244p\276HG\006\275\2622I\276\360\206\310\274\013e\304\275Hr\021\275(\263\030<,\265+\276\\\261\210;k\326\037=\367`|\275\241\325\221<\340\374y<\320\330S>\345_\213>\272\240\314\275N\r\211\275\270\263\360=\362\033x>\354m\232<\020\347U=\264x\330=\222^\207\275\353\n\367\274\262|\306=\357\\y=mx@\276\356\273\332\275S\227\327\275\020\326\276\275\367U\020\2763\026\216=\023\311\001=H\321\205\2756\232\020\276\260\037\002=Ld\207=H?\207=0\230y\275\231\200H\276\311e\206=\225\314\336\274\210\314u=\356J+\276\003\317-\273\300o\177\276\007uM=D\244\262=\265\207\212=\3160D>V\234\320\274\'\305\"><\315f>\242\232l\274\346\330\204\276\332\014\271\275\034\303\225=(\267\n>\255\345,>M\025A\276n\366\215\274\373\345\007\276\0260m\274\370\025S>\226\211S\275!\022S\276\320b\374\275\036\330\033\276\266\362\007\276d\204\303\275\004\272~=\376\245\036\276\n@#>hT\255\2754:%\275R\264b\276\006\250\357\275\260<\352\275Wd\032\276\310\255\313\274\200\233~\274\271\327\341\275\000:P\275\206\200\325=sv\003>\335\264\217\275\340%&\276@\227\232\274\'\375\030\276:\325\346=\220\356\371\274\364;<=\212\023\242=\343v\003> \375\371\275y\240\213\276\344\3506>\361\274\227\274k\365\250<$\213E=\204#\214\276\252\255)>\317\220\022\276!<\216</\230\357\275\3035\334\275\212F\245\275k\322d\273\214\376\360=u\320.\276\266\"\213=\336\242\246=A\235\221\275\347\327\235\275\275\305#>\356\207\245=0^j\274RN\254=\220\016\211\274\346+\371=\230-^\275\240n\020<(\026\037\276L@O=(5\261<\020\246G=f\017\361=\272\305\245=\367#G\275\214\032a\275h\351\260\275~\322\235\274\302\360\221\275\033\0372\275\314\3004=\254QW\275\265l\007>\223\315\252\275q\223\034>\330\r\231\274c\037\333=\352d\252\275?\353\r\276[\030\r>\215\250\016>Zr~>\2152&>hW*\2757\252\223<0\333\234\274D\035~>\230\000)\275v\331M>\237`>=\204\351N>{\340\264=\246-\246=\033Y\007\276\323#\031\276\361\r\032> \366\005\276\304\266[=\300n\201\276\336\025\277\2752\"\204\275\252{\366\275\346i\203>HC\221\274&\010\364\275\320lB\274\346j\376\275\367\3468\275\300\343i<G\313>\2766O\364=`C}>,\035\223=\"\352+8|\031^=Br\004\276\225f\365\274\032\225\234\275\300\236H\275\n{\241\274\222@\'\274.\035\003<\340\300 \276\260A\361\275\267\370\252\275mf\323\274\327\')>\264\032\256<\331\265\036>\2174$\276\273[2>< \004\275<T \275&\325\002\276\200`\266\273\2312+>E_\030=\234\331\023\275\305>\007=Q\233\035> \006\023=\272\n\345=\230@\000\276\325\345\003>\224\333V=\020\227\036=\262=\333\275\211-\'>zb\334=\003m\'>\212\2471\276\355\\\r>\037#3\276\031Z%\276\342\023\245=f6\301=p\024\224\275\\HK\275\267f\016>\372\226Y>\037\373\034\276\331\276+\276\336\270W>\351K\024>\0002,\275\032\t%>a7\006\276\210\272\331\275\300N\377\274\254\270q\275%(%\276\220\2161<\215\206\245\275\322\r\003\276\246K1\276x\237\377<\370\3072\275\316\036\275\275\022\013\244=n\353\370=@\t\303\2751\233\301\275e\344\'>\300%\374<\366\364\325=@\326\320\273\t\325\323\275\352\245\341=\2002)\2761C,>`\211\345\274\352\332\250\275\325\214\022\276\214hn=\241I*> \2565\275l2?=\177^\200\274$&M=h2\006\276\020\244\321\274\341\001.\276\341\315\337<\262\223\372=\\`)=Vh\203=\220\323\263<\336_\032\276\210\025\206\274\036~\322=\374W\255\275z\356\374\275\260\331?<\2448\n=\'\247\002>`B\255;\203\366\010>\354#4\276\370\244\361\275h\217M\275\000r\266\274\222y\361\275\324[\204\275\342\223\020>\257\005\332\275\224\023\023=\024\326==\220\224\214\274\364\326g\273\250b\224<\272\003\351=\220\377\267\275\260\317(<!\330\302\275\242~\255=\"W\331=\001\215\271\275\0007\026:\231m\327\275l\030\365=c\255\010>\000t\r=1h\311\275\320}\022=\336#\r<nU\021\276\\[M=Zm\341\275\200\305};\000iB\2740\030j\274p\032\201\275\254\340\266=D\252-\275\230\033\254;\312\347\033>NX_\275hM>=\276\261\177\274\350N1>\253\322\032>\256 \323=6\253\343\275Y\220\310\275\357Z\217\275\330$Q=\020\377\303\274t\016\004\276\254\337\223=\002\026|\275 \241?\274\223\215\017>\277\026\t\2760Js=\303\274\021>\310\361\307\275\250\333\263\275\310\351\270<3\342\023>\223//\2767b)>\306\r\236=x\370z=Kt\323\2753\023\026\276x \224\274\236\374\035>8\223\232\275\210\341\277=\326]@\275\361O\313<\230\231\343<\2417\003>\230\214\246<((\022=\004k/\275zY\321=Vz$>\340\367i=\332\376\035\276\3400\020=P\206j=\204\363\336\275\232b#\2763W\254\275L\003\035\276\244\361\"\275\344\240\370\275\232\335\270=~Il\275\200H\233;\010DH=5\247\030>pE\t\274\340\2527\274.\367\207=\206\201\273=\3106\n=\233\345.>b\327\325=8\360K\275\222\004-\276u]\226\275\020\336\362\275\316\\\036\276\000\033G\272`H\031<\300\2529=B#a\275\204C\024\276\006\000\244=[k4>2\274\345=\244q#\276T\243s=\236\210\335=\354O\021=\225\221\226\275\230\300\302\275P\236f\274\032V\211=XWz=!\252,>\266`\027\2764F^=\344! =\362\275\316=\000\370\303\274\036\023\306=\260\025\307\274>\371v\275 k\351<D\273z=|\2424=\271\327\036\276`\203\205;m\035\020>\331\337\301\275 x\340;\317\340\334\275\2044\036\275\214\035\332\2753\242\001>b\325\360=7-!>\374\230\222\275\230\"\220\274\207\355\342\275\3063\357=s\032\022>\340\242\013\276\306\315\216\275\267\306/>\006\267\276=\377b\014>\320\226\021\276\354Z\014\276)\016\245\275\223\205\224\275hm\032\275\331\272\024\276\372\007\327\275\377\305\300\275p\312(<1J\026>\350\335\026=\007\305/\276\244E\022\275\336\036\327\275\371\'\"\276\250GA\275:\274\356=\270\330\216<2\3510\276\370\307d=G0\245\275;\337\367\275m4\026>\353X\017>k=\242\275\362T\206=D\377\213=\313\004\013>\270\347P\275R\030\351=\n\025\342=\002\345T\275)\032\234\275\306\265(\276\212\240\301=\000\217\036\276\220)\354\275\365$3\276\213\315\220\275\276\273\300=\350\320\356<6\362\343=\376\351\257=jP\371=\220\3703\275\024Lc=\260d\333<\206o\353=\232\"\224=4k\215\275\016\345%\276\317\274\366\275P\002i\274\371\235->\365j\r>&>\266=\276\225\013\276\230lb\275\023\276\037\276&D\340=\253>\250\275M\302\240\275\334\225\024\276\226$\330\275\3244P\275h\217\006\275\213K\000>j\302\020\276\244!\367\275\260\204\310<\202\275\327=\000\317\307;\317T9>\260\277m\275\002\r\212=K\367\001>\010!\360<\274\261\342\2751J\345\274!\025\\>\222\275\370\275p\351\250<R\021\305=\375X\264\274{\362\007\276\356\202\t>\264}H\275\324\003\306;\314\311\363\275\206\267\301=/\311v>\'\332\353\274W\213\276\275\307\031/>\230\376\035\276\240\352\340;\222H\353=\031\340E>E\2463\276\256#\255=\030\256`<\030\246a=\274\331\204=X/\177\275\302\336!\275\206\223\217=\3552\027\276\323j]\276\200\365\315\274\3020*;\306\330\354=[2\375\275\364\252P\276\260\357\352\274\321\324\370<\020\216\353<3\000\010>\214\376\'\275\332\270$\276l\0060=\234(\006\276a\020\036\276\330@\360<v\334\000>):\355\275\203_\250\275\026u\225=\364\020k\275\024\251\314=\206\263\237=\256\342\242=\344Gs\275\260\n\365=bp0>~\336\215=\205\234\263=\025\2460\276(\016_=\300\251\361<\005\275\324\274x\342\341;\025\034\245\275n~\246=\370N\214\273R\250\233=o\031\245\274\347\351\224=\367lm>\3522\233=\374\034\026=\340<\347\273^\264\017\276\340\353f\274\\n\016\275\021t\031>y\007\031>\024\316\"\276\300\251T\274\360\251C\275/\345!\276\020\364\306\275\016\257\232=|\302Q=Z\202\244=T\0227=E\306*>&\260\021\276\034\036\231<\324U3\27550<;\'\210E>\235\2304>v\226\213<)o\200\275-\256\021>\\_Q=\312\231\362=N[\255=8\351\203\274\000\\O:\353pj>\177\343\023;*\272\007\276\250\226\247\274\261U\230\2750\330\236\275\304\3222\276\250h\001\275\200g\345\274\362W\327\275\230\260%\275\270\275\264<\216G\306=\230\217\222\275t\244\001\275\254\211\253\275S&\205\275\220\225\335\275\027\016&\276]\234.\276\262q\202=\271>J\276\202\342\320=\317i@\276W\376\177\275>\350\250=\370?\032;\261C\251<.t\371\275\210\354\206\275L\321\202\275\367K:\276\002tY>\371\362\301=#\251K\275\032\362L>\215V\266\275\370(g<\306\3730\276\036\006\206=\232\251\277=\362\236\'\276\242\263\214\276<\356\214=\366\272\376=\310$=\275\227+u\275\300\345\306\275\260\213\320\274N1M=Pb\343;\257\275e\275R\217\334\275\232\276\231\275b\265\022\276O\2504\276\250\0269=\365\300\020\276f\031\373=\230x]>z\243_>O\001\341=f0c\276i$:\276R\246\031\276\243\240!\276\257\215\274\275r\346b>\220\347^\275\2426\372=\203%G=\013\023j=\206k\350\272s\023\203>j\250\237\274cs\323\275\343wE\276\310\276d\275\354\005a\275\\}k=\310\200+\275\240o\363=st\274<US\301\274\310\265\201=\353\277\304\275\301A\212\276$\367\246\275\026\323X\275\036\201\014\276\034\274`\275\022\031\005\275H?~=\340IG\275\342\250^\274\026\224\014\275\033\264\345\275\010\267\013=P\235\351\274\350-\206\274ZD\367=\202e\302=\352\316\307=\010\203\300<\240.5=\300l\301\274\274B\347\275\310\236\336\2749\313!>\027\243%>\240\3400\274\267\252\037>\352v\021\276m\317\036\276 \247\306\273\355!T>\300R\314=\376\362\240=\364(\002\276\334\301\225=\223E\303\275\212\355C>\000\355I<\\\226E=\336\305\364\275dP\033\275`C\021>M4#>T@y\275w\346\265\274w\300,>-\203\010>hJ\005=\355\257\366\275>\367\302=(\3214=\322\030\352=h\340f\275\374H`\275\254?\211=\300\014\224\274\323\375\220\275@\205\201\273\320\010D\274{\037\214\275\301+\007>\360z?=\252\245*\276\"\376\252\275\267\203\007\275\2505\032\276\320\3051=Z#Q\276\342\223\016\276\324\345\252\275\304\226\347\275\007W\t\276\312\353\005\276\252f4=D\272u\2759\026e\276\320\227\316\275\270+o=\030\230\037=\270\311\200=j\2114\276\3728\376\275;\"|\272\240\332\200\273\213\255J\2768\002\366;4,\212\276\016\000C\276\020\2232=]\242o\276\261\010\n\276\340g1>%\3724\276f\237;\276E\034S\276\024\365y<\232\337\032\276\336\215\300<\310S\374\273\"M\023\276\247\244\213\274TCi\273t\013\227=\n\264+\276q\222\236\275\204\210\207=K\022\213\275\375L\254\274\320\007F>W_\306<\270Lw\275\003\355\364=T\225\001;\301u)\276x][>k\035\025=\000\231<=\303\345\n\276\333:\334\275\330\274V<`\374\003=\214\272\010<\200\237\264\2738\257\345\275\024\274\371=\327\330\005=B>H>,\335\352=\241\354\341\274]y\334\275\260\304\034>\016\326\330\275\371\204\313<\236\274\263<\276\363\241\275 \201\005<|\303\006>1\2521\276\030\303\032=b\341\027\276\215\373\021\276P$\232\275\226\361\344=\213\031\007\276\200\034B\275\335T\257\275P\2504<\r\2103\276Ks\025\276\177\302\354\275\354q\221\275Y\3453>\3562\322=\000Z\215\274\2248P=\214`\r\2750\005\347\274\302\234\364\275\240\277\375=p\325J=_ )>\237\002\005\276\237#\200<\032\252\213\275\217\036w\276\351\034\272\275\271\304\235\275\364#}>x\335\321\2752x(\274\243\323\375<\312\322\307\275g\034\206>\260\231\000\276\261\332\230\2754\354\270\275<{\261\275qg\030>\240\354d<\234\347\267\275\014\201\016\275\375t\222\275\244$\027\276\305e(>H[\007\2760b\032=\255\"\346\275\321D\026>\0135\304\275t` \276X\234\205\275\200%\256\275\211\262\t>L\314\313;\376\351{\275\370\267\370<\374\341\032\276\014\276g=\014\'I=\035\212\022\276r\360\356=\232\343\031\275\210\"T\276\233\207\n>VE0\2750\302\203\275\014ex=\350\373\202=l\375\356\275Q\235]\276\314\0366>2\213\374=\210\334o=\020\204\024\274n\033\246=\270\244\036=\336\305`>\253q&>@\020\322\274\332-\343\275l\370 \276\314\004S\275\"\200\366\275/\"\215=\245\217\006\276\233%-\276\257\360\352\275Oq\211\275\352\333\003\276\204\306*=\362\222\207=$\224\325=\304nm\275\n=\305=z\207\261=\3414\n>\006\232`>.\262\257=\324\326\027<\314\316\037>\2163\215=(\023\276\275\266@\356\274\010\024\r>\266&~>\246c\371=\277\223!>\214\365p\275\206\374\305=;\300S=\340jk\274!\030,\276j\217\360\275#\n\323\275\322\003\020\276=I\005\276\306\220\324=E\352\014>@\n)\276\347\014\324\275\370\004C\275\300W\332;\034]<\275\223/(>\322\234&;\372\256\303<\360\230\007<\324\351\213=\210b\374=\370\277a\275@\2673; \206\223<\231\231\031>\033\324\350\275\252\261\325=@.F\275\252\236\336\275\342u\016\276\334\236\035\276\030S8=_=+>\215\214\021>\372\036-\276w\243!>T\237r\275h\016\314<\000\326 >\316\347\374=J\016\177\2741\325A\275\036^\215\275\302\261(\273\225\371\t>&\222\010>\356f\275=\016\255-\276\340\262\306\275R\007\327\275\362\347`\275\216\202\301\275X\375\242=\032D\256=\340\213\237\273\000~\003\274\0009L:bn\331=\222*\332=\0145r=\252f\305=\302\022-\276\244\242\013\275/\342\034>y\341\262\275 \302\n\276\242\023\321=\252Q\365\275\007H\200\275\250\375G=\013\"#>\313\353\206>\227;|\276.e\300= h4\276\036\320d\276\234\303_=`\241\274\275P]2\276t\247\023\275g\253\222\275\3771P=\373:E\276\234\347\201\275k)l\276&z\214=Y\313\250<c\326d\276\376<#>\004|P\275\271\264!=\343&\022\276\247\003\257\274\311\311(=\252\020B\276\226\332~\275\031n6=$\027:\275\266&5\276\016\347\227\275i\003D\275X\207\300\275e\337\314\274\300\334\201=\214\227\370=\334C\005\276\377\002\000\275\223\036J\275 [\034>\320g9>!\030\006\275\000)}=|\003J>\335{t\272*\340B\276v\212\253<@u\030<8\337j=\204\237l>\177\241\201>\351(@=\037\332\005=\307\357\313=t\233\003\275vp`>T\351L\275$\251\236;\251 \311\275hm\315;\201r!>\240\304\260\274W\"h\276\3520\266\275\340\365*\276\334\200\277\275\233X)\276\2748\322=\030\257\251<\354C\257=\336\231\000>@\030\000\275\n\265\022\276\310B\334\275\226@X\275\266\313\222\274\363\027I\276|\237\347=\323\023\223\274\264\355E<3\322\341\275\242&\324=u7\361\275\324m)\276`\326O=\317\000\n>\006c\346=\340\203{\274\224\235$=;\031\013>\344 o=\340B\246\273\022f\331=@\223a=\343\202#\276O4\000>\017\275\003>\\\0030>\001RW\276\354\335D\275\010\350\003=\232-\216=\'\265\005>\333\266\n\275\3561\030\276\357u\031\276\204\361&\276\3411\337<\205D\006\276\004\213F>\260\"E=\014\364\217\275\020\227\036\275\226\370\234=\214\016M\275\233o#>4\244\250\275\360gC\274n\002\275=n\004\211\275\030\322\224=\3202\202\274e\244.\276I\007\307\275nK\210=\014\240/\276\270\'\201=,\342\346\275\035Pl\276\022>&\276B\360V>1\375p\276\236E\252\275l\003\216=;\\\360\275\315)\006\276}\261\210\276\267A\026\276\030m\321\274\200\212p;\323\220\354=\020\370t\275N(\227=v\273\205\276\010\201\373\273\236\371Q\276\343\233E\276wm\036>v*\220\275V\324\031>\200\212\037><\r\370\275\277\202->=4\"\276\202\300\351=\201\247\000\276\020\256l<\020\355Z\276l\313\344=O\352\341\275\224\305\325<T\324\372\275\267\021\332\274!N\272\2756\220\243=;c\027\275\271M\">\026\371\321\275\250\003\327<kU\335<PU\003\276\357\016=\275\037G\327\275Z\245\273\274i\342\307\275\223\260\213=g\257w\276\225\014\036>\366\276\262=f6\344\275\037\211t\275\322\270\245=\254\304\342\275\304\000\230\275\310\217\307\273\361k\276\275\020V2>\270\025\366;\340\003#=\263\216\001>\236\220\277=7K+>$\035!>P\340\227=\037\332\321<\220\017\362\274\302\013i\274_q\334\275\352C\200\275D\245\005=<g\020=T\211C\275\324\236B=\036\2542\276\302aN\274\346?\323\275\250U\001=\236B$<\2006i;s\357\247\275\022\314\023\276\204\370e=\304Ve=\244cs\275\300\301\305<\333a\020>\356\245\377=\260\2454\276\365w0>P\236\325<\017/\006\276\360a\260\275\310b\020\276\340\272!<\000\313\316\273\340\264\344\274\014\211\302<\320*\024\274F\003\254\275\217\354\347=x\217\n\276L\027\217\273I\227\274\274\206\356#\276\350@\351\273\241\002/>\262\204\327<s\337e\275\270\356\227=7\3309=QN&>\030\353\231\274\320\013\026<h\335\213<l\001\001\275\245\3000>S\333\">+\304\002>\350\306\224\274\222\246|\275\3079\024>\304\340\\=p\345\242\274\371\232\226\275\264\223\n\276\253\333\002>\030hX\275\216y\364\275\366\234k\275W\310\026\276\223(\031\2768\302L\275F\244\037\276U1->\300\251\003;\324\324\263\2754\351\362\275\363w\n>0E-\274X#\302<\354\022E=\225\377\300\275\322\235\353=s\277\275\275J]\355\275 \330^<\222\267\231=\316J\341=N\214\362=\257\262\253\275\300}\254\273\364`O=\"\307W\275|i\252\275\260\204\021=\331\370(>\240\2744\274\233\'\253\275\004s1\276na\217=\"l\335\275\200\212\037\273\000\034\263<\350F.\275b\341.\276\3001*=\022\340\016\276\260\005\t\276\223\251\r>~\232\246\275d\270h=\r4\"\276\266\354\252=\007\350\007\276m\030\321\275\030\224\203\274`\336\213<\262\003{\275\007\214\003\276\200_\375\275\300B\304;\224\'[\275t\215\010=&\201e\275\237\262\t>O\325\010>F\222\314\275\002\323c\275\301\337\007>\333V0\276\255\217\003>\000\025\342\275\200\245\267\274\212\022\270= \020\312\274(~\n=^\230\353=\230\022\327\274\366E\212=Q\310\336\275\360}\n\275~\212\215\2759\370\n>\230^\333\274\347\262\010\276L\227`\275bK\036\276\306\246%\276\034\253I\275\226\324j\275e/\016>\374\200\212=\037H-\2761\367$>0\210,\275\313\324/\2763\246\037>\325\321-\276`\241\355\274\310%\356\274\002\254\222=\251Y\004>k5\236\275\2413\263\275\276\366\346\275\272\331\260=\020\257\340<\262\322\302=\377\261&>\347\346\310\275\250\034p\275\371e#\276\027\n\031>\350\325\325<\024d\217=V\214\262=8`\363\275\224`\t=\030t_=\032\212\331=\300{\020\276\032c\366=\256\372\342=\266\347\306=\312Z\241=\257C$\276`\314\241<p\n\262<\006\304\021\276\235\177,>\210q\300<\332\221\257=\\\260\374\275\360\221C=9lc\276\343K\305\275e\232\374\274\020\203$=\264*\032=\200\032o\276xx&=\363,\004>\317\\<\276\004\342\277=z\270\311=\371\310!\276\372\271\033\275\253\315\276\275\007K\210\275\266wq\275\357\262i\275\312\247\241\275 \236(\276\226\343\212=T7\371=\022\361C>\204\345K\275\334\247\325=+{\261\275\330\003F\274\251\200S\276~\3673>*l\252=*\325\203<\214\265\244\275j\203\370<Bv\004\276\321\374\201\275\214j =\252\3413>\221\264H\275i\336\241\275\263\206]\275\010` >4Yb\276\004n_\2765\211_\276\225\255\224=\314\335.\276\273\267c\275\232\231\334\2742\326R\274\353\375i\275\n\372/>N\375\232\275\037&\225\275\347\334F\275S\233q=\214\002\031>\000\230\024\275\010\300C\275\354\321\327\275\020\321h\276+\321s\275&>/>2\254\330\275\3078>\276\324\236\004=\006(\255\275H\331\034>\376\214\271\274.\206\210\275\034.p>\014?)>t\327\004\276c\241\000>(pl>\344\225\366=\325\374\003\276H\302\354=\370\206u=Z\236\022>\336C\326=\270w^\2750\351B<\236\001\222=&H\217=7P\013>\010\t\304<\n9\277=\2122\374=,\363\210=\222\274\214=\t\027\022>\326*\324\275`\335\323\274\037\345/>\200\311l\273~\223\263=A\336\206\275\330\031\'\275{\235\221\275\323\016\022\276\033>E=\300\275/<\004\334\300<\nZ\235=n\264\n\276\212\276\236\275\253\262\345\2752\222k<\351\367\305\275\357G\271\274,X\023>D\2202>\024\372\252\275\310\244S\275\031\202\014>R\241\237=\2563\344=\342o\301=\235\n\035>`\237>=/\025\035\276\207\030(>n\"\370\275/B\000\276\350\216a=\\-\014=Z\330 \276\233:&>q\032\014>\307\256t\275P\3039\275\212\026e>/\212\\\275<\225Y\275\362\274C\276\317\246\'\276:_!\274\216+\373=,\353\322=\234\2103\275\345o\350<\327\2037=1yS;H\213\017>\340\t\017\276\3168I\276@\244<>X\243V\276\252\254\244\274Dt\370\275\350\033\352=\205\374\272<\223\201\'\276\243\202\025>V\0355>\017\360!\275!6N=\304r\227\273N\256\202\275\250\017A=\200\2351\275\316Tt>a\235\341\275\352|\r>\354\037\373=\222\357\005\276\340+\332;p\022V=\010\245y=\264!\033<n\211N\274f\234\373\275\210-9\276\244Ri\273\005u\025\276\260\345\340\275T\344\374=e%I\276P}!\275\250E\004>~96=\212/U\276\026~v\274\034R>\2752%\\>\270w!\275n\nE\274\3377\265\275\227R\207\275\222\310\221=\002\216\246=\214\001}=,\372b\275$]\244=\216h\221\275XQ\372=\232f\022>\277\271\003\2768\014?\274h\222\201\275\236\222*\276\220\320g=C\215\032\276\000\364\030\275H\232X>\261\323\315\275\225\360\277\274\302\307\247\275\\\211x=\2503%\275\244\257K\275\3266\340=\314 #=\305\230\215\275@=\312\273a\017\337\275\256\010\310=}\"\334\275\206*j\275\360>\261<\362\364\"\2762|\r\276\342C\004\2766\252\313=\340\032!\276\314\202\n=N\213\t>\220\307\317\275k\204\201\274\240\010\317=\324\224a=\202B\336<\350\220\264\275\243\227\326<\220\337\373\274\326\223\021>bOS\276hr\327=\300\333\227=x\'3\274\033\035\033>@\324\364\274\030%\223\274\315=\022\2764\255 =\332\215&\2766\023s\275\205b\030>k!3>LSv\275?\224!>\017\232\'>l\034\033\276,fT\275X%E=\000 \021\270\024]5=K\333\361\275\207\347\262\275\231&\037=]\030\347\274\233e\250\275\024:\0309\273\037\251<\350X\000=nW!<\270\364\243=R\332\306=\312\021\000\276\256<\227=\330\0020>\233D\000\276/Z\230\275\300\256Q\276\204\374\333\275Xxr=X\002\363\274\253\317\023\275\005\256?=\217 y\275WiZ\2759\033h\276m\333\357\275rR\203\276\254\037\231=\236&\r\276M\037\217\275\312\347\">\222\362r\274\013\220\324\275\307\265z\275\322\320(>J\020\222\275e8\346\275\010\036)=\035\370\345\275\244b\201>\364\2177\276\333\327\317<\343d \275\362\026\260<1\204\313<c\0000\275,\200\345\275\014Y\000>\347\314\n\275\034\266<\274t\036\005>,f\010\276\222\347\243:s%[=\372\301B>\033\376\351\275\270\0106=\263\352i\275\376s_>a\277\275<\362\037X\2768\327\013\275`\\\253\2740\242V>\366D\010\276\024\311\317=`\037K>|_6;\323\276R\2754\321\310<R\365\014\274v\307t\276\253\237E\276\014\350\255\275#\345\000\276\036N\n>\257\220\377\274\023\027\223\275\021\367\256\275N|M\275\274~n=\272W\244\275\231\261\031>#\032\014>>Y\375= \016F\275?p\033>\344\302q=\240q\206\275\r\214\034>\321\245\021\276\200\025\207\274\360\316\252<\030C\256<d\374G\275\350-\370\274\361\365\301\275&\320r<\341\"S\276T<\337=\376\032\010\276\2342\013=\340=\303\273\350\020\'=\351\325\273\275\266\216\315=\005\"\213>d\200X\276l{\302=\377\325>\275\330\367~=Pe)>\275\207\026>\214T\301\275`\026\314\275\346K\266\275\037\314&>\005 0>Fd\345=\300\271\206=f+\355=p\206G=\304\262\\=^R\357=P\027)\274}<\335\275k\333\030>\300\352\237\2743n\025\275\352_\317=,\251\003\275N\227\300<DV\230\275\330gL<x\217\027\2763lM\275\025\234\217\275\220\307\330<\022\257\355=Z\036d\276\302\316\037>vDk>\312\314\025\276r\261V>\226_h<\007\003L\2758\366f<\263l\252<\325\211\202\276T=a\275.lx\276\205\220\226\274\262\022\021\2769\366\206\275\221\332\004\276H\256G=\024\3201\273U6\211\276\222\202\200>\021hw\276\215F\322\275\337h\267\274\264[\004<\230\307\335\274\221\002C\276\234\333\327; A\342=\204\333r>\206\314Z<\2728z\276Q\233P\276\217`\037\276\017n,\275s0\316\274\250\213y=\2437\016=\033\326n\275\373Z}\272\021\266\201<\214T\001\275\014\005\356\274\202h\376\274\376\325\304=\223\221r=\220\305p=\320\211]\274\375\226\203>\210\255\223=d\305\342<\346\306\236=Z\272+>L\320c>\243\0167\276\322\014\245<\304\034t\275\272\237\303\274V\371#>\005\305\014\276\204\323\034\275T:L=\376\203K>\360\2271\275\220\003\270\275\212\316\251\275\257\271\016=x\325\332=K\370]\276x[\272\275xSf=K\213\210\275@;\200\274\344\177O\275_\'\037>\220\357\223<\350\032\030\275\000\323;\275B1\357=l\374\005=\240\315-< \253g=\033\0252\276\000IJ;;\303*\276\265F\220\275\374\206+=\341T0>s\036|\275&e3>\201\275\206\276\347[\207>>\376\340\275\352\205\345\275\323\3443\276DF\213=\350\223U=\333\\\347\275\257Z\215\272tD\005>\220\250\226:!\255\202\274@\2757<{\024\344\275\236\224\006\276uW\020>\"R\354=\001\253\030>\310F\202\274\260|\004\276\000bt:\355\023\016>\243a$\276\034,==Q^\t>\354\010?\275\001x\214\275\235\265\t\276\275(\212\276f\273\335=\270\237Z\275\004\350\202;\332\247\364=_\013u\276\333\305g\276\025\377a\276\002\204\236\275\300\325\314\275\313\253\021>rD\235=e\323\014\276|I\316=\2402\226<4\221H\276\2350\006>\273\\->\374\342\217=\260\034B=\330t\203\275v\272V>H\006\374<d\342\\\275\r\242\036>\272\246\036\275\007\023+\275\021\313\353\274\\\360\002>\243\215-\276@\221&\275P\234h\276\253\"\220<\227\rF\276;\034O\276\346\302J<\266\236\373\275\213\205\264\274\325\201\177\276\236\363\022\275\010~\322\274\224{\001\2758\255 \276!0\241\275\272\262\331\2755\306\206\276\267\306\033>f\254\034>\2643\273<\332\"\342=\225\306\n>\217\261\027>l\266\330=\210\201\">\250}V<\352\214\310=b\246\206>$\304J=\323\r\215\276\345\034\266\275\010\022\262\274`\317\371\275\207{:\275\274(\n\2751\214\006\276JU\350=\205wF\276\273\236\237=\267\227$\275X\225a>\254*\377=\200\033\252;\254$\036\276\224i\307\2751u\005>\202\035q\275\211\021\002>\320\'z=:\231\250=\002\257\234<\324\027]=\306b\375\275\355\346\002>u\341\n>\240\371\016\274\366+\007\276Jg\315=\304\244&\275\025\363\214\275p\006\030\276\tM\357\275C\314\230\275\360\320\026\274F\377\315\275\022\246\334=\310k\013\275HZ\332<l\203\233=\250\321+\276L\306-=\216F\323=\376.\211\274\351\325\024\274\212p\006>\244\035^\275\266*\317\275;_\264\275\264G\014\276\206}S>\272\236s\275\004BF>\350m3=\251\300\003\276gG\222\275&\312\363=v\\\345=\300\275\373;\232\213\033\276\352\224\027\2762\036\272=\003\271\355\275\\f\315\275\356\002\230=S\365\254\275@\231\310\273\356_\342=x\211\202=(Y\272\275\022w\266=\214\267P=n*\226\275\240\365\371\275\352\334\341=\260`\360<\242\233\343=/\364(>\272\263\260=\335\343\013>`2-\275]\257\004>\022\000\277\274\007\335P\276\026\210\355\275(\273d=@\334\340\274j\320\235\275\225L\204\275J,-\276@\010\027\275\204\246\225=(#\306\274\223\177\304\275\222{\035\276\260\030\276\274\346\226\337=\240\t\003=\270\242\224\275\002.\373=\270x\253=8\334\024\276\320,\277\274c\231\211\275\240\010\221\274\224VM=\270\323\240\274I\300\016><\236\230\275\251\214\354\275@\253Z=\212\036\262=\330\341(\276A\353\310\275\240#\222=\226\036\374=h\267\270\274\335S\313\275\n\334\337=\334\027v\275D\022P=\357\275\010>`\245|=j\224\362=\331[\205\275JY\035\275\025\330\020\2764\202j\275\'\227W\276\316\367\201\275P\2244<\034\025n=L@\320\2757\361I\273\343#\250\275j\203\366=\036\366\230\274H\355\246=\370\215.=\302)\240\274j$\314=\217\322\371\275\201\201\334\275l\273f=\345\271\355\275\277\025\005\276\221h\n\276\320e\262<$Z\r=\224E\337\275\024A\n\275\032D+\276\251(\347\275\014li\275pg\206=J\202\325=\352\352\346=]\313\035\276P4w\274\356\300\354\275J\311\026\276\370\351\207<\2568\226=\000z\365\272\014\235p=\220\253O=\0376\n>\262~\250=Zw\333=J\353-\275\212\370\241\274\326,\365=\300i\234;\n&\267=\246A\360=\352\327\243=\034\242\363\275\037\t\t>\\\375L=\265\260\255\275\366\305\203=fZ\014\274L\334\036\276\216\336\356=p\2450</&\244\275\233\210\227\275t\225\035\275\314\017\224\275\210\340\307\274@\255\302\274\020\343\r\275\014g/\275\037\214\000>D\222f\275\002E\244=\326\302\341=(\034j=S\200%\276@iD\275\006\331\001=D\236\220\275\177}\004\275\221\037L\276\035\320x\276\340_$=mw\265\275p\006S<\303\354\006\276\323\006*\276\331\267\304<P<\010\275(\212\014=8]W=\365]\236\275\377\217\331\275\305\373\006\276y=\007\276;\005[\275\\\231*>\251\315x\276\020n$\276\\\340{\276:\033\r\276\311\\\330<P\304v\276%a\227\275)y\211\275\317\307\334\274\316\212\004>N\265\005<g\240j\276\234\016t>\203\016\200\274\260\335\230\275\235\301\320\275\350\233\033=\032U&\275\326\305\254<\212\004\271\275\361\364\272\275]\275*\276l\316B\275\310Jd=!E\177\276\222\374\342=\376`\253\274\226\2547<\206@\270<jT\370=`O\326;\351\217\204<\322\335\202>\236\3569\276\312s\241\274\244HY\274@T\014>5\370c\276\016\021\014;%\234\373\275p\204\271\273\212V\332\275\214a^=\245\357\264\275\251(\315<\364\232\275\275\267\303\371\275\215\225.\276\217\252d\275\t/(\276\206\350\'\276\215\n\222\275\234/ \2767\334!\276\340G\202=\030_\215\276\313\240a\2758*?>\272\347\020\276\353\205\267\275?s\021>x5\274\274\320\266G<\204\234\305\275\230\376\321< \224\236\275\005#\010>,f!\276^\225\376\275,\367W=.\355\264=3\234!\276\016x\023\276r\201\247=\2654\367\275\036\341\006\275\333\374\007\276\363s\265\275\375l\025\275\027\307\340\275\361\244\"\276t\322\034\276\372\035\'\276\t\330\010>b\016\204>Jt\257=:p\024\276\001\t\224\275\220\341\255=\344\032W>5L\n\276\340[*\274\311\017\030>\340\312\206=\000\363\341<^\214\030\276\023\241\335\275\237\262\356\275\224Y\024\276\206\210\321=\366\370\204=\033-\264\2758Q*=\014Vq=\320\231\002=\362$\333\275\016\'\210\276\204\0304=f5\013=|\233\205=\021I\020\276\010}\206\276W*\205\276\235X\270\275\260\302\226=m\037C\276\251\001.\276\240\332z\276P\270\016>h\034\355=y\032\211\275\276\311;\275\3662\037\276\275\021\372\275\215\"\347\274\213\213\350\275\322m\312<\214\254\217=\342\275*\276\271@<\275k\251\206\2750KC\276\215\022X\276\277\204J\275\320\2305=o\271q\276\356>\243\275\330\031\254\275g\003\202\276:\363\313\275$\212A>\267q+\275\340W%\276\315Lq\273\341\322K\276\224\021\245=\020\013\027\276\3040\227=\220\267*\276%X\013\276\314`\216=\000\376\001=h\3603=Eu\345<0 S<D\225->`\352\311=\316s\355\275\270\234\214=\363\006\276=\2020\332\275v`\013>#\001\035\275\"\025\210\276\362f\367=\2679\360\275\265E\300\275\300\362\243<B3S\275[\032\026>\234\255\005>\310_\305\275\016\312\t>T\354\314=\034\277\267\275j\272U<<S\323=R\332\201=%\242\371\275\024p+>\320\000\021<%\024\016\276\3002X=\264n\202=\024<5<\032l7>L3D\275\220J\"<@p\013\276\343^0\276\264/\323\275\350\024o=\206\216\350\275\377\265\037\2766\000\311=\370\324\352\274\"x\321=\337f\022>\024R\300\275\240y\242<8:\021=`\216n=\263\023 \276\244\024\362\275\370\226\217=\321\022\005>\034j\255=Z\305\r>|an=4r\242\273\363B\325\275pf`<\034XX>\202_p\276\0247\342=\237+7\276\2205\001>$?\351\274L\221\034\276\340\220\177=<Mv=\204m8\275\342\352\300=\026\177\321=\371]\014>\330J\274<A_\014>\3477\251\275}*\006>\340\026\177\274\361>\022>x\300\246<\323\271\032>\2409\247\273\257,\351\275\354\355\037\275\316,\014\276\'5%\275\214o\233\274\342\212$\276\344\365\322;\221]E\276\300\275\313=e\n\257\275]\264\222\275\234>C\276\324\316&\275\334\346k\275\2643\020\276\252\253>\276\256\343*\276\200)\023\276\371\216\215\276\310v\314=\230\312V\274W\010\222<!B\265\275\214\205\343=\007\377\204\276\000S8=\247CM\275\340\361R=h\247\034\276\363\374G\276\035#\313\274b\002\002>G\304[\275\005\365Q\276P\371\034>Bz\031\274\033\023\377\275\24650\274_\346Y\275\274\342\017>\342e\275<\342}I\276d\233\233=\311\331M\276\274\226\214=\231\343n\276\361\255\037\276\312La>\363TU\276\274\331\347=\246\t\246\274\264\330\225\275`#O\276\312i\254\275\374\356\206\2756Z\023\276\007\240R\2753h\007\276B\361\205\275\371\327\212\275Z\225y\276,\314y=\314NF=\262ZG>1\2460\276\260YM>|\275\375\275\3604\326=HX\350;2\270\362=z\351\345<d\240\335\275gU\027\275\305LT=\303-\327\275x&\"\275\216\201n\276o\024\017\275\252\215\254=\022q\255=~\205\347\275\250\301T=\260O\270\275\353\203%>,\025#= \232\270;\210\372\356\274w+\312\275\224\035m\275\203\362\024\276\264p0\275i\244\304\275\315\235\022>\n\t\234=\020\'\317<\217\211\001>\004\332\363\275\032GI>\267\\f\276r\300\335\274p\253\322\274f\256\220=\213\276\305\275C>?\276\303\324\260<\362\321\312\275\300\236\007<\235(\224\275J\352*\274@\364F\276`\032\277=\031B\316<\245~\024>\\\324M=\274\2243\276Y{\014>\200\226?<\200<\244:Q}\311\275\350\367\315<\020\030N=@\311\244;u\021\240\275x\033\217=\374(\344\275Y\323\252\275\212\241\225=\330\362\371\275\327\361B:\312\245\224\275\374K\002\275\020:]=\346\201\036\276#\376\360<\340\365\214\276\264\262;\276l\373\234=\216\241\300=\341g\006>IB\214\275\276z\025>t\0377\275\230\246\200\276\232?G\276\200\255\276<\375\366U\276\r0Y\276B\264\203>\030\260t=\371\033\360=\356\002\271\275\2349F>\312\235\317\275\351&\362\275x\2350\276\304\006*\276\207\035\211\276k\276\303\275N&e>\220oy=D\3601\274k\320M\275\316\304\203>\310\306\020\276\325\006>;\210\360\225=\306Hw;\225\277\351=\005\307\204\276\320\003&=\205\302\273\275\t\274\204\276o)\212\275\213\017\\\275\354\346\233\275\003\362\347=\2331+\273\177\200\372\274\342\236~>@\177\317;a\244F\276$\221r\275\362\033\366=\344\365 >\313\336X\275\204{\\=\366\206Y>\267\214=\276\220\344\330<\362\365\377=\214\022(\275O\226\234=\236\005\327=Hx\271=\252\304\005<\300\3210\275i\322\304<\0200\315;\374@\201>\246\330\036\276\207\037\271<\225\017\027>\264F\\\275\343\202\314\274P\202I\276\254\224\364\274\342)n\275^\375\212>)\225\n\2764<\356\275\316\247\312\275\000\2477\275\360\346\202\275\324qA=*\367\232=\010\311\345\275k\272#>br\351=|\266+\276l\3019\275i\"->\320\265\005<*\026\271=\200_H\274\250g\367<\nV\216=\216\257\037\276\266m\t>\014N\264=\372\262\">+@3>\327\260s\275\'i\211\274=G\014>\360\367!>\272J\232=\343\007\200\274\270\021\356\275\243\252\304<\220\217r>\356\024^\275\004\246\022=*C\311=%a\n\276\322\262\257\2758\233U\275\310\342\230\275-\270\016>\240\327\030\275`Z\020\275\237\276*>V{\253=\36500>\n\371\232=\246/\363\275\254\242t=G\333\214\276\225\266\005>\270<\212\274\226 \214\276\306\203\235=E\017;\276\034\205\257\275Dp]=i|Q\276\361\257S\276\020\311\n\275\177\271\330\275<\320\200\274Lm\212\274r_\332=\250P\227\275\323\323\"\276\361\320\211\275O\233f\276o\200\215>\360/X>mm\277=e\344\201\276\272<$>\276U\341=\232\007\253\275&%\223=X\2215\275\260$\210>\246\277&\276\332\217\034>\315:\214=\377oj\276!\314w\276\010rH=z:\362\275yU\226\275\363g\326<_K\347\274p\034\207=Z\2451<\343jS=\203a\000\276K\036\356\275\326\261\032<\210f\020=\2364\365<\255v\005=\260\272\002=\250&\206\275\'eq=\224N =\230\277\210\274M\301o\276\206\200M\276\334\224*>h\205\237\275\216\374\234=&\006o\276P\337F=\034\317\327\273\200\214i<\306z\022>\021\n\202\276\254\264\353\275\361\037\331=\305\312\002\273\220\232\363=\342HG\276\326\276\202\275\365J\036=<\371h=l2/>\237Z.>\270\022\210<Vl\323=\\\314{\275\250\026b>lK%\276\243\020\240\2750R\025=\355\302\037>\354y\215\275\376d\032\276`\312I<\234\r:=\"\035\367=[<\003>\004\216s=\365f\t>,\314i\275,\230\t\275@\214\253;\310\325\231\275\360@X\275\240\t\317\2748-\021=\273\376M=\357Dp=\204=\366=x\215\342\275s\013\021=\352\004\232=R\251\035\276\270\030t>\276\316\257=G\302.\275`\311\340;\332C\207>>bf>2\321:>\032\345\223\275\324]0\276\030g\037\275\000\\\234\271\327\302\001>\321\356\033\276\376\253\215\275;2\006\276p\013\221\275T\275\316\275\260\007r\274\020\276\353\2747\031\035>\3654\021>\000N$\272\2541O=jV\371=\212\262\'\276Eo3\276\350y\022\275\303z*\276\000\006\275\272H\224@=8\216l=\302\312\357\274\226n\244\274{\244\274=sV\342\275\270\344H\275\342!0\274J1m>\215\\o\276\270\0344=-\220R\276c\036V\276\031\317\227\275d*\025>\337=\201\276\014?\233\275\337\241v\2756\375\031\276\201\257\034\276\001\253\316\275\336\035\266=\270\006p=\032ro\274\221n\000\276\271MU\273\373L7\276\251m\265\275\202\212,\276\374\357j\275)\"\335\274\311\267R\276S\023)\275\000\034\331<4\005\273=\266\340\350\275\013ad\275\374\001\244=\3622\034\2768\303\177=vp\307<\350\375\311\274\363\265H=\260\341h\276\342\262q>\354A\221\275\3205\325=C\304|\275M\253\346<\201\246\265<\360\3067\276\001\335N\276\002 \212\276\350\304\007>\225\306\264\275\247J>\276\240\222\336\273\271N\207\275@[3\274\204\337\253=H\376L\275\236w;\274r\305w\274\227\351R\276E\271\230\275O$~;\364\036D\276\313\2553\276$\355\"=x\020\342\275\006#Y>\265)\377\275\276\375\201:\352\004\346=((\334\275*8\376=\3332\236\275;?\366\275\316\013\236=\335z,\276-]0\276;\021\344\275\2538\362\275~\357\347\275\000\n\307:L\205\t=<\322\001=\232\320\305\275\365m*>\2542!\276\276o\260=\343\2432>\030&\245=b$+<8\025\201>\336\220\002>\340\364\237\275\204\352C\275d\373\207=\230\rp=\204\2141=\253\260\205=\341\366\020\276\232\271O\276\224\363,\276\203\361O=\334\210j\274\037[\035>\272\255\017\276&\207\264=\235\251\013>\034\2543\275\224\023:=`\343/\276,M\200=F\232\210=\336\250\275=F\036\227\275@\336\302\275\332\204\206=_\252\n>1\202,>\364\221\005=\035\003\210\276\\\254\006\276\014\177r>~\320B\273N\243\243=X\227\007\276\360n7\276\324i\213\275\306G\250\275KxH\275J\257\025\276\377\223\310\275\\\213\315=dL4\275~\013\210\276(\232E\275\024eQ\276*\335\272\275\240\327l=\202\005\266\275h\223X\276\204=t\275\217\000\253\275\316\223\332\275a\221\351\275\216j <r#\206=r\005\037>\253\231\006\276\201b\200\276\211F\267\275p\006\230=\3174H\275\374\221\207=\232\214`>ug}\276\223\342 \275\"\332\312\275/M\r\275\2106\004>@[M=\224\236Y\274\304Q(<\330\030!=\204&6>\307\203i\275x\321L<\010\321J\273\367\276n\276\270\256\323=XCv\275\273D\201<\363\217\275\275`\305\026\276>Y\354\275\034\264\313\275P\022\n\276\031\310!>\010\0067\275S\320\006\276\310\243_=\300E\036=\010\3124>H\341k>\373.\361<\340\211\260=\024|\000=\370\354\005>$\237\262\275\246\205\006\276\234\303\003\276\320J|\276\341\345~\276H7\327\275\304NP=8N\303=$\206\315\275A\277\212\275]^x\275\254~\341<\234-\021\2760\377]=\311\220%\276\303{\022>\t\364!\276@`O=gj\022>\350\304\226<\340\257\330;b\271\324=>!\374=r\275\345=*\\\020\276\033\327*>`\305\375;:\025$\276\225z\013\276x \\\275\317h,\275\n\030\025=d\327\017><2\206\275:\000\263\275_\341N\276\254E\343=qU0>\206y\002>\202\013\234=\300\351\221\275\036\237\300<)\372\344< \271\'>8?\261\275\337\2451\276\200\271u=~\034\320=>\261\207=\317*\201\275\240;\360\274H>\347<\260`\216<\255J\"\276\240\330\005\276\200\244\226;\350I\361\275\226\267\310=\204\246\035=\243[(\276\320.Y=\343U0>\020\3111>g\367\312\274PM\275\274\230\373\003=tDs\276\216\200\2409\243\014#\275\017\022\033\276|8\367\275*\237\337=\224\240\217\275\276\006\215>\253\302\025\276\270H\370=\203\374:\276\272\032\264\275t\332a\276h\276\021\275n\327\322\274\004L.\275\210T3\2768>\302;\353\037\204\275\013Q\327\275\334\274\214\275\206N[<K\000\204\275\20316\275\223\027\355=Vmi\274\352\230\230\275j\205*\276(xt>\327We\276\233\337\027\276\250\260(\2766\261&\276\355~\247\274<~,\276\233Xt\275]\260s\272\367\264\260\274\371\231\036;E\220\311\275\0311\212\276\010\2201>i\300 \276\\\202\226=*\000\321\274\314\034/=\370\025m=\270\3058>\032\ne>\266\274\333\275+(Z\2761qw\2768`\034<x\272\034;\250QQ\276\375\244\335\275\024\244\010\271\260V@>,\237\273<S\253\004\275\277\013\007>\244\306F>\"[\260<\221\232\302\275\340\372\366\275k\214\311<\254\313\217=D\300M>H\377X\275\020\272Q=\255jN\276\212h\020\276V\004\360=\200V\017>$\206\376\275\350\356\010\276\"j\213=+l0\276\210\215\342<!>\037>\270\027L\275\034\331\212\275\324H\272\275\005\242\037>0-\034\276\347\346%>\037t\027\276S\333\034>\226!\207\275\220A\202<\300^\220;>\033\223=\360f|=\204\254t\275\014\313\317=\033g\350=h\212\277\275\3750\313\275\364U\206\276!\2420>\244\233/\275\004\332\321;N\214[\276\220\027k=V\252<><Px\275\372\324\314=\271^\025\276\300H\255\273`\222\201\274\350\001=\275\220S#\274\300\317\242\273\226\031\311=\340\r\014<2U\334=Kw\341\275~)0\276\362I\301=|\3654=P\026\344\274\323T\035>;\375\177\276\251\255\032\276 \267\277=p\3506=\257G\206\275>6g\276!\254V\276*\202q\275\233z \276/~R\276K\332\266\275\304c\002\273\202\312\207\275\210\211\256\275O\324}\276\314\2750\275.=\213\276p\245\260\275\222\020\215\276 \222\324=\265\n\203\275\020\232\370=\007`\010\276\270\376\031\276\335\010e\276\347\212$\276\024\234\200\275(\341\376\274\031\257\036\276\236\001\004\276\332\265?>3\204#\276H\261\000=\030\3471=@^\230=\036\010\207\276\034\2542\2767\250\031\275\024\343\210=~G\030\276\026z\252=\347\326O\276\357\235\036\275\344\267\245\275\244\347\270=\357;`\275\326G\244\275Jb\310\275\214LP\276v#\300\274\272\221\337=\220\037\025\276\177?v\275\\\211\n\275\006R\216\275\2404\372=\261B\"\276\037\264]\276\352\240>>x\316\217=\035B\323\274\240\350!\274\360\\\330=\310\327\317\273`\026#\276\265|\036\276j\212.>B\367`\276\213\277\302<V\3504> \242\346=+\200\017\275``\304\275\0240d=\"~\317=\3261\031=\340\374\\=\344OJ\276\377q|\273+\311\217\274y\334\036\276\300\341 =\274\021H=z\204{\275D;\020\275\367\360\014>\256\210\315=g\n\344\275@\266V\274\326/\366=5\264\016\276\262T\224=t\326\002=\263\325\026>@\263g\275\321\236\026>\\\335\010\276\244H\001\275@\023\027\276X\323\301=\245\276\331\275\336\351\005>\2502\010=3\353Y\276X\033\337=\250\314\304\274\250\2734>\223\255$\275\250[\224\275d\242\034\276\002\301->\325\361\331:\304\277R\275o^\031>\200N\270:8\325\244<L\030Q=(@\346\274\364Do=a[ >\000\214l;\361-\000\276\340\314H<p;/\276\310f\213<\260.\010<\014\237\220=.\034\234=\312\"\325=\225\324/\276Pv\026=\341\366\024>\371\036\210\275n\342\021\276<\241&=\246\314\205=\036}\310=\013\312\335\275\370\317\320\275\000\370\013;\374\234+\275\235@\025> \205\322<\254/\321\275\361\004\225\275p\023B=\352\003\305\275\370\001\356\274X2\036\275\ta%\276O\r2>b@\365=\320\270x<5\255\341\275\363o\336\275\000\373\235;`i\014\2763c\332\275\326m\325=pK\352< \365\216=@\231\362\273\032\345\244\275\237\'(>A\331\214\275V\365\361\275&\304*\276\346$\301=8p\217\2745n\001\276\333w&>\002R\265=\334\2225=\276\343\"\276\330\226\272\274\253\307\007\276\240\303u=\340\344\000\275\300)\241\274\332\310\314=@\267^=\375\2130\276\214\226\343\275\350\304\375<\350\354\007=H\307\266<\352T\301=,\201\003\275\303\307\202\275\301G\002>\3210\000>`\362H\275T\241\'\276\036ys\275\263Y\216\275\345\311\030>\000\220\37196C\365=\030\251o=8\377*=\236j\007\276\317r\">8F\206\274\370\251\030\275Tz\003\275\022\177\241=\242\371\340=\207l&>\204\256{=1\212\020\276\203\233!>@ \213\274\200\277\255\274\037C\025\276\340?\325\273Z-\304=e\250\241\275|I*=\340\242y\274\302\023\031\276l\354\367\275\304\360R\275\030\361\200\275\034\362\034\275\324R)\276\310\306\222\274$\215\357\275\363\375\002>@z\002;\316L\266\275\311O4\276~\300\300=\300Lr;d\024\027\275mX\235\275\016\222\230=\366\311\014\276\340[B\275\203\237&>P\313\r<^jT\275L\242\036=\034\232\260\275\010\376\265\274\000\374\306:\270X\224=>-1\276M\277\006>\361\227&>\n\363\231\275\354\352~=\006K\337=$\021\266\275\200\034@<\347\322/>\030\372\030\275\321Iz\276\216\377\025\276\335\322\006>\205\324\177\276\203W]\276\252\022,\276\350\320i=\362\321\032\276%\257?=\314\320\264=L\005\376\275W\354\236\275K\030q=4w\351\275+\243\210\276}X^\275\366\337\350\275d\013\200\276y\177i\276\342\006\021\2750J{=\324\2710>\213\315#\275W\341[\276\374\317:\276\026_\027\276\335\210f\276\204\215\303\275\223[k\2764\022\241<9b\030>\\zU\276LQ\250<\315k/\276\366\331\253=\360\317+=\2700\021=l\373\301<\212\017\035\276@\257\013>M~C\276\332\271\021\276\034\364\n\276G\221v\276\020\206\206=\361\2621\276t6b\276\034\373,\275\377E\020\275\320\324\273\273\372\320 >\034i\030\276pDi\276\2549\322=5\300\253<m\306\t\276x\350\322<\210{\310\273\017\354\204<.?\235\275\006x\321\275\000\224J\273-\033\200<\204\300\264=\324\177&\275\242\002\267<\272\030W>R\223\206=\034w!\276l\246\n\276t\367\330=\230\207\277\274^&\315\2750x\227\275\020\220\230\274\313\343\000=\013\231\253\275sP\375\275\006\323\226\275\316!\353\275\037\3762>\331\255(>\203\301\001\276K\t$>\220\031=\274y0\307\275@\350s\273\033v\037>@\301\205\273 =o=r\353[\275_\271\230\275>iX\275\2469\260=\022\001\237=\326\n3\276\222t{\275\357\216\242\275M\215\203\276\352\245\212>\r)&\276\270\2405>p\233\226\272$\325a\276W1\205\274Z\030\002\276\214\265\276=\265\341g\276\332E\264\275\344/\256\274\367\016\274\275\326Y]>D\215x\275 \206\r\275F-\302\275er\234\275hf\266<\300\020\200\274\300\307\025<\014T\252\275\n\212\336=\212\212\215=\270j\361<\000\002\206;\020\241\204\274\377G\014>\036\211\233\275\206\361\202=\270\265\210<\254\254\216=c\322\032>\223\315\216\275h\367o\275\203(\037>2\237\024\276[\347\240\275\266(\211= \215\315\274\200\347v;\240\306\237;1\242\234\275\006\220\313=\3407\251;\327S\336\275W!\214\275\373:.>\216V\321=\250\277\241\274\025d\001>\260Ae=\330\265\344\274\360\376\'\2743O\004>p\235&=\310\266\020=\365O\036\276\017,\'>\214\341\250\275 \235J<\030W\244<\200\227\326\275\302\3574\276\243\337*\276\317\363\031>\240K\323<\370\257,=@\325\243<\247\323->\366\215\030\276\354oQ\275\330H\221=\334\224\204\275\010z\240\274\221\000*>@\020<=B\177\265=B\210\274\275\270\0008=\010+v\275\243\231\203\275ze\022\276\364\246\000\275\340s\352\273s\215\201\275)\252\017\276\034\242\036=\036C\321=0\275\344<`5\315;Q\\%\276\255\272(>K\374\024>9\257\334\275\232\276\376=\254c\277\275\355\005,> \213\311\273\336\304\353\275f&%\276\274PL=c\310\005>h\315(\276Fz\352\275\360J$\275\224\037>=\001s.>^\335\354\275B\n\322=\000x\025\271\244\340\006=\350\262]\275\210\320\'=\303>\243\2756*\345=)\332\037>\360@@<\0341\304\275T\261\017\275\270F\216<xH\221=\373\231\032>\004\340\005\276\037\267\322\275:\235\247=+y\013>\321;\360\275\231H\t\276\001\261\037\276.J\t\276\220\026\'\275\020<\026\274\010\357\010\275\330\3213=\200\367\363;\232q\367=t\035A\275hR[=`!=\275\362U\307=\227\204\036>u\025,\276\246-\354\275E\031\215\275\020\214 <\226%\276=\362^\316=\220D}<\3559\242\275\361E\004\276\220\025\205<\216\356\272=\2522\241\275\030N\267\274L\304\211=`sD\274H\024\003\275\214OE\275\200\002\376<\020N\021=5\340/\276\210&\216< \250\023\276\330\347O\275\r\256\n>w\260\261\275\1776!\276x\357k\275\213\246\t>\030\341\r\276Z\034\250\275@\255\032;e\217\003\276&\005\007\276\322\025\371=\0042\021\276\177\204\301\275\313\024\360\275\364P\003\275`\334\241\274\330\235\017=\211|-\276\000]\'<\201\261/\276\001\342\340\275\356\250\213\275O\213\003\276fL\241=8\013\025\275\020Q\244\274\240\256D<\234um=\n\361\370=t\2118=\355(.>\003z&\276*\255\r\276\334\341\206=C6!>V\322\307=\216\335\r\276P\261\351<\"\263u\2756\023\232=\351\347\025\2762\323\210\275<\030\n\276D\244L=\333\3053>\227Q\024\276\255P\031>\251\250\256\275a\251\001>\024\252$\275~\237\242=\3009\227\273T\0243\276\205\370.\276\341\357\266\275M\221\"\276\337\247\240\275`\334\261\274\371)\005>\000\321\037<\177\3443>\020\236,\276\361D-\276.\210\307=@\347Y=\270qE\2750\372\024\274\326?\260=@U\215\274#\213\256\275\235\016\030>\273>\005\276\2145*=\372`\256=\001\336*>\306\235\302=Rj\342=\231`\335\275\np\227=\370\331\201\274\335\273\014>\203\021\003>\203&\016>o\026\027>\002]\337\275\326\200\270=m`\n>\307\025\017\276\210\236#\275\346^\327=\314\374\033\275\252`\335=@\3740\274s\3160>\204./\275\376\364\374\275\023\314!>*\210\260\275\370\255\026\276\026/\340=u\3763\276\\<d=@\224\304\274y\222\320\275\232\226f\275\360C*\276\222\030\332=\221\000\027\276\004\230\027\275 \370\355\273\251\n\t>`\346\032<Zi\220=\276\201\377=\272\\\314=\320\032D\275Pm\017=6\225\021\276\331T\245\275c\025\036>6\034\027\276\207\260\206\276\256\256(\2762\354\274=?\027\177\275\362\211\'\276\240\267P=\361\3063\276\220H]=*O@\276\366\331U>Z\325\306=T\246B\276\254;\037>\244\r\'\275\306=\371\275\200\250\221=cjF\275\336e\002>;^\t\275\030ma=\354\325\203=~pc>8\313\262\275\\+\031\276r\342|\276\222!\351<\206\316=\274\346|\225=\305#\211\276\220VM\276t\0316>n\240\007\276\367\021B\276\004AI\276\212\277\020>\210\367\375\275k\3208\275\2103 =\344lk\276R\031n>(\327;=\260\255\205\276\2360I\2767\243\003\276\202f\212\275\3526\306\275G\201\177\276(\n\364=\350>\215\275\301{\275=\222\211T>J\\i\275(?1=\222\373\274\274\331\212\242<v\234\323=\234Y^\276j\"\275=K\270C\276O\004\353\275f\212b>`L\'\274L\351\r\276\006\227D\274pu\310\275\212?A=\226\316\354\275\036\024\227\275<\376N>Z\007K\274\260\247\210\275\000\242\276\273\324\353\032<P\341L\274\000\342p;\007\264\315=\330\305\335\274\260.\341=\266\234\233=)\320\033\276\000\254J\271\240\274O<\310\251\326\274q\\\201\275\250&\200\274H\252\267\274 \356J=\227\2543\276E\246\005>\311\377\">\323o\225\275\274\026\213=\244ea=\000t\017\272\364\005\335\275\311\330\010>.\276\242\275\372\235)>3Q\031\275dJ\331\275zze\274\032/\n>R\035\316\275\003\010\211\276\256e\304\275\021\217\242\275\345QQ\276\027\371\030>\220<\232;\003\371\"=l\262\244\275LJ\343=\332\321`\275\345\204(>\256y\231=\240\244\032<\270!\360\275-8\027>Xg9=\0300\221=\240\210d<`XP<sh\'\2767P\031\276\000\024^;\355|\341\275\3440\014=3\235\006>A\311\220\275j\t\233=\\\3769>\365\360\036\276\270+\323\2744\235\273<h=\036\276\020\005\203\276\246\255\340\275\203qm\276\3025\022\276_T\'\275\nWU> \323\034>\254\332\251\273@b\254=\363\376\373\275/\001e\276\200\213p=\340o\375\274\270\366\212=\312\336#<\330fp=\006Y\254=\324\324\210\2768\036G=^\320\346\275\203L\005\276 +\251\275\276.\253\274\034\217\353\275v\220P>E\232\223<\024\3133\273O\374\r=0\255~=(\2729=GO-\2759\230<\276LP:>@\262\203\276u\344K\276Rx\026\276\240\207\232:S&\204\275\270f0=\177zR\275\333\360\336<nOo<\031\204\003\275@\201\257=A\347=\276\030\365q=y\007\257\275D\277\002>9\314Q\276\027\307\036\275\274]1\276\270\033I>\022\233\027\276\264*3\276`a\266\275:\250d>sX\232<zl\305\275ky\243<@K\315=\313,\247=y\2005\2766\2725>T\243d>\204\203/=8\030m=<\203\204>$\013\020\276\214[\177>\333\200O\276\0361S\2768x\345\275\020 \356\275\300\330\240\275\354(\203\275p2z\274\270%)=\223\233\002>`\3600\275\034\273\020=\352\212\002\276\200\316R\273\027\256\034\2764E#\276\361\0340\276H\353\354<\341\322\226\275r\004\300=\200\321];\276~\266=\022\0039\275\215\255\312\275o\226\305\275\304>\237\275`;S>\353\003\274\275p\036\202\274\252h\n>jv\316=\300\201\325\273\235J\372\274\\\320\350=\322\366\342\274H\311\365=\224\272Q=\341\306\037>\207\257\205\275\215]\002>\016\254\231=\370\354\250\2748\031\301<\302X\306=\270G\212<\240\246\330<\321\351+\2762F\324\275(\264A\275Q\017\025\276~H\253=\260\022\247<\302\031\313=\373\276\001\276@aC;\360\327e\276j\234N\276Q\330+\276\265\273\332\272\246\262\374\275\260\226\217<8\313$\2760\261\225=\273C$> O%\276\276Rf>r\021\234\274 \207%\274\334\260\341=\306\213\030\276X\312\376\274 \211\016=n\035s\276\340$2\276H\206\177\275Y\"/>\307V|\276\262\337#\276\200\351\213\276\357\342\323\275\004P\212\276\346\251\367\275(\204\342\273\034\375\024\275<\314U=`#\026\276d\030\n\276\240\325\261<j\235O\276>.\300=P\024\314<\026\212\374=\265[#\276\337\231\000\2758K\023=\341\344\'\276J8\212\276r.A\274cd\316\275\224\2550\276H^->\274?s>m2Z>\022D\373\275\301!\025\276ZnS\276\214],\275\314\263\223=1U\336\275x\251\206=I\203\345<\222\252\227</s\252\274\200\330\203\276\247\215\"\276~\352\255\275\351\035V>\267\314\020\276\342\350\313=\363\277!\275$[H\276\300W\274;\021K\206\276\310]\021\275\320\223\222\275\274\2524\275\227B`=\223\203\030\276\226%\356\274\304sd>\240\230\216\275d\0142\276\364\037R\276\340\017\220\273\200\014s\273\360\024\004\274\220R.=\253Y\024>%F\016>\3529\371\275\335\034\357\275\203\023\017\276\004\263\037\275\260\207q<\360\266&=\273;\037>\001/\326\275\224\315\000\275\212\347\362=&.\236=H>r>\2706K\275d\243\203>[\005\005>\237\345 =\340N\332\274\370W\010=\233k\270=\3006\275\274\202\005\215\275P\260\274<\350\315\n>\223` >(\256\207>\306\377b>\251\215\034>j\027\236=\002&\365=3\340.>\270\304\215=4(s\2757\\\000>\370\n\031=MY\006>0\2059\275\271a3\276D\327:=R\316\036\276\306\021\007\276xx\337\2740$:\275O@\n\276\030\304\003=\221\340\201>\013<\010\276s\201\024>\311\n\345\275\200N\177=\005\205i\276\024O\336=0:\326=%\313\311\275\377\316.\275\017\364\206>\271l\031=g\224 \275GK|\273\360a\004=v0\307<\313\217\200\275\026\264\022=:\375\202\276\334$\032>\367K8\276\363\251/\275\000\t\300\275\332&\306\275\336\\\222<\216\207T<8w\342\275\016\221\006<\356\261\014>\004r?<\034P\215<*`\321\275\314\246\250\275\353<\372\275\241\3021\276\215L\231\275\237\362\261\275\346\252\223\275\023\312\264\275\257\242\235\274\r\ne\276\001x\313<p\254\231=\257\334{\275\332I2\276ZW\237=yFq\276\003\341\256\275\276\365\333\275*\317\331=\347\273\023\275\032;\367\275\204\202\265\275G\207\031\276\257\304\264\275\000\237\022=*?1>c\217B\276\004\327\030\274o+\200\275\217\233\037>n6X>\017\245\007=\244IV>\014\2760\276t0\225\273L\220\035\276\027\243x=Y\025\261=Fw\210\276\t\373\230\275\372a\372=\240\237\020=\006\325`>\240\366\032=\025\335$\2768\001\262<\303\000h\276b\311\225\275\265\035\356\275B\371\337=\260\316\005=\030\004\370<\353\262\327\275fz\332=\304\037^=L\343=\275 \207s\274\2119\262\275\006\371\344=\030\211\241<\214Hp\275D\025\007\276\022\277\224\275\260\232\001<L:]\275\241o\360\275\335\375s:^\t\203>\177\000\374=\n\230\331=o \003\275\010\004V=\033\\\033\276x\332\031>\333Z\254\275TX\266=\014B\212=\263Q\006>\252\301\031\276\240\373\314<\244\256\300\275\20404\275T\362\025\276\256\233\357\275\245y,>l\217+=h\320\n\275\353z\307\275\321\364\353\275\273\267&>\000[\217\272\366\2344\276w\350\">K\201\014>\200\177)\273-&\017\276\350\\#=B^2>S\302=\276>\3755\276h\274}\274\224$\003;\rk\264<k\357\233<\206\231\277\275?\376%>\233\277\202\275\210\007x\274Nf\264\275\'\202\033\275B\323\361<h\037[=b \323\275c0\033\275\242\305\021\276}\250\246\275` \023>{J\255\274[\222.\276?\014\036\275k\325e\275\351x \276c\376V\276X6+\276?5\365\275\204\372K>\020\345\216=\235\340>\276S\216\032\275~\354M>\373K\206\276\320\200(=\330\211\202=$b\345\273\356\314\033\276Dw\202\276]\344\210\275\034\245E\276\020\020\300\2735}6\276\031\342D\276D\311`\276\n\251\262=\347\326:\275\314\010Y>RV?>\356\340\343\275n\212\254\275T[\027>\200\276D\275\\\323\231=\235\201p\276\320\342h\276/\277\357=\r\2378\276\360\022?=\032\363\320\275\026\0379>\254\241e\275~\276\214\275\013@D=W5\352\2759]\"\2765\322b\276\354\325\357=u\257\205>ZyS\276P\220\204\276X\tk>]\236\340\275\346\356\313=\023^\221\275\310K\"=.\357c\276K\325\207\275\233^\236\275\024{0\275\300& \274\000\356l\274\3733$>\252\234\242=\332\260\357=\346\253\346=\311R\211\275\2217\031\276H]\333<;7\034>\220\234\324<\345\r\005>L\3129\275\230\253\373\275\244\' \276&\3220>\264\266X\276|H\271=\2768_\275~\325\271\274\271\024\312\2751\024\355\275\264`2>\370Q\344\274\320\277\n\276\257&g\275\014\353!>f\250M\276FC3>\0048*=f\327\024\276\350\200\272<\026\341\260=\336\261\226=\256\215\204=\3354\010>\200\224\"\274\250@\370\275\002\215\376=\014S==\310\340\310\275\370G\"\276\014~\006\276qU\345\275\020T\310\274#\350\'\276\026r\210\276\321\003\317\275\304\261x\275L\3150\276\237\305\321\275\240;\001=8z9=wF\344\275s\243\256\275&\215^\276\000up\274\373Bj\275\316u\027>\275\266\202=[b*\276\261\367\032=p\315.=\253\241\272\274\241\006\350\275\212\213\306=\277\274A\276\220\026_>\213\325\371\275x\003t=\251\342\353<8\333K=\326\351\003\276#\253\004\276#\217\215\275$\205\205=s\260&=K@\035\276\236\244a\271$\335\325</\306x=\3534\240\274\262\007\265\274X\243\t\276%W\206\276:E\234\275\250\316^\276H\325t<R3j\276\217\205\010\276\354]\021\274o_b\276\321>\320\275\034\007T<\350\003%\276\226\023\002>\"x\206>\363\252\251:\000\351\231\275;\005(>\035\203\307\274)b\016\276\266#\001\276\273\271\003\275\270\376{>F_\257\275\274\010\216=\234\232\017=\335\364\221\275.\322\006\276\257\315\037=\266N\203>\266Dh<\277\274\253=(\210\260\274\276Ny<{\225\202>\377\201Y\276\371\'Y\276|\t>>\371\013\272\275\206\315\247\275\363\375\200\276l\026\231=\022\226<\276\224~k\276\237\266*>>\236\306=\330u\373<\240\254\263\273\364S7\275<\2631=\2103g=\220\201H<\255\240\014> ]Q<\243(\023>\224\356\371\275\264[\312\275@\020\321\273\317\217\013>\370\242\370\275W[\215\275\026]&\274\354\024<\2768\020\211>\232|w=\376\333\360=\200\"\362:\330M1=\177\352;\276\000\233\\\274*\213\327=\303\336\203\276o\211\303\275\250\237k\276\315\345\365\274~\352\315=Za\277\275\245\317\230\275\264\2174\276\236\357\273=+\244 \276\240S\304\275\210\211\035\275]\371)\276\242\361\227\275L\352K\275\335\256)>.\241\250=\252\310\321=\376q\304=\\\275\331\275\224\327(\275S\240 \276\035\0002\276\326\215>>\374\356\222\274Yj\205\275\254e\317<x\376y\276\2272\026\276@\302\005>\303\275\246\274V\021\225\275\211;9\276!5\035>\254\376\\\274\030\317\250\275\304\342\240=\270\014f=\020Z\215\2738eS=\244Bg=G\233z\273\233u\t=Z<\310\275,V\217\273@9e=\2043b\276\353\370W\276/\307\357\275~B*\276E\0139\276K\370c\273O .\276\363\241\n\275\350\352k=\247{\024=AD+\276\347G\320\275\265\005\343\2757\321\177\275F\327C>\233_\017\276H\244\034\276x\304\235=\204\'\376\273\010\327\205\276o\\\316\275\007\rW\275r\365k>A?\203\275V\271O\275\304!K>4\306\300\275<Z[\276\013\010\200\275\326u\014=\214\025m\276jZ\216\275\220O(\274\357I\251= \352\231\275\\\227\207=\305\212 \276\356\330\314\275\352 \273=\310\3354>\243L.\273\202\333\346\275\306o;>;j\023\275`^d\275\344\256\327<\027P\370\275\t\272n\276\031\336\362\274\242\264\317=\214Sv>\210\036\265;\200\024?=\303\263p\276x\276`=\273\017\255\275\370B\024=\200<\013;\270\025\344\275\\\375n=d\233B=D\216j=\215\265\014>\217s >\220\227\223=~\371\323=\373\0063\276w\020\027>@\231<=J\367$\276hZ\265\274\240p\201\274\216\237\200\275\200\003\036\276\304\005 \276\322rK>J\265\235<\342\241\303=\027\022X\275\013\005M\2750T\207\2750N\331=K\224>\276\300\325<>\027\"\257\271\315\266\027={\220\263\274\2059\036>*=\241=\201\212\"\276 \033G=\244\335\021=\260,\367\275X7\027\276\234+\242\275q\343\005>X\004\301<>\027\350=\000M\354\273\032/\323=3p\023\276C\037\210\275(>A=\030\300\204=\314v\002\276\330h\326=\037\'x\275-O\006\276W\312L\275\366<6\276\223\321C\276\000\315\343=\004/\360\274\235\353\010>\346\324\001\276\354\357\n<m\230\230<IH\354<S{R\276\211\005\270\275\243\032d\276PL\217\274\377\374\334\274\257\320\311\275<\306\314\275\035Sy\276\327j\016\276JZa\276\234?\355\273\226T?\276\213\232\352<\237\346\203\275\360\\l=\202Cw=T\204u=\000\357\234=\022\373\021\276\365\006r>\353\344;\276v\267F\276\207o\353\275r\302\203\276L\227\315=\320\232~=\241X\205\276\300/d\276\214\027*\276\346e/\276\376Hi\276\273Wr\275y[(=\237\350n\275\310\301\213<\264\312_>n8\224=\037\207\212\276:&\037>0\273\264=t(\211=\370\272\n=\365`\256\275\314\304>>\267i\307\275\240?V= \342<\275,\346-\275\016\343M\274v}L\275\322\210+>MH\001\276\337\323\336=D6\210\276\021_\n\272\334o\\\275\217D\313\274g\216\026\276\036/\023>p\267\001\276\247o\314=1\317+\276\360;S<\355\227+\276\375&\007\276\354\216\035=\230~\310\274n\211\257\275(\336\353\2744\317\261\275&\2742\276\277\003\341\275\276I\342=J\r\243=\200\0021=\321\365\253\275\312@\265\275N\327\256=\260\366m\274\231Z \276\3228\322=\234\223\006\275|#\013>\224i\340;\362!\332\2756\004\221=E`\304=\361\326\233\275\220\225\340\275\320c\250=P_\367\275\276\257R>\007\306\013\276PK\356;\333QM\276\242\377*>(\300\235\275\217\1774\276\2000\243<RO\230=\360\330 \274\213\251&>\375\337\037>\343(\315\275b\334\332=\277y\002\276\255\372\030>\261\324\013>\250\031x=f\357\032\276\334u\r\275\220o\025\274\346\322\270=\227\375\211\274\320\350)\276\360s\255\273K\362\212\276n\364\231=@[\231\273P\336?\276\034\006\257\275@>,<+\267\305\275>\"\303\275[\301\023\276,\326L<pBV\275R\007b\276\233W6=$h\020\276\201T\330<m\352\316\275\360\374+\276R\213+\276\340f\214>\233\274\206\275\200\225\320\2746\302\201\276\307M\365\275\346OJ\276\327\021%\275\033Es\276\317\231\325\2756\331:>\032\234\331\275\023z\242<\355\375\347\275\0345W\275%\317\200\276a\316c\276\233@\367<OK\351\275\304\322S>\250\tx=j\014\010\276\006Q\204>X\270f\276V\213x\276\207\274\016\275\357YU\275x\2136\276\210\333}\274\272\020\006>\264\236\200>\344\351r\275YB\331\275(\267\003>\212Q\233\275/:\313=\304(\000\273\325\030!\276jC=>\002|\213\276\274\034\214=)\374\246\275\241\352\227\275~\222\214=(\316@>\317\016[=\275\227\010;\330\017\240=\254\017\211=\002\232\t>z\352c\275\020\t\300\274H\030\t\275\220x\311\275$\235I\275\2142\023=\222\206\215\276\375<}\276\277\227\342\275\210Vg=dmP\275\033%\031\276\006\026\253=\242\355\347\275\020\002<\2753d\314\275\300\375\311\274\261L.>E\230->\323\210-\276M\031\006>\200Gg\273\375\302\">\016&\356=U|\252\2750h\177\2748\226&\276\244\360\356=\333R\272\275\303\265\376=\246\272\203=\336\356E>\273\n\023\276D\375\221\275\264\277\342\275F\372\264=,s-=\002\344\230= K\021=\200\317\230=\333h\020\276\235\372\343= \374h<\317\212\020\276\255}->o\257.\276\"(\233=5\243#>\246f\315\275\214%\206=\200w\377\274f\354\206\275\342\216\357\275\250\231\020\276`\203:\274\277g1\276\302\250\234=\2009\260\274t\024\375<r\206\363=\025\264\325=\277\277|\275\240\240\207\274o\315\267\274\340\\\350\273\320`\353\274\025 \023\276\300\242u\275P\303B\274\245\277\032\276\254;H>\n\263V>C\255D\276R/\201>^>S\276%\326A\276\037\341\003\275|\273#=\002\177\023\276\033K\210>\364\373\303;\212\332\256\275\003}\302\275\024\035\333\274\020\314\263\275\2326h\276\343G^\2760i\221=Z\376\262\275\224\367$\276\010\323R\276\214\231\252\275\241L\200>k\260k\276\251\333\027\276TH\201=\233\354G\275\377\235\270\275\266p\035\276\276R\271\275@\022\233=\206b.\276|\212:\276G\261z\276\234\\9\274\302b\357=\300 ,<\337b\207>l\221h>\303r2>MT\233\275\340\000J\275 S\033>\023#i=R#l\276\273\\\221\275~\361\346=\377\214\016\276D4\355;p\316\001\276\244\356\020\275\010Cz=$\346~\275\332\275\233\275\005a\260=\330n\005=\370\263\200\2760+\366=n?\002>\004-^=\204\241\202\276a\235\257\275\210\377\242\274\212\357\303\275T\331%\274\370\032`=hh\026\276(d\341\274\244\352\366\275,\016a\275T\251.=\031\027\005>+w\213\275\022E\364=\000P\3779\322D\246=\343\030\332\275\030\306\022\276 